[PAD
[UNK]
[CLS]
[SEP]
[MASK]





!
"
#
$
%
&
'
(
)
*
+
,
-
.
/
0
1
2
3
4
5
6
7
8
9
:
;
=
>
?
@
A
B
C
D
E
F
G
H
I
J
K
L
M
N
O
P
Q
R
S
T
U
V
W
X
Y
Z
[
\
]
^
_
`
a
b
c
d
e
f
g
h
i
j
k
l
m
n
o
p
q
r
s
t
u
v
w
x
y
z
{
|
}
~


£
¤
§
¨
©
«
¬
­
®
°
±
²
³
´
µ
·
¸
¹
º
»
¼
½
¾
Á
Ä
Å
Æ
Ç
È
É
Í
Î
Ñ
Ó
Õ
Ö
×
Ø
Ú
Ü
Þ
ß
à
á
â
ã
ä
å
æ
ç
è
é
ê
ë
í
î
ï
ð
ñ
ó
ô
õ
ö
÷
ø
ú
û
ü
ý
Ā
ā
Ą
ć
Č
č
Ē
ē
Ė
ė
ę
Ğ
ğ
Ģ
ģ
Ī
ī
İ
ı
ĳ
Ķ
ķ
Ļ
ļ
Ł
ł
ń
Ņ
ņ
Ō
ō
ő
Œ
œ
ŕ
Ŗ
ŗ
ř
ś
Ş
ş
Š
š
Ū
ū
ű
Ų
ų
ź
ż
Ž
ž
ȃ
˚
˛
́
̄
̧
Κ
Π
Ω
ά
α
β
γ
ε
ζ
η
ι
κ
λ
μ
ν
ο
π
ρ
ς
σ
υ
χ
ω
ό
ύ
Ё
І
А
Б
В
Г
Д
Е
Ж
З
И
Й
К
Л
М
Н
О
П
Р
С
Т
У
Ф
Х
Ц
Ч
Ш
Щ
Ы
Э
Ю
Я
а
б
в
г
д
е
ж
з
и
й
к
л
м
н
о
п
р
с
т
у
ф
х
ц
ч
ш
щ
ъ
ы
ь
э
ю
я
ё
і
ї
न
ल
ि
ू
​
‑
–
—
―
‘
’
‚
“
”
„
†
•
…
‰
′
″
‼
⁰
€
℃
№
™
⅓
←
→
↓
↔
∂
−
∗
∞
≈
≠
≥
⊂
⌘
■
▪
▶
►
●
☺
♡
♥
❤
人
份
你
公
力
卐
司
吃
囧
國
子
宏
島
広
愛
慢
有
柔
肛
股
自
車
道
達
门
限
際
電




ﬁ
﻿
！
￫
�
##t
##ā
##š
##a
##n
##s
##c
##ī
##m
##r
##e
##d
##z
##j
##o
##b
##ē
##l
##g
##i
##p
##ģ
##u
##k
##ņ
##č
##v
##1
##2
##h
##ķ
##w
##ļ
##ū
##O
##Y
##5
##3
##4
##6
##f
##y
##x
##L
##A
##C
##ž
##T
##Z
##M
##N
##Ī
##G
##I
##V
##0
##H
##B
##D
##q
##P
##8
##K
##Ā
##E
##S
##о
##с
##и
##е
##н
##ы
##R
##С
##F
##J
##Š
##×
##у
##т
##б
##к
##в
##р
##а
##ч
##Q
##U
##м
##Ū
##9
##ø
##ç
##7
##й
##̄
##з
##л
##д
##ь
##х
##X
##В
##Н
##ŗ
##Ē
##ä
##Ņ
##п
##ō
##ж
##¬
##­
##°
##щ
##Ļ
##ц
##W
##ю
##Ž
##±
##Л
##О
##Г
##ш
##ð
##И
##﻿
##ö
##Ģ
##я
##г
##é
##ф
##å
##²
##Ķ
##õ
##ô
##™
##ü
##ş
##Č
##
##ı
##€
##ё
##í
##´
##˚
##ź
##û
##Ω
##â
##ε
##ρ
##α
##μ
##ι
##κ
##ό
##ς
##ê
##á
##º
##ó
##ė
##à
##è
##ë
##ğ
##ú
##ų
##
##®
##³
##Ü
##İ
##ł
##К
##П
##Е
##Д
##Ц
##Я
##Ğ
##→
##ñ
##⊂
##̧
##
##Á
##У
##Й
##э
##達
##國
##際
##電
##子
##股
##份
##有
##限
##公
##司
##Ą
##►
##ã
##γ
##ο
##ά
##​
##
##А
##З
##́
##Р
##Ы
##Б
##М
##î
##É
##ś
##ę
##ζ
##ν
##η
##©
##Ч
##ύ
##υ
##σ
##Т
##力
##車
##ő
##Х
##ß
##Ė
##¹
##Э
##Ş
##ъ
##ý
##道
##ȃ
##∂
##Í
##ĳ
##
##Ö
##˛
##島
##Ю
##慢
##吃
##ř
##Ф
##Ш
##ć
##�
##≠
##ि
##न
##ू
##λ
##π
##÷
##æ
##Å
##Ç
##¨
##і
##ű
##⁰
##Ä
##Ñ
##½
##ї
##ż
##Ŗ
##ń
##卐
##œ
##门
##£
##ï
##ŕ
##
##ie
##as
##ai
##ar
##an
##is
##au
##at
##st
un
##am
##ot
##es
##um
##ij
##in
##ik
##al
ne
##iem
##ad
##ās
no
ar
##er
##āk
##us
##ien
ir
##dz
##ēj
##ur
##ār
##ād
##ām
##āj
##en
##il
##tu
##ies
##īb
##et
##av
##iņ
iz
##ak
##īt
##os
uz
at
##āt
##īg
##ei
##ēr
##on
##ēt
par
##ir
##aj
ka
##om
##šan
##iet
##or
##iek
pr
##ek
##it
##oj
pie
ap
##el
##āl
pa
##ija
##ēl
##ab
vai
##tr
##em
kā
lai
arī
##iz
vis
##īj
jau
##isk
##ol
##ijas
kur
##īv
vien
##āc
##ais
kas
tik
pār
##od
##ēm
ie
var
##ums
sk
##im
##ūt
##ši
man
es
viņ
##ības
##ēc
to
##pr
##umu
##īdz
##ul
bet
ko
##ti
##az
tā
##dr
##ev
sav
##eik
pat
st
gad
##arb
##ts
##iel
dz
##ūs
gr
##ag
in
re
##un
##ok
##iju
##šu
bija
##sk
##iec
sp
##rī
##ta
##og
vēl
nav
##audz
##āv
au
##ajā
##ēs
##ību
##ēk
laik
##ej
##oš
##īgi
ies
##aļ
gan
kād
##šanas
##ec
tas
pas
##ināt
līdz
##id
##īm
##irm
##uma
##akst
##pēj
##ap
##atv
##ān
##eiz
lab
aiz
kr
##ic
darb
jo
##rau
##ams
##ob
##āju
##ārt
##mu
##aut
##ter
not
nek
##oti
liel
##umā
##ru
pēc
##ild
vair
##až
##iv
tad
##īk
##aid
pl
tikai
##alst
##eļ
##ez
##ed
##eid
nev
tr
Latv
##ant
##ēja
##ilv
pirm
kl
kon
##ep
##op
##ētu
##ināj
nep
##īn
tād
##kt
tur
##ain
##ijā
##ēd
##usi
sa
##ilvēk
jaun
maz
##īs
daudz
##oc
##ast
##ald
cit
##ent
##gr
##āp
izm
##ers
##oties
##ist
##lē
##ieg
liet
Un
cilvēk
##ib
att
##ība
ja
##ūr
##aud
##rād
##niek
##šanu
pal
dzīv
##ņem
dien
##ina
##dien
##vēr
kom
##skat
iespēj
tie
##pa
##ēju
##00
vairāk
pil
kad
sv
##est
sāk
##iekš
##uk
##šķ
##ūtu
gal
ļoti
inter
##aks
##ču
##lik
##ībā
##iāl
##kl
gar
##ļu
##orm
##ēn
šo
paš
##umi
##auk
##šana
##iev
##eic
##kr
##ekl
##gu
izv
nes
skai
viet
##ied
##ērn
daž
kaut
##oz
##īc
ier
jā
neb
atb
##ūk
##eb
##ācijas
būs
##īr
##iņu
##ens
##ajiem
##ion
##ac
veid
nos
##umiem
##iski
##ip
dom
##āja
savu
##edz
##ņēm
##inā
pam
lik
Es
atr
tiek
##ult
tu
kop
rakst
##iez
min
##īst
ned
##sm
te
##lu
##atu
##aču
aug
##umus
##ut
izd
##omēr
aut
##ier
bērn
##sp
Latvijas
##īgs
##ņu
##āks
##ma
##eikt
pied
pav
bez
nod
##ieš
##ēļ
##īja
valst
br
##uš
nu
vid
div
##mas
##itu
mūs
##ub
##li
##iņa
vēr
tās
sm
Bet
vec
##adz
##akar
pus
iet
kat
dr
str
Ja
##šanās
laikā
viņa
##ež
##īga
##and
##ogr
iek
fil
kar
##ājas
##form
sas
##gan
##īz
piem
##ekt
##āst
šķ
##up
##iedr
izmant
##nes
tam
īpa
##istr
##atav
viņš
tel
skr
sar
otr
būt
##itāt
Pr
##rīd
##ika
##rauc
##īties
##eit
##niec
visu
būtu
##ārd
pret
redz
##eš
##ud
##pl
##iņš
cen
##kār
##ami
##aist
##ādi
ār
reiz
gada
ceļ
##ven
##ni
##ku
##vien
sl
bl
##pēc
##īti
##iņas
daļ
vir
zem
##īd
##aul
##zīm
##evi
mēs
##šanai
##iež
##ef
##ig
##īgas
##las
priekš
##agad
##arp
##auj
ak
rad
##erson
##ov
apm
##akt
nāk
ek
Lai
##āciju
Man
##otāj
##uši
##ēģ
##nieg
##īgu
kam
##eg
##aš
##īts
##eig
grām
veik
piln
taču
vaj
##sti
##maz
##ator
Par
##kārt
Tā
pag
grib
##ikas
sag
or
##ajām
iel
##reiz
tomēr
##iedz
##ust
##ietu
interes
sak
varētu
##var
noteik
Vis
vienkār
bal
stu
šād
##atīv
viss
##ka
##oģ
##ama
esmu
ieg
inform
##lab
kārt
skat
##of
##ēts
##isko
##iens
##āli
##ots
##lēm
pak
dar
##ēram
mums
Tas
##aim
##aus
šī
sal
##eidz
pan
nevar
kādu
Iz
##aur
pad
##ācija
##ošanas
ties
##aun
Ar
##iešu
##dzīv
##aug
##pild
tika
##ju
##lg
##kur
20
labi
ātr
In
person
##ēst
##ait
##odas
##etr
vad
##oši
##otams
mēr
mani
sapr
viņu
##īgā
##ona
##sēt
pirms
##auc
##ties
##gl
las
##oja
lv
##aig
##inu
atk
starp
##ird
mūsu
##ītāj
rok
##ņa
##cer
sek
##pat
##ēdēj
an
nor
At
kuru
##ver
sam
##īta
mil
dažād
sat
##iks
piet
##āz
##eta
tagad
labāk
sab
200
viens
vārd
paz
##otu
valsts
tāl
##ūras
##stu
cik
iem
skol
##būt
##ūd
gadīj
##ing
Kā
##ātu
el
nekā
tāpēc
ats
vajadz
lap
##rakst
al
##ienu
vienu
St
##ogram
##āts
jaut
darba
Kr
Vai
##oloģ
attiec
##strād
##ons
māj
kāds
tieši
stāst
##ījās
##īl
pies
laiku
##šķir
siev
Latvijā
kurš
An
jeb
rez
##enc
##ijām
nop
##ojas
##ort
plān
##liet
##ūz
turp
neat
pamat
īpaš
##ojot
##ļa
lielāk
##ionāl
##nīc
ilg
##iecieš
mar
##ējās
##iskās
##žu
##hn
10
##priekš
maks
##mēr
##tur
ūd
##ojumu
val
ik
##iņā
##lai
grāmat
izvēl
nebija
uzņēm
nepiecieš
gadu
##kat
##vērt
##onu
piedāv
##inām
ac
##īju
Pēc
##ēta
tir
pārst
pol
##oju
##iniek
vīr
jautāj
##iena
##end
##ītu
biju
##ībām
vairs
nozīm
šis
spēl
kopā
Uz
##eju
pats
iespējams
katr
##iskā
##redz
palīdz
Ap
##man
parād
##vald
proc
blog
##iļ
gatav
##droš
saj
šajā
##niedz
vakar
id
run
##ināja
kv
##ēties
##ost
nov
##inās
kurā
##īgāk
##kst
vienkārši
viņi
ab
pēdēj
gadā
##ņi
##uz
liek
##la
##iku
##eni
atp
19
##ans
##ejas
##kar
iepriekš
##ēji
##ētāj
telef
sad
net
##nd
##istēm
Pirm
citu
spēk
program
##pār
augst
past
##ūst
##alp
kuras
iev
##lēg
##per
##dev
##stād
brīd
##ūp
##enes
med
attīst
atbild
rezult
kura
##usies
nel
dab
tuv
##unk
##asar
##ēšanas
visi
sabiedr
##ept
##šā
mēn
viena
##ind
patīk
##elt
stāv
ter
##mit
##odu
##esel
drau
kļ
skaidr
proj
organ
##tā
tehn
neiz
##eln
laika
##br
izskat
##ota
##ne
naud
##ks
prob
##odien
##amo
##umos
##le
tiem
pilsēt
##aliz
galven
No
sevi
dev
uzskat
##ēti
piek
dal
##ilst
as
##šas
Pat
##gal
##me
stund
nedaudz
ser
##ajos
##šanos
pras
sev
##ors
vērt
strād
##aiz
##vis
##iest
##aka
##oreiz
##ijai
izs
pir
caur
māc
##ātā
mat
##umam
atkal
##āku
problēm
dienas
##āti
##ējo
nen
vēst
pasāk
##iņi
lauk
##rīs
##amies
šīs
##cijas
ied
##ējā
##urs
bij
vismaz
krās
fin
cilvēki
vieg
##ajam
svar
##obež
##ūv
##ko
pārl
##nieku
nez
reģ
##īgo
##nu
sistēm
##eri
nosk
izveid
jūs
kal
Ir
mod
beig
pieej
saist
bild
##aules
kāda
##alitāt
vesel
##eru
latv
##inot
kuri
savas
##oto
##ņemt
##ošanu
piemēram
##irop
Tāp
intern
brīv
Tur
diez
gaid
##ļi
norād
##otāju
pāris
centr
##min
Sav
izt
īst
Jā
vietā
##he
savā
nees
spec
##ējis
##āla
##āls
##if
visiem
gais
##niecības
##āta
iep
##isam
atz
aps
##ējot
cilvēku
##āca
##entu
##esmit
vispār
sac
##mā
komp
tieš
Gr
##šanā
trīs
##ījumu
##va
brauc
##āko
dār
Eirop
##kas
gl
15
akt
mājas
nevis
tajā
##ībai
vienmēr
reizi
Vēl
##ieši
##na
##ojām
Nu
izdev
##ilt
##āb
atkl
##pus
##ug
paredz
pu
##ķi
grūt
mazāk
##drīz
##af
notiek
veikal
atbalst
##run
##glīt
##ents
šeit
pēt
sast
met
dēļ
##ša
proces
am
##ociāl
##griez
priek
protams
Tad
organiz
##ņas
##prāt
##ikt
mal
meit
##ajās
viņam
##ojam
##ukārt
raž
sieviet
##ojums
##ālu
pub
##lēp
##tic
brī
izdar
neko
##ita
nedēļ
īpaši
Rīgas
##ga
tirg
apl
Tomēr
##uļ
uzs
tev
##āda
mūz
##dienas
padom
##era
##obrīd
cep
laiks
##ētas
##ķis
nom
aizs
kol
ģim
##str
##ošana
visas
##ījis
##nas
veic
pievien
Br
san
Kad
##itor
dienu
dzīves
esam
##āties
nodroš
##eja
##anc
noteikti
paties
##āmies
##ail
tāds
##aidr
jāp
##ošo
##ves
ad
##iska
201
varbūt
##isku
##ajai
beidz
pavisam
sap
situ
##pil
##nieks
zināt
##ākā
##ūdz
grup
biež
virs
diezgan
##ond
##ēto
Ne
##nāk
prof
sol
tos
main
tādu
izrād
apst
gadījumā
##nē
mēģ
##vu
bur
##asti
pakalp
##ējiem
dator
vald
mež
pac
sociāl
zīm
##ēķ
##rīz
līm
Arī
##āka
tāda
snieg
##amā
mekl
##kā
##ākais
teic
##veid
Liel
##ošu
##tt
##ītes
viņiem
##ektīv
māks
##otas
##ājot
##nieki
##ālā
##pu
##ējas
##eks
##ašīn
##avas
##baud
piec
vil
##tas
vied
zv
šķiet
##ināju
##oduk
##abal
gandrīz
apskat
Al
30
##aļas
papild
laikam
pasau
tīk
##ienā
dzim
minūt
##āra
##onom
darbu
projek
Taču
##ēšanu
##ņiem
viņas
interesan
tālāk
##ektr
##onā
##art
svēt
it
daļa
pien
form
##uru
##gād
##bol
piedal
##darb
##und
##orta
##si
konkur
jās
iedzīv
Sk
gadiem
##amas
##ars
šodien
Viņš
izstrād
draug
Tr
Tu
tiks
lietas
##ļiem
notik
##ner
klāt
mājās
Kas
ūdens
##akaļ
eksp
Bal
atv
publ
##omā
##īšu
pašu
##inātu
tiešām
atm
skrēj
##iep
Tik
pirmo
vari
##isks
Eiropas
ob
produk
##lo
##mi
##iņiem
##eli
##ūta
tāpat
##ojuma
nol
##ināšanas
##sta
noteikt
mir
zinām
klas
##ļauj
speciāl
##āri
dalīb
manu
##ciju
ņem
##dienu
ministr
vel
##ord
##ūra
lid
12
##īgais
iespējas
##āf
ierakst
##ki
atrad
izc
pārstāv
piemēr
šim
sim
norm
##ēv
vietu
##ināts
mazliet
rīk
##īgās
##ūl
katru
##brauc
pārs
polit
##žēl
##aukt
atšķir
cilvēkiem
izl
Pie
pieredz
Vien
##ūkst
tren
sen
##inc
komand
##ušies
pul
gadus
nekād
atpakaļ
iespēju
##īšanas
##eriāl
##rauk
pārd
Inter
teikt
##te
reģistr
##alsts
nem
nemaz
##īte
garš
izglīt
##ra
Dz
nekas
iespēja
atbilst
Sp
##apr
esot
##inājums
##stā
apr
##eti
jums
izp
neliel
##gad
atrast
##ži
##ējam
citiem
vide
##ow
ris
Līdz
##ējos
milj
noz
kādā
100
##ora
##klāt
pašvald
izmantot
##gul
vietas
##ājām
prec
slim
spr
elektr
##ējs
kāpēc
tehnoloģ
##odā
mī
##obil
treš
Mar
of
droš
##otāji
tais
##viet
##ogrāf
slik
pārāk
šobrīd
##ītas
stud
##ējumu
Dž
##lis
auto
Protams
##projām
bērnu
gabal
vienā
##ļus
atst
saņem
##enti
nosauk
dok
##ura
pab
konkr
##ža
mas
dod
##icis
Andr
vies
##ušas
##skol
fr
ban
##to
##aku
tem
marat
dienā
##tuven
##ijs
filmas
##ējām
apmekl
for
##ikā
##ījums
##vas
pareiz
kult
divas
##air
ātri
sald
kļu
##ūru
##ītājs
ner
##ara
##akts
nākam
samaz
saim
##su
av
fot
cilvēks
lēm
pop
dzies
apkārt
##īkst
##ījuma
salīdz
pieņem
īsti
##āru
ietek
poz
##pras
prez
vasar
dat
bijis
nekad
##ūn
##īsies
mīl
##mes
##enī
part
kab
##lā
log
##ber
sird
bieži
pasaules
kor
ind
##ls
##ātad
darīt
iekš
##āna
##sim
##eklē
##ēšana
##uld
atl
līdzek
plat
ēr
nodarb
uzman
profes
agr
##aidām
virz
##ros
oper
##ets
##tuveni
pārliec
##ja
mier
Jo
vēlāk
dzird
kuriem
varu
##šos
esi
##ijās
res
vers
##otājiem
Kat
aplik
##brī
##ene
com
Lab
##ogad
iestād
kontr
Te
##ia
kamēr
ien
grāmatu
ziem
kādas
##ojās
Pār
##urn
##ētā
koment
##oru
joprojām
##amu
inst
tām
##ard
##ālo
pants
Viņa
grāmatas
iegād
##stipr
pasaulē
##kan
jaunu
reizes
##evišķ
pietiek
autom
zaud
##ini
##inājumu
atcer
pati
AS
Valsts
##cija
līdzi
##grib
##viel
##aldies
Tagad
Ies
##iņām
##ēdz
##ājās
put
četr
##io
cer
aizsar
##iņus
izr
uzt
11
saka
Tāpēc
##ējums
##enta
neesmu
##tiv
sava
ekr
sarakst
##īna
50
tai
##eris
##zem
##ins
materiāl
izlas
##smes
##ient
pavad
##laik
dokum
##tipr
##eļu
mēneš
##niekiem
##ēļu
dārz
##žas
aptuveni
mana
##ūtas
parasti
sastāv
##kop
pilnīgi
rekl
sacens
Jaun
##itātes
sarun
##ākās
sakar
##gs
jebkur
Ko
jābūt
Gal
25
##īto
Mēs
ēd
latviešu
milz
teritor
rež
Pas
ekonom
##mir
vēstur
visai
##aļu
interneta
##ss
##omu
popul
kil
spēkā
darbiniek
##ošanai
apj
##āmas
mašīn
##lēdz
To
attēl
novēr
The
##aļā
##ata
aktīv
18
likuma
uzdev
paziņ
pel
būv
ievēr
##kāp
##īp
##ess
līg
iesp
neg
Tād
##mal
kvalitāt
mobil
izpild
iemes
##ināti
##ānu
saviem
ierīc
izskatās
savus
vajag
funk
##ākas
##raukt
uzv
##oni
##aļa
##etā
Var
##ww
pilsētas
meln
##eņu
sēd
beigās
mans
sept
nozīmē
www
##ētos
##ārs
##ācijā
##āki
##ošā
##ert
##enis
kāp
labu
##ņā
tēm
##auz
filmu
tek
##sts
##bild
##ājis
teik
bar
ciet
informācijas
aud
paši
##aksas
redzēt
viegli
##mai
Min
##oda
nebūs
robež
šādu
pārbaud
grūti
##ms
plaš
uzz
atsevišķ
##ojis
neviens
nepat
pāri
apstāk
##ošanās
desmit
paliel
Fr
šoreiz
##ītā
##oša
varēja
sagatav
##stat
viņai
galā
##iskas
liela
##itīv
nespēj
bērniem
uzreiz
Sa
vērā
##eģ
varēs
drīz
##vēt
##iš
informāciju
##irk
ārā
nopiet
visus
Jau
##ķu
sauc
negrib
draudz
##stab
video
lasīt
ziņā
sākumā
##ināta
Go
Kriev
spēj
##ana
##one
##vid
ilgi
atrodas
nebūtu
port
##etes
##avu
Kop
groz
##acionāl
glu
izpl
##līdz
##tāl
mai
Aiz
ASV
lielu
sec
Val
veiksm
kontrol
##ošs
puses
veidā
##lim
aprakst
kons
citi
##ceļ
km
īs
Otr
paliek
tap
sasnieg
##gun
regul
apg
nevaj
##ņus
pils
##āns
citas
gul
uztur
##omas
##nis
fiz
daļu
šā
##ētājs
brīdī
lat
ener
aktu
Kād
up
rād
ķer
##ējusi
Savukārt
##ēz
##otājs
El
16
Kur
autor
lēn
aic
di
silt
nepieciešams
##ībās
##ējuši
gald
beidzot
pirmā
##īnu
Varb
##incip
##īšanu
##ļaut
liec
##ēšanās
apt
obj
Varbūt
##ākt
priec
iepaz
punk
pārvald
Ziem
darbības
##ācis
vieta
##iskais
saņēm
##udž
zāl
##isti
viedok
dep
uzlab
##ešu
##ījumiem
##iemžēl
##istu
ād
zemes
krit
kont
veikt
##ītos
biedr
nedēļas
raj
Pa
##taut
labs
Šī
##hol
dur
stat
neap
izkl
mam
##ukt
cuk
Rīgā
audz
servis
smag
zied
nok
slēp
##mām
em
##ījusi
mū
ziņ
žurn
minūtes
##ada
##uss
pap
gu
##ns
disk
##ūg
Tāpat
saglab
pos
##ava
##eles
uzvar
##ājuš
apz
diena
visa
varam
##nīcas
Pag
##ējais
00
sāka
divi
su
##aņ
##akus
latu
pier
Piem
ļauj
##aisa
klaus
Šis
uzrakst
##ogle
##amp
domāju
tīr
me
iegu
13
filma
rīta
liels
kust
lietot
Dr
##ieru
##ījos
noskr
14
lej
##ājam
##aust
naudas
priekšā
stundas
savukārt
##entiem
Pirms
kilom
##fek
istab
sadarb
lietu
virtu
##gas
dzīvi
sīk
##īšana
##ānis
mīļ
##uc
pirmais
tādēļ
rakstur
stipr
##ass
##km
tikt
##ipar
##ttp
paman
atrod
pašā
http
##ansp
##etur
ceļu
rūp
nolēm
autob
pusi
tādas
##ino
##embr
##stāv
pieaug
##ināšanu
vadīt
Nek
naudu
lapas
piedzīv
##desmit
telp
stil
Kaut
##ērs
kļūst
Balt
##iešām
iespaid
##ētāju
tiesības
teica
ugun
kart
darbs
##ena
kriev
god
##ietis
##ījuši
Nav
##aida
##ējuma
bag
stāsta
pienāk
problēmas
##oks
skaist
Dom
pastāv
nākot
fakt
sporta
##dienā
trad
jūt
Pl
rec
##ruk
sagr
iegūt
droši
nog
##ogu
##emon
šos
##nieka
eks
kompān
##otā
konf
##ījumi
noder
star
##aina
galvenais
##īru
num
komis
##ējie
##pt
pēdējā
datu
izb
##usu
Google
##itr
bērni
pakalpojumu
taut
##dar
šogad
vidū
##les
skrie
gados
māksl
nost
17
##vad
biez
##lī
##gā
##ītis
nodok
jāiz
dir
sāp
##griež
kval
##ojumus
izglītības
##ērk
Kom
pirmajā
##īšanās
##bilst
##ūc
polic
nē
##augu
##ētās
budž
dzīvok
##jaun
##ieni
amat
kādam
##laic
kopš
rokas
tic
##ējādi
Ministr
##ošās
##isma
uzskata
ietekm
##kait
skaits
##unkt
##mar
produ
deb
likumu
kaf
##dienās
mēnes
##ālās
Kam
Ls
ku
atkar
Tātad
cits
##els
iekšā
sabiedrības
Saei
mācību
blakus
apmēram
īsten
##tel
##ījies
##ener
##onas
muz
mais
rind
saul
tūkst
##ministr
sniedz
prakt
šāda
##ļau
##ung
atgriez
skaidrs
Piemēram
aprī
dāv
priv
##ienam
##ērb
acīm
##valst
##astu
##cen
attīstības
gluži
ēdien
cilvēka
vārdu
šie
##ieties
sarkan
uzb
apstipr
patēr
pozitīv
##ēra
jauno
##eis
aizsardz
##ātiem
##ināties
aizmir
skriet
skait
garām
aģ
transp
enerģ
kan
valodā
metod
stand
ierobež
liekas
##noz
turpm
##sa
pārsteig
##ook
Bl
diz
ielas
palīdzību
prom
Zem
##ri
##ēšanai
finans
##int
##esta
sākot
domā
nepieciešam
Šodien
kultūras
##vil
##ērā
Nev
dzīvē
sirds
jāat
nepār
piešķir
bir
interesant
##liek
neuz
vienkārš
mīk
piedāvā
novērt
manā
##embrī
ES
##aub
Kon
nesapr
##ji
##umb
##ienas
klus
iP
pagaidām
Tw
mūzikas
dist
jām
Mūs
arvien
pirk
##aģ
##iņos
nopir
izg
piepras
izmanto
##ojumi
40
##anti
##āma
##īgiem
kap
##oid
otru
##eras
tevi
Kāp
pateic
Intern
vakarā
##ows
mug
##skr
eksper
##iešiem
##avā
raksta
##iznes
##onis
laba
viegl
peri
dažādu
dzied
##amb
nej
koncer
gai
Jūs
##ojumiem
tirdz
kurus
instit
telefonu
Sāk
##ļos
sēr
saska
notika
199
iesaist
##āzes
aktiv
Ministru
nob
spēc
atjaun
led
##itāti
rit
##nā
##TA
kārtībā
Esmu
draugiem
##otos
##akš
patiesībā
jān
strādā
deg
pašam
ātrāk
kabin
cent
##ils
##emp
zaļ
##irz
Starp
##asta
##ātus
katrs
##likt
TV
vār
iesnieg
iedom
svaig
apvien
##ītājiem
Kl
princip
tūr
##ch
starptaut
cetur
dzēr
##ītāji
kļūd
prezid
roku
ģimenes
##iņam
##itter
21
##āto
patiešām
##pils
vienas
jautājumu
##dres
personas
public
nosaka
tirgus
Daž
visām
panta
##vi
padar
Re
##iģ
tum
sistēmas
utt
baud
smar
sanāk
iedzīvotāju
emoc
nepar
mērķ
Lat
ienāk
##mat
piemin
dziļ
sajūta
skolēn
piedāvāj
stājas
Str
aizd
sez
##ošanā
prot
cita
##iskajā
vajadzētu
augu
vairākas
projekt
izplat
rud
atgād
##iter
##elis
##aini
papildus
##elg
informācija
Maz
dž
##ingr
manas
##indows
distanc
Ties
##āmi
vēlas
saprot
ciem
Tev
resurs
##īnas
tādi
stāvok
##iciāl
norāda
red
##enu
fotogrāf
Zv
izteik
kriet
##ušās
Viss
brīdi
##osies
kurām
term
bildes
trau
pazīst
pastāst
Šajā
nozar
nakt
šiem
darbojas
##ants
iest
pārt
pieder
pavasar
##ījumā
Tikai
Android
laim
##tup
kompl
sievietes
Diev
##lap
##ūšu
pirmās
##īra
##aic
skatu
telev
balt
##ele
##anu
arh
noskat
##ājos
##ket
māt
manis
lieta
jūsu
citām
jautājums
##ektu
nakts
##ežģ
rezultātā
viz
##ēb
nedr
##ustr
inf
##ivers
##entus
bijusi
Iespēj
dzīvo
##oku
klien
cauri
izdom
##ejs
##jas
anal
##eņ
##erv
##lud
tēl
otrā
##kam
##ences
##IS
satik
Nē
visā
##ence
brīn
interesanti
##ināl
Kāpēc
Vakar
im
jād
##met
##ipl
pusē
##ošas
lielā
vadītājs
daudzi
cenu
programmas
psi
Nos
##iž
##kal
##etu
mērķis
piekr
punkt
Ig
tuvāk
dīv
paša
daļā
##erc
##ēkš
dabas
Turklāt
galvas
vidus
pild
Windows
##sies
##iķ
nezinu
##ācās
##āms
##trauc
##ēšu
kopēj
inv
dara
##inoši
adres
bals
apliec
##vēl
##asts
deput
Pol
##oci
Am
sil
##ināšana
sul
doties
tuk
paskat
Vec
loc
##ītāju
##ojoties
grāmata
saz
##anšu
ast
##īsim
jauna
sē
Fil
acis
netiek
##ojusi
aizl
aģent
tādā
dažas
skolas
produkt
grupas
maiz
stab
tēr
pašas
rakstu
Paš
šai
kuram
Paldies
māju
bi
##IE
##ījām
##īcijas
pietiekami
##ēg
trūk
saprast
šādi
##ojuši
realiz
##galv
##īš
neredz
komun
000
ziņu
kār
administr
##olu
24
##ča
##vā
ide
##ps
valodas
##aik
##all
##itatīv
domāt
izst
patika
##uper
##īgie
saņemt
foto
ārpus
ūdeni
vāc
liecina
Pēdēj
mon
pens
nonāk
savien
precīz
der
##jam
uzmanību
turpmāk
mot
rīc
izmantojot
##inter
likās
Viņi
izpr
turklāt
daļas
kilometr
##anv
##oniem
Liep
biznes
kred
lietām
skrien
##ādes
fant
izmai
sadal
pilnībā
svarīgi
##ay
mīlest
trauc
dažādas
dēl
##oma
##cep
##eil
krust
uzr
Pēt
##ācijai
##osm
jauns
sarežģ
##ādu
citādi
palik
##ūrā
daži
savām
kādi
tikpat
##āva
##skolas
22
pipar
##aup
vilc
indiv
##hone
##ājuši
pievēr
##idr
produktu
profesionāl
kolēģ
teor
režīm
##ētāji
Nāk
##IA
##ānā
##ojumā
ārst
noskaidr
##person
##amās
jaunas
##inājuma
šķir
veida
likt
veidot
izj
##akti
##tiem
##sēd
Jelg
zinu
##ošais
##ains
projektu
Kar
##ījumus
##ējuš
vērts
sum
gribu
alb
gait
stundu
pateikt
##odz
##krien
kopumā
biļ
##mier
gana
##ģērb
smu
##kaidr
nogal
##ējies
pierād
zil
ieb
nepatīk
jūras
konstat
##lig
lapu
metr
atsk
darbā
diviem
sāku
##rāt
parast
##ore
##aceb
strauj
##marat
##mant
velt
izņem
katram
ceļa
katra
##ists
tehnoloģiju
Sal
drošības
seg
##nī
iec
pēdējo
izsk
##etru
mūž
veido
##ink
top
Cit
##ipa
##AR
kājām
Vair
##ikācijas
vietās
##amais
stac
Katr
Daudz
##ah
##ošiem
##ākiem
##ūti
Ak
uzl
klub
izdarīt
Tie
##ark
dārg
kait
ez
##not
##īne
iztur
##ētais
##ojos
##maš
eļ
veselības
prieks
atvēr
Twitter
##smi
runāt
pievieno
virzienā
uzstād
domas
strukt
##ple
cien
notiks
ieraudz
ziņas
##acebook
abs
nedz
neaiz
zināms
lapā
meklē
darbību
##ināšanai
rakstīt
psih
##ēkšņi
apdroš
Latvija
kuģ
##ovs
Ad
##oft
##īšanai
lēmumu
##ādas
bērna
priekšsēd
##onus
ietvar
lūk
nāv
##šķi
##okol
##vielas
atlik
##aksā
iekārt
mākslas
oficiāl
rot
pasākumu
Cilvēk
##ved
##ājies
smaid
the
krietni
aukst
lielākā
det
##antu
##īgām
skan
telefona
rīt
##oga
##ojies
strādāt
sport
##inājās
maksā
##īgus
vienīgi
stāsts
elektron
Bez
jaunā
Ļoti
pašvaldības
janv
sistēmu
##aru
ziv
tiesību
##cijā
reklāmas
##enēm
##ācijām
spēles
runā
cī
##atā
uztic
aizg
attāl
Ed
ledus
baz
mus
##kohol
atkārt
nedrīkst
HT
pieteik
Tās
kod
ļaun
pārkāp
##ou
##ilp
parakst
##gļu
##itāte
Mic
Tieši
nedēļu
nevaru
##trauk
taisn
gāj
##istiem
rek
kādreiz
##akas
uzņem
krievu
Cik
##ulis
##elta
atzīst
##ern
##ori
priekšu
##assvēt
##inga
tras
Ab
paldies
per
##āni
ep
##ekļa
izrādās
cenas
kājas
##ūdzu
Kal
Iespējams
Darb
noteikumi
##nīcā
kļuva
mugur
kino
##eņa
bērns
plan
bilde
pot
##uli
meklēt
Vil
##iskie
dzelt
pusmarat
San
jār
saus
elem
normatīv
##iro
##aigz
##oka
Not
##īns
uguns
sakot
viel
Krievijas
seš
ierad
bijām
agrāk
Bērn
šādas
programmu
##vair
izveidot
##veik
citus
skatīties
mās
##ītēm
gadsim
dzīve
neatkar
Gar
##ox
non
##ejā
cilvēkus
Apple
sapratu
atzīm
##kiem
##inājumi
viedtāl
braukt
##ikl
film
sanāca
populār
gudr
nesen
##ere
##sme
divus
##ākie
jur
mērc
nevajadz
galvu
kartup
##inis
ieguld
problēmu
peld
##empion
Nes
vadītāja
##ušo
maksas
Aut
##jot
##ūm
sviest
##smit
Daug
vēlreiz
##go
teāt
šķita
gribas
internetā
##īda
atd
Viens
uzd
rest
pakāp
pud
23
aizrau
noslēg
izvēlēties
atbalsta
##ošos
pulkst
Il
##AS
tul
vasaras
smal
prātā
prezent
saskaņā
##eh
jomā
##tus
rodas
piesaist
uzņēmuma
ietvaros
savād
likum
uztver
##šo
pasūt
##ack
aizsardzības
kun
zob
##ēsim
panāk
##iekl
Vid
tip
lietotāju
dib
Šo
paņēm
##irms
##emd
##amat
##diena
##astr
def
##ibli
so
##šot
##als
##ators
Savien
saimniec
Ziemassvēt
nebiju
Sm
##ill
dzel
##krās
nosac
##tif
tādējādi
##ainu
alkohol
##maksas
##ēru
##ine
Paties
sieviete
##ētājiem
##ākajiem
reģion
fond
##upa
balst
##vārd
kurās
sagaid
Diemžēl
Jānis
##erikā
boj
##saim
##ilg
ikvien
##ola
direkt
dec
alus
##ross
##otāja
##katoties
gult
int
liter
##otēk
apgalv
tal
ielā
##žiem
durv
Lietu
pēkšņi
Baltijas
##ieniem
##ārī
sevis
rom
##ūku
rada
kvalitatīv
##rīv
##ublik
priekšlik
piedāvāt
##nīcu
vain
pareizi
##irs
apmier
##arg
Sams
zir
Ie
valstī
##stas
slav
vairāki
vajadzēja
ārzem
tirgū
otrajā
tālu
piedalīties
beigām
Saeimas
cilvēkam
otro
##enciāl
Igaun
##ķer
interv
mu
zina
Interes
kaim
tēv
čempion
##nēm
skaļ
##ipēd
mēdz
sveš
pasaul
attiek
##vairāk
SIA
##sl
##enci
Gan
mel
izvērt
##ošie
Tāl
sistēma
recept
Rep
cena
##egor
ok
vislab
pašiem
##iera
situāciju
##šru
##ax
apakš
vārds
##usa
Micros
vienīgais
izviet
standar
##otās
atbrīv
Facebook
doma
Nok
līn
##veic
##oms
pieslēg
problēma
atbilstoši
ska
##ītās
kreis
##eva
ieguv
Pap
Samsung
##pirms
attiecības
##ārz
projekta
kurai
komentār
Nr
##īciju
##īzes
nodrošina
diskus
nacionāl
ceļš
##atoru
##eidzot
##idu
oblig
sejas
##onam
##ojami
vienam
Ār
##ētāja
Mums
##kos
##atūras
##eļa
dažādi
dienām
de
##ekts
pārskat
gadījumos
Microsoft
parādās
bru
budžeta
##iln
##ātāj
mirkl
bibli
gadi
dzīvot
komandas
##jā
bas
pārvaldes
##ieri
Šoreiz
##ograf
##iņai
##ājusi
##Fit
atļauj
##ēli
##eliģ
##ausm
nevajag
Rez
rokās
galda
##laicīgi
##šs
Jur
sīp
test
centrā
pilsētā
##ķa
##interes
aptauj
tau
tauk
##rossFit
Pav
centra
finanšu
zinātn
noris
režis
##ila
izmēģ
eiro
##ādā
personu
brauk
##aki
tikko
##inātas
lauku
iedves
jūl
sasniedz
ikdienā
žurnāl
##ienes
apk
divu
izklaid
ret
vides
Mūsu
šīm
manuprāt
tend
rezultātu
nekādu
automašīn
cel
dv
##astā
ceļā
kaln
veikalā
nosaukumu
##du
##imināl
sākt
sest
##dra
##ont
debes
Mār
diemžēl
efek
##āmu
##ro
domu
iegādāties
##lam
privāt
mik
##ktob
nopirkt
veids
blogu
til
lielas
maršru
telefons
temper
##uj
minim
iestādes
tēmu
60
cīn
guļ
##pad
mazu
noslēp
ol
veiksmīgi
##oli
nekur
##inājis
Ch
vienal
pieejams
sastāvd
tautas
tātad
##izācijas
valstu
Tel
##ete
mājām
sākās
Nez
vaļā
##laikus
Tiesa
##pied
piedz
apb
līmenī
##ogs
samaks
bumb
roz
##ārā
kategor
Galven
aizvien
reizēm
tav
radīt
pasākums
izmaks
likums
situācija
##ošanos
blogā
meitenes
Aug
##ognoz
aiziet
rū
nekādas
##cion
satur
meža
bagāt
por
raid
abi
Kamēr
LV
##aktu
ceļam
lūp
piena
Šobrīd
Visi
pārr
mūsdienu
vietām
Bija
##eica
saules
nedēļā
26
kārtību
rēķ
Austr
likumā
jūn
viņus
vīrietis
##atas
nevēl
angļu
sāls
##ič
otra
naktī
ved
sh
van
##svar
sākas
ieteik
idejas
krāsu
noskriet
pēd
35
cēl
##lietu
##ienus
klient
##niece
vizu
##iskajām
##ods
##niecību
##ova
pagatav
jē
2008
sieviešu
jautājumiem
##inam
##īgos
tirdzniecības
##ālais
Cen
##abiedr
atbalstu
skriešanas
šit
apar
karst
zvan
pieredze
##tos
##van
nolik
##iskos
Mas
mūziku
##kus
##ošajiem
atsp
##ainā
brok
##augst
spēku
##lodz
pieredzi
asto
diev
jāv
##amāk
krekl
ikdienas
statist
It
bail
toreiz
kļuv
ādas
28
##dab
lok
potenciāl
dziesmas
HTC
##ieku
pieņemt
jautr
ķir
Or
Skr
ceturt
celt
##auž
iznāk
bloga
ef
uzņēmumu
##pilsēt
##iestu
aktīvi
vairākus
maksim
aplikāciju
Nor
##ih
##pas
sākuma
##inieku
sadz
##gāj
##išķ
dzer
absol
Rakst
rokām
##vē
##enz
vajadzīgs
sūt
bezmaksas
ģimen
##ērt
piel
laukā
Labi
olas
super
koka
iespējām
##eču
##ātas
Rīga
dis
##ests
krēm
krāsas
rajona
Lūk
apkop
palika
iPhone
dub
##ālas
Div
##īšos
##fer
##epat
##eklis
Pal
programm
##ific
##ojams
svin
pilsētu
kvalitātes
##ER
izrādījās
lūg
ābol
##pēju
nepie
katrā
sait
citā
praktiski
##āļu
##ājumu
sajūs
27
mor
##ījusies
mērķi
nepieciešama
datora
kosm
tab
##da
jāuz
divām
vecumā
##tiec
##ebru
gatavs
simbol
##īgajā
līdzīgi
univers
izdevās
stūr
pagājuš
fantast
alg
##osipēd
tiktu
prieku
pasauli
tradic
tūl
mant
nācās
##fr
##ici
grozījumiem
Tajā
moti
tiesas
valodu
sertif
apskatīt
amatperson
##iniec
garumā
Lik
se
sai
laic
piekt
ēst
šāds
saprat
Pad
tom
process
līk
kast
Krist
medic
gaļas
sun
##inas
aizb
##eļi
Art
##kai
##ēna
lēt
rāda
##pējas
##ēnu
ideja
##elf
lietus
redzams
##igit
##ian
##iņās
##aisīt
minēt
##ājušā
skaitu
pašvaldību
##pret
trim
Dzīv
slikt
##elk
otras
glāb
mobilo
vēd
II
kak
glab
##inājumus
VI
##ell
nosūt
gaisa
komisijas
vecuma
pļ
izpēt
lieliski
##āž
nogur
##ļūt
dot
tv
individu
ped
##ea
jurid
##padsmit
visvairāk
##aism
45
prognoz
Sv
slēg
apģērb
galam
80
pres
augšu
rel
2009
pieejama
dzelten
on
apgr
skāb
izn
##īdu
nebūt
bijuši
devāmies
##azīst
staig
lielāku
Av
jum
##krit
##andid
krīz
##ari
nenot
pārlūk
ērti
nag
atvērt
##īsi
##ilkt
##ņēma
smiekl
eksperim
nekust
Izrād
##estiv
##strum
##embra
Patiesībā
opt
2007
praks
sekund
skaitā
gulēt
iedz
kādus
veikalu
projekts
bibliotēk
ros
##iskām
varo
kārtas
iemāc
klases
##niekam
jebk
līdzekļu
mieg
oriģ
velosipēd
pārviet
procesu
nākamajā
automāt
Nacionāl
konst
sēn
##azām
Mans
dažādiem
tipa
##ilk
daudziem
orient
pirkst
paredzēts
uzsāk
nodrošināt
aprēķ
bīst
##īgajiem
padomes
versija
līd
##di
##pēja
nauda
500
zin
žēl
##ieb
##star
##ivil
##ista
##okārt
veidu
Run
saturu
##āzi
redak
arhit
oktob
palīdzēt
patīkami
lielo
radio
pazud
asoci
Grib
dem
siž
##klaus
lejup
ceru
##asm
dienās
##ings
aplūk
sākotn
autors
turpina
Sar
##izēt
augšā
priekšr
jāt
##gur
##iesm
Nokia
neies
Vald
kuros
Sig
##ite
##ojama
##ejot
lietotājiem
##ūkas
aizlieg
pasniedz
institū
Republik
lep
90
Ber
##ausk
acu
Šķ
##ve
puse
malā
##inātāj
kartes
70
papl
pašlaik
šķērs
vārdiem
nākotnē
##ātos
nosaukums
gaitā
##eld
##aum
Ser
aizdom
izmaiņas
##ml
##dzes
gads
augstāk
kļūt
izprat
izdz
vēlme
tīkl
ziemas
##limp
##ņos
##ater
zinātnes
mut
##cel
##par
uzm
##inieki
ideju
pabeig
ierīces
apstākļos
##ač
##no
##iskajiem
##ols
glez
mierīgi
ķerm
##pēl
nekāda
labā
reizē
spīd
pagal
ņemot
durvis
300
slikti
##val
augš
valstīs
procesā
31
Ned
##sties
visam
būtiski
pastaig
dodamies
teritorijā
mēnesī
kandid
zināšanas
īpat
##nišķ
server
kalend
tīri
vieglāk
dol
##īva
galu
##ceros
brīža
##isms
ekrāna
pārdev
pasta
konsult
##fil
persona
šokol
##atūra
iepriekšējā
mēneša
##ump
dzelz
##ieti
Grām
##laus
izšķir
ielu
stundām
sociālo
##alt
smadz
2010
Valmier
treil
pārsteidz
restor
bul
loģ
##atēģ
policijas
##ēsies
krēs
sajūtu
dek
##grām
sub
##ītē
drēb
##atīvo
rezultāts
cm
peln
vēj
##ekcijas
vidēji
##rad
##ortu
atzin
firm
##ikti
sakarā
lejā
aus
akc
ērt
dai
##bin
labas
##astāv
gāja
##skait
Zviedr
sēž
##eriem
##iskiem
nomain
noviet
##ējoties
##ējumi
ievad
CrossFit
##old
meitene
##re
##ismu
##šanām
pieliet
##āles
teju
##ank
stik
darbi
dziesmu
Nep
##āšanas
##ņām
##ogas
##ovsk
Visu
tuvu
punktu
kalp
tums
##ce
garant
regulāri
##nīca
Mež
##ož
##ation
esat
ietver
pirc
##itas
vārda
attiecībā
televīz
Papild
ministrijas
pārsvar
masu
pieaugu
seriāl
2012
##osim
neveik
valstīm
minūtēm
##idz
##omāt
##atīvi
svarīgāk
turpinās
uzskatu
muļ
post
##irg
nevienu
atsauc
nejau
gribētu
sakr
dzimšanas
##eģistr
izņemot
Sas
šaub
##ānas
dienesta
atklāj
Ik
Ņem
Latviju
##estu
asp
##ice
vecāki
prasa
##ektīvi
01
RS
##eķ
vīrs
Vents
##gar
nevarēja
tiesa
starta
tulk
##maiz
vienlaikus
savam
pieejam
##veida
aprūp
tehnoloģijas
nest
##apar
izteikt
meist
Šeit
##oloģijas
29
##šās
netic
##ījušies
plast
nopietni
sagriez
##ītais
Īpa
lidmaš
##valstu
stingr
lieto
invest
Turp
LM
iezīm
mainīt
notur
nāca
##emj
filmā
jut
mār
rītā
izbaud
piepild
##eļiem
komerc
vecākiem
ieviet
##mm
##īvi
lietošanas
dažādām
acīs
mājaslap
Mārt
des
vēlos
##inājumā
medij
gaida
pacien
visb
plec
##klāj
##ekta
Laikam
stabil
en
pur
##skap
maza
biežāk
zāles
dažiem
paņem
atris
Pirmais
2013
sniegt
ārkārt
konfer
pietur
Tālāk
##īgai
kabineta
lic
stratēģ
##centr
tūlīt
##zīst
##iešanas
##ang
##ron
apstrād
##inājumiem
izmantoju
svētku
nelielu
iemeslu
turpināt
zvaigz
IT
##ētiem
neviena
##ilvēc
skaisti
pārstāvji
grupa
dabū
izstād
izdarīti
##īšanos
##īša
plkst
attīstību
resp
##ala
##priec
##okrāt
labprāt
jēdz
fini
maratona
nāks
##ris
##omāju
##tern
izvair
ķīm
graf
izvēle
logu
##itār
lielāks
saprotu
virsū
burv
skolā
mamma
izz
##agn
grupā
ig
pasnieg
sacīja
pievienot
##āžu
##eigu
pretī
lapa
patiesi
publik
Rad
##ēdes
draud
##ākajām
nākamo
Ind
interesants
febru
piegād
iesaku
ietekmē
Rezult
and
finiš
puis
malas
2011
dvēs
Jums
pla
##ieris
##meņa
gaisā
motiv
bļ
lielāka
versiju
enerģijas
gadam
medus
##arts
##ērz
##bor
visur
iegūst
sabiedrībā
##āņu
##ējus
slep
bankas
peļ
##uri
iecer
izmaksas
##ekli
vārdus
galvenokārt
cukuru
reliģ
abas
##tegr
Vairāk
tīm
##ticamāk
##īši
##ietiek
##otājam
Pats
##emonstr
krimināl
darbus
rezultāti
prasības
reāli
##āniem
plauk
daudzas
##īze
sevišķi
Em
nakti
sin
##ģijas
jaunās
pabalst
kvalitāti
pārtikas
Vēst
spilg
nopeln
spēlē
izdevies
sociālās
Viena
maksāt
Pam
dodas
iekļau
##adēm
##osf
uzdevums
uzraudz
savās
realitāt
vidu
attiecību
tradicionāl
cenšas
darbinieku
il
ņēm
izaug
##emāt
sakārt
Domāju
##ieša
biznesa
Sl
paaugst
##ēšanos
krāj
saskar
draugu
Kāds
līmeņa
##iķi
##aties
sāli
##mens
pamatā
pusēm
##ign
lidost
digit
ēdienu
preču
##sar
##anču
##niekus
durvīm
Skat
dzemd
domes
radās
Kopumā
brīnišķ
planš
partijas
paplaš
Ier
##īgumu
paaudz
##āze
dabūt
atmiņas
vasarā
##UR
aizv
izvirz
iekļaut
palīdzības
nepareiz
viedtālru
##ainas
##aigi
Treš
pārmai
savstar
Med
dēv
nec
dažādus
vislabāk
##PS
##ošus
turpat
saukt
##eita
mazo
novada
noj
draugi
strauji
LMT
##oguļ
drus
sievietēm
negaid
iepirk
sastop
transport
Dien
fai
programma
personām
dalībnieku
uzved
kul
pastu
pamazām
Brīv
acīmredz
Ek
##ht
fail
tēj
##eļas
rudens
apd
##ūka
Mani
uzzināt
Šogad
paskaidr
drīzāk
klientu
vēs
šaur
##ES
savs
##mugur
iepak
kompet
sacensības
televiz
atn
šādā
fl
##ats
dažus
pelēk
galīgi
bērnam
problēmām
padomju
instrum
raksts
nolēmu
ilgāk
fakts
##atori
kapit
Hol
##KA
mūsdienās
skolu
parādījās
Eiropā
pēr
seksu
aplikācijas
vienalga
ēkas
##ālajā
##ionāli
pamēģ
seko
satura
dati
##ānijas
teritorijas
godīgi
rev
sau
saskat
ni
nozīme
jebkurā
cukura
##ādiem
##niecība
stāstu
grāmatā
papīra
##īvu
##odr
iestā
##iežāk
##atora
uzņēmums
skaidro
komanda
mašīnas
Jelgavas
tak
##der
##atīvā
sevī
izlasīt
remon
sem
##ome
vidē
nākas
padz
Šīs
##prot
##pres
darbiem
##nesis
maratonu
dizain
Ceļ
novad
##otais
##ētajā
nevienam
##inājusi
redzam
rokā
150
Liepājas
##proj
##īnā
skaidri
datoru
Siev
##oo
iesniedz
dokumentu
popular
vārdā
hip
##DS
izk
aprīk
sūdz
##uks
tor
gribēju
mitr
pū
šķidr
ierakstu
ūdenī
asins
Jasm
ver
ļaud
##cis
##ips
pagājušā
Vispār
lielāko
Lattel
just
mīkst
parad
palikt
##ēns
valdības
smarž
žan
##ašanās
##ējumiem
citās
##ļāv
##organ
##aisn
##ējušies
##jiem
##arm
ieslodz
balss
interesanta
ēdam
iemesls
sienas
tambor
brīdim
noskaņ
##ējumus
apv
##āliem
##uls
spēju
##aino
pašai
uzsver
atceros
mēnešus
pērn
noteikumus
sekoj
galvenā
gadsimta
festiv
##īļ
##avi
##iskus
kārtā
pēdējos
slaven
brokast
zvēr
##IN
##tap
##otājus
##aidu
krist
labāko
tīklu
##ļas
nerun
##ākajā
sēk
##esu
##īgāks
##ētiski
otrs
pēdējais
reti
savādāk
##AL
Aleks
īpašu
mājā
skum
pašreiz
##atīvu
Rob
bār
drī
nab
##lb
##enim
kurs
pateicoties
atgādina
##irst
atliek
esošo
atslēg
noteiktajā
normāli
mēnesi
precīzi
pasaule
galvā
iekār
Savienības
vāj
pievil
gala
kārtīgi
samērā
Interesanti
pārsvarā
op
nodar
attiecas
mom
citur
nesan
gatavi
nespēju
izskaidr
##ikāciju
koncep
mērā
kļuvis
iespējam
zemi
interesē
gaidīt
centru
pulc
arhitekt
Manu
analiz
atbildes
salīdzinoši
##ākos
apspr
trešo
robežas
dažādās
formā
dalībnieki
cilvēc
##anta
nosl
līdzekļus
numur
laul
##anas
akme
tīkla
meh
griez
##entā
specif
degun
##ķiem
izskatījās
sacensībās
ton
uzkr
##ekti
vienīgā
vērtību
stipri
Rū
##are
##esa
neskait
redakcijā
tē
##OS
Mana
intens
az
mak
##utbol
smil
nelaim
kārtējo
Sākumā
web
##otiem
sarunas
tēvs
##aba
kurp
citr
##iedru
amerikā
Bausk
maģ
līgumu
jok
##tam
##fs
visās
sacensību
aizmirst
Nezinu
Fl
##ītiem
##vielu
materiālu
devās
neesot
punkts
telpas
mig
kalnu
pieejami
##ry
karti
slap
puķ
elektro
apmeklēt
Tādējādi
Centr
uzg
priekšroc
400
##ull
##skatās
šov
iekr
redzējis
maijā
Pagaidām
Ul
vispirms
jaunais
##ināšu
likvid
apmāc
##inieks
mēnešu
situācijā
##āžas
stad
spēļu
##aujas
prasībām
vēstul
veikalos
Lond
##ras
integr
darboties
Pirmā
bil
##ētie
be
krūt
Ag
Hel
aizņem
līmenis
imp
optim
##AN
pārējie
muļķ
Mad
##atūru
skaita
lika
īpašuma
Kār
pasākuma
putnu
muguras
32
lūdzu
plaukt
netika
bēd
uzrun
izslēg
Gatav
##inār
##ekļu
laikos
##atvers
mazs
##spēl
##liel
##ikai
ieros
kontek
Liet
##oriem
piebilst
2006
galveno
izcel
datus
Ex
Mai
Raim
valdes
iedzīvotāji
izcil
atsevišķi
istabā
##erm
varat
līdzīgu
##strādā
nolūk
atradu
funkcijas
pedag
##īcija
##ieks
prāt
piep
ilgst
ņemt
Kol
Mac
pieredzes
rotaļ
kaus
tajos
tepat
##ūrai
##iežot
valoda
miljoni
studiju
savstarpēj
Tiek
ķermeņa
Ilz
##ingu
pirkt
izrais
skatuves
tar
zup
##mam
##eņi
noticis
pamata
izsnieg
gaismas
profil
Gun
##vēģ
##īgam
parāda
civil
##kav
posmā
##TS
ātrumu
mūzika
partner
Ats
##ītie
iepl
kvad
God
seju
palicis
lēnām
standart
Bar
Iev
Redz
visos
trak
vairākiem
Iepriekš
apkalp
Au
Pil
laimi
kādiem
aiztur
bērnus
apmērā
nākamā
forši
toties
ķipl
##ādz
##gi
nodaļas
karj
transporta
aizrauj
##ites
pietr
ļau
rakstīts
sajūtas
variants
mašīnu
uzdevumu
klientiem
jos
atgriež
nekādi
ierast
vecāku
labākais
plāns
darbinieki
##ācijās
steidz
mazā
altern
māte
kn
##aib
pārvēr
palas
kara
augstu
netālu
māko
##ciem
##iktu
##emes
##iegl
interesantu
Noteik
Pied
Son
jautājumi
arm
##āde
akadēm
norādīja
pakalpojumus
neman
##eikties
nemain
sērijas
raud
insp
##ecom
aizmugur
Augst
Izrādās
dū
kaudz
lietotāji
Vienkār
auditor
autobusu
Interneta
##šaub
##či
uzņemt
##eicās
##ītājam
vārdi
dažādos
gatava
programmat
konkurēts
prezidents
Laur
##ate
##iete
##orts
jaunus
dzīvnieku
##etd
pierakst
##eļus
##ozīm
izdodas
piekl
vērtības
lomu
start
nepal
mēģina
atlaid
##brīn
shēm
nereti
telpā
##erā
##omās
##rukt
pirmie
##īrs
ball
saturs
defin
olu
##nei
atkrit
##ojusies
##emz
pamatu
plānu
198
unik
eksist
mātes
Mat
##eir
##atved
##edēļ
##īgākais
salīdzinot
##gum
##ievēr
##ote
##usā
atver
pagr
kompānijas
nodokļu
Latgal
zelta
šū
jūtas
sant
zib
Vismaz
vajadzībām
vīriešu
automātiski
demonstr
koncentr
burt
fotograf
drusku
Ac
##vēra
bezdarb
kampa
ident
pētījuma
kilometru
##ārst
##ājoties
dzīvojam
zemē
augstskol
centrs
Ziemassvētku
Padom
futbol
šausm
pārējiem
rezultātus
sarakstā
apdrošināšanas
Oz
##eib
vienreiz
##ināto
paredzēta
iedzīvotājiem
##ēšanā
##rīn
##ejām
kolektīv
satiksmes
##ee
##qu
visticamāk
viedokli
dus
plak
##ūrmal
##zemes
nozares
Sh
Sat
tādus
atklāt
neliela
##ulaik
neskatoties
veco
baid
##cionāl
pieb
##niecībā
pēdējās
lauksaim
iPad
##āds
pagriez
##draud
pilns
Id
Net
##stund
tādiem
kombin
burk
Republikas
ģen
##antā
panākt
grāmatām
##ļauties
plastmas
Delf
Tam
##īvs
##inājām
##īni
cepeš
iedomāties
neiet
saule
gaļu
Kopš
kāju
vingr
##ālis
nepam
Neb
koku
aizstāv
Tādēļ
Itāl
Reiz
##ošajā
##ubl
##lāg
drīkst
scen
##iekas
##ācies
##proc
savai
skaista
spried
Brauc
##ior
##ītāja
interesi
##netu
līdzekļiem
36
biks
nelik
##ure
tram
glob
pierad
sign
##ojiet
pilsēta
situācijas
grupu
atstāt
sagriež
vācu
##amie
savos
starpā
pieņemts
kabinets
iecien
janvārī
jāl
gribi
atsauk
organizācijas
gabalu
Jēk
Ēr
laip
ieņēm
garšas
ledusskap
##eram
##irsn
jāk
##āšu
##oles
līdzīgs
iepazīst
periodā
biļetes
##oņu
daļai
piedalījās
Biju
darbība
##ināšanās
stikla
Las
##iss
uzst
maniem
gadījumu
##ima
nodaļa
##īzi
attiecīgi
##fa
##ogi
pagasta
sekot
māja
##āš
izdzīv
blogs
līmeni
platform
##eņiem
##autr
##ētajiem
vairāku
##vai
##axy
vēlēšanu
domām
atzina
procesa
##ceļa
tapēc
##ēzek
##eo
jauni
sasniegt
priekšsēdētājs
bruņ
Beidzot
Mil
Piek
nark
pic
##put
##ollo
##eklar
jāiet
vienkārša
konkurs
Galaxy
paraug
aizbrauc
elp
sadzīv
Lattelecom
##šies
uzlik
pieņēm
stulb
##ītājus
##iniekiem
nezinām
notikumiem
komandu
##ix
##RS
##avs
##atīva
jautājumus
tekst
aģentūras
preses
##āriem
paral
citos
nekāds
rup
##apz
nesp
produkts
aizsarg
##ijam
izmantošanu
daļēji
##manis
spēka
Darba
iedarb
Franc
tūrisma
argum
filmām
Er
ģener
##āte
nepieciešamo
telefonā
septembrī
Jeb
##oter
netrauc
##ojušies
sviestu
ekstr
gribēja
plānots
runa
##atl
paņemt
laikrakst
##inājuši
kontroles
kafej
produktiem
bu
draugs
scenār
bater
##ametr
spie
plud
atradās
iepazīties
nesaprot
Pēdējā
Sēdes
lūdz
nepiln
nevajadzētu
Lien
##ojamo
sadarbības
Ver
rag
##ošām
reģionāl
kompens
sniega
uzrakstīt
oriģin
55
vīrieši
ministrs
rūpīgi
spēja
vēlēšanās
pasm
izstrādāt
kritēr
iedvesm
Nov
##ret
##zu
##ņģ
noform
ieskat
fan
##eet
eksk
ātrums
Dievs
prop
ieskait
vadības
sekm
2000
saglabāt
būd
##ters
2014
dalībniekiem
politikas
kompleks
mikr
Toties
et
matu
mēnešiem
efektīv
Iek
##ējusies
##ejam
lielisks
parādīt
saistīts
formas
loga
produktus
Saul
alu
laikiem
Amer
mārket
Dāv
māk
##ojumam
vienai
##ace
redzu
##igar
jādara
Rēzek
proti
##ēla
vientu
viedokļa
īpatn
planšetd
bāzes
kuk
org
##atīvās
##encē
sastāvā
zālē
nejauši
##20
jauniešu
radi
sapl
noskatīties
gūt
pieļauj
valsti
tiesu
ieviest
kvalitāte
Daugav
vējš
apak
##ālos
varas
pagāt
kaul
mīn
pārējo
pasaž
pilna
papildu
Rīgu
##AT
##ājā
spēle
notikumu
atvaļ
risinājums
meg
tajās
##inos
##icēt
izmēra
2004
##glītības
aprīlī
Jasmīne
miz
iej
vēstures
Gl
VS
po
izmēr
dažām
zemāk
bojā
One
##īnes
brīžiem
numuru
Siguld
you
##XX
##inoties
nozīmes
Skol
maratons
tekstu
Galvenais
Fin
dikti
apgu
divdesmit
atbalsts
Le
briesm
speciāli
milzu
Atr
siera
##kām
Inform
neesam
##darbības
mammas
metodes
komentāros
olimp
zeķ
##ock
##gudr
šķēl
sertifik
dej
labo
teātra
Satvers
##pā
##ietes
##auda
nosaukt
kameras
lielākoties
##metu
sakaru
dru
sauk
otrādi
ekonomikas
fotogrāfijas
atskaņ
pielāg
##brit
valdība
komentāri
finansiāl
Cep
ēku
##ījumos
ieinteres
daudzumu
ģimene
atmiņā
lēmums
ļaudis
Som
##uta
Latvijai
##eša
mežā
pārstāvis
faktiski
atkarīgs
##īšiem
tarif
sug
ģe
gard
##udārz
pilnvar
skatās
skatoties
padara
Pirmkārt
sezonas
gov
##cijām
##eitu
plūs
##inājies
##iešus
##ināsies
funkciju
Manuprāt
žel
##aķ
##zas
izliet
lielās
velti
izpau
servisu
recep
uzbūv
izaic
pamatīgi
spēlēt
Lielbrit
nespēja
klausīties
Nikl
plāna
autori
tumš
cie
gs
##laban
pilnu
aplikācija
ziemā
apjom
Th
kav
leģ
uzskait
##iga
vērtība
mainās
teicu
tīmekļa
faktu
##for
pamod
īpašumu
jāmaksā
psiholoģ
santīm
Vesel
beigu
vārt
viļ
##ījāmies
##ušos
2005
plāno
ministrija
izgatav
kolēģi
##notaļ
Fir
##tās
uzrād
##ētikas
bildi
lēni
For
nepr
##irkt
pazīm
Ol
mieru
pienu
princ
Esam
##īdas
##iežu
modern
Šie
##tais
pielik
visādi
gribētos
vakara
samazināt
##AB
##alg
##ītus
##ics
Pret
aktivitātes
Mask
Nol
Viņas
sit
##otes
lieli
nevarētu
##oļ
##laž
##enā
sagād
Ventspils
Vaj
lieliska
sākums
piedalās
funkcion
##eter
##tra
daiļ
vit
##irdz
##ielād
klāst
And
formu
##alu
reak
nepietiek
##iste
domin
uztais
75
##ienos
mazas
angl
neliels
skolēnu
apdraud
pusot
jāsaka
Jēkab
deklar
tējas
netr
nostipr
atnāk
##abil
brūn
nevarēju
##runi
istabas
Noskrien
Mor
aizst
##nese
produkti
četras
rajonā
Kuld
LE
Nord
Stu
paj
riek
##alv
manām
veikala
darbiniekiem
paziņoja
pārraid
##be
##pe
daudzums
kameru
iepriekšējo
adresi
demokrāt
visbiežāk
Bauskas
Ivar
vienlaicīgi
##ive
garšu
##ektā
saku
neizdev
Sākot
pludmal
SE
ej
grāmatved
viedoklis
kontakt
kafijas
iestāžu
sieru
spīti
pagar
noteikumiem
pakaļ
US
kup
sirsn
iznīc
##ētām
##ānus
brīvi
Neat
pulver
versijas
sarakstu
Delfi
NE
Nel
vilt
##riek
##dienām
pētījumu
ražošanas
kopējā
dekor
Pu
PS
cil
##land
##iniet
izlēm
vajadzības
franču
apgaism
emocionāl
Lietuvas
lak
īr
atg
aptur
##ubil
nopērk
tuvumā
neizmant
mežu
Jūsu
resursu
mām
nepied
##ipt
Uzņēm
novembrī
sod
informēja
tēju
##ikam
##ometr
telpu
salas
neesi
beidzās
aicina
kompānija
##enerģijas
Ņemot
ur
##āšanu
##iķu
##āsies
abiem
atbildi
saistībā
tūkstošiem
olīv
sākotnēji
33
hum
##balst
šādiem
##aprot
ierīcēm
pārsteigums
musku
Igaunijas
Gru
pers
##ķēr
##RM
##ātam
##ozes
redzēju
mediju
You
##erb
pārb
sistēmā
dokument
jebkuru
objektīv
atgriezties
##odes
##agr
veidojas
uzņēmumi
spēks
treniņu
datiem
Lūdzu
maig
##ff
##īgāka
Sony
eti
rast
##ci
##umt
neliet
prior
Univers
noslēdz
Pasaules
saņēma
En
Ied
##ijiem
##etam
##ēsi
##esti
vietējo
vidi
proced
atkarībā
taust
##atūrā
##alk
piespied
sabiedrība
atcerēties
alkohola
kļuvusi
Kārt
##tuv
##ošajām
otram
Parasti
asf
mīlestību
pup
##orīt
vēlmi
paliks
bijušas
abām
formul
mirkli
Papildus
Agr
##ūž
apzīm
zīmes
skats
muzik
piedāvājumu
Edg
Dienvid
##īguma
varēju
grāv
interese
termin
veselību
Vēlāk
Ziemeļ
nāves
MK
##onos
lietoju
##kuši
augustā
punktā
failu
Jāat
Jūrmal
ietilp
Indra
trūkums
tramv
darbam
##ēni
apgūt
finiša
būšu
##TE
##ākus
dažu
domāj
kalna
pagājušajā
##amajā
##ozof
tamlīdz
sieva
nenozīm
##pusē
##darbu
##āšana
##āsim
visnotaļ
##ievien
nosp
bērnudārz
pirkstu
skaņas
ģimenē
##rim
##ējumā
##aga
atviegl
eksām
Be
ha
izņēm
pastipr
svec
neatbilst
pieejamas
garšo
vienkāršs
Cilvēki
pārdzīv
kļūs
Op
rip
zar
##eši
##oh
##oss
pārtrauk
aci
svētki
Mur
Nod
pērk
Visas
atstāj
Black
Filma
režīmā
skaļi
skap
kādai
padarīt
Aiv
ejot
##ētus
##tion
##entam
##atoriem
##auga
solis
komisija
OS
cigar
šņ
##giem
nodev
cepur
Andris
sacensībām
paskatīties
skrienot
zini
##biedr
valstij
sabiedrību
principā
Viņam
jubil
nokr
##ektiem
##tiesas
##artam
atmosf
latiem
atspoguļ
cietu
##iskajai
koord
##ūks
lielākais
Vīr
deju
##MS
##auru
atlas
##ālus
pārņem
##age
tīklā
rekord
perfek
Bur
Kāda
##liem
##žos
neier
##irt
##program
moder
risinājumu
līguma
kilometrus
##ānijā
internetu
izvēles
modelis
sniegs
jūlijā
del
savulaik
##smas
mācīties
cim
##ood
##pēļu
smēķ
sola
putn
virtuves
gaiš
Pus
cieš
th
inici
brā
divās
ceļiem
nomet
ietekmi
Otrā
tapa
Vārd
noņem
rakstīju
slodz
noteiktu
##inux
mēģināt
miljonus
##ards
konserv
Riet
##ces
azarts
##osa
##ālam
##skis
brīdis
dziesma
decembrī
##ļūst
aizpild
jaunieši
##aktīv
2003
lati
prezidenta
plastmasas
De
Mam
Mēn
##pal
##ņot
Nik
fol
##izē
##ūts
Jebkur
gur
palaist
vecais
īpašs
neizd
speciālisti
Telef
uzaic
##ietim
bērnības
slimības
tilta
ārkārtīgi
LN
##rs
garā
gribējās
atkāp
Atbild
pasākumi
Norvēģ
Augu
Trīs
tavu
parun
spējas
##ainis
tālru
atlīdz
kvadrāt
vīru
##ii
##kap
arom
##ect
labāks
interpret
dažkārt
minēto
deva
soli
klasē
ēdiens
emocijas
jūnijā
Īpaši
slēdz
##rr
##aļām
sēnes
##eniski
uzņēmumiem
tūkstoši
Jās
##ītajā
##emi
otrās
intereses
spēli
izcīn
absolūti
Lauk
sens
##ādus
##okur
##rauks
Pirmo
atbilde
braucot
pui
metru
līdzekļi
GPS
kin
##starp
##izrād
informē
asar
pacient
preces
apjomu
hok
##eāt
##alas
paspēj
pusgad
maksāj
latviski
meiten
nolem
uzvārd
##ekom
lielveik
dienn
noteikumu
personai
vīriešiem
sabiedrisko
##pilī
pieciem
pulksten
nāksies
##otie
aizvad
krējumu
##ainās
partn
pārliecināts
ziņo
Svar
##brīd
nožēl
##īrā
kamera
miljoniem
posms
Komis
direktors
Vācijas
baž
##āģ
##īgums
dzej
##audzis
neno
nerv
##nozīm
dziedāt
##īšus
neatkarīgi
##kaita
šokolādes
Person
prim
spētu
gara
ceļojuma
##inoteāt
sociālā
pavasara
##IM
##ītei
##prat
ieslēg
trūkst
pakl
krāsa
veselu
##ambor
nogalē
ilgu
##inst
##ukst
šķēr
izvēli
runājot
māksliniec
cipar
nr
som
##BC
gandar
aizved
nesas
jāap
trešajā
pārbaudīt
uzlabot
kvalif
deputāti
leg
ķīn
##ex
##āmo
tikšanās
lielais
vecā
organizāciju
##eņus
##iķis
##kul
##ācu
lietotājs
stāstīja
noziedz
Tāds
rudenī
komunikācijas
Pavisam
Diena
Svēt
iekl
##akās
krāš
izmeklē
ieteic
Proj
##tiesību
uzbruk
stāvokli
pensiju
pension
Beig
Nop
kub
kādēļ
##aidīt
##spīd
atsevišķu
priekšsēdētāja
plaši
sekt
##ēlās
jauki
vēlu
tual
Atkal
pasākumā
tēma
maizes
kluba
amerikāņu
zāļu
##ekļi
spār
martā
vēsta
neveiksm
sūd
ziņa
šur
##nēs
##īču
##vel
izsm
uzk
tikmēr
iegū
rezultātiem
ievērojami
VSK
pogu
##oņa
manī
spilv
minūšu
vajadzīga
izvēlas
stāvēja
beidzas
attēlu
ieguva
pastāstīt
sulu
Māris
gaļa
lād
tiku
krīt
katras
##alitāti
trešā
##bergs
apstākļi
Kopā
Starptaut
kungs
gultā
##amiem
pārc
otrais
metāla
nākotnes
Put
bū
##ožu
##iešana
##ātes
kautk
pusstund
##andin
plānošanas
sāpes
mūžā
Niklāv
Mobil
##istab
izmantots
reģistrācijas
agres
nopietn
aprūpes
pievilc
Zināt
##pried
##aimniek
rezerv
kolek
meklēj
industr
līgums
vidusskol
obligāti
Viet
##ītajiem
##orā
brū
Pagājuš
Rezultātā
cepeškrās
##ON
##inošs
izsp
##ieriem
konkrētu
pavasarī
pieklāj
mies
piez
aizr
##eklēt
pilnā
saistīti
sirdi
serviss
Vēstnesis
Cēs
cieši
mult
jaud
pateik
citam
jāņem
ārvalstu
matemāt
četri
##ēles
plus
Laiks
sajūt
mirk
piemērs
##embrim
standarta
IK
gāzes
##ējošo
##īgajām
##elē
pārk
nenos
konkursa
sarunu
dēls
Vikt
cept
riet
##TI
aizm
##īds
svarīgs
dāvanu
mērci
Avots
34
##dze
##ekļiem
tiesā
gabaliņos
nodarbināt
Būs
Kult
apn
graud
##egul
īpašnieks
Apollo
vakaru
gaisu
Koment
Vienkārši
dipl
##āmā
##ity
modes
sievieti
atšķiras
negribu
##vadu
rindā
smuki
bulj
Ozol
kinoteāt
mur
##izācija
pasp
nekav
##ektus
apmai
īpaša
atbildību
Tuv
kafiju
nepārtrauk
sviesta
Ner
Tim
##ds
saslim
klātbūt
miljonu
Nekas
##eirop
fak
mīt
##aigu
garu
pretrun
atpūtas
##ojamas
##ētājsistēm
latus
mūžu
distanci
Com
Šā
##ogur
daudzveid
atrašanās
smilt
padal
abu
##alitātes
audzēk
nodokļa
izmēģināt
meistar
##lauk
izbrauc
apav
##pring
##ejai
##autas
##igur
šādus
rezer
##kart
laukumā
ģimeni
dzimumu
Vienīgais
dokumentus
oktobrī
Šķiet
Drīz
Gad
ticis
tava
visliel
iesāk
filozof
250
kustības
bailes
acīmredzot
Nordea
##andināv
saut
nelab
atņem
vainas
##eda
rakstā
objektu
fotoapar
mehānis
3D
##erts
##traukt
skarb
krastā
pieci
korpus
tēmas
upes
Nedaudz
Sen
qu
rob
##oņi
##asp
##ādos
##ivud
jāg
pamāc
bezgal
noteikts
palīdzēs
teksta
nians
Diez
lēk
##īšanā
##ēp
##kom
##ML
##iešanu
izmis
##ināšanā
Pirmajā
salīdzināt
taisnība
Mēr
Viņu
##šais
strādāj
##alitāte
apsaimniek
lietotāja
dolāru
Ban
Tiem
šamp
##ise
prov
piev
##abr
pārsp
mantas
pēcpus
priekšm
izstāst
fe
slud
##log
izgudr
sku
refer
atpūst
piecas
pārdot
ekrāns
Kādu
izklaus
pastāstīja
Ka
##aja
nozīmi
meitenēm
viesnīcas
attālumā
##vārdi
krīzes
##IJ
valod
pasākumus
cukurs
policija
37
Jap
kond
dienvid
bērnībā
##ance
uzzināju
pamanīju
aktivitāt
kļūdas
dziļi
Satversmes
neizdevās
kais
pārstrād
valstis
Princip
devos
nezina
pārdom
##entif
baznīcas
režisors
Ilze
Ilg
iebild
##tsaim
Vispirms
itin
šodienas
skrējiens
stāvoklī
Jāp
Liek
##žen
##ati
##eder
##antiem
sekret
197
tavs
As
Bērz
CS
sti
vīz
šūp
##ilj
mazās
Priekš
personīgi
Katru
virtuvē
romant
augšup
Sociāl
vēt
##ela
##oll
##auca
pazem
vizuāli
akmens
iela
nedēļām
teiktu
Fran
bioloģ
Vasar
gum
mēb
##mju
##isa
nokl
iziet
##akot
##ojamies
##apt
skaists
akcijas
##atīvas
drošību
dārzā
sagatavot
narkot
Mon
Meit
og
##ban
##undr
veidos
tuvākajā
Katrā
mārketinga
Gul
galva
dažreiz
gatavo
dzirdēt
rīcībā
Tāda
godu
žāv
##mēt
##US
neinteres
##enas
vakars
dzirdējis
servisa
kustību
Kaln
Har
Nem
Sam
kg
##por
##enē
##ēlu
##emper
grīdas
##ēks
##ējušas
pilnveid
priekšlikums
piedzim
subj
leģend
42
loma
##nor
trans
kliedz
apmaks
uzskatīt
atšķirības
īsz
vielas
Saska
transportlīdz
Veik
##šiem
##bo
savāk
tādām
slink
Angl
pārsniedz
konkrēti
48
Ieva
mis
mit
sf
Att
apsūdz
sastād
somu
##bu
##pāt
##etēm
progr
piemērot
lēmuma
nesaprotu
noskaidrot
oficiāli
gultas
pēdas
Di
Ob
neļauj
##ach
augs
pavēr
nepieciešamas
attīstība
saņēmu
novērtēt
Pašlaik
likumproj
Juris
mald
##Ls
pārvad
##ode
##ušā
noteikta
uzņēmēj
##ināsim
virsrakst
dizaina
vielu
##ujor
Ceru
Piln
Sec
šajās
galv
nepieciešami
Galu
kājās
##otnes
##ītēs
laikus
joc
domāts
neder
autoru
##īgāku
atbildēja
miljard
banku
ge
zud
atļau
##ira
attur
##ionā
Izmant
saprotams
pamats
attīstīt
operētājsistēm
pārbaudes
aizmirs
infr
summu
stacijas
##PA
pārējās
##inājumam
skaistu
sekas
ierīci
pieaugums
piedāvājums
attieksmi
##pilsētas
Holivud
Mih
host
kū
iebrauc
lasa
apstiprina
receptes
Pan
Viļ
Wi
naf
Ņujor
##zi
##its
atteik
##īri
##andas
pannas
allaž
beigas
apjoms
mīlestība
apgalvo
99
Kan
Lind
nama
manai
##ulu
Izskatās
Stok
1000
portālā
ķirb
##āšanās
##ējāmies
##oram
pirmizrād
##opu
brend
##nieces
ielikt
##embris
Salīdz
iekārtas
rozā
priekšrocības
kai
##zd
gadās
neatceros
paciet
medicīn
jumta
Bild
##illes
atgr
Izvēl
ekrānu
lasītāju
drēbes
olīveļ
39
Gust
Super
fiks
##mul
##iji
parlam
pieliek
pirmajiem
mazais
kārtība
lasītājiem
pieeja
Sky
temat
Daži
Valmieras
##ikām
2002
profesionālās
televīzijas
##akter
piest
apdz
apcep
##rītu
nedar
izdal
paveikt
karal
virk
izslud
apliecina
oke
taks
##laid
aust
akciju
##āzē
matus
braucam
ieraksta
##vietas
nokļu
ārzemju
Mārtiņš
ain
##ment
##ājums
līdzīga
daudzus
vietējā
##ight
atbildēt
ekspert
jūtos
Mazliet
Noteikti
Būt
##aip
##andr
jaunie
atbrauc
spēkiem
mašīnā
stila
mērķiem
Dab
##ātās
laukos
kalnā
zivju
uzraudzības
Sald
kodu
##odi
##obi
klik
##īzē
##alizācijas
svarīga
speci
uzmanīgi
ieraudzīju
hot
lin
atļauties
##elēm
##imi
mazāks
##ibr
rakstura
iegūtu
Patīk
komentāru
RSS
burtiski
Dep
ejam
leju
##omb
##aps
Proti
ievēl
saistīta
pakalpojumiem
ieraksts
vēsturē
EUR
Sek
Tall
pūl
##amus
##ājusies
jāpie
saraksts
dzīvoklī
Principā
lim
šajos
##ET
##onedēļ
jauniem
sveic
veikta
atšķirībā
vēsturi
apstākļiem
Laura
pogas
īsi
nolikt
##use
vecs
modeli
smagi
laicīgi
Mal
##ējiet
paslēp
##iers
karav
milzīgs
Droši
##īsimies
vitam
atpūsties
BM
pārveid
##ick
trakt
##ēnas
izmantota
vīrieti
pasākumiem
jāpār
avots
departam
iekārtu
##our
##amos
piezīm
kādām
britu
##ieži
stāstīt
piecus
iebūv
suns
kontekstā
angliski
dieg
gau
piens
ķēr
##40
##ātr
apkur
##ījumam
skatos
iestādēm
sadarbībā
pienākumu
biroja
EK
cir
sild
zag
##sē
##otajā
##eku
##evs
izmantošanas
dažāda
attiecīgās
##ētājus
Kasp
frak
sviests
februārī
Dienas
Foto
##daļas
##edž
iespējamo
šķīr
labāku
skolotāju
sajauc
netiks
iestāde
##ketbol
asfal
##oun
iepriec
klim
piemīt
##plūd
sekoja
skrējiena
Pievien
##ey
##box
apsk
pretim
turpināja
mati
##ēvs
avār
iemesla
interesantas
ikviens
##inātājs
Māks
Pak
Roz
Tele
kaun
##50
uzp
##iskajās
turn
zeme
priekšstat
Stāst
Skaist
apgroz
jāc
nēs
negad
iesk
vērot
filmai
pretend
īpašumā
##īgākā
stilā
mīklas
dzērienu
jāveic
Ter
riņ
manam
sastr
labāka
Pateic
nodrošinātu
dators
tehnoloģijām
pavadīt
būvniecības
skolēni
Artis
Oper
rat
tw
##ha
##orn
pašn
iekļauj
##iļas
īstais
garšvielas
četriem
##astrukt
attieksme
Rakstur
tīklos
tēva
PSRS
Drau
Sabiedr
##šoties
##rīt
##udz
##kon
spiest
dienai
##uka
ierīču
##vert
policis
##berga
mīklu
ciemos
pipari
pamēģināt
Ieg
##okas
##ēdu
vidējā
Izglītības
pienākums
distances
summa
Serg
AN
trī
##šus
##līd
##alā
uzliek
##inātā
ieteikt
labākā
iepriekšējās
izstrādātāj
publiski
produkta
izglītību
slimību
institūciju
##odroš
Lau
##ostu
##ane
reāl
spēs
veidojot
krāsā
rīkoties
produc
rīcību
glezn
Radio
uzglab
Lid
meita
##ātie
apņēm
iegr
vēlies
iesaka
##istus
raksti
##maņa
##efox
lapām
dzimt
atvēl
agri
telpās
iespaidu
Neviens
Katram
respond
pārmaiņas
Gu
##liec
##vietu
##agu
miltus
izraisa
eļļu
detaliz
baigi
##inoša
pārz
##ušais
augstskolas
stāvā
auduma
ziedu
nolēma
sarežģīt
metrus
eļļas
efektu
III
##fin
##iti
##ole
jaunajā
sievu
nopirk
dzīvokļa
izbaudīt
Pilsēt
uzc
parametr
nesag
cenšos
saprastu
piedāvāja
telefoniem
vidusskolas
trases
universitātes
Beigās
ml
mist
viņām
dzir
##ica
Apm
stundās
diž
biroj
soda
Ātr
##ūrī
##ates
##ili
##ilka
dzert
reaģ
paskr
būtībā
katrai
sapul
nodarbojas
uzmanība
atceras
ādu
nepieciešamību
Amerikā
elektronisko
algas
dinam
##NS
izvēr
##iskai
kleit
Nees
speciālistu
portālu
nokļūt
ieplān
atkritumu
Edgars
Teik
Vienā
tant
zināšanu
##šie
##mē
##KĀ
##urb
divreiz
izmantoti
pazūd
programmā
aktos
dzīvokli
Toreiz
fas
##ciet
##ķert
##ws
nostrād
##erim
vēlmes
karte
brauciens
Skaidr
variantu
teikts
izbeig
brīnums
metro
janvāra
Sapr
sien
vēja
##āg
##dal
##dams
##ķī
##isu
##otus
##ējai
vistas
kok
patlaban
rep
līdzsvar
ielām
satrauk
Star
internet
studijas
cerības
nepatika
neaizmir
aizgāja
tumsā
ieskaitot
##oot
##bur
##ems
iepat
internets
amata
sēdēja
siltum
saskaņ
baudīt
Cer
Dei
Iv
trauk
##utu
##term
traģ
##ocijas
citād
lietā
##ināšanos
autora
braucu
mēģināja
svētkiem
lūpu
dzelzceļa
Stokhol
Me
##oķ
##igr
vairākkārt
jābrauc
lielākas
prasmes
nezin
piecu
raksturo
struktūr
##tis
##lus
izkāp
##ska
īpašības
runas
padome
displ
nenozīmē
Vol
du
moc
sejā
Ūd
##šajiem
nemit
līdzās
##kriev
zināmu
reklām
tomātu
citrona
rīv
tol
vīna
##ļāva
##usī
##oras
##īcijām
attiecīgā
##īgāko
Daudzi
tautsaim
infrastrukt
GB
Tautas
itā
rīs
zāb
##oč
##ly
##erī
izlik
jauka
ierīk
##kust
identif
attīstībai
partiju
##ājušies
jāatzīst
mīlestības
Dod
rīts
##anž
pārm
pāriet
austr
vecās
daru
kviešu
gaismu
nozieg
Tehn
jebkurš
Dieva
info
piekrit
deputātu
ezera
neiespēj
puisis
dob
nežēl
##elī
##olū
pārvar
darbos
nebeidz
piedev
formātā
nākamais
Pasāk
palielināt
punkti
jādomā
mirklī
maršrutu
firmas
Sest
mač
##erus
aizdev
divos
vīrieša
notikumi
vilcienu
atskait
sastāvdaļas
Mer
Maks
lek
vest
##rā
##aiti
patur
##īsiet
##ozi
ietur
dabā
grūtāk
noteiktā
sagaidīt
medicīnas
Firefox
Vienu
er
##ints
kurienes
ieņem
##ētājam
skrējienu
autore
neapmier
skaņu
LVL
sajūsmā
igau
gāju
pantā
##ienē
parkā
##ēka
lietotājam
##ušie
jautājumos
ražotāji
kompāniju
kreisi
izšķirts
Vācijā
la
sā
##izāciju
patstāv
stim
##ogā
jaunajiem
attiecībām
atpūt
trasē
ikvienam
muti
ch
dī
##ament
##āro
atdzes
##iegt
ielās
Atceros
procentu
Baltic
slimnīcas
nopirku
aģentūra
slapj
600
somas
##net
##dis
Visb
##glāb
nenorm
ierīce
iesniegt
Igaunijā
izvairīties
nabadz
Jaut
Linux
ta
šu
##oļu
koks
daudzu
sāks
brīvu
mobilā
plašāk
līnijas
ignor
Apr
vāra
##cin
pārvērt
intel
lasi
uztaisīt
muzeja
tendence
jēga
arhitektūras
HD
Ph
Sw
sodu
tilt
##āne
kops
strīd
##āzijas
īstā
epiz
Bērnu
bilžu
Su
Tom
Tevi
niek
##atur
##āji
trij
garlaic
balvu
organis
bildēm
##malc
Krievijā
sīpol
dusm
Jan
jūtu
##TV
##ānija
##icion
pašs
augļu
##ektors
vienkāršu
maksu
abon
izveidota
pārdošanas
mašīna
aizdomas
punktus
kartupeļu
aizbraukt
Tai
mud
tēt
iestrād
skār
veidiem
196
##runis
nedēļa
pašvaldība
konflik
nedzird
statistikas
maksimāli
elektroenerģijas
Eur
tī
gredz
Latvia
Konkur
albums
grāmatvedības
38
Kor
Word
hor
risk
sint
št
##ānos
turēt
rakstus
gadījums
neatrad
norādīt
malu
adv
koncertu
Pašvald
trūkumu
basketbol
temperatūra
velosipēdu
Latgales
nekavējoties
Mod
rul
ģērb
šal
##čas
##otograf
atdz
prāta
##prec
teritoriju
robežu
negribas
enerģiju
Internetā
kredīt
standartu
sācis
##ories
##aksta
veikts
sagaida
##katās
Jaunais
##ūgt
Jelgavā
palasīt
Rēzeknes
is
##žam
noš
uzkar
stiep
labvēl
maksa
virsu
mirst
materiāli
mēnešos
Otrkārt
pienākumus
konstruk
pod
seja
##bal
##AM
nepras
krast
##ersī
mini
Program
vada
matiem
izlem
sekundes
lejupielād
02
Dis
jūrā
##jūt
##ones
##skāb
traki
brīvības
brauciena
veicot
pozitīvi
Daugavas
pietrūkst
Past
lent
īsu
##ējams
spog
dramat
būtisk
dienasgrām
fiziski
centās
base
morāles
##cijai
##OL
pieeju
nodot
ietaup
Krista
attiecībās
palīdzēja
vēstuli
konkrētā
##ceļā
Neko
svaigi
##astrof
aplūkot
Veselības
Baz
Res
lauz
##VD
##inošu
##ārus
Atcer
Attiec
vajadzēs
brīvprāt
nomier
projektā
tun
ļaus
##aņu
##atr
##iki
esošās
izdosies
pilnvērt
2001
saistītas
dārza
sulas
izmaiņām
likumd
##10
##inn
krūz
interešu
šof
iekar
ielād
elast
velo
diskusijas
mājaslapā
rupj
Norm
Tv
eju
gāz
mēt
##ase
nogād
##īgajai
attaisn
maija
##iķiem
ieguldījumu
Gandrīz
ledusskapī
nepārtraukti
PR
ag
##nām
##apkārt
Latviešu
nepiem
##esties
pretēji
skolotāja
sabiedrībai
latvieši
tiešs
Jaunā
jēgas
Emīl
paaudzes
lā
sienu
ļāva
##kās
jaunāko
mazi
komf
vairākām
galer
nesa
Jāņa
pētersī
milzīgu
biedru
izteikti
normatīvajos
pagatavot
tējk
Komentāri
Tele2
He
Iel
Mājas
Piet
##ikācija
##eres
##ojumos
##elp
navig
laikm
##īgāki
sanācis
robežās
Ekonom
Saules
Wh
ziep
ļaut
##opa
pusdienas
saboj
notiekošo
uzsvēra
veicina
pakalpojuma
mirdz
izlasīju
rindas
Internet
albumu
nepaman
Sc
Sap
rei
##olej
##inātos
##ovad
padev
Vienīgi
kultūr
Zemes
režīmu
dubult
ābolu
apgrūt
uzmundr
recepti
piespiedu
Dan
##otajiem
##īgajam
##onst
##api
mazg
radīja
ūden
noteikto
maratonā
vasara
sadarbību
smarža
Katrs
Kultūras
neied
##ores
nepazīst
dzīvoj
ārsta
##tiesības
sapņ
grupās
##eksu
sudr
Nevar
automašīnas
##ovskis
##ētajām
premj
auk
ieskr
vietējie
piesp
atvain
kilogram
vadītāju
smaidu
kalniem
Piekt
azartspēļu
03
fona
##th
##oņiem
##otām
##īzijas
##lietas
simpāt
mīlu
Kurš
kartē
punktiem
inval
Abi
pacientu
ēdamkar
Vajadz
Bir
##autu
atalg
apaļ
vēlams
gadījumi
norādot
malt
meitas
##pp
##opt
dienest
komit
tiesībām
satikt
lieku
meiteni
dial
džemper
dīvaini
Rec
##ūš
atrād
nenol
īsto
dalībvalst
piemērots
ārstniecības
māsa
atļaujas
Raimond
ekskurs
lāp
tus
zināju
##adās
paiet
laimes
##rīna
klajā
##smē
tuvojas
gaisma
##puses
nosaukuma
atgādināja
distancē
literatūras
izklaides
dedz
veter
##jēdz
##ītim
##itācijas
nepil
šķīv
beidzies
Air
Met
##ārās
jāz
atļauju
sugas
Dal
men
niec
##cipl
##ķus
izkr
##ītī
prātu
inov
##okus
pilnas
algu
zvanu
Saeimā
jāmeklē
automašīnu
pabalstu
Raksturvārdi
51
pauz
##šin
##KS
##stāst
noklaus
izš
##ītīgi
vaic
lielisku
mazie
ceļojumu
atsūt
mammu
institūc
smaržu
asociācijas
##ublic
LETA
quot
06
Ren
Sag
zīd
zāli
Šāda
##pul
##ādās
##īvo
##oper
saš
ierind
Andrejs
punkta
vag
##iņdesmit
izkārt
##orl
attiecīgo
augstas
grupām
Alber
jāsāk
apzināti
numurs
bikses
paralēli
apakšā
##formu
##nozīmīgi
Niklāvs
piezvan
Meln
Sept
pūd
##īvā
trāp
ceļi
putr
grūtības
##griezt
sievietei
apskatīties
nelielas
taisīt
reklāmu
siltuma
realizēt
uzdāv
reģiona
institūcijas
Stud
BMW
09
Pāv
Ro
ex
##tml
nešķ
redzes
plāni
tērp
rekom
pusmaratonu
Flor
Francijas
lomā
nik
šļ
##iksēt
nodib
ilgterm
kompon
pienācis
politiku
normatīvo
nagu
Spr
rām
ēstu
##pektīv
nerakst
nof
uzlikt
##irtu
atpaz
##ičs
eksperiment
Saskaņā
##sird
##iesmas
nevain
Atšķir
patīkams
vērtē
strādāja
mācās
ministra
simtiem
āda
Nekad
jūlija
kriminālproc
brokastis
Mūz
Žēl
##aiņa
##dzēs
##tuzi
izšķ
vienlīdz
inžen
vēlētos
##aksu
svaru
masa
saimniecības
skriešanu
pārsteigumu
kilometri
VID
Mēģ
##jut
##iber
piedod
vecumu
sasmalc
pazaud
elpu
galvenās
##ojamu
notikums
jebkura
180
infl
tukš
teorēt
rekomend
Bel
Sad
jūru
lem
##ish
izskr
jaunumiem
mazajiem
lietder
lasot
īsts
veikals
valda
Pāris
materiālus
zvaigznes
Viņiem
Īs
##aa
##jos
##iets
papr
pasarg
aizskr
veica
sapnis
ietekmēt
Reinis
maizi
smadzeņu
Sac
naz
piebild
dzin
kopīgi
datorā
ietekme
skriešana
meklēšanas
mediji
šķīrēj
##ikās
tostarp
līdzīgas
##aidīja
paklaus
Izs
vērtējums
atmiņu
posm
izdomāt
46
65
Cetur
ul
apels
##ījušas
##īvas
##eicies
pārlieku
pārdod
studentu
ķermeni
entuzi
Up
##TU
##illa
##ālie
kokt
steig
##okš
##ezid
aktr
norēķ
vīra
mierā
dāvan
palikusi
guļam
pārsteidza
saskatīt
laipni
Sim
Vel
ses
##aņas
lieliem
##ēdams
reize
asinis
brīžos
izlīdz
materiāls
noderēs
tūristu
Nacionālās
Rūķis
vēstules
ietilpst
Bieži
Iep
Nob
On
pik
rītu
nogul
uzklaus
##itāšu
##ula
maziem
neskaita
miltu
iemīļ
kredītu
My
tot
##alīdz
##ājs
izej
grādiem
mazos
ātruma
sievas
sajust
pilsētās
amb
saņems
nākamgad
avi
adreses
sestdien
oriģināl
##DD
##okam
vairums
vecmām
reģistrā
Otrs
nākotni
projektiem
Vilnis
saites
bāriņ
Gada
La
LA
sel
##punk
##80
##umul
##ente
izmantotas
ārvalst
##lash
skatītāju
##aigž
stāsti
sadaļā
pētījumā
tīkls
velk
paziņojumu
Filmas
smieklīgi
41
800
Lap
Max
Īr
##dir
arīdz
rakstīja
šādām
rokdarb
analīzes
saiti
nekustamā
Mak
veln
##eed
uzkāp
savi
jaunat
salik
mājok
medikam
modific
gabals
pieaugumu
kļūdu
konkursā
arīdzan
Viņai
zelt
##za
##ādām
jaunām
veidots
simt
attēls
statusu
tauta
Zviedrijas
bedr
lauksaimniecības
43
LU
Ukr
akr
bit
##ear
##ork
apņem
##ulas
atteikties
dzīvības
būsim
iekāp
Prof
##ūda
neatliek
##lay
izlases
vēsture
jānos
līniju
amatpersonas
pirkstiem
Bite
##valsts
parasts
klīn
palai
minēju
vidējo
marin
asin
prasību
miera
versijā
fonda
##sland
izcelsmes
pedagoģ
koordin
jāgaida
Cena
hron
vieni
reform
##inātāju
kru
satr
##inieka
runāja
gaidu
gaismā
slikts
tempu
instal
dārzeņu
Zvaigz
Berl
magn
##rit
##gār
##ardz
##orator
lietojot
##šķer
cenām
spēkus
izskata
tevis
izstrādes
politisko
Džons
apstākļu
istabu
šosejas
44
Phone
lēc
##metr
##tube
##onīm
laist
##ule
skrop
pretējā
skolās
novirz
svara
zīme
nozarē
debesīs
praksē
Kru
LG
bērz
##atch
##urk
līdzeklis
normas
pietiks
##mane
meklējot
Līdzīgi
biedri
piparus
filmās
iznāca
kaisl
ras
raug
apdzīv
iestat
##rub
klusi
##ozīcijas
Prom
##migr
atšķirība
ekonomisko
teiksim
kopējo
ev
vīn
zonā
Šādi
##adu
##tul
pārg
mantu
ieslēdz
līdzdal
iespējama
##uku
##anda
filiāl
##atīvs
tuvāko
viesnīcu
četrus
analīze
pazuda
Con
IS
Sol
vīnu
##eč
##iešanās
nopr
##ājamies
##ilu
dzijas
##raukuši
nepas
jāaiz
skrienu
vīri
iztēr
mēģināju
materiāla
Varētu
autobuss
nodokli
skolēniem
summas
durvju
šito
treileris
bāz
gaum
hal
##mēm
##Pr
##iskajos
##iskajam
pārmet
greiz
skrējēju
Bor
Ogr
Sta
sn
##jus
##ēž
##LS
##ero
##ājumi
##antus
garša
##uša
pētījumi
virsot
tēmām
biedrības
resursi
izdomāju
silts
pensijas
kuģa
puiši
Blu
Olimp
Saim
##ģis
infek
darbībā
trek
pirmos
ieraug
autovad
vadība
vakaros
##ostas
sabiedriskā
apgabal
Gruz
Tar
Zaļ
##čs
visādas
pasaka
minēts
izmantošana
tirgu
aktieri
atklāja
pārstāvjiem
upur
žurnāla
traukā
naktsm
Nesen
ģimenei
ieteicams
cepeškrāsnī
Mus
Sak
Saj
benz
zināja
##daž
##ags
bremz
brālis
##oloģisko
programmām
izbrauk
palikuši
pievērs
vienaldz
Pac
mand
##eģet
kaimiņ
braukšanas
Sākotn
Pier
##okā
##ezn
pamest
veikti
pagastā
ant
skola
gatavot
vilkt
sirdī
paziņo
saņēmis
tradīcijas
kolēģiem
ieradās
nonāca
lūpām
stūres
Ivars
Jāatzīst
izklausās
jogur
sīru
nokārt
izrun
##eim
##āle
griež
spied
##āvu
veca
ieliek
darīts
##drīzāk
uzsākt
saņemšanas
dokumenti
izmaksu
Pateicoties
Iet
bun
fav
raib
##AP
pasak
vadībā
trešais
nobals
Polic
izskan
nenotiek
Iekš
Kuldīgas
Miha
##bl
##IT
##stories
##ādē
##ech
labās
slid
kārtības
roka
palīdzība
procenti
īstam
120
ienāca
mūža
posmu
lietuv
atdal
Lietuvā
dizainpar
aktivitātēm
49
56
UN
rieb
##kulis
##ster
skand
##inātās
##icstories
redzama
apmeklē
##gles
atpazīst
dalīties
iztēl
iepirkt
atbalstīt
padomāt
sanāks
spriest
drīzumā
starptautisko
pajaut
perspektīv
Gulb
akl
ogu
taup
##āšanai
skatījās
Inst
attīstībā
ražotāju
pavada
sēdēt
skaistas
monitor
Liene
Neliel
Aud
jap
loter
raudz
##ong
apbrīn
Aps
##īgākie
atbildības
izdevumus
itkā
dokt
salīdzinājumā
iestādēs
ēdiena
atkārtoti
Jāsaka
pašnāv
##orld
pī
##cm
##vām
##vers
##AV
##auš
nomaz
savdab
##ide
neskaidr
nodaļā
vidējais
##laiž
plašs
sēņu
detaļas
pudeles
recepte
bibliotēkas
Padomju
tan
zonas
##nim
##mail
##ķest
##empl
##ināšanām
katastrof
sasod
