#version: 0.2 - Trained by `huggingface/tokenizers`
Ä ģ
i e
Ä «
Ä ĵ
Ġ p
a s
č Ċ
Ġ čĊ
Ġ k
a r
Ġ v
Ġ s
Ġ t
Å ¡
Ġ n
a i
a t
Ġ u
Ġ i
a n
a u
Ġ l
Ġ m
i s
Ġ d
Ġ b
e s
a m
Ġu n
o t
s t
u m
i j
Å Ĩ
Å «
a l
i n
i k
Ġ g
ie m
Ġn e
a d
Ġ j
Äģ s
Ġn o
Ġ ar
Äģ k
Ġ r
ie s
t u
ie n
Äģ r
Ä ¼
d z
e r
Ġi r
Äĵ j
u s
t Äģ
Äģ d
e n
i l
u r
â Ģ
Äģ m
a k
a p
a v
Ä« b
i ÅĨ
Ġi z
o s
e i
Ġu z
Ġ c
Ġ at
e t
Äĵ r
Ä« g
o n
Äģ j
Ä« t
ie k
Ġp ar
o r
Ġ Å¡
i r
Äģ t
o m
a j
ie t
Å¡ an
Äĵ t
Ġk a
Å ¾
Ġp r
e k
Ġ âĢ
o j
a b
Ġp ie
Ġ ap
e l
Ġ ie
ij a
Äĵ l
Ġ z
Ġv ai
Äģ l
o l
Ġl ai
Ġk Äģ
Ä ·
Ġar Ä«
Ġp a
Ġj au
Ä« j
i t
Ġv is
e m
is k
ij as
Ġk ur
Ġ f
u n
Ä« v
Ġv ien
t i
ai s
Ġk as
Ġt ik
o d
Ġp Äģr
Äĵ m
Äģ c
Ġv ar
Ġs k
um s
Ġ (
Å¡ i
Ġ es
t r
i m
Ġm an
Ġv iÅĨ
Ä«b as
Ġt o
Ä £
Äĵ c
ĠâĢ ĵ
t a
um u
u l
Ä« dz
p r
Ġk o
Ġb et
a z
d r
e v
Ġt Äģ
Ġs av
t s
Å« t
Ġi n
s k
i z
e ik
Ġp at
ar b
o k
ie l
a g
Ġg r
Ġd z
Ġr e
Å« s
au t
k Äģ
ij u
Å¡ u
Ġb ija
Ġs p
o g
ie c
au dz
ai z
Ġv Äĵl
e j
Ġn av
r Ä«
Ä į
Ġ 1
aj Äģ
Äĵ s
Ä«b u
o Å¡
Ġk r
Ä«g i
tÄģ j
a Ä¼
Äĵ k
Ġ ies
i d
Ġg an
e c
Ġk Äģd
Å¡an as
Â ł
Ġt as
o b
Ä« m
Ġp as
Ġl Ä«dz
Ġg ad
ir m
au g
um a
at v
ak st
p Äĵj
in Äģt
ei z
Ġ aiz
Ġl ab
Ġs t
Ġd arb
âĢ Ŀ
m an
am s
Ġj o
Ġ 2
Äģ n
Ġt r
t er
m u
o p
r u
ot i
Ġl iel
au k
Äĵ d
Äģr t
Ġv al
i c
e z
e Ä¼
Ġn ot
um Äģ
a c
e d
in Äģj
il d
Ġvai r
Ġp Äĵc
Ä« s
Ġp l
v ar
a Å¾
Ġt ad
Äģ v
ai d
Ġ Ġ
Ġtik ai
Ä« k
ei d
Ġl atv
Ġ -
i v
au d
n u
Ġ Ä¼
ÅĨ em
e p
Ġk on
Äĵj a
il v
Ġk l
Ġp irm
Ġlai k
Äĵ tu
v ien
p a
iek Å¡
Ġb r
l Äĵ
Ġt ur
0 0
Ä« st
Ġt Äģd
Ġne p
o c
ij Äģ
ai n
Ġm az
ilv Äĵk
g r
Ġd audz
p Äĵc
us i
ĠâĢ ľ
u k
Ġp al
ie g
er s
u Å¡
r as
l ik
i b
ot ies
Ġj Äģ
r Äģd
sk at
Ġc ilvÄĵk
Ä«b a
Ġj a
Ġg al
n iek
Ġd ien
i tÄģ
v Äĵr
Å¡an u
is t
Ġjau n
Ġne k
Ġdz Ä«v
g ad
v is
Ä« n
in a
au c
Ġk om
Ġies pÄĵj
l ai
Ġt ie
Ġ h
Ġp il
t as
Ġvair Äģk
Ġin ter
Ġk ad
Ġd r
Ġat t
Å¡ Ä·
k l
d ien
ak s
r a
Ġl iet
st s
Äį u
Ġs Äģk
Ġ "
Å« tu
Ġn es
ĠÄ¼ oti
Ġg ar
Ä«b Äģ
Äĵj u
i Äģl
in Äģ
Ä¼ u
Äģj u
o z
or m
ie d
n es
ĠÅ¡ o
Ġpa Å¡
um i
Å¡an a
ie v
ei c
v al
Ġs as
en t
Ġsk ai
n e
Ġiz v
tu r
j a
s p
Ġd aÅ¾
Ġm in
Ġat b
Ġk aut
Ġne b
Ġ ak
p at
Å« k
e b
ÅĨ Äĵm
s m
l u
Ġd om
Ġt u
iÅĨ u
Ġb Å«s
n i
Ġ aug
en s
aj iem
i on
i p
Ġv eid
Ġc it
um iem
isk i
Ġsav u
Ġb Äĵr
Ġp am
e dz
k r
Å« d
i tu
Äģc ijas
Ġko p
Ġt iek
Ġt e
l i
ie z
Ġr akst
) .
t o
Ä« r
v ai
ÅĨ u
m a
Ġne d
Ġno s
um us
at u
g an
Ġ aut
om Äĵr
Ġp u
Ġiz d
Ġs tÄģ
) ,
Ġ ek
m as
Ä«g s
an d
Ä« c
Äģk s
Ġp av
ie Å¡
Ġs m
Ġpie d
Äĵ Ä¼
Ä«j a
Ġv id
Ġs tr
Ġno d
ek l
u z
e f
Ġb ez
b et
Ġv ec
ĠâĢ Ķ
Ġn u
Ġl ik
st u
Ġk at
Ġd iv
Ä« pa
Ġk ar
Ġm Å«s
Ġv Äĵr
Ġb al
iÅĨ a
Ġt Äģs
o f
ad z
ak ar
Ä« z
r akst
Ġ 3
b r
Ġp us
Ġf il
p l
e Å¾
Å¡an Äģs
Ġlai kÄģ
Ä«g a
Ġm Äģj
ĠviÅĨ a
Ġs al
Ġnot eik
Ä« tÄģj
ot Äģj
Ġt el
Ġs ap
Ġ ot
t ies
l as
Ġc en
Ġ iet
Ġv eik
tu s
m Äĵr
f orm
Ġ an
ĠÅ¡ Ä·
ie dr
Ġt am
Ġs ar
l ab
Ġiz man
ĠviÅĨ Å¡
u Å¡i
Ġsk r
is tr
at av
ik a
Ġ al
Ġ Ä«pa
ie r
Ġm Äĵ
og r
Äģr d
rÄ« d
Ġb Å«t
Ġs v
n iec
n o
Ġz em
Ä«t ies
Ġvis u
Ġb l
Ġb Å«tu
k Äģr
t e
m az
p ar
Ġp iem
Ġ Äģr
Ġpr et
Ġre dz
Ġs l
Ġlatv ijas
am i
Ġc eÄ¼
au j
iÅĨ Å¡
k ur
Ġie g
z Ä«m
Ġr eiz
e g
v en
Ġs a
Ġst ar
iÅĨ as
Ġv ir
Ä«t i
Ä« d
Ġr ad
u p
Ġ as
ev i
ei g
Å¡an ai
au l
st a
ie Å¾
Ġm Äĵs
Ä«g as
i g
ĠÅ¡ Äģd
Ġd aÄ¼
Ġt a
Ġpr iekÅ¡
ei t
ers on
Ġn Äģk
Ġk am
k Äģrt
Ġs ai
Ġv iet
au s
r eiz
ek t
n ieg
Ä«g u
es t
Ġat r
Ä«t s
Ġta Äįu
Ġv aj
at or
k a
dz Ä«v
Ġgr Äģm
Ġ Äį
Ġpa g
Å« r
Ġs ag
Ġgr ib
ik as
ak t
k u
Ġ or
Äģt r
p Äģr
Ġ Ä·
ĠĠ ĠĠ
aj Äģm
o v
Ġt omÄĵr
Ġs ak
ie tu
Ġval sts
Äģc iju
Ġinter es
Ġvar Äĵtu
ie dz
Ġs tu
at Ä«v
k ar
Ġpil n
Ġvien kÄģr
Ġin form
Ġvis s
j u
o Ä£
am a
Ġ el
l Äĵm
Ġd ar
Ġes mu
Ġno r
Äĵt s
ot s
isk o
l a
t es
Ġp ad
Ġm ums
ĠdaÅ¾ Äģd
Ġp ak
j au
Ġsk at
Ġt ies
v Äĵl
u d
ĠÅ¡ Ä«
ei dz
l Äģ
Ġ 5
Ġm ar
ĠkÄģd u
Ġizman t
ie tÄģ
Ġne var
l v
ie Å¡u
st i
ir k
Äģj a
c er
Ġi l
in g
Ġtik a
Ġlab i
Äģl i
Â «
n a
Ġp erson
u st
u b
k al
Ġm Äĵr
Ġ 4
Ġ w
Ġv ad
od as
Äĵ st
o Å¡i
ot ams
ĠviÅĨ u
Ġstar p
Ä«g Äģ
on a
Ġman i
Ġm il
et a
Ġpirm s
ik s
k at
au r
Ġs ek
Ġk Äģrt
oj a
Ġr ok
Ġ Ä«st
e Å¡
k o
Ġs at
ir d
Ġ Äģtr
Äģc ija
Ġpil s
Ġl as
ÅĨ a
Ġie r
Ġs ab
ul tÄģ
Äĵd Äĵj
Ġs am
ĠmÅ«s u
in u
Ġt ag
Â »
v er
Ġ iek
Ä«t a
o Å¡anas
b Å«t
Ġkur u
Ġtag ad
g al
Ġpiem Äĵr
k as
Ġlab Äģk
Äĵt a
un k
Ġvien s
Äĵ tÄģj
Ġt Äģl
ot u
Ġv Äģrd
Ġ Ä£
Ġpa z
Ġp ap
Å« ras
Ġsk ol
l iet
a Å¡
Ġne kÄģ
Ġgad Ä«j
Ġ Å¾
Äĵt as
ĠtÄģ pÄĵc
Ġl ap
Ġap m
Ġ iem
Ġc ik
Ġot r
Ġdarb a
Ġiz m
Ġvaj adz
Ġat s
Ġp ol
Ġil g
p as
et r
ogr am
pr iekÅ¡
Ġvien u
l Ä«dz
p irm
ol oÄ£
on s
en c
Å¡Ä· ir
Ġc itu
Ġatt iec
Äģ p
ĠkÄģd s
Ġs iev
Ä«j Äģs
Ġi k
Ġlaik u
Ġtie Å¡i
Ġre z
Ġp ies
ij Äģm
Ġne at
oj as
ei r
Ġpl Äģn
Å« z
en d
ĠpÄģr st
r edz
c ijas
Ġkur Å¡
Ġ2 0
t iem
Ġpam at
Ġno p
oj ot
Ġj eb
Ä¼ a
ej u
ien u
g l
ĠÄ«pa Å¡
Ġm aks
ion Äģl
Ä« l
n Ä«c
Ġ ac
tÄģ l
iec ieÅ¡
Å¾ u
Äĵj Äģs
isk Äģs
Ġliel Äģk
Ġjau tÄģj
Ġ2 00
ĠbÄĵr n
Ġk al
h n
âĢ ĵ
Ġp iet
val d
Ġ ab
ĠâĢ ŀ
oj umu
Ġuz ÅĨÄĵm
Ġ Å«d
gad a
iÅĨ Äģ
Ġ ad
Ġtur p
Ġizv Äĵl
Ġt ir
Ġneb ija
Ġnep iecieÅ¡
l iel
n Äģk
on u
Ä«j u
Ġpied Äģv
st rÄģd
Äĵ Ä£
d om
an s
in Äģm
in iek
oj u
ĠgrÄģm at
dr oÅ¡
st Äģd
Ä« tu
Ġ Â«
Ä«b Äģm
m e
Ġpar Äģd
Ġvair s
t Äĵ
Ġb iju
Ġr un
Ġno zÄ«m
isk Äģ
Äģ z
Ġlatv ijÄģ
Ġpat s
Ġsp Äĵl
ĠÅ¡ is
Ġpal Ä«dz
i Ä¼
t ad
Ġkop Äģ
g u
Ġpr oc
n iedz
Ġg atav
Ġi d
Ġs aj
ÅĨ i
Äĵt ies
ĠiespÄĵj ams
inÄģj a
ĠÅ¡ ajÄģ
Ġv akar
Ä«g Äģk
in Äģs
d ev
ĠviÅĨ i
ĠvienkÄģr Å¡i
Ġkur Äģ
eik t
Ġl iek
en i
Ġp ÄĵdÄĵj
Ġv Ä«r
t ik
Ġsap r
ej as
Ġs ad
Ġtel ef
in d
Ġ a
Ġm ed
Ġbl og
st Äģk
Ġat p
Äĵj i
ist Äĵm
Ġpr ogram
b l
lÄĵ g
Ġs er
Ġie priekÅ¡
Ġj Å«s
Ġie v
st Äģ
Ġgad u
ien s
Äģt s
Ġb rÄ«d
Ġt er
Ġd ab
Ġkur as
Ġsab iedr
Å« st
Ġatb ild
Äĵ n
p u
âĢ ¦
Ġ am
Ġatt Ä«st
an t
Äģd i
m in
Ġ eir
Ġiz p
Ġtu v
p ie
as ar
Å¡ a
Ġk Ä¼
Ġv ietÄģ
Ġvis i
Ġ e
Äģ tu
Ġpat Ä«k
tÄģ v
Ġkur a
Ġte hn
n d
Ġvien a
es el
Ġor gan
en es
Ġskai dr
Ġpr oj
Ġrez ultÄģ
Ġm at
ot a
es m
od ien
am o
Ġlaik a
Ġpr ob
Ġn aud
Ġiz skat
Ġne iz
ĠstÄģ v
Ġf in
Ġno sk
us ies
Äĵ Å¡anas
Ġd al
um os
Ġb eig
as t
Äĵt i
Ġne vien
Ġd ev
Ġp iek
d arb
al iz
ik u
l e
n Äĵ
Ġt iem
s ar
Ġs evi
l iec
Ġgal ven
ak a
Ġuz skat
or s
Ġs ev
ul t
il st
st r
aj os
Äĵ tÄģ
od uk
Å¡an os
er i
Ġcen tr
Ġdien as
j Äģ
vÄĵr t
el t
Ġstu nd
or eiz
Ġned audz
Ġstr Äģd
ij ai
Ġ Äĵd
um am
iÅĨ i
Ġpr as
Ġm od
p us
Ġ1 0
Ġt ev
Äĵj o
Ġc aur
Ġprob lÄĵm
ras t
âĢ Ķ
Ġbr Ä«v
Ġpas Äģk
am ies
Ġkr Äģs
Ġm Äģc
Ġat kal
r un
Ġre Ä£
an ts
Ġ :
Äĵj Äģ
Ġno v
p il
ĠÅ¡ Ä«s
aj am
Ġs var
Ġgad a
Ġb ij
Ġ1 9
ĠcilvÄĵk i
ob eÅ¾
Ġiz s
Å« v
Äģj as
d a
niek u
Ġv ieg
Å« p
Ä«g o
Ġ op
Ġs istÄĵm
Ġv esel
Ġv Äĵst
en tu
ar Ä«
Ġne z
ur s
h e
Ġt rÄ«
Ġm al
Ġizv eid
k op
Ġv il
en er
Ġpie ej
ot o
aul es
Ġc itÄģ
Ġ 6
Ġ iekÅ¡
dr Ä«z
ĠkÄģd a
Ġm u
i f
Äģk u
ai g
Ġpr oduk
Ġtie Å¡
Ġs an
ÅĨem t
Ġs ac
Ġmin istr
es mu
in ot
Ġvis maz
Ġsav as
Ġg aid
Ä¼ i
Ġkur i
Ġp Äĵt
âĢĿ ,
ot Äģju
Ġd iez
Ġno rÄģd
Ġne v
Ġp an
Ġg ais
o st
Ġsp ec
ĉ ĉ
Äĵj is
Ġsai st
l iek
niec Ä«bas
kl Äģt
Ġp ien
Ġsav Äģ
Ġvis iem
ĠpÄģr is
Ġie p
ai m
uÅ¡ ies
Ġvis pÄģr
auk t
is am
ab al
Äĵj ot
Äģc a
m Äģ
Ġne t
Ġat z
v a
Ġd Äģr
ĠcilvÄĵk u
Ġinter n
Å¡an Äģ
Ä«j umu
ĠvÄĵr t
ti c
Ġf r
Ġbr auc
ĠtrÄ« s
k ad
ĠmÄģj as
c iju
er u
Ġpad om
ie Å¡i
Ġc ep
Ġkom p
dien as
Ä«b ai
ek lÄĵ
esm it
Ġatb al
l atv
Ġvien mÄĵr
k s
gad Äģ
oj Äģm
Ġmaz Äģk
Ġz iem
Ġreiz i
c ep
Ġk ol
Ġpr iek
Ġt ajÄģ
Ġizd ev
Ä· i
g a
Ġne vis
Ġdr aug
Ġkat r
er a
Ġs oc
Ġl auk
Ġpar edz
n as
Ġ 7
Ġk val
Ġnot iek
gr iez
Ġorgan iz
Ġap s
u t
Ġd ÄĵÄ¼
Ġeir op
ÅĨ as
it a
ĠviÅĨ am
Ġproc es
Ġiz t
k ai
Ġsiev iet
Ġveik al
aj Äģs
Äģ b
oj am
oj ums
uk Äģrt
Ġpr otams
Ġm eÅ¾
pr Äģt
Ġr aÅ¾
Ġb rÄ«
Ġnek o
lÄĵ p
ĠÅ¡ eit
Ġproj ek
ĠpiemÄĵr am
Ġtir g
en ts
Ġm Å«z
Ġne n
âĢ ľ
Ġ 8
Ġi t
l s
n s
Ġ ol
Ä· is
Ġned ÄĵÄ¼
t omÄĵr
Ġ ai
Ġd Å¾
uÅ¡ as
ob rÄ«d
Ġb ild
an c
Ġuz s
Ġlaik s
l Å«k
m i
al p
k Äģd
ai st
Å¡ as
Ä«j is
Äģk o
ĠĠĠĠ ĠĠĠĠ
Ġvis as
Å« ti
ĠÄ£ im
Ġv eic
Ġno m
d i
s av
gl Ä«t
Ġnek Äģd
ĠÄ«pa Å¡i
Ġs ol
Ġak t
it or
Ġdien u
Ġz inÄģt
Ġes am
v eid
Ġb ur
ej a
Äĵt o
Ġpie vien
isk u
ĠdzÄ«v es
Ġval st
w w
Ġno droÅ¡
o Å¡anu
Ġm el
Ġnoteik ti
c eÄ¼
Ġizd ar
ĠtÄģd s
oÅ¡ o
Äģt a
isk a
Ġb eidz
aj ai
niek s
Ġpr of
itÄģ tes
i a
Å« dz
Ġs itu
Ġsoc iÄģl
Ġpav isam
ag r
v u
Äģl s
ek s
Ġpat ies
Ġval d
Ġvar bÅ«t
m ai
Ġdiez gan
t t
br auc
Ġb ieÅ¾
Ä«t es
Ġvir s
Ġv el
Ġm Äģks
em p
ĠtÄģd u
od u
Ġt os
ĠgadÄ«j umÄģ
Ġm ain
Äģt ies
Ġkr iev
Ġd ator
av as
k am
Ġiz rÄģd
Äĵj iem
d s
ĠmÄĵ Ä£
Äģm ies
Ġs nieg
Ġs il
st ar
Äĵ Ä·
b al
Ġgr up
aÄ¼ as
Ġsp or
ĠtÄģd a
b aud
am Äģ
Ġt eic
tÄģ m
ĠtÄģl Äģk
niek i
ekt Ä«v
ot as
og u
z em
Ġl Ä«m
Ġz Ä«m
ĠviÅĨ iem
Ġnot ik
Äĵj as
Äģj ot
Ġm as
Ġm et
o Å¡u
et i
ĠbÄĵr nu
Ġj ums
Ġpak alp
Ġvad Ä«tÄģj
Ġinteres an
Ä¼ iem
Ġv ied
t Äģs
Ġap skat
Ġpas au
t am
Ġdz im
m ar
Ġt Ä«k
Ġr Ä«gas
Ġpap ild
on om
Ġpar as
ĠÅ¡Ä· iet
Äģr a
o Å¡ana
âĢĿ .
Ġp or
Ġgan drÄ«z
Ġ ob
l o
Äģ f
Ġdarb u
v id
g Äģd
l is
on Äģ
ÅĨ iem
Ġpie c
ta Äįu
ek tr
en ti
ĠviÅĨ as
gr ib
Ġlaik am
Ġm eit
sk ol
Ġ1 5
Ġkon kur
Ġs im
Ġf orm
Ġie dzÄ«v
Å¾ Äĵl
Ġpied al
b ild
Ġj Äģs
ti v
Ġsv Äĵt
Ġne m
ie p
Ġtik s
ĠmÄĵ ne
om Äģ
Ġp el
m es
Ġpa c
ien a
Äģk ais
Ġiz strÄģd
Ġz v
ĠdaÄ¼ a
Äĵ Å¡anu
Äģk a
g ur
Ġiz glÄ«t
Ġliet as
Å« ta
Ġpu bl
Ġgad iem
ĠÅ¡ odien
Ġkl Äģt
ak aÄ¼
Ġ av
v iÅĨÅ¡
ĠmÄģj Äģs
v iet
am as
Ġl at
c ija
g s
Ġpa Å¡u
inÄģ tu
Ġpirm o
isk s
Ġek sp
Ġskr Äĵj
Ġb an
iÅĨ iem
ĠtieÅ¡ Äģm
Äģk Äģ
Ġvar i
Ġl id
v es
Ġmin Å«t
Ġnor m
inÄģ Å¡anas
oj uma
Ġat m
Ä« Å¡u
Ġdal Ä«b
rÄ« z
ĠÅ«d ens
Ġ 9
k st
Ġs en
g ul
Ġspec iÄģl
Ġg ai
Ġz inÄģm
Å« ra
ĠtÄģ pat
Ġman u
ĠÅ¡ im
s i
Ġg u
inÄģt s
Ä«g ais
Ġsp Äĵk
s v
ĠiespÄĵj as
v as
ĠpÄģrst Äģv
Ġie rakst
j o
Ġp irk
Äģt i
in ter
Ġatr ad
Ä«g Äģs
s im
Ġ20 1
Ġp ul
Ä«t e
sk ai
Ġkat ru
Ġf or
Ġpol it
Ġm ekl
ĠcilvÄĵk iem
Ġr Ä«k
er iÄģl
Ġs pr
Ä¼ auj
in c
k i
Ä¼ us
Ġ of
Ġmaz liet
Äģr i
Ġ Äĵr
Äĵ kÄģ
Å«k st
Ġ Ä«s
Äģl a
ep t
ĠpaÅ¡ vald
Ġpie redz
Ġb ar
ĠreÄ£ istr
Ġat Å¡Ä·ir
p iem
Ġk or
Ġm Ä«
Ġie rÄ«
ap r
Ġap r
Ä«n a
Ġkom and
b er
Ġgad us
ĠiespÄĵj u
Ġm e
p al
pr otams
Ġie l
ĠkÄģ pÄĵc
ĠiespÄĵj a
pirm s
Ġne maz
Ġgar Å¡
Ġizman to
Ġatp akaÄ¼
g ar
b rÄ«
Ġp unk
Ġin d
Ġnek as
inÄģj ums
Ġsa ÅĨem
Å« l
Ġ 0
Ġat kl
r e
Ġatb ilst
Ġes ot
ĠpÄģr s
Ġr is
Äĵj am
ij s
Ġel ektr
Ġcit iem
Ġr Äģd
Ġdr oÅ¡
Äĵj os
Ġne liel
Ġstu d
un d
ĠkÄģd Äģ
Ġno z
Ġtehn oloÄ£
Ġpas aules
Ġk ult
Ġaug st
Ġizmant ot
t el
Ġeirop as
Ġsl im
Ġaut o
od Äģ
Ä« Å¡anas
Äĵj s
Ġtr eÅ¡
Ä« nu
Ġv ietu
Å¡ os
pil s
otÄģj i
ob il
Äģj Äģm
n ot
ogr Äģf
Ġpr ec
e o
ur u
Ġviet as
Ġt ais
Ġ: )
Äĵj umu
Ä«t as
Å¾ i
pr ojÄģm
pr as
ĠpÄģr Äģk
s a
Å¾ a
Ġmar at
Ġmil j
ĠlÄ«dz ek
ĠÅ¡ obrÄ«d
Ġg abal
Ġdz ies
Ġnos auk
Ġpie ÅĨem
Ġpr ez
Ġintern eta
Ġvien Äģ
Ġd ok
Ġ em
Ġ ien
Ġd od
o w
Ġaut or
Ġl ietu
ak u
au z
ie st
Ġm ir
Ġs lik
Ġv ies
s u
ien Äģ
tu ven
Ġkon kr
Ġl Äĵm
Ä«j ums
Ġp op
Äĵj Äģm
Ġka b
Ġdien Äģ
ak ts
on e
Ġfil mas
Äģ tÄģ
Ġno vÄĵr
Ġie stÄģd
Äģl Äģ
m Äĵs
Å« ru
Ġdiv as
vai g
ĠÄģtr i
Ġk Ä¼u
Ġg ul
Ġpar t
ik Äģ
k an
Ġsam az
l es
kÄģ p
c en
ĠnÄģk am
Ä«j uma
ĠcilvÄĵk s
Ġap kÄģrt
Ġf ot
Ġiz r
Ġt eikt
Ġj Äģn
Ġv asar
s s
Äģr u
Ġin st
ĠÄ«st i
Ġprof es
Ġpl at
v ad
Ġiet ek
Ġk Äģr
itÄģ ti
Ġnek ad
Ġbij is
v il
Ä«s ies
en Ä«
Ġkl as
Ġd at
Ġs ird
Ġpar eiz
Ġr es
Ġp oz
c om
" ,
en e
Ġnod arb
sti pr
Ġsal Ä«dz
el i
Ġ agr
ĠbieÅ¾ i
n Äģ
" .
aid Äģm
r os
Ġdar Ä«t
Ġvir z
Ġuz man
Ġes i
Ġaiz sar
Ġat rast
tuven i
Äģl u
Ġap lik
v iel
Ġs ti
Ġv ers
ĠpÄģr liec
Ġpie aug
d ies
ij Äģs
Ġdz ird
Ġs u
Ġkur iem
Ġvar u
otÄģj iem
Äĵ v
a f
Ġsal d
st Äģj
Ġie d
ĠvÄĵl Äģk
Ä«k st
inÄģj u
Ġsai m
Å¡ Äģ
og ad
Ġek onom
r Äģn
Ġjau nu
m al
Ġap mÄĵr
Ġkon tr
Ġop er
Ġt eik
Ġm Ä«l
Ġiz c
oj Äģs
ĠkÄģd as
Ġan dr
ik t
r ad
Ġm obil
evi Å¡Ä·
am u
Äĵ Å¡ana
, "
Ġtr en
et s
Ġpasau lÄĵ
Ġt Äģm
Ġpat i
t ais
Ġpiet iek
inÄģj umu
Ġkam Äĵr
Ġjo projÄģm
Ġieg Äģd
Ġt av
v iÅĨa
g as
ta gad
Ġreiz es
ur n
Ġc er
Ġ1 00
ĠlÄ«dz i
iÅĨ Äģm
Äģj uÅ¡
lai k
Ġat cer
sk r
Ä«n as
Ġ ÅĨem
Ġaut om
m ir
ĠgrÄģm atu
iÅĨ us
Ġt ai
Äĵj ums
vai r
Ġsak a
ĠdÄģr z
Ġne esmu
Ġsav a
piem Äĵr
dien u
ar a
t os
Ġd i
Ġno k
tÄģ pÄĵc
ul d
Ġiz las
Å«t as
sm es
Ġlatv ieÅ¡u
en ta
Ġsar akst
Ġmat eriÄģl
Ġg l
Å¾ as
on d
Äĵ Ä¼u
niek iem
tÄģ d
aÄ¼ u
Ġz aud
Ġpav ad
Ġdok um
st at
ur a
Ġzem es
Ġ1 2
Ġl Ä«g
p ants
Ġman a
Ġsas tÄģv
Ġsac ens
Ġsar un
Ġr ekl
aÄ¼ a
ĠgrÄģmat as
Ġs akar
Ġb Å«v
Ġpiln Ä«gi
Ä«t o
ĠvÄĵst ur
or a
Ġter itor
Ġjeb kur
ol u
Ġmil z
ĠjÄģ bÅ«t
i o
Ġm aÅ¡
aÄ¼ Äģ
ĠstÄģ st
ener Ä£
Ġvis ai
Ġman s
Ġre Å¾
in i
Ġ aud
Ġk ap
Ġdarb iniek
Ġap tuveni
Ġpop ul
lÄĵ dz
Ġpu t
Ġiem es
Ġ3 0
Ġk il
Ġparas ti
Äĵt os
Ġsav ien
Ġpaz iÅĨ
Ġkl ien
er is
Ġie vÄĵr
Ġpils Äĵtas
Ġakt Ä«v
Ġpa Å¡i
Ġbal t
Ġuz dev
Ġnosk r
Ġm ier
Ġinform Äģcijas
inÄģt i
Ġf unk
Ġsp ÄĵkÄģ
isk as
Ġsav iem
Ġizp ild
Ġsav us
Ġvaj ag
Ġizskat Äģs
on i
ĠierÄ« c
Ġp ab
ĠnozÄ«m Äĵ
Ġs Äĵd
in s
g un
l Ä«
en is
oÅ¡ Äģ
ÅĨ Äģ
Ġr obeÅ¾
Ġne r
ru k
od a
k om
Ġlab u
Ġek rÄģn
aks as
m s
Ġbeig Äģs
Ġfil mu
Ġt Äĵm
au st
k m
Ġt ek
or d
t aut
Ġies p
Ġvieg li
Ġgr Å«ti
au n
Äģk i
at a
Ġneb Å«s
t ajÄģ
oÅ¡ a
Ġredz Äĵt
ĠÅ¡ Äģ
ĠÅ¡Äģd u
Äģm as
oj is
p ad
Ġs ec
Ġuz z
ĠpÄģr baud
Ġpl aÅ¡
v ed
Ġap stÄģk
ĠpÄģr i
Äģr s
om u
piemÄĵr am
Ġnevien s
ic is
Ġdr audz
Ġats eviÅ¡Ä·
k aut
Ġvar Äĵja
Ġpal iel
Ġt v
Ġne g
Ġgal Äģ
Ġkom ent
ĠkÄģ p
it Ä«v
Ġsag atav
s Äģk
Ġk u
ĠvÄĵr Äģ
Äģl o
ĠviÅĨ ai
Ä· u
Ġliel a
n av
itÄģ te
Ġnes pÄĵj
n is
Ġnep at
Ġuz reiz
ĠbÄĵrn iem
Ġd ep
Ġaug stÄģk
Ġinform Äģciju
Ġvar Äĵs
m Äĵ
Ġvis us
ĠÄģr Äģ
inÄģt a
Ġne ap
Ġz iÅĨÄģ
Ġsp Äĵj
Ġ Äģd
latv ijas
Ġne grib
ol a
ac ionÄģl
Ġkon s
Ġnop iet
Ġilg i
Ġs auc
et es
Ä« tÄģ
Ġiz l
Ġz Äģl
ĠÄ· er
Ġneb Å«tu
o Å¡anÄģs
Ġgr oz
Ġliel u
i Å¡
Ġd rÄ«z
ĠsÄģk umÄģ
Ġu p
p ag
an a
c h
Ġatr odas
Ġkontr ol
Ġpus es
oÅ¡ s
Ġst at
Ġveid Äģ
o og
Ġiz pl
Äģj is
Ġz iÅĨ
Ġveik sm
Ä« p
Ġm am
Å« n
ĠÅ¡ oreiz
Äĵt Äģs
Å¡ Ä«
Ġpal iek
Ġnev aj
Ġsas nieg
Ġg lu
Ġc iet
Ġap j
Ġre gul
Ġcit i
Ġt ap
or u
p an
ÅĨ us
Ġap rakst
sp or
v arb
Ġz ied
Ġatt Äĵl
Ġcit as
varb Å«t
Ġr aj
Ġkom is
ĠpÄģr d
Ġvid eo
o Å¡anai
Ġf iz
2 0
Ġpien Äģk
ĠbrÄ«d Ä«
Ġd esmit
Äĵj usi
Ġpr inc
Ġak tu
otÄģj s
m Äģm
ot r
00 0
inter es
n ek
Ġpirm Äģ
Ġbeidz ot
Ä«b Äģs
Ġno l
Äĵju Å¡i
ĠnepiecieÅ¡ ams
Ġl iec
er at
Äģc ijÄģ
eÄ¼ u
isk ais
ĠpÄģr vald
Ġai c
v akar
Ġb iedr
Ġd ur
sav ukÄģrt
ĠdaÄ¼ u
Äģc is
Ġdarb Ä«bas
Ġsa ÅĨÄĵm
f il
vis s
Ġiep az
min istr
Å¡ o
Ġpr iec
ud Å¾
Å« g
Ä«j umiem
ĠmÄĵ nes
Ġd iev
Ġlab s
is ti
tu v
iem Å¾Äĵl
Ä«t os
Ġvied ok
Ġob j
r es
Ġl og
Äĵ z
tÄģ pat
is tu
Ġuz var
Ġuz lab
Ġk ai
ĠizglÄ«t Ä«bas
ĠnedÄĵÄ¼ as
p ild
ip ar
ĠÄį etr
Ġd Äģv
Ġm Å«
st Äģv
v Äģrd
Ġap g
Ä¼ au
Ġf an
Ġp os
e ÅĨu
Ä«j usi
Ä¼ aut
el es
ain a
Ġm ai
Ġ audz
1 0
Å¡ is
st ab
ak us
Ġap t
Ġg od
d ar
s Äĵd
ĠminÅ«t es
Ġkr it
Ġvis a
ob us
Ġsm ag
Ġsag lab
Ġkl aus
Ġs lÄĵp
nÄ«c as
Ġvar am
en tÄģ
Ġt he
Ġs Äĵ
Äĵj ais
Ġc uk
ĠÅ¾ urn
Ġap z
ĠsÄģk a
Ġspor ta
Ġ2 5
d esmit
a ÅĨ
Ġdom Äģju
Ġiz kl
/ /
star p
Ġeksp er
Ġp Äĵr
Ġd isk
ies pÄĵj
Ġliel s
ĠÄ¼ auj
g Äģ
Ġsav ukÄģrt
Ġdiv i
oog le
Ġr Ä«ta
Ä« Å¡anu
Ġ1 8
Ġk ust
Ġuz rakst
vair Äģk
ie ru
tt p
Ä«j os
Ġsag r
Ä« ra
ĠceÄ¼ u
Ġieg u
Ġnaud as
Ġk an
t ie
ej Äģ
Ġl au
Ġfil ma
Ġ ef
Ġne es
Ġj ur
ÄĵtÄģj s
n oz
ĠpriekÅ¡ Äģ
Ġviet a
ent iem
n os
in o
Ġsad arb
Äģj Äģs
Ġt evi
Ġtr an
Ġstund as
ĠdzÄ«v i
Ġn Äĵ
Ġpirm ais
j as
Ġdien a
ien i
it r
Ġrakst ur
Ġl atu
Ä« ru
Ġties Ä«bas
ok s
Ġinter ne
iet is
Ġu gun
Ġi g
Ġsti pr
ĠpaÅ¡ Äģ
Ġziem as
: //
Ġkl us
ĠtÄģd ÄĵÄ¼
Ġpam an
ĠmÄ« Ä¼
Ġs aul
Ġi stab
ieÅ¡ Äģm
Ġapm ekl
Ġb ag
k on
Ġp usi
d aÅ¾
Ġno lÄĵm
Ġpie dzÄ«v
dien Äģ
Ġatr od
Äĵ Å¡anÄģs
aid a
Ġs Ä«k
ĠtÄģd as
inÄģ Å¡anu
Ġ5 0
Ġnaud u
Ġm a
Ġtik t
ek tu
Ġr Å«p
Ġkon f
Äģ tÄģj
ĠkÄ¼ Å«st
e tur
Ġg lÄģ
Ġst il
uÅ¡ Äģs
jau n
Ġlik uma
Ġlap as
Ġteic a
Ġkon t
Ä«j uÅ¡i
ais a
niek a
Äĵj uma
Ġdarb s
ĠnÄģk ot
ĠproblÄĵm as
Ġkult Å«ras
Ġd atu
Ġd ir
Ä«t is
Ġas v
n ev
Ġpas tÄģv
Ġiesp aid
b Å«v
s l
ot Äģ
ĠstÄģ sta
em on
Ġp ir
Ġt aut
Ġkil om
Ġtr ad
and ar
Ä«j umi
Ġek s
Ġrok as
Ġkomp Äģn
Ġnod er
Ġ .
ĠÅ¡ os
Äĵj ie
Ä· er
Ġdr oÅ¡i
Ġstarp taut
Ġr Ä«gÄģ
Ġgalven ais
Ġd eb
Äģk t
gr ieÅ¾
Ġaizsar dz
Ġs tÄģj
gr Äģm
Ä« Å¡ana
lai c
: )
Ġpol ic
Ġfin ans
Äģk Äģs
ĠbÄĵr ni
Ġskr ie
Ġn um
Ġs ta
ĠpÄĵdÄĵj Äģ
Ġm uz
Ġk m
ĠjÅ«s u
is ma
Ġsar kan
Ä«tÄģj u
Ġam at
ĠmÄģks l
b ilst
sv Äĵt
Äģk as
ĠÅ¡ ogad
Ġiz g
Ġvid Å«
Ġjaun o
Ġ x
Ġs Äģp
b Äĵr
Ġb ir
oj umus
Ġt ic
âĢ Ļ
Ġb udÅ¾
m at
Ġ auk
Ä« Å¡anÄģs
Ġsabiedr Ä«bas
ĠjÄģ iz
es s
Å¡ odien
Ġnod ok
Ġb iez
Ġuz tur
Ġm Ä«k
Ġka f
Ġbl akus
ĠĠĠĠĠĠĠĠ ĠĠĠĠĠĠĠĠ
Ġs ept
ĠÅ¡ au
oÅ¡ Äģs
Äĵj Äģdi
Ġ1 1
dien Äģs
Ġv Äģr
Ġ ok
Å« c
on as
Ġpakalp ojumu
ĠkÄģd am
lik t
Ġuzskat a
Ġpirm ajÄģ
Ġskai ts
Ġizt eik
ĠdzÄ«v ok
b u
l ap
Ġa Ä£
Ġcit s
Ġkop Å¡
p s
tÄģ tad
Ġsm ar
ĠattÄ«st Ä«bas
Ä«j ies
Ġpr iv
Ġpat Äĵr
ĠiekÅ¡ Äģ
Ġ au
ÅĨem ot
Ġs niedz
Ġm on
Ġn acionÄģl
Ġat v
tik ai
ĠÄ«st en
Ġj Äĵ
Ġskaidr s
un g
Ġm ais
an ti
Ġl ed
Ġm eklÄĵ
ĠÅ¡Äģd a
Ġt Å«kst
Ġatb r
m Å«s
Å¡ ajÄģ
Ġat griez
Ġf akt
Ġr ind
i Ä£
ai l
Ġin f
iet ies
Ġ enerÄ£
ĠcilvÄĵk a
Ġi m
Å¡ iem
ĠÅ¡ ie
Ġat kar
p erson
ĠmÄģc Ä«bu
Ġpr om
Ġt Ä«r
inÄģt ies
Ġl ietÄģ
Ġd eg
Ġap stipr
Ġ Äĵk
Ġd iz
s al
Ġskr iet
Ġr it
Ġat st
vien s
ĠvÄģrd u
Ġj Å«t
Ġgar Äģm
Ġval odÄģ
Ġprez id
el s
Äģn u
Ġdom Äģ
Ġmet od
Ġpoz itÄ«v
Ġac Ä«m
Ġier obeÅ¾
ĠpÄģrst eig
Ġaiz mir
Ġglu Å¾i
am Äģs
ĠmÅ«z ikas
Ġliek as
Ä¼ os
Ġpas t
o ok
Ġdz Äĵr
ar s
uk t
Ġiz mÄĵr
Ġap vien
Ġ1 6
ĠpalÄ«dz Ä«bu
Ġs Äĵr
Ġl s
u tÄģ
Ġie las
Ġst andar
t he
inÄģ tÄģj
e is
ĠdzÄ«v Äĵ
Ġpie Å¡Ä·ir
em brÄ«
j i
ĠjÄģ at
_ _
dien a
m et
Ġnep Äģr
Äĵ nu
c ijÄģ
Ġkab in
Ġj Äģm
ĠpiedÄģv Äģ
o id
on is
iÅĨ os
Ġsird s
Ġd ist
Ġne uz
er v
Ġar vien
Ġinst it
oj umi
iz nes
ĠsÄģk ot
w it
Ġsas ka
Ä«g iem
Ġpat eic
Ġtir dz
3 0
Ġie dom
Ġtran spor
Ġgad Äģ
Ġpie pras
ieÅ¡ iem
ĠpiedÄģv Äģj
Ġot ru
ĠapmÄĵr am
Ġt Å«r
Ġz aÄ¼
Ġman Äģ
Ġlab a
Äģn a
Ġvakar Äģ
Ġp eri
oj umiem
Ġgad os
si h
k t
m Äģk
Ġt um
Ġb i
Ġkur us
Ġser vis
ĠdaÅ¾Äģd u
Ġlas Ä«t
Ġtelef onu
Ġnot ika
Ġvieg l
Ġt emp
Ġkon cer
Ġpag aidÄģm
Ġrok u
Äģm a
Ġrakst a
Ġsat ik
Ġt al
ĠkÄģrt Ä«bÄģ
Ġgr Å«t
Ġdz ied
ow s
Ġr ud
otÄģj a
ot os
Ġskai st
Ġsil t
Ġsp Äĵc
Ġak tiv
Ġpr akt
Ġaut obus
Ġieg Å«t
Ġies nieg
ĠpaÅ¡ am
Ġuz t
Ġat vÄĵr
ĠÄģtr Äģk
ĠÄ£im enes
ak Å¡
ĠstrÄģd Äģ
Ġg oogle
ĠiedzÄ«v otÄģju
av u
v Äģr
Ġt uk
ĠsistÄĵm as
Ġdraug iem
Ġkatr s
Ġatbal st
Å¡ us
Ġpat ieÅ¡Äģm
uÅ¡ o
Ġpag ÄģjuÅ¡
Ġperson as
Ġotr Äģ
Ġprinc ip
Ġpas tÄģ
ĠjautÄģj umu
m Äĵt
en a
Ġministr u
er as
Ġies aist
Ġnos aka
Ġvien as
Ġtirg us
Ġm Äģt
Ġvis Äģm
ĠkÄ¼ Å«d
Ġm Äģr
ai c
iÅĨ am
Ġpubl ic
ir z
Ġaiz r
Ġpr ot
Ġpapild us
Äĵ Å¡anai
Ġpiem in
Ġsan Äģk
5 0
Ġt il
Äģl Äģs
Ġ1 4
Ġad ministr
Ġsaj Å«ta
ĠstÄģj as
Ġb aud
isk ajÄģ
Ġre cep
Ġskr ien
f or
Ġnes apr
Ġinform Äģcija
Ġv iz
Ġliel Äģ
ĠmÄĵr Ä·
wit ter
Ġem oc
Ġ [
Ġdab as
Ġien Äģk
om as
Ġdz iÄ¼
Ġvajadz Äĵtu
il g
ĠvairÄģk as
Ġpaties Ä«bÄģ
Ġ y
Ġizpl at
Ġdien es
Ġcit a
el g
Ġs ez
Ġtel ev
o u
Ġno st
Ġc iem
Ġdist anc
Äģt o
Ġnep ar
Ġan al
in gr
ĠvÄĵl as
s ies
Ġat gÄģd
el is
ic iÄģl
ain i
v eik
Ġu tt
Å¡ s
Ġar h
ĠstÄģv ok
Ġliet ot
mar at
Ġc etur
Ġpiet eik
ind ows
Ġ ĉĉ
ĠnorÄģd a
o Å¡anÄģ
Ġman as
ĠbrÄ«d i
Ġres urs
ad a
Ġsapr ot
Ġter m
Ġt Äĵr
tu p
Ġkr iet
p ied
Ġkur Äģm
Ġpav asar
k et
Ġnoz ar
Ä«j umÄģ
Å« Å¡u
Ġpirm Äģs
ĠtÄģd i
Ġpaz Ä«st
Ġfot ogrÄģf
ĠÅ¡ iem
ab il
ie ra
Ġsk atu
Ġpied er
Ġbild es
Ġn akt
p ap
Ġdarb ojas
Ġsieviet es
Ġre p
Ġman is
Ġn akts
c is
Ġt au
Ġliet a
en u
Ġm ot
iv ers
ĠrezultÄģ tÄģ
Ġkom pl
eÅ¾ Ä£
d u
Ġsv ie
Ġno skat
ĠcitÄģ m
Ġne dr
ÄĵtÄģj u
ĠjautÄģj ums
os ies
Ġbij usi
tr auc
Ġcaur i
c ik
lu d
lik umu
in Äģl
ak ti
g Äģj
enc es
Ġmu gur
enc e
s ol
Ġat l
Ġto p
ĠdzÄ«v o
Ġs eg
er c
ip l
p ÄĵdÄĵj
Ġt Äĵl
s var
Ġvis Äģ
ĠaÄ£ ent
Ġj Äģd
Ġvesel Ä«bas
Ġ1 7
Äģn s
Ġprogram mas
skol as
tur klÄģt
ok u
oÅ¡ as
Ġcen u
Ġizd om
ĠvadÄ«tÄģj s
b ez
en tus
Ġdaudz i
Ġpus Äĵ
, âĢĿ
Ġl oc
Ġb iznes
Ġam er
Ġinteresan ti
Ġveik t
ww w
gal v
Ġp sih
Ġkom un
Ġsas t
ĠnepiecieÅ¡ am
Äĵk Å¡
Ä«tÄģj iem
ĠmÄĵr Ä·is
b ol
e tu
Ġgal vas
at t
ĠpaÅ¡ a
Äģc Äģs
Ġ1 3
Ġpas kat
n Ä«
i dr
Ġd Ä«v
in oÅ¡i
av a
Ġnop irk
Ġtuv Äģk
Ġv Äģc
Ġko pÄĵj
Ġap liec
Ġdar a
Ġandr oid
Ġdep utÄģ
f r
Ġb az
Ġbal s
ej s
Ġ19 9
Ġm aiz
inÄģ Å¡ana
pal dies
Ġs ul
Äĵr b
Ġskol as
Ġz il
Ġp ild
Ġad res
kÄģ pÄĵc
tr auk
Ġtr Å«k
Ġnez inu
an Å¡u
oj oties
Ä«s im
Ġd oties
e ÅĨ
Ġsa ei
c ilvÄĵk
oj usi
Ġjaun a
ek ts
ĠdaÄ¼ Äģ
Ġs az
Ġre d
Ġnet iek
Ġl it
ĠgrÄģmat a
r i
Äĵ Å¡u
Ġac is
Ġno nÄģk
Ä¼ oti
ĠpaÅ¡ as
ĠbrÄ« n
t is
up er
p h
âĢ ŀ
Äģm s
Ġrakst u
ĠÅ¡ ai
Ä«j Äģm
Ä«c ijas
d audz
v iÅĨi
Ä«tÄģj s
kat r
Ġr Å«
ĠtÄģd Äģ
Äģm i
Ġre aliz
oj uÅ¡i
Ġkr ed
Ġm Äģju
Ġne redz
ti m
Ġp ens
ĠÅ¡Äģd i
Ġpietiek ami
b or
ej ot
e Ä£
Äį a
Ġvid us
an u
ĠdaÅ¾ as
Ġz iÅĨu
Äģd es
Ġval odas
o dz
b ija
e Å¡u
Ġkur am
Ä«g ie
it atÄ«v
Ġpat ika
Ġinterne tÄģ
Ġ ,
Äģz es
ma Å¡
Äģj am
or e
b eidz
v Äģ
Ġd Äĵl
Ġprofes ionÄģl
Ġliec ina
Ġd er
ĠÅ«d eni
Ġgrup as
Ġid e
Ġr Ä«c
Ġlai m
s as
ĠmÄ«l est
Äĵr s
Ġp ipar
Ġaiz l
Ġnosk ai
Ġlik Äģs
ĠmÄģks las
Ġuzman Ä«bu
Ġn r
Ġie c
k ot
kr Äģs
Ġizm ai
on us
Ġdom Äģt
Ä«tÄģj i
Ġsap rast
ĠÄģr pus
Ġsad al
ĠlietÄģ m
Ġskai t
Ġpiln Ä«bÄģ
on iem
om a
Ġiz pr
Ġtur klÄģt
Ġs um
Ġizmant ojot
Ġsvar Ä«gi
n ed
Å«r Äģ
Äĵ g
ĠkÄģd i
Ġtr auc
ĠdroÅ¡ Ä«bas
Ġpal ik
ĠdaÅ¾Äģd as
Ġj Å«ras
iz rÄģd
Ġsar eÅ¾Ä£
ĠÄģr st
Ġsav Äģm
Ġuz r
Ġkr ist
Ġvil c
Ġtik pat
Ġd v
Ġun ivers
Ġpie vÄĵr
ai r
Å¡ Äģd
ĠdaÅ¾ i
iespÄĵj ams
ĠcitÄģ di
Ġw indows
viel as
Ġ ep
Ġind iv
v ec
Äĵ ni
Ġal b
Ġs h
Ġprec Ä«z
i i
p or
Ġk ino
Ġpad ar
oj umÄģ
am at
ĠreÅ¾ Ä«m
r Äģt
Äģju Å¡i
Ġproduk tu
inÄģj uma
ĠÄ¼ au
Ġnoskai dr
Ġjaun s
Ġkol ÄĵÄ£
Ġkl ub
ain s
n et
Ġp er
Ġs mu
in t
oÅ¡ ais
ĠvÄĵr ts
Ġm ei
Äģv a
Ġte or
Ġjaun as
Ġk un
Ä«j umus
Ġ ez
Ġm etr
Ġveid a
ĠÅ¡Ä· ir
Ġz inu
ĠtehnoloÄ£ iju
Ġprojek tu
Ġb iÄ¼
kai dr
Ġ o
am p
d ab
ĠpastÄģ st
Ġkop umÄģ
Äĵj ies
ac eb
Ġ Äģb
Ġt em
Ġc ent
Ġneat kar
Ġgan a
Ġstund u
q u
Ġkon stat
ĠpaÅ¡vald Ä«bas
ien iem
e h
av Äģ
Ġz iv
Ġno gal
Ġpie rÄģd
s aim
Ġs o
ĠsÄģk u
li g
Ġgrib u
Ġlap u
og a
Ġdiv iem
tÄģ lu
an dr
Ġf oto
ĠdaÄ¼ as
Ġs ig
Ġbr auk
Ġkatr am
am ais
Ġjaun Äģ
ĠmÅ« Å¾
i Ä·
sp Äĵl
Ġnepat Ä«k
in k
Ġuz ÅĨem
Ġdarb Äģ
Ġkat ra
ĠlÄĵm umu
Ġdz er
Ġveid ot
ĠpÄĵdÄĵj o
g o
pl e
p Äĵt
Ġveid o
ĠceÄ¼ a
Ġpriek s
oÅ¡ iem
ik Äģcijas
Ġpl an
t Äĵm
Ġku Ä£
Ġz iÅĨas
Ġau str
Ġk ÄģjÄģm
Ġn Äģv
t ieÅ¡i
Ġr om
Äĵt ais
Ġl Å«k
Ġap droÅ¡
Ä«n e
Ġtel p
Ġviet Äģs
Ġm or
oj os
sm i
Äģj os
ĠpÄģr t
en Äĵm
ĠjÄģ p
Ġizdar Ä«t
Ġm ic
Äģr Äģ
a y
Ġuz stÄģd
br auk
b eig
Ġc ien
aceb ook
tur p
Ġkr as
Ġdom as
ing a
Ġr ot
ÅĨÄĵm a
ol i
Ġdarb Ä«bu
ÄĵkÅ¡ ÅĨi
Ġat tÄģl
Ġvirz ienÄģ
aks Äģ
Ġelektr on
Ġnot iks
inÄģ Å¡anai
Ġlik t
Ġier audz
Ġpievien o
ĠzinÄģm s
Ġlap Äģ
Ġp ot
Ġd ef
Ġr Ä«t
um b
Ġne dz
oj ies
Ġne aiz
Ġr oz
ĠbÄĵr na
Å¡ ot
Ġaizsardz Ä«bas
Ġno vÄĵrt
of t
ĠpriekÅ¡ sÄĵd
Ġ eÄ¼
Ġj elg
Äģk iem
Ġ4 0
Ġtelef ona
v an
Ġsk an
ĠstÄģ sts
Ġrekl Äģmas
Ġled us
c ion
e il
Ä«g Äģm
ties a
Ä«g us
Ġsa ÅĨemt
ĠpasÄģk umu
inÄģj Äģs
Ġiet var
Ġkriet ni
Ġl u
Ġuz tic
Ġfin anÅ¡u
l im
Ġstr auj
Ġcen as
Ġties Ä«bu
Ġc Ä«
Ġpac ien
b i
Ġs vaig
Ġvien Ä«gi
ĠsistÄĵm u
Ġl iep
ko h
Ġapm eklÄĵ
i pa
Ġpal dies
' '
Ġv er
Ġv elt
Äģc ijai
Ġkilom etr
Ġmaks Äģ
ĠstrÄģd Äģt
Ġpat eikt
ĠspÄĵl es
ak as
Ġrakst Ä«t
Ġsm aid
Ġof iciÄģl
Ġr ek
Ġaiz dom
ĠlielÄģk Äģ
Ġg Äģj
Ġsm il
Ġnedr Ä«kst
Ġl Äĵn
Ġkriev u
ĠdzÄ«v e
skai dr
v i
Ġt witter
Ġ2 1
ul is
Ġdz el
ist iem
pat ies
Ä« Å¡anai
Ġpils ÄĵtÄģ
Ġrun Äģ
Ġz vaig
b o
Ġat kÄģrt
ok a
Ġtr as
m l
Ġd et
Ġko k
Ġned ÄĵÄ¼u
Ġnevar u
Ġc el
Ġan g
Ġpriek Å¡u
Ġm us
n er
or i
Ġvid es
Ġugun s
ov s
Å«dz u
Ġs aules
pr et
nÄ«c Äģ
Ġatz Ä«st
Ġk od
ĠkÄģd reiz
lab Äģk
et ru
ĠdÄģr g
h a
Ġk Äģjas
Ġsav Äģd
h t
Ġ 000
ĠbÄĵrn s
ĠpÄģr kÄģp
ĠkÄ¼u va
isk ie
aug u
el n
Ġel em
ĠizrÄģd Äģs
d el
Ġat lik
Ġnorm atÄ«v
Ġj Äģr
Ġgal a
Ä«t Äĵm
Ġtaut as
Ġat klÄģt
Ġdom a
Ġnos lÄĵg
Ġpus marat
b ur
Ġb as
Ä«n s
Å¡Ä· i
Ġ and
Ġsak ot
inÄģj umi
ek Ä¼a
ul i
iek l
dz im
ĠÅ¡Äģd as
Ġs eÅ¡
Ġm Äģs
sm e
Ġier ad
Ġmel n
Ġpr es
Ġcitu s
Ä«d a
not eik
Ġb ijÄģm
Ġkr ust
Ġskat Ä«ties
l ietu
at s
Ġf l
Ġprogram mu
Ġv iel
Ä«n Äģ
at Äģ
Ġsapr atu
d iemÅ¾Äĵl
is ts
Ġnes en
ie tus
ĠcilvÄĵk us
emp ion
Ġiz tur
m aksas
Ġs aus
Ġpiek r
Ġizveid ot
an tu
Ġd is
Ġt om
Ġagr Äģk
Ġnevaj adz
Ġdz elt
ac k
Ġbr aukt
Ġmaks as
f it
Ġat zÄ«m
Ġsan Äģca
ol s
oÅ¡ os
Ġdiv us
Ġ ed
Ġinter v
val sts
ĠproblÄĵm u
Ġap rÄ«
oc i
Ġgrib as
ĠmÄĵr c
Ġgal vu
Ġin v
Äĵ na
in is
Ġvied tÄģl
ra f
ĠÅ¡Ä· ita
j an
ĠvadÄ«tÄģj a
Ġfr an
Ġat d
ĠvÄĵl reiz
Ġatbal sta
Ġsaska ÅĨÄģ
Ġsieviet e
e ÅĨa
Å¡ oreiz
Ġm ik
ĠuzÅĨÄĵm uma
Ġrun Äģt
Ġie lÄģ
Ġrad io
Ġpak Äģp
ĠizvÄĵl Äĵties
Ġgu dr
Ġpr ÄģtÄģ
Ġkr im
Ġkar tup
Ġvasar as
Ġj omÄģ
Ġuz d
Ġb ru
Ġr odas
Ġpan Äģk
ej am
Ġuzt ver
Ġsm al
Ġpul kst
Ġpar akst
Ġz ir
Ġietvar os
Ġ2 4
l am
Ġlik um
Ġmekl Äĵt
Ġvir tu
p av
Ġliet otÄģju
l aus
v el
Ġt ul
val st
ib li
sm it
in e
ti f
lik ums
Ġal us
ros s
pr oj
Äĵs im
em d
niec e
ien us
Ġcen a
Ġd ib
Ġpas Å«t
Ġneb iju
n ep
Äģn is
Ġturp mÄģk
Ġuz l
Ġal koh
ator s
Ġd e
ĠtÄģd ÄĵjÄģdi
Ġieg uld
ĠreÄ£ ion
Ġb oj
ir s
Å« m
Ġnos ac
ĠÄį empion
ien as
Ġs uper
Ġl ej
ub lik
Ġsag aid
Ġdir ekt
Ġt ip
, Â»
Ġpel d
Ġr est
i Å¾
niec Ä«bu
Ġp ÄĵkÅ¡ÅĨi
ai k
al d
ien es
Ġkur Äģs
Ġsl av
f Äĵr
Ġno n
pa Å¡
Ġiz j
Å¾ iem
Ġap galv
el ta
Ġlauk u
Ġcentr a
Ġt Äĵv
og as
Ġrad a
nÄ«c u
p unk
at as
Ġz ina
Ġsev is
Ġziemas svÄĵt
Ġb er
Ġvalst Ä«
Ġapm ier
Ġkai t
il s
Ġkval itatÄ«v
kai t
mÅ«s u
Ġdur v
Ġpas aul
pan ta
Ġf ak
n Äĵm
Ä«t Äģs
Ġpag as
Ġpareiz i
n iem
Ġv an
ĠvairÄģk i
enc iÄģl
Ġtirg Å«
ar d
Ġpiedal Ä«ties
ĠÄģr zem
ĠtÄģl u
Ġstr ukt
Ġvajadz Äĵja
u pa
ĠcilvÄĵk am
1 9
Ġotr o
us s
ip Äĵd
oÅ¡ ie
Ġpopul Äģr
Ġmaz u
b ieÅ¾
Äģt iem
Ġsk aÄ¼
Ġaiz g
ams ung
ĠmÄĵ dz
em br
Ġsv eÅ¡
ĠsistÄĵm a
Ġatbr Ä«v
Âł Âł
enc i
Ġatt iek
Ġzv iedr
Äģc ijÄģm
eg or
Ġbeig Äģm
1 2
Ġk aim
Â» ,
Ġkriev ijas
m ums
Å¡ ru
ĠceÄ¼ Å¡
iÅĨ ai
ĠvÄģrd s
Ġotr ajÄģ
Ġpies lÄĵg
ĠpiedÄģv Äģt
ĠzinÄģt n
Ġsitu Äģciju
t ob
Ġd el
Ġd ub
ĠmeÅ¾ a
ĠbudÅ¾ eta
Ġvien Ä«gais
ĠpaÅ¡ iem
Ġizv iet
Ġl Ä«n
ok ol
e a
Ġiek Äģrt
Ġsk a
laic Ä«gi
Ä£ Äĵrb
Ġkr eis
eic a
ĠproblÄĵm a
Ġattiec Ä«bas
Ġprojek ta
Ġatbilst oÅ¡i
Ä«c iju
ier i
ik l
el e
ros oft
Ġvis Äģd
ĠpÄģrvald es
oj ami
id u
Ġiegu v
f i
Ġnor is
Ġs ejas
im p
n ez
Ġ +
ĠparÄģd Äģs
er e
il p
ĠpÄģr skat
Ä«z es
Ġdisk us
ator u
ĠgadÄ«j umos
ĠnodroÅ¡ ina
Ġvai n
Ġdien Äģm
ĠdaÅ¾Äģd i
Ġnevaj ag
Ġvien am
Ġcentr Äģ
ross fit
on am
Ġkur ai
Ġap ar
ĠdzÄ«v ot
Ġkomand as
Ġmir kl
Ä· a
og raf
Ġperson u
Ġ Ð
Ġob lig
al l
Äģk ajiem
Ġrok Äģs
Ġlatv ija
st as
Ġiep irk
m am
Ġt or
kl aus
ÄĵtÄģj i
Ġt end
gal ven
Ġdeb es
Ġk os
og s
vis i
Ġr et
Ġbal st
h ttp
Ġgal da
kam Äĵr
Ġ aus
Ġtelef ons
d Äģr
inÄģt as
Ġeir o
Ġ on
Äģk ie
Ġc h
Ġkomis ijas
ak i
ĠÅ¡ Ä«m
tas t
Ġsas niedz
r ez
Ġb ibli
ek cijas
ĠuzÅĨÄĵm umu
ot Äģs
Ġgad i
Ġizm ÄĵÄ£
Ġmaks im
ĠnekÄģd u
Ġautom aÅ¡
Ġz ob
ĠrezultÄģ tu
Ġs Ä«p
ĠÅ¾urn Äģl
Ġpl auk
Ġtik ko
Ġrep ublik
eÄ¼ a
Ġdiv u
Ġik dienÄģ
ĠreÅ¾ is
Äĵ b
Ġkoment Äģr
Ġc Ä«n
Ġap akÅ¡
no v
Ġinstit Å«
Ġiet eik
Ġt auk
Ġnosauk umu
ĠceÄ¼ Äģ
Ġdom u
Ġp Ä¼
Ġ ag
ĠiegÄģd Äģties
Ġr aid
ĠkÄģrt Ä«bu
Ġizkl aid
em j
Ġmod er
Ġveikal Äģ
f er
Äģt ad
Ġval stu
Ġveid s
d iv
e tÄģ
Ġsat r
laik us
Ġt Äģtad
ien am
Ġliel as
ÄĵtÄģj a
Ġpadom es
Ġp ur
Å¡ obrÄ«d
em b
ĠiestÄģd es
Ġap l
Ġmin im
Ġnoteik t
1 5
Ġk ak
Ġh t
Ġnos lÄĵp
Ġmanu prÄģt
Ġnek ur
ĠtÄĵm u
Ġpieej ams
inÄģj is
st ies
Ġpien a
Ġnep ie
Ġ ev
auj as
Ġveiksm Ä«gi
ĠpÄģr lÅ«k
Ġlik umÄģ
Ġblog u
ĠsastÄģv d
Ġb ul
Ġjur id
ar u
lik uma
ai nu
Ġ eg
in am
Ġaiz s
ĠmÄģj Äģm
Ġsat ur
Ġv aÄ¼Äģ
Ġs un
Ġd aug
Ġ2 2
Ġsam aks
ĠlÄ«m enÄ«
Ġb it
ĠpasÄģk ums
n od
Ġbr ok
ĠsÄģk Äģs
v aj
Ġd ig
Ġiz nÄģk
ĠmÅ«s dienu
ek ti
Ġpriv Äģt
Ġaiz vien
Ġizm aks
Ġtirdz niecÄ«bas
Äģm u
og noz
Ġb e
Ġvien al
Ġig aun
Ä«s i
ĠpÄģr dom
Ġaiz iet
ĠceÄ¼ am
Ġv ed
a Ä£
Å¡ eit
Ġsitu Äģcija
Ġc Äĵl
Ġblog Äģ
Ġkat egor
k us
Ä· es
ain Äģ
lab i
Ġbalt ijas
Ġviz u
sk a
kat oties
ĠnekÄģd as
Ġbag Äģt
oti v
Ġspor t
b e
Ġreiz Äĵm
Ġd em
Ġuz b
ĠsÄģk t
ĠvietÄģ m
bild e
Ġzvaig z
c el
Ġr os
ĠviÅĨ us
beidz ot
Ġgu Ä¼
Ġot ra
Ġmeit enes
Ġmar Å¡ru
Ġtais n
Ġl ietus
Ġd ai
Ġne l
Ġat ras
Ġkon st
ĠnedÄĵÄ¼ Äģ
Ġn oti
Ġap ple
ĠsÄģk as
Ġgr Äģd
Ġr ÄĵÄ·
Ġh ttp
Â» .
ĠvÄ«r ietis
o Å¡anos
Ġd iemÅ¾Äĵl
Ġne vÄĵl
isk ajÄģm
aug st
lo dz
tÄģ la
Ġpag atav
Ġsiev ieÅ¡u
Ġid ejas
Ġskrie Å¡anas
il a
Ġab i
Ġnakt Ä«
Ġp Äĵd
cen tr
Äģn Äģ
Ġk au
ĠjautÄģj umiem
ĠkrÄģs u
et e
Ä«g os
Ġw ww
isk os
Ġin t
Ġproj ekt
ĠspÄĵk u
Ġrad Ä«t
Ġmed ic
Ġstat ist
pr iec
Ġatbal stu
oÅ¡ ajiem
Ġang Ä¼u
Ġpieredz e
Ġadministr atÄ«v
Ġkrim inÄģl
p o
ĠÄ· ir
g atav
ot Äĵk
ĠmÅ«z iku
Ġraj ona
am Äģk
Ġl ok
Ġik dienas
Ġpieredz i
Ġt ar
Äĵl i
ĠpaÅ¡vald Ä«bu
Ġtemp erat
paties Ä«bÄģ
b a
c it
t Äĵt
kr it
Ġnoskr iet
Ġc iv
s ept
ĠkÄ¼u v
Ġs om
Ġap gr
od s
iniek u
Ġzv an
ĠÄģd as
Ġiz stÄģd
Ġpies aist
Ġp ed
Ġf ai
Ġe x
Ġt oreiz
Ġas to
Ġrok Äģm
Ġpriek u
Ġl Å«g
en Äĵ
ĠvienkÄģr Å¡
Ġjau tr
Ġkr Äĵm
Ġs adz
ek ta
ĠaktÄ«v i
Ġdzies mas
r s
ĠpÄģr r
ĠvairÄģk us
Ġr ob
Ġlik ums
e Äįu
Ġj Äģv
Ġlau kÄģ
ĠapmeklÄĵ tÄģj
Âł Ġ
Ġvajadz Ä«gs
Ġtr au
k iem
Ġaplik Äģciju
Ġbez maksas
Ġpot enciÄģl
Ġab sol
Ġblog a
ĠsÄģk uma
Ġfil m
ĠiespÄĵj Äģm
Ġd ol
ekl is
Ä« Å¡os
oj ams
Ġst abil
Ġpal ika
i Å¡Ä·
Ġko ka
man s
ain as
br aukt
Ġt ab
Ġpils Äĵtu
Ġapj om
vien a
Ġkval itÄģtes
k os
Ġap kop
Äģj ies
ĠkrÄģs as
Ġs Å«t
Ġj um
Ä«j usies
Ġkatr Äģ
Ġol as
ĠÅ¾ Äĵl
ĠjÄģn is
Ġat sp
Ġval odu
eb ru
ov a
ĠnepiecieÅ¡ ama
z i
Ġk v
Ġn ag
Ä«g ajÄģ
Ġgatav s
Ġsaj Å«s
Ġser tif
if ic
Ġlai c
Ġliel o
Ġties as
ĠmÄĵr Ä·i
ĠizrÄģd Ä«jÄģs
Ġt Å«l
Ġz in
ĠjÄģ uz
m aiz
os ipÄĵd
man t
Ġsv in
Ġpasau li
Ġs in
Ġuz tais
Ġgroz Ä«jumiem
pÄĵj u
Ġnek ust
m ier
v eic
Ġizdev Äģs
Ġdator a
Ġamat person
Ġk and
Ġf on
in iec
Ġtik tu
Ġvec umÄģ
Ġl Ä«d
Ġdiv Äģm
Ġdzies mu
Ġ Äĵst
Äģ Ä¼u
Ġgar umÄģ
Ġproces s
Ġn ÄģcÄģs
Ġkr Äģj
1 1
p ol
Ġr el
Ġst Å«r
Ġsapr at
Ġgais a
Ġprakt iski
Ġapskat Ä«t
iÅĨ Äģs
Ä£ istr
lai kam
ĠÅ¡Äģd s
Ġno gur
Ġid eja
Ġatkl Äģj
us u
Ġpa ÅĨÄĵm
Ġg aÄ¼as
ĠlÄ«dz Ä«gi
Ġmobil o
Ġb at
eÄ¼ i
Ġredz ams
Ġd es
Ġc elt
Äĵt ie
Ġskai tu
au Å¾
Ġap st
Ġtr im
Ġot ras
ph one
Ġliel iski
Ġtrad ic
Ġm otiv
b an
inÄģj umus
pap ild
Ġ os
Ġl Ä«k
Ġnopirk t
Ġv Äĵd
Ġs est
Ġnoteik umi
ĠrÄģd a
Ġmic rosoft
Ġf acebook
Ġlit erat
Ġg lab
Ġpadom ju
pÄĵj as
Ġh ol
Ġvec uma
Ġs lÄĵg
gad u
Ġs Äģls
Ġd ot
Ġb ai
Ġindiv idu
Ġat jau
az Ä«st
Ġvir tuv
ĠzinÄģt nes
Ġgal am
Ġizr ais
Ġs ia
Ġat Ä¼auj
Ġskai tÄģ
Ġamer ikÄģ
Ä¼ Å«t
Ġpr ognoz
Ġvis vairÄģk
Ġuzs Äģk
Ġdzelt en
vis maz
Ġbiju Å¡i
Ġizp Äĵt
at r
Ġk Å«k
Ġl ep
ĠsociÄģl o
Ġfan tast
Ġnep il
Ġaug Å¡u
Ġpieej ama
Ġ Ä«
il k
ar i
vis u
Ġneb Å«t
run Äģ
Ġs e
Ġnos Å«t
Äģl as
ais m
Ġ2 3
Ġdr aud
Ġdev Äģmies
veik al
emb ra
Ġpr aks
Ġsm iekl
eir op
ĠlielÄģk u
Ġ200 8
Ġeksper im
ies m
Ä«d u
Ġas oci
Ġarh it
Ġk rÄ«z
ĠÄĵr ti
Äģl ais
Ġpolic ijas
2 00
ap s
ĠglÄģ b
4 0
Ġm ak
Ä¼ Ä·
isk Äģm
Ġsk Äģb
niek am
Ġnes kai
at cer
ap ar
ok Äģrt
ing s
ĠlÄ«dzek Ä¼u
Ġ Ä«r
Ġp abal
Ġvar o
ĠkÄģd us
Ġprojek ts
z a
Å¡ au
pad smit
u c
Ġm ieg
Ġaizl ieg
Ð °
ÅĨ os
ĠpatÄ«k ami
or gan
az Äģm
Ġst aig
Ġb Ä«st
Ä«g ajiem
ĠdaÅ¾Äģd iem
Ġser ver
Ġproces u
Ġveikal u
ĠnÄģkam ajÄģ
Ð ¾
Ġiem Äģc
t iek
Ġat sk
ĠpÄģr viet
Ġdaudz iem
Ġor ien
Ġapr ÄĵÄ·
Ġautom Äģt
Ġsaei mas
s am
man i
Ġaut ors
Ġnaud a
kÄģd s
b in
Ġperson a
Ġsat uru
Ġprogram m
Ġvers ija
m m
kl Äģj
au p
iz Äģcijas
Ġveid u
Ġparedz Äĵts
Ġvel osipÄĵd
Ġj an
Ġdien Äģs
Ġor iÄ£
ĠpalÄ«dz Äĵt
âĢ ¢
Ġred ak
Ġaug Å¡Äģ
Ġd ek
dz es
Ġap lÅ«k
pÄĵj a
Ġpaz ud
Ġkar st
Ġpas niedz
ĠpriekÅ¡ r
Ġpab eig
Ġp o
Ġb au
oj ama
ĠkÄģrt as
Ġv Äĵ
Ġs iÅ¾
es tiv
Ġban kas
Ġkur os
man a
Ġdom es
Ġiek Äģr
Ġac u
Ġdzel z
g i
Ġturp ina
ĠsÄģkot n
Ġliet otÄģjiem
ĠvÄģrd iem
j Å«s
r o
Ġmal Äģ
eli Ä£
Ġv Äĵj
Ġkar tes
Ġnen ot
Ġvalst Ä«s
) ;
Ġre al
Ġi phone
ab iedr
Ä«v a
ĠnÄģkot nÄĵ
Ġizpr at
d er
Ġkom erc
Ġv iÄ¼
Ġs amsung
Ġpus e
Ġtelev Ä«z
Ġk ul
Ġaug Å¡
iniek i
Ġatz in
Ġizmai ÅĨas
r Ä«t
ĠvÄĵl me
ĠkÄ¼ Å«t
Ġsavien Ä«bas
Ġkand id
Ġc eru
ĠnekÄģd a
ĠapstÄģk Ä¼os
Ġgai tÄģ
Ġl Äĵt
il l
Ġkr Äĵs
Ġtr eil
isk ajiem
ĠpÄģrst eidz
str um
ĠĠĠĠĠĠĠĠĠĠĠĠĠĠĠĠ ĠĠĠĠĠĠĠĠĠĠĠĠĠĠĠĠ
Ġne jau
ni Å¡Ä·
Ġid eju
Ġp h
er iem
Ġvis am
Ġkabin eta
Ġs ub
Ġb Äģr
pr ot
Ġsp Ä«d
Ġreiz Äĵ
Ä«t Äĵ
ĠpaÅ¡ laik
Ġpag al
ÄĵtÄģj iem
Ġmier Ä«gi
ĠÄ·er m
Å« ts
Äĵt ajÄģ
Ġne lai
kl as
ĠÅĨem ot
Ġteritor ijÄģ
as ti
ĠbÅ«t iski
Ġgl ez
Ġdur vis
Äģt as
Ġsam Äĵr
Ġslik ti
Ġr ai
ĠÅ¡Ä· Äĵrs
ĠbrÄ« Å¾a
ĠierÄ«c es
pr ogram
sk is
Ġdod amies
Ġp Å«
Ġz inÄģÅ¡anas
Ġst ik
Ġlik umu
Ġinteres ant
Ġproces Äģ
ĠnodroÅ¡ inÄģt
ĠekrÄģn a
i Äį
Ġpast aig
Ġinv est
ĠpÄģr dev
pr es
Ġdien vid
pl Äģn
ĠtÄ«k l
ĠmÄĵne Å¡a
Ġviegl Äģk
ĠtÄ«r i
Ġiz Å¡Ä·ir
Ġstund Äģm
kom ent
ĠÄ« pat
at ÄĵÄ£
Ġgal u
Ġiz dz
el l
Ä· Äĵr
Ġsm adz
Ġie lu
ĠrezultÄģ ts
Ġnosauk ums
d ec
n or
ĠÅ¡ okol
Ġsp ie
Ġmeit ene
Ġsaim niec
Ġiev ad
Äĵs ies
r on
ĠiepriekÅ¡ ÄĵjÄģ
Ġr as
Ġr iet
Ġs em
Ä«t ais
ĠmÄĵnes Ä«
Ġt ipa
Ġpie l
isk iem
Ġlab Äģ
Ġsaj Å«tu
Ġministr ijas
is ms
Äĵj oties
Äĵj umi
Ġkal end
ĠpÄģrt ikas
Ġiz aug
Ġt ums
Ġl oÄ£
Å¡an Äģm
Ġdienes ta
iet i
Ġsakar Äģ
tÄģl Äģk
Ġl ejÄģ
Ġman t
Ġnov iet
Ġciv il
m ens
ÅĨ Äģm
ep at
nÄ«c a
Ġnom ain
Ġg Äģja
Ġes at
Ġs au
Ġiz n
Ġpie ÅĨemt
Ġte Äģt
Ġrest or
Ġlab as
Ġattiec Ä«bÄģ
dom Äģju
Ġvid e
Ġsek und
Ġvalst Ä«m
Ġregul Äģri
m t
z e
Ġu l
Ġdr Äĵb
is mu
Ġb Äģz
Ġdarb i
ĠvÄģrd a
ĠvÄ«r s
ĠsÄĵ Å¾
Ġie stÄģ
Ġan gl
Ġsvar Ä«gÄģk
Ġmas u
Ġtuv u
Ġpie liet
pirm ais
st iem
ic e
Ġiet ver
Ġuzskat u
Ġintern et
Ġf irm
val stu
Ġturp inÄģs
Ġgul Äĵt
Ġied v
tr Äģd
Ġid enti
ĠtehnoloÄ£ ijas
Ġmam ma
Ġt eju
ic i
Ġgrib Äĵtu
Ġmarat ona
Äģl es
Ġnevien u
Ġpras a
ektÄ«v i
Ġapr Å«p
Ġme ist
Ġ &
Ġ200 7
ĠminÅ«t Äĵm
Ġm ur
Ä«v i
Ġ6 0
Ġvien laikus
Ġnev eik
veid a
Ġt h
Ä«j uÅ¡ies
Ġvec Äģki
Ġas p
Ġnevar Äĵja
ie b
Ġsav am
Ġ er
Ġiz vÄĵrt
Ġ200 9
Ġ az
Ġliet o
Ġvid Äĵji
oloÄ£ ijas
Ġziem eÄ¼
Ġb umb
ĠĠ Ġ
c ijÄģm
ap rÄ«
Ġpieej am
Ġnopiet ni
os im
Ġfil mÄģ
Ġats auc
Ġlid maÅ¡
Ġbiznes a
Ġne tic
Äĵr k
mu gur
Ġlatv iju
b iju
ik ti
Ġno sp
Ġr ev
Ġgaid a
Ġn Äģca
Ġc ilv
Ġmain Ä«t
Ġlej up
Ġstr atÄĵÄ£
ĠzÄģl es
inÄģj umÄģ
Ġsagr iez
Ġr Ä«tÄģ
Ġr eliÄ£
en z
Ġgr upa
Ġgal d
ĠdaÅ¾Äģd Äģm
Ġuzr audz
j Å«l
z Ä«st
Ġm ac
ok rÄģt
Ġstar ta
Ġn ar
Äĵt iem
Ġpie pild
ĠvÄĵl os
ter n
Ġol imp
Ġliet oÅ¡anas
la Å¡
sk as
Ġvec Äģkiem
Ġac Ä«s
Ġiev iet
ĠtÅ«l Ä«t
Ġiz baud
Ġie zÄ«m
Ġaug u
Ġpiek t
ĠmÄģjas lap
Äģ Å¡anas
pr oc
ĠÄ· Ä«m
skai t
1 3
Ġser iÄģl
Ġnot ur
Ġpl ec
kr iev
ĠbieÅ¾ Äģk
Ġneg atÄ«v
Ġiemes lu
Ġgr af
var s
Ġatr is
ĠÅ¾ an
inÄģj umiem
Ġdab Å«
Äģ Å¾
ĠdaÅ¾ iem
Ġmaz a
Ġskai sti
Ġiev ie
Ġnevien a
ĠpÄģrstÄģv ji
Ġht c
at ion
Äģj usi
Ġap strÄģd
Ġizdar Ä«ti
Ġpu is
r it
Ġst ingr
ĠattÄ«st Ä«bu
Ġbur v
Ġn Äģks
Ġiek Ä¼au
Äĵn s
Ġpir c
Ġuz m
Ġpu b
Ä« Å¡anos
it Äģr
vien kÄģr
latv ijÄģ
ĠÄĵr t
ĠjÄĵ dz
Ġie ras
Ġtr auk
Ġdzim Å¡anas
Ġneliel u
t v
Ġs auk
dr a
Ġsapr otu
Ġlab prÄģt
Ġvid u
Ġskol Äģ
ĠsociÄģl Äģs
p e
Ġpaties i
Ġiz z
ĠÄģr kÄģrt
Ġvirs Å«
ĠizvÄĵl e
Ġsac Ä«ja
ĠsvÄĵt ku
Äĵt ajiem
lik a
Ġturp inÄģt
v Ä«r
Ġl ogu
Äį i
Ġliel Äģks
ier is
Ġt es
Ġjaun Äģs
Ġpret Ä«
Ġfin iÅ¡
Ġpras Ä«bas
Ġk n
Ġt Ä«m
Ġw eb
me ÅĨa
Ġpl a
Ġe ur
Ġietek mÄĵ
o x
Ġj Å«r
Ġj ust
Ä«g ai
te gr
Ġlap a
ost as
Ġcuk uru
Ġat jaun
Ġ2 6
Ġsim bol
Ġy ou
Ġl Å«
Ġmal as
sk ap
p am
Ð µ
Ġinteres ants
Ġp eÄ¼
Ġpie gÄģd
pat s
ĠnÄģk amo
Ġizmant oju
Ġgais Äģ
tic amÄģk
ĠenerÄ£ ijas
Ġdv Äĵs
Äĵj us
en ei
Ġc rossfit
iet iek
Ġkal n
ĠrezultÄģ ti
Ġvis ur
kal p
rez ultÄģ
man u
Ġsek o
ĠlielÄģk a
Ġn i
Ġies aku
Ġpas nieg
Ġizv air
Ġties a
Ġsabiedr Ä«bÄģ
Ġres p
Ġie cer
Ġsl ep
Ġieg Å«st
j Å«n
Äĵ dz
el d
Ġie dz
otÄģj am
Ġpart ijas
Ġkonf er
Ġn akti
Ġdarb us
emon str
er t
tr a
Ġvers iju
Ġat stÄģj
iz Äĵt
Ġizm aksas
ir g
Ġmaz o
Ġfin i
Ġizdev ies
ad Äĵm
pr ec
Ġkval itÄģti
Ġdaudz as
ĠvÄģrd us
Ġab as
Äģ ÅĨu
Ġin strum
ieÅ¡ a
Ä«z e
t h
Ġsav Äģs
Ġre Äģli
Ġd odas
em Äģt
j eb
Å¡ ie
Ġpl kst
Ġt on
Å¡ ogad
Ġl v
Ġb Ä¼
Ġc i
Äģt os
it as
Ġattiec Ä«bu
Ġcen Å¡as
Ġmed ij
Ġdarbiniek u
o Å¾
__ __
Ġl ic
Ġg au
Ġpr eÄįu
Ġsp ilg
ĠspÄĵl Äĵ
Ġatm iÅĨas
Ġnum ur
Ġsas kar
Ġpus Äĵm
Ġsak Äģrt
Ġklien tu
ĠÄĵd ienu
kop umÄģ
Ġpa augst
niek us
Ġh ip
Ġcep ur
Ġt ak
at ies
ĠÅ¡ Å«
Ġdraug u
Ä« Å¡a
ar m
Ġm aig
Ġsevi Å¡Ä·i
zem es
Ġuzdev ums
b iedr
ie priekÅ¡
Ġn ik
Ä« Å¡i
Ġs Äģli
Ġj ut
ĠpalÄ«dz Ä«bas
k ol
p ul
v iÅĨas
Ġb u
Ġatbild es
j auk
Ġd Äĵv
Ġrad Äģs
Ġvald Ä«bas
Ġ201 0
Ġpunk tu
Ġdurv Ä«m
d al
Ġno g
Ġsav star
oÅ¡ us
Ġizv irz
Ġmed us
Ġnov ada
s iev
ĠpÄģrs var
i Ä·i
Ġpap laÅ¡
Ġtradic ionÄģl
Å¡ Ä«s
ĠpÄģr mai
tr eÅ¡
Ġpl ast
Ġprogram ma
Ä«tÄģj a
Ġskol u
Ġpa ÅĨem
ĠdaÅ¾Äģd us
Ġdraug i
Ġdiz ain
Ä«g umu
Ġpa audz
Ġvis labÄģk
Ġdz emd
ĠbrÄ« niÅ¡Ä·
interes anti
Ġp ic
Ġnoskr ien
Ġstrauj i
8 0
Ġpamat Äģ
Ġdab Å«t
Ġop tim
Ġvasar Äģ
Ġplan Å¡
Ġbibli otÄĵk
Ġmaks Äģj
Ġklas es
n ol
Ġneg aid
Ġsast op
z u
Ġv Äĵs
an ta
Ġuz ved
Ġnes t
Ġpils Äĵt
ĠdalÄ«b nieku
Ä¼aut ies
m us
Ġatt eik
Ġperson Äģm
Ġrud ens
; )
Ġpam azÄģm
ĠviedtÄģl ru
Ġkomp et
Ġsieviet Äĵm
Ġ8 0
Ġaplik Äģcijas
ot ais
Ġiep ak
Ġsacens Ä«bas
Ġteritor ijas
Ġuzz inÄģt
o o
Ġpas kaidr
Ġsatik smes
Ġz elta
Ġsav s
Ġtur pat
Ġekonom ikas
ĠbÄĵrn am
Ġgalven okÄģrt
ĠÄĵk as
ap z
Ġpam ÄĵÄ£
ator i
Ġtelev iz
e x
ator a
ĠproblÄĵm Äģm
Ġne ie
aug a
uÅ¡ os
Ġlid o
bieÅ¾ Äģk
Ġpar ad
Ġkr u
nes is
ip s
sim ta
b as
c iem
niec Ä«ba
Ġsag Äģd
ĠnolÄĵm u
l auk
Ġ ain
Ġdr us
ĠdaÅ¾ us
Ġsat ura
Ġilg Äģk
v Äģra
Ġ =
Ä«v u
Ġkon cep
Ġbr Å«
Ġgal Ä«gi
ion Äģli
Ġdator u
Ġslik t
Ġzem i
Ġgod Ä«gi
ĠnozÄ«m e
d Å¾
m ul
er ijas
Ġc Å«k
brÄ« n
ĠmaÅ¡ Ä«nas
v s
Ġ oz
Ġt Äĵj
av i
Ġf akts
Ġsas kat
ĠÅ¡Äģd Äģ
Ġsev Ä«
Ġnov ad
Ġpievien ot
Ġpap Ä«ra
ĠparÄģd Ä«jÄģs
Ġskaidr o
Ġjebkur Äģ
Ġapt auj
ac e
Ġsek su
Ġmarat onu
Ġt Äĵ
Ġr emon
Ġies niedz
Ġ2 7
Ġkap itÄģ
Ġnepar eiz
in as
us a
Äģk ajÄģm
Ġz e
Ġsk and
inÄģj usi
ĠmÅ«s dienÄģs
ĠnÄģk as
ĠlÄ«m eÅĨa
Ġdat i
pag aidÄģm
Ġp adz
Ä¼ Äģv
ev a
ĠstÄģ stu
ĠuzÅĨÄĵm ums
Ġnevien am
Ġs Å«dz
an g
isk us
Ġies lodz
Ġrok Äģ
ĠgrÄģmat Äģ
Ġlat gal
Ġpopul ar
Ġn ab
Ġz vÄĵr
Ġdarb iem
Ġvid Äĵ
Ġredz am
Ġskaidr i
Ġdokum entu
ĠvÄģrd Äģ
Ġat liek
Ġin tel
ĠÄ¼ aud
Ġjaun ais
Ġgrib Äĵju
Ġkal nu
Ġprez entÄģ
ĠmÄĵnes i
Ð ¸
Äĵ Å¡anos
Ġr Ä«ga
Ġizlas Ä«t
Ä« Ä¼
Ġnes an
Ġierakst u
Ġkomand a
Ġvienal ga
Ġrakst s
Ġpor tÄģl
j Å«t
Ġu r
Ġv ents
Äĵj umiem
Ġ2 8
skat Äģs
ĠÅ«d enÄ«
Ġbrok ast
s Äĵ
Ġl Äģ
es a
sÄģk umÄģ
ĠtÄĵv s
c e
Ġm om
Ġgrup Äģ
ĠdrÄ«z Äģk
Ġb il
ĠpaÅ¡ ai
Ġ9 0
Ġĉĉ ĉĉ
b ul
Ġv Äģj
Äĵj umus
Ä· iem
ain o
Ġpal ikt
Ġak adÄĵm
vÄģr Ä«
Ġpie vil
ĠpÄģr vÄĵr
Ġcit Äģs
Ġ7 0
Ġatcer os
ĠacÄ«m redz
r y
Ġm ig
Ġf estiv
eÄ¼ iem
ĠlielÄģk o
ĠpÄĵdÄĵj os
Ġnosk aÅĨ
Ġuzs ver
Ġinteresan ta
er Äģ
m os
Ġp ost
Ġgar ant
Ġbal ss
ĠbrÄ«d im
Ġlauk saim
kÄģd a
Äĵj uÅ¡ies
Ġpu d
Ġnoteik umus
otÄģj us
Ġme h
Ä¼ as
Ġsek oj
Ġform Äģ
Ġpasaul e
Ġj ok
Ä«g Äģks
sm as
Ġnok ia
j iem
Ġs ienas
aid u
ĠpÄģr l
ĠÅ¡Ä· idr
Ġgalven Äģ
ĠmÄĵne Å¡us
Ġiemes ls
Ġtam bor
Ġsmar Å¾
1 4
Ġuz kr
Ġotr s
Ġr eti
Äģn i
ĠmÄģj Äģ
ĠÄ«pa Å¡u
Äĵn as
Ġizp au
ĠpagÄģjuÅ¡ Äģ
t ai
ar e
ĠpaÅ¡ reiz
en im
ĠsavÄģd Äģk
b rÄ«d
ab a
Ġnoteik tajÄģ
nez inu
ĠsamÄĵr Äģ
Ġm itr
Ġd rÄ«
Ġslav en
es u
Ġes oÅ¡o
ĠlabÄģk o
darb Ä«bas
ĠkÄģr tÄģ
l ic
itÄģ tÄĵ
ĠkÄģrt Ä«gi
Ġats lÄĵg
ĠpÄĵdÄĵj ais
Ġcentr u
ĠtÄ«k la
Ġnorm Äģli
Ġl aul
ik Äģciju
Ġr ei
Ä«t ie
Ġak me
ĠmÄĵr Äģ
gu dr
ĠtÄ«k lu
ĠatgÄģd ina
Ġrepublik as
Ġs Äĵk
Ġiz skaidr
Ä«t iem
Ġsk um
Ġgal vÄģ
Ġgatav i
ĠÄĵd am
ĠrobeÅ¾ as
Ġcilv Äĵc
Ġci tur
Ġsp Äĵju
Å¡Ä· iet
Ġinteres Äĵ
ĠdalÄ«b nieki
i or
Ġaps pr
ĠtreÅ¡ o
ĠkÄ¼u vis
n ei
Ġaiz ÅĨem
Ġ201 1
Ġpul c
Ġaugst skol
Ġdeg un
tu l
ĠiespÄĵj am
Ġattiec as
kÄģd u
ĠnespÄĵj u
h ol
Ġtr ak
Ġan aliz
ĠdaÅ¾Äģd Äģs
Ġgais mas
Ġsarun as
Ġiz vÄĵr
Äĵt iski
ĠjÄģ pie
Ġizskat Ä«jÄģs
ĠprecÄ«z i
z iem
ĠlÄ«dzek Ä¼us
Ġpateic oties
k ap
Ġelektr o
ĠlÄ«g umu
Ġsacens Ä«bÄģs
Ġin tegr
Ġgr iez
ĠvÄĵrt Ä«bu
Ġizc el
Ġput nu
x x
Ġar m
Ġvald es
Ġint ens
Ġarhit ekt
koment Äģri
darb a
i dz
Ġno b
Ġredak cijÄģ
Ġs atv
Äģn as
Ġ201 2
j am
ir st
Ġsk u
kr ien
Ġmu Ä¼Ä·
Ġped ag
Ġ et
Ġst ad
vis pÄģr
Ġtel pas
l at
Ġm Äģrt
Ġpieej ami
tÄģd ÄĵjÄģdi
Ġstipr i
ĠmÄģt e
s apr
st us
Ġvien Ä«gÄģ
Ġmaks Äģt
iniek s
ĠsalÄ«dz inoÅ¡i
tern atÄ«v
r Ä«gas
as tr
Ġvis pirms
Ġspec if
Ġloc ek
k Å«k
ĠmateriÄģl u
l au
um p
Ġj u
Ġiz st
om Äģju
Ġsp ÄĵÄ¼u
pag ÄģjuÅ¡
Ġl Å«dzu
Ġf ut
Ġdev Äģs
ÄĵtÄģ m
Ġsacens Ä«bu
Ġkur p
ĠkÄģrt Äĵjo
Ġcentr s
bal s
Ġnees ot
n el
inÄģ Å¡u
Ġkar ti
ĠvÄĵst ul
viel u
ĠpriekÅ¡r oc
Äģr st
Ġpras Ä«bÄģm
Ġsitu ÄģcijÄģ
ĠÄ«paÅ¡ uma
ot iem
Ġredz Äĵjis
Ġgaid Ä«t
Ġeirop Äģ
Ġj os
ek tÄģ
k av
Ġm ul
uk s
Ġlik vid
v e
Ġt an
ar ts
Ġne c
Ġcuk ura
r auc
Ġvis Äģs
ĠmÄĵne Å¡u
Ġtul k
p Äĵl
Ġmaz Äģ
ĠpasÄģk uma
Ġietek m
p ak
Ġd ru
Ġdarb oties
Ġaizmir st
Ġdig itÄģ
Ġskai ta
Ġnod ar
a h
ĠpÄģr Äĵjie
ĠlÄ«m enis
Ġpart n
Ġistab Äģ
il i
Ġin sp
Ġlaik os
Ġapm Äģc
Ġnet ika
es am
Ä«c ija
Ġlik a
Ġb Äĵd
Äģk os
Ġh um
Ġier os
Ġik vien
Ġstud iju
Ġkont ek
ĠaprÄ« k
pr inc
Ġkar a
Ġfunk cijas
Ġapmekl Äĵt
Ġpie bilst
od r
Ġgalven o
Ġsnieg t
Ġdat us
Ġj ap
ĠlÄ«dz Ä«gu
pirm Äģ
Ġper f
Ġ ÅĨemt
Ġd Å«
Ġar g
Ġaiz tur
Ġveikal os
ogu Ä¼
ĠiedzÄ«v otÄģji
Ġpel n
ĠatseviÅ¡Ä· i
Ġsavstar pÄĵj
re Ä£istr
Ġpres es
ĠpÄģrsvar Äģ
Ġk aus
Ġt epat
Ġuz g
in Äģr
Ġsl ap
Ġats auk
Ġpieredz es
Ġrot aÄ¼
Ġiz ÅĨemot
om e
var u
Ġpamat a
Ġg e
Ä«g am
Ġvar at
Ġtranspor ta
Ġskatu ves
Ġmugur as
v ÄĵÄ£
Ġval oda
Ġmaz s
Ġatrad u
an as
Ġat ra
ieÅ¾ ot
Ġilg st
Ġsaul e
Å¡au b
l Äģj
Ġt im
Ġ ~
Ġz up
ĠparÄģd a
Ġorganiz Äģcijas
Ġfor Å¡i
v asar
Ġi tÄģl
Ġd us
er am
or iem
Ġlai mi
Ġcit r
Ġpiet r
Ġizs nieg
Ġnoti cis
ĠlÄĵn Äģm
Ġm eg
Ġr aud
Ġpr Äģt
ec om
ieg l
ĠvairÄģk iem
ĠÄģtr umu
ceÄ¼ a
ĠÄ·er meÅĨa
ĠmÄģt es
izrÄģd Äģs
ĠbÄĵrn us
ĠmÅ«z ika
Äģ Å¾u
Ġs eju
Ġvec Äģku
ĠplÄģn s
Ġnop eln
Ġklien tiem
Ġk audz
Ġbur t
Ġprezid ents
Ġaizr auj
r et
Ġt est
at l
st und
Ġkur s
ĠkÄģd iem
Ġpal as
Ġpal icis
Ġrakst Ä«ts
Ġkar j
pil n
b ar
Ġs ant
atv ed
ĠÄ· ipl
ĠjautÄģj umi
Ġgatav a
Ġdarbiniek i
Ġk vad
Ġm i
Ġsal as
Ġsaj Å«tas
Ġpos mÄģ
r im
Ġvis os
Ġnek Äģdi
Ġ5 00
Ġuzdev umu
s ak
man is
f a
m ed
Ġf iks
Ġaug stu
f in
Ġbal l
Ġinteresan tu
Ġst eidz
ĠnorÄģd Ä«ja
ĠapmÄĵr Äģ
ĠÅ¡ u
Ä«v s
Ġdef in
m il
x y
Ġm Äģko
Ġat grieÅ¾
ĠdzÄ«v nieku
ĠreÄ£ ionÄģl
Ġnem ain
1 6
f s
dr aud
ej Äģm
Ġh el
kop Å¡
Ġplat form
ĠmaÅ¡ Ä«nu
on y
Ġz ib
ĠÄ£ ener
Ġprogram mat
Ġp s
iek s
eic Äģs
ĠlabÄģk ais
stÄģ st
Ġmilj oni
ap t
Ġgad s
Ġliet otÄģji
Ġsak u
Ġsat urs
ĠnÄģk amÄģ
ĠtÅ«r isma
ĠapdroÅ¡ inÄģÅ¡anas
Ġne tÄģlu
Ġnep al
Ġjaun us
Ġno lÅ«k
eÄ¼ us
lÄģ b
Ġ en
Äģ Å¾as
Ġt oties
Ġm ag
uÅ¡ ie
uz ÅĨÄĵm
ĠvÄĵrt Ä«bas
Ġmam mas
Ġsh Äĵm
Ġtelp Äģ
Ġj Å«tas
Ġat krit
oj usies
ter s
Ġizd odas
ĠdaÅ¾Äģd os
ĠplÄģn u
Ġkonkur Äĵts
Ġpub lik
e ÅĨi
Ġb aig
et d
Ġap Ä£Äĵrb
Ġvari ants
Ġl omu
Ġpam atu
ĠmÄĵÄ£ ina
ok tob
lÄģ g
g ru
Ġpar ast
Ä«gÄģk ais
Ġsim p
Ġpa gr
Ġal ternatÄ«v
bl og
Ġkol ektÄ«v
Ġs vai
Ġat ver
Ġnod aÄ¼as
Ġaud itor
v ietu
os fÄĵr
ĠvÄģrd i
Ġvajadz Ä«bÄģm
Ġgl ob
tÄģd ÄĵÄ¼
Ġeks ist
Ġsig n
% ,
Ġr ag
Ġaiz mugur
Ġpirm ie
Ġatl aid
n us
Ġd emonstr
Ġb aid
Ġun ik
Ġc m
Ġpie rakst
inÄģt o
pu t
Ġparedz Äĵta
Ġol u
Ġfot ograf
pÄĵdÄĵj Äģ
ĠautomÄģt iski
Ġj Äģt
Ġvien Äģd
vÄĵr a
ĠrezultÄģ tus
ĠiedzÄ«v otÄģjiem
ĠkompÄģn ijas
ebru Äģr
Ġpaz em
Ġautobus u
2 5
Ġm ad
Ġc ie
Ġkon centr
rÄģd i
ĠdzÄ«v ojam
lai ks
niec Ä«bÄģ
Ġkam pa
Ġnozar es
Ġpar lam
Ġk uk
Ġt ajos
Å¡ Äģs
Ġvec o
Ġpel Äĵk
Ġner eti
sÄģk ot
Ġ og
Ġb iks
in st
ĠpÄģr Äĵjiem
ul aik
ties as
Ġprof il
ot e
iet e
Ġzem Äĵ
ĠpÄĵt Ä«juma
Ġf ond
Ġmas k
Ġpakalp ojumus
tel ecom
Ġsarakst Äģ
Ġkomis ija
ar t
Ġvien reiz
Ġpl ak
ĠtÄģd us
Ġgrib i
Ġviedok li
d as
t ev
ul l
ĠpÄĵdÄĵj Äģs
ĠbrÄ«v Ä«bas
Ġ201 3
Ġc il
Ġpie rad
Ġliel Äģs
Ġiedv esm
% .
is s
inÄģj Äģm
Ä«n i
Ġskai sta
ĠvÄ«r ieÅ¡u
Ġj Äģk
om Äģt
ĠtÄģd iem
Ġcep eÅ¡
Ġg aÄ¼u
Ġr iek
ĠÅ¡ aur
b Äģz
c ionÄģl
Ġv ingr
Ġi s
Ġal l
Ġiedom Äģties
Ġpa griez
Ġal eks
ĠÄ£ en
Ġdrus ku
oj iet
Ġvis ticamÄģk
oÅ¡ ajÄģ
Ġkom bin
Ä«pa Å¡i
ĠsalÄ«dz inot
Ġnodok Ä¼u
ĠvÄģc u
Ġbru ÅĨ
t ei
Ġk ub
Ġie ÅĨÄĵm
Ġsav ai
Ġtav u
ĠaÄ£ent Å«ras
Ġk Äģju
Ġl ond
Ġne iet
et ras
Äģl ajÄģ
Äģc ies
ĠvÄĵl ÄĵÅ¡anu
Ġpan Äģkt
ĠlÄ«dzek Ä¼iem
cen Äģr
noz Ä«m
Ġkabin ets
Ġunivers itÄģtes
Ġjelg avas
Ñ Ĥ
Äģ dz
Ġpiln s
Ġcetur t
Ġplast mas
ĠdrÄ« kst
1 8
Ġaiz stÄģv
Ġinteres i
l and
v ain
Ġties u
Ġstarp Äģ
ĠpieÅĨem ts
ĠziemassvÄĵt ku
f ot
in form
Ġat n
Ġsav os
Âł čĊ
Ġsitu Äģcijas
Ġneliel a
Ġgabal u
Ġkilom etru
Ġ15 0
Ġiec ien
irs n
Ġ ĠčĊ
ar g
Ġl eg
Ġgar Å¡as
darb u
Ġiepaz Ä«st
Ġperi odÄģ
Ġledus skap
m eit
at e
Äģd e
Ġman iem
Ġnes katoties
ing u
Ġpils Äĵta
Ġgrup u
Äģk ajÄģ
Ġpar al
ol d
Ġstu l
Ġsagr ieÅ¾
Ġko ku
Ġkr ekl
itÄģ n
inÄģ Å¡anÄģs
Ġnop ir
Ġ200 6
fil ma
w e
Ġ ;)
in os
Ä«z i
ĠmÄģj a
ĠÅ¡Ä· Äĵl
ĠgadÄ«j umu
Ġpiedal Ä«jÄģs
Ġspr ied
b Å«s
m Ä«ne
tÄģ da
Ġat Ä¼au
Ġpie tur
Ġlai p
Ġj Äģl
Ġdarb Ä«ba
ĠdaÄ¼ ai
Ġpagas ta
Ġatst Äģt
ĠÅ¡ it
Ġpl ud
Äĵz ek
ĠbiÄ¼ etes
f al
Ġs aukt
Ġb o
Äģc ijÄģs
ĠlÄ«dz Ä«gs
Ġnep am
par asti
Ġstik la
p Äĵr
Ġ ÅĨÄĵm
ĠvairÄģk u
ĠlÄ«m eni
viet a
Ġ0 1
t oties
Äĵtu s
Ġdom Äģm
Ġproces a
k ul
Ġv it
Ġr up
ol lo
ekl ar
iniek iem
ĠsÄĵr ijas
ĠpriekÅ¡sÄĵd ÄĵtÄģjs
Ġ2 9
atÄ«v i
Ġsek ot
Ġiek Ä¼aut
Ġatz ina
ĠspÄĵk a
Ġsadz Ä«v
e ÅĨiem
Ġs ens
Ġjaun i
ĠvÄĵstur es
Ġtap Äĵc
Äģ Å¡
Ġi pad
Ġiz dzÄ«v
Ġpie ÅĨÄĵm
ĠjautÄģj umus
ij am
Ġnez inÄģm
Ġ ÅĨ
Ġne trauc
gad am
ust Äģ
ĠgrÄģmat Äģm
Ġtelef onÄģ
sÄĵd es
ik ai
Äģr iem
Ġkontrol es
6 0
Äģl is
ol es
ĠvienkÄģr Å¡a
kop Äģ
b ola
Ġaiz brauc
ĠjÄģ iet
ĠnekÄģd s
Ġsnieg a
Ġizmanto Å¡anu
oj uÅ¡ies
Âł ĠĠ
Ġproduk ts
l og
al a
Ġr Ä«gu
Ġz ar
inÄģj uÅ¡i
Ġnor vÄĵÄ£
Ġnotik umiem
Ġkomand u
ĠvÄĵr tÄĵ
ĠnepiecieÅ¡ amo
Ġministr s
Ġliep Äģjas
auc a
Ġfr anc
o od
Ġ one
Ġg un
oj amo
Ġfil mÄģm
Ġkomp ens
Ġpunk ts
Ġsadarb Ä«bas
ĠrÅ«p Ä«gi
Ġaktiv itÄģ
Ġnevajadz Äĵtu
Ġcit os
Ġ3 1
Ġgrib Äĵja
nÄģk am
Ġsvie stu
Ġarg um
c m
f l
Ġ /
oÅ¡ Äģm
c ijai
t iec
ĠâĢ ĺ
Ġtr am
Ġ3 5
Ġproduk tiem
Ġatjau no
ab i
Ġvad Ä«bas
ĠplÄģn ots
Ġpolit ikas
Ġiepaz Ä«ties
Ġinterne tu
Ġbaz nÄ«cas
eirop as
c i
c es
Ġl Å«dz
Ġb Å«d
aud a
Ġjaun ieÅ¡u
Ġatrad Äģs
ĠteÄģt ra
ĠvÄĵl ÄĵÅ¡anÄģs
ĠdaÄ¼ Äĵji
run Äģjot
Ġbur kÄģ
Ġnesapr ot
m od
n op
Ġlaik rakst
ig ar
ĠgrÄģm atved
Ġmik r
Ġne lik
Ġsp Äĵja
Ġstr au
Ġneat cer
Ġdraug s
Ġkrit Äĵr
k or
Ġiz ÅĨem
Ġie st
Ġkaf ej
Ġr o
Ġal u
Ġattiec Ä«gi
tik u
Ġtav a
Ġsaglab Äģt
manu prÄģt
ien os
Äĵj usies
Ġgr ie
Ġredz u
ĠoriÄ£ in
p er
Ġm Äģm
Ġar t
Ä«m Äĵ
Ġlaik iem
Ġmin i
Å«r ai
ĠvÄ«r ieÅ¡i
galven ais
Ġno form
oj umam
Ġrad i
Ġsaist Ä«ts
ĠmÄĵne Å¡iem
ĠdalÄ«b niekiem
Ġuzrakst Ä«t
Ġkompl eks
ĠjÄģd ara
ĠvÄĵj Å¡
f oto
Ġk aul
enc Äĵ
vÄģrd u
Ġl mt
Ġm atu
Ġap kalp
Ġies kat
Ġform as
ĠmÄģr ket
m Äģc
Ġm iz
Ġd ej
em z
Ġpas aÅ¾
Ġliel isks
ĠparÄģd Ä«t
Ġrun a
pils Äĵtas
Ġlog a
Ġef ektÄ«v
j Äģs
Ġne no
Ġek sk
Ġproduk tus
Ġpapild u
Ġsasnieg t
Ġviedok Ä¼a
Ġpr op
Ġap ak
Ä· Ä«
Ġdom in
Ġnoskat Ä«ties
Ġboj Äģ
Ġk av
Ġs od
Ġvar as
Ġval sti
Ġsak r
ĠÄģtr ums
ĠÄ£ e
Ġvien ai
ĠpÄģr Äĵjo
Ġbr iesm
Ġpag Äģt
ĠspÄĵl e
liek as
Ġ ''
Äĵr a
ĠnozÄ«m es
Ġnotik umu
Ġaplik Äģcija
ĠsastÄģv Äģ
ĠzÄģl Äĵ
ĠÄ«pat n
as tu
Ġm Äģk
Äĵl a
Ġpas m
Ġblog s
Ġris inÄģjums
Ġs it
Ġs cenÄģr
ĠplanÅ¡ etd
c o
Ġap gu
me tu
ĠizstrÄģd ÄģtÄģj
Ġt ajÄģs
Ġd u
Ġd ikti
Ġne man
Äĵk ab
Ä«n es
z as
Ñ ģ
Ġp ers
Ġat vÄĵrt
ist ab
ĠdaÅ¾ Äģm
akt Ä«v
lÄ«dz Ä«gi
Ġb Äģzes
tÄģ lÄģ
iel Äģd
Ġkval itÄģte
ĠspeciÄģl i
Ġv ol
Ġs iera
in oties
Ġg Å«t
Ġmarat ons
Ġsakar u
Ġatv aÄ¼
Ġm is
Ġnod aÄ¼a
Ġnees am
Ġmetod es
iet es
Ġatbal sts
Ġpr oti
Ġpa ÅĨemt
Ġh a
br itÄģn
Ä«d as
Ġpiln a
Ġrez erv
Ġbild e
al g
Ġc ipar
jau tÄģj
Ġter min
ĠlÄĵm ums
Ġtek stu
noteik umi
Äģ tus
Ġpie Ä¼auj
Ä«j umos
kur Å¡
Ġmilz u
ĠfotogrÄģf ijas
Ġnejau Å¡i
Ġl ak
Ġzem Äģk
Ġkam eras
Ġministr ija
ĠmeÅ¾ Äģ
Ġvald Ä«ba
tel ef
ĠÄĵk u
Ġtar if
ol og
Ġot rÄģdi
Äĵn iem
Ġatm iÅĨÄģ
Ġkonst ruk
Ġatsk aÅĨ
Ġnep as
Ġ3 00
Ġizm eklÄĵ
Ġauk st
ĠkomentÄģr os
ĠÄ¼aud is
Ä« tus
Ġpie lÄģg
Äģl iem
ĠpÄģrstÄģv is
ĠpÄĵr n
inÄģj ies
ieÅ¡ us
lab an
ĠÅ¾ el
pirm kÄģrt
inÄģs ies
enerÄ£ ijas
Ġpad ara
Ġpamat Ä«gi
liek u
Ġfunk ciju
ĠnespÄĵj a
Ġfinans iÄģl
Ġsatv ers
princ ip
ĠlielÄģk oties
mai jÄģ
z inÄģt
er Ä«
Ġuz bÅ«v
Ġf ol
cilvÄĵk i
Ġiz aic
Ġie interes
Ġf e
Ġdaudz umu
ig a
ĠbrÄ« Å¾iem
Ġdem okrÄģt
Ġm Ä«n
ust r
Ġgala xy
4 5
Ġm Ä«kst
am ie
Ġg Äģz
ĠvÄĵrt Ä«ba
Ġvel ti
stÄģj Äģs
Ġdiev s
Ġpsih oloÄ£
r is
Ġm ieru
Ġb ail
Ġiz liet
ti pr
Ġpat eik
Ġkl Äģ
Ġskat oties
ĠÄ«paÅ¡ umu
ĠÄ£im ene
ĠizmÄĵr a
ĠjÄģm aksÄģ
Ġservis u
Ġfak tu
Ġl eÄ£
Ä«j Äģmies
Ġlab o
Ġnes p
ĠplÄģn a
Ġmain Äģs
Ġteic u
not aÄ¼
Ġautor i
Ġfakt iski
Ġfran Äįu
en Äģ
Ġkal na
Ġklaus Ä«ties
Ġsez onas
Ġplud mal
j Äĵdz
Ġp ienu
Ġsap l
Ġgrib Äĵtos
ĠplÄģn o
ĠkolÄĵÄ£ i
d od
m ÄĵÄ£
ot es
Ġpl Å«s
Ġpil nu
Ġak c
Ġpam od
Ġnum uru
Ġizg atav
d e
p iek
Ġr u
ieÅ¾ u
Ġskat Äģs
Ġskol Äĵnu
Ġd ob
Ġpie dzim
Ä«tÄģj us
jas mÄ«ne
ĠtÄ«m ekÄ¼a
Ġ eti
Ġatkar Ä«gs
kait ot
ĠjÅ«r mal
Ġd ec
Äģs im
Ġuz rÄģd
Ġpa zÄ«m
oc k
Ġas in
ĠjÄģs aka
Ġvis Äģdi
Ġliel i
vÄĵl Äģk
Ġc om
Ġat nÄģk
pr ess
Ġdiv desmit
Ġnevar Äĵtu
Ġsabiedr isko
Ġizs lÄĵg
at kal
Ġliel iska
Ġpal ai
ist e
ĠsÄģk ums
Ġziem Äģ
Ġbild i
Ġpiedal Äģs
Ġdai Ä¼
Ġsant Ä«m
o ÅĨu
Ġiz sk
Ġpirk t
Ġfor mu
Ġfunk cion
Ġvakar a
ĠspÄĵk s
Ġaktiv itÄģtes
m Ä«l
t om
Ġl Äĵni
Ġd eklar
ĠÄį etras
Ġiek r
Ġtav s
Ġl im
Ġne tr
Ġap draud
Ġz a
ic s
uÅ¡ Äģ
Ġnevar Äĵju
Ġraj onÄģ
m Äģt
Ġ ej
Ġno kr
tu ras
tu be
Ġre ak
Ġneliel s
ĠpaziÅĨ oja
Ġkons erv
Ġk in
Ġl ien
am etr
Ġr aim
et er
Äģj Äģ
Ġman Äģm
dien Äģm
Ġnoteik umiem
Ġieg Å«
Ġs irsn
stu d
Ġpan ta
Ġdarbiniek iem
ĠiestÄģ Å¾u
Äĵ Å¡anÄģ
Ġkr Å«t
Ġmaz as
strÄģd Äģ
Ġaizsar g
am er
Ġsp Ä«ti
Ġtr ans
Ġel p
Ġneiz dev
ĠraÅ¾ oÅ¡anas
Ġpul ver
Ġnees i
v iÅĨu
Å Ĺ
Äģs ies
Ġno stipr
Ġkam eru
ĠspÄĵl Äĵt
Ġizt eikt
ĠmeÅ¾ u
Ġuzb ruk
ĠpÄģrr aid
Ġm Ä«t
in iet
Ġnep ietiek
Ġh ot
Ġpak aÄ¼
Ġatbild i
Ġadres i
ĠnÄģv es
Ġsertif ik
Ġp aj
ol us
Ġvien laicÄ«gi
Ġproduk ti
Ġviedok lis
v ietÄģ
Ġv Äĵt
pas ta
ĠpÄĵt Ä«jumu
Ġveikal a
Ġkaf ijas
Ġdek or
p p
Ä ±
Ġs ieru
Ġiz lÄĵm
vis as
Ġgar Å¡u
br Ä«v
ĠglÄģ z
Ġst ab
Ġvajadz Ä«bas
Ġnen oz
Ġsamaz inÄģt
Ġsarakst u
ĠkopÄĵj Äģ
Ġkun gs
Ġsabiedr Ä«ba
Ġtuv umÄģ
Ġsaist Ä«bÄģ
c iet
j ot
Ġs Äģn
Ġiz k
Ġz ini
Ġinform Äĵja
ĠbrÄ«v i
Ġvers ijas
ĠÅ¡au sm
Ġpar aug
id e
pus Äĵ
Ġapg aism
g od
j or
Ġiz nÄ«c
Ġat g
Ġap tur
Ġkar t
ĠÅ¡Äģd iem
Ġmed iju
ĠiepriekÅ¡ Äĵjo
run i
Ġresurs u
l Ä«d
Ð ½
Ġ ener
Ġf ir
Ġnep ied
Ġpag ar
Ġmuz ik
ĠnepÄģr trauk
g e
Ġt Äĵjas
Ġuz lik
Ġf ail
ĠpÄģr trauk
sp Ä«d
Ġiet ilp
Ä«gÄģk a
ĠsistÄĵm Äģ
Ġbeidz Äģs
ĠkompÄģn ija
l iem
ap kÄģrt
tr Ä«s
Ġdaudz ums
Ġjebkur u
Ġaic ina
ĠmÄ«lest Ä«bu
Ġt Äĵju
ij iem
kl us
Ġveid ojas
Ġvid i
Ġkar al
Ġmus ku
ĠsÄģkotn Äĵji
i Ä·u
ĠÄ¼ aun
Ġnos lÄĵdz
Ġab iem
Ġform ul
ĠierÄ«c Äĵm
ĠtÅ«kst oÅ¡iem
v Äĵst
Ġl e
Ġat las
Ġpr ior
Ġaiz m
Ġotr am
Ġsiev a
Ġtren iÅĨu
Ġatgriez ties
Ġalkoh ola
Ġuz ÅĨemt
Ä«g uma
ent am
Ġdat iem
ĠsaÅĨÄĵm a
ĠpÄģrsteig ums
Ġemoc ionÄģl
is ta
Ġvis bieÅ¾Äģk
pr ied
Ġgr Äģv
Äĵs i
oÅ¡ ajÄģm
Ġtr ener
Ġd eju
ras tu
Ġh ok
Ġinteres e
ĠuzÅĨÄĵm umi
bal t
l us
l Å«dzu
Ġt Ä«
Ġb Å«
Ġviet Äĵjo
Ġbiju Å¡as
Ġproc ed
Ġatcer Äĵties
ĠkÄ¼uv usi
p i
z van
Ġc im
Ġie darb
Ġpal iks
Ġ200 4
Ġkos mÄĵt
t eik
Ġne liet
or Ä«t
Å¾ os
ĠvÄĵl mi
Ġliet oju
Ġtel pu
ĠzÄ«m es
Ġobj ektÄ«v
Ġprezid enta
Ġm it
Ġap cep
ti on
Ġkl ei
Ġredz Äĵju
Ġmirkl i
Ġaz arts
Ġu s
Ä«t ajÄģ
Ġap zÄ«m
Äģn ijas
Ġlatv ijai
l id
Ġl eju
Ġr ip
er n
iv e
ĠÄ£im enÄĵ
ĠpiedÄģvÄģj umu
1 00
ek li
gr ie
Ġ200 0
Ġab Äģm
Ġvesel Ä«bu
m o
Ġl a
od es
Ġdarb am
Ġnos aukt
Ġpies pied
ĠpagÄģjuÅ¡ ajÄģ
ĠtrÅ«k ums
ned audz
Ġliel ais
oz of
pat Ä«k
Ġdom Äģj
Ġput ek
Ġistab as
ĠskaÄ¼ i
Ġ( âĢľ
Ġfai lu
Ġb Å«Å¡u
Äĵj umÄģ
âĢ ³
Ġvar Äĵju
ĠdaÅ¾ u
Ġas fal
âĢĵ âĢĵ
vÄģrd i
Ġeks Äģm
ĠmeklÄĵ tÄģj
Ġdaug av
1 7
Ġt aust
on os
grÄģm atas
m Ä«gi
Ġr im
en tÄģl
Ġz ÄģÄ¼u
Ġpl us
lai st
Ġvec Äģ
ator iem
Ġpirk stu
Ġska ÅĨas
ik am
Ġies Äģk
ied om
gal u
Ġac i
tik t
Ġpieej amas
Ġvalst ij
ÅĨ Ä£
Ġiz ÅĨÄĵm
ĠkÄģd ai
Ġpas tipr
uÅ¡ a
ĠkÄ¼ Å«s
Ġkonkur s
Ġatv iegl
m Å«z
p os
ĠpÄģr dzÄ«v
Ġsk ap
pr om
uÅ¡ ais
te hn
Ġkomun ikÄģcijas
Ġc igar
ĠÅ¡ ÅĨ
Ġpr ov
Ġpu del
ĠvienkÄģr Å¡s
Ġvirtu ves
il t
uÅ¡ ajiem
ne Å¡a
Ġneat bilst
Ġintern ets
ĠsvÄĵt ki
ĠgarÅ¡ o
att Äĵl
Ġpaskat Ä«ties
Ġ om
Ġvis notaÄ¼
pr at
ag a
ec t
Ġval m
Ġdien ai
Ġas ins
ekt iem
ĠreÅ¾Ä«m Äģ
s en
Ġv in
Ġl inu
ek ciju
Ġnod ev
Ä«tÄģj am
Ġsv ec
Ġsabiedr Ä«bu
ĠbÄĵrnu dÄģr
Ġ ejot
Ġg ur
Ġne ies
Ġj ub
Äģk us
em i
isk ajai
Ġsm ÄĵÄ·
Ġsacens Ä«bÄģm
organ iz
3 5
Å« tÄģm
Ġc o
Ġsp ilv
Ġpav Äĵr
Ġskrien ot
Ġpadar Ä«t
Ġkilometr us
Äģ Å¡anu
at Å«ras
tÄģ ds
ĠâĢ ¦
Ġbr Äģ
ĠsociÄģl Äģ
Ġsnieg s
Ñ Ģ
Ġno lik
dz is
Ġpr im
Ġnes as
Å«d ens
ĠizvÄĵl es
ĠmÄģc Ä«ties
ĠtÄ«k lÄģ
m aks
Ä¼ Å«st
ek cija
Ġpie dz
Ġie lik
Ġsl odz
Ġris inÄģjumu
papild us
p ÄĵÄ¼u
Ġko ord
rakst ur
ĠÄ· Ä«n
Ġsol a
Ġr Äĵzek
Ġrakst Ä«ju
ĠplÄģn oÅ¡anas
Ġatm osfÄĵr
Ġdzies ma
Ġsilt um
as s
Å« Å¾
Ġc ir
Ġc ietu
Ġlai mes
Ġgar Äģ
ties Ä«bu
ĠceÄ¼ iem
Ġ200 5
ĠbrÄ«d is
Ġtranspor t
Ġat lÄ«dz
el k
Ġsav ulaik
ĠlielÄģk ais
viet as
Ġietek mi
ĠlÄ«g uma
d aÄ¼as
Ġt aks
Ġuz aic
ĠpÄģr ÅĨem
Ġeksp or
Ġprincip Äģ
o Ä¼
Ġg ultÄģ
en iski
Ġdiv Äģs
Ġperson ai
ĠcitÄģ d
n am
Ġl in
Ġapg Å«t
Ġklub a
r ed
Ġr a
Ġc ieÅ¡
Ä«t ei
Ġnoteik tu
Ġas ar
Ġnom et
pav isam
Ġkvad rÄģt
g ai
h o
r iek
Ġv Ä«ru
Ġuz run
Ġin ici
ain is
Ġskat s
pil Ä«
s aist
Ġpar un
Ġaiz vad
Ġh or
Ġmin Äĵt
ĠpasÄģk umi
Ġaiz pild
Ġgrib ÄĵjÄģs
Ġmod elis
ĠsÄĵ nes
sal Ä«dz
m Äģjas
iet im
eÄ¼ as
pirm o
ĠÄ«paÅ¡ s
ĠbÄĵrn Ä«bas
Ġdev a
ĠkrÄģs a
ĠspeciÄģl isti
Ġtap a
Ġtil ta
Ġfini Å¡a
n Äģm
Ġk uld
Ġs lÄĵdz
Ġjaun ieÅ¡i
Ġvec ais
Ġotr Äģs
ceÄ¼ Äģ
Ġlat iem
Ġnoz iedz
vienkÄģr Å¡i
Ġplastmas as
7 0
at bild
av s
aÄ¼ Äģm
Ġgar a
Ġmin Äĵto
Ġslim Ä«bas
Ġprec es
Ġm irk
ÅĨ ot
Ġat kÄģp
ok ur
Ġlab Äģks
aid Ä«t
aud u
Ġatt ais
ĠtÄģl ru
ĠÄĵd iens
ĠmÄĵÄ£ inÄģt
Ġprez ent
Ġpart ner
Ġemoc ijas
s aj
v iÅĨam
Ġsp Äĵjas
Ġizc Ä«n
e e
h er
Ġs es
av ots
it s
tr is
Ä«r s
Ġsol i
ĠlÄ«dzek Ä¼i
Ġatkar Ä«bÄģ
ĠÄģrkÄģrt Ä«gi
Ġjub il
f ic
Ġsp Äģr
Ä«r Äģ
Ġkam era
ĠamerikÄģ ÅĨu
Ä«t ajiem
Ġgar d
ĠÅ¡Ä· Äĵr
Ġinteres es
Ġinform Äĵ
ĠspÄĵl i
Ġabsol Å«ti
ĠnÄģks ies
at i
ĠuzÅĨÄĵm umiem
Ġrun Äģjot
Ġmet ru
Ġapj omu
ĠnacionÄģl Äģs
Ġpavasar a
Ġpens ion
Ġpas pÄĵj
ĠjÄģ pÄģr
Ġ19 8
inot e
Ġpiec iem
Ġlietu vas
Ġno Å¾Äĵl
it e
audz is
Ġbez darb
ĠpÄģrliec inÄģts
ĠziÅĨ o
Ġpens iju
s ek
Ġm k
Ġb aÅ¾
Ġno ÅĨem
iz glÄ«t
Ġies lÄĵg
Ġpu i
Ġnoteik umu
Ġatbild e
Ġdirekt ors
n Äĵs
Ä«g ums
Ġkr Äĵjumu
ĠceÄ¼ ojuma
kat ru
Ġmilj onus
Ġnodarb inÄģt
ĠdeputÄģ ti
m ju
n em
Ġsp Äĵtu
Ġliel britÄģn
Ġvesel u
ber gs
ĠtreÅ¡ ajÄģ
daÅ¾ Äģd
ĠtÅ«kst oÅ¡i
d b
Ġ @
Ġk Å«
Ġn at
al s
Ġliel veikal
Ġbr end
ain Äģs
Ġdien n
ogr es
Ġ4 00
ĠizvÄĵl i
Ġlat i
Ġizc il
Ġkun dz
Ġnogal Äĵ
Äģ Ä£
Ġj Å«l
ĠdaÅ¾ kÄģrt
ĠÄģr valstu
Ġ4 5
ĠvÄ«r ieÅ¡iem
Ġbrauc ot
ĠtreÅ¡ Äģ
Ġpulkst en
Äĵ stu
Ġdz ej
Ġpas ta
pirm ajÄģ
Ġorganiz Äģciju
ĠnÄģkot nes
Ġkas t
Ġkr ÄģÅ¡
ĠkÄģd ÄĵÄ¼
Ġtr Å«kst
Ġsol is
r r
Ġiet eic
ĠstÄģst Ä«ja
ĠdÄĵl s
ĠpriekÅ¡sÄĵd ÄĵtÄģja
d iez
Ġtik Å¡anÄģs
Ġgan dar
oz es
Ġmat emÄģt
Ġkval if
Ġkons ult
Ġuzlab ot
ĠmÄģksl iniec
Ġmaiz es
ned ÄĵÄ¼
ĠÅ¡okol Äģdes
er ts
Ġc ol
Ġaiz ved
Ġliet otÄģjs
ekl Äĵt
Ġab u
Ġser viss
vÄģrd s
Ġrud enÄ«
o Ä·
ot ie
Ġjau ki
ĠvÄĵl u
Ġan t
skr ien
ĠstÄģvok li
Ġsul u
ĠvÄĵ sta
2 4
Ġar om
ir dz
cer u
ĠrezultÄģ tiem
jÄģ at
ĠvÄĵst nesis
ĠizstrÄģd Äģj
ĠievÄĵr ojami
m iÅĨa
Å¡ ais
al k
ur i
Ġtik u
Ġlatv iski
pie vien
ĠpasÄģk umÄģ
Ġbeidz as
ĠatseviÅ¡Ä· u
Ġiegu va
Ġnepil n
) :
s abiedr
Ġm ies
ak tu
Äģc u
Ġvajadz Ä«ga
Ġatsp oguÄ¼
ĠaprÅ«p es
or g
pl Å«d
ĠizvÄĵl as
ĠstÄģv Äĵja
Ġmod es
Ġai r
kÄģd as
Ġmekl Äĵj
ĠapstÄģk Ä¼i
ĠpastÄģst Ä«t
Ġsig uld
del fi
ikl Äģv
Ġni ans
n ok
am iem
Ġg ps
Ġtik mÄĵr
Ġner v
bo x
Ġpla Å¡i
v ok
ie ras
al itÄģti
ĠÅ¡ ur
Ġtu al
Ġmilj oniem
ĠlÄ«g ums
Ġl em
in oÅ¡s
Ġiz sm
Ġsav Äģk
Ġak mens
Ġkat ras
Ġfil ozof
drÄ«z Äģk
Ġlat telecom
ĠreÄ£istr Äģcijas
nek as
Äģ Å¡ana
Ġs c
Ġd ipl
odu c
Ġsird i
Ġsvie sta
ĠmÅ«Å¾ Äģ
Ġneveik sm
ĠcepeÅ¡ krÄģs
b es
Ġp ogu
ij i
Ġg aÄ¼a
il kt
od i
Ġmin Å«Å¡u
ier iem
Ġnen os
Ġdzim umu
Ġkonkr Äĵtu
ĠtÄĵm a
ĠsÄģp es
atcer os
s at
Ġcit am
Ġizmant ots
Ġotr ais
Ġsieviet i
Ġban ku
ĠprofesionÄģl Äģs
Ġneatkar Ä«gi
Ġtaisn Ä«ba
Ġpievil c
Ġs Å«d
Ġl Äģd
Å¾ en
Ġpie p
Ġsaist Ä«ti
rezultÄģ tÄģ
Ġap d
og ur
Ġek str
aim niek
ĠÄįetr i
embr im
Ġigaun ijas
Ġidenti tÄģ
Äĵj oÅ¡o
Ä«g ajÄģm
ek tus
Ġkr Ä«t
rakst a
Ġind ustr
jan vÄģrÄ«
Ġoblig Äģti
ie Å¡anas
Ġg Äģzes
om etr
Ġpie r
Ġman Ä«
Ä«r i
Ġkonkur sa
Ġsarun u
Ġup es
ar ds
Ġc ieÅ¡i
ek tiv
vien Ä«gais
maz liet
Ġme tÄģla
ĠdÄģv anu
turp mÄģk
9 0
Ġat ÅĨem
ab r
ig ur
atÄ«v u
Ġatbild Ä«bu
Ġgais u
Ġnodok Ä¼a
ĠmÄĵrc i
ot ra
Ġbez gal
kur Äģ
Ġties Äģ
ĠÅ«d en
Ġpiek lÄģj
ĠatÅ¡Ä·ir as
Ġuzraudz Ä«bas
es ter
iek u
Ġgar u
Ġapm ai
Ġsvar Ä«gs
Ġnegrib u
katr Äģ
Ġsatr auk
s ap
Ġk inote
ik tu
it y
ĠpÄģr vad
tr as
Ġol Ä«v
ĠklÄģt bÅ«t
Ġgabal iÅĨos
Ġagr es
ĠmÅ« Å¾u
Ġbul j
Ġl am
Ġap n
iz s
ĠjÄģ ÅĨem
eg ul
Ġpiln Äģ
Ġpad al
pas tu
ojam as
fil mas
grÄģm atu
um t
Ġnek av
ĠÅ¡Äģd us
ĠÄ«paÅ¡ a
Ġatp Å«tas
ĠstrÄģd Äģj
ĠnovÄĵr tÄĵ
Ġsta cijas
Ġkaf iju
Ġpavasar Ä«
Ġsmu ki
Ġbai les
Ġmeist ar
Ġs aut
Ġz iÅĨa
op er
liet as
ĠÄ£im eni
ÄĵtÄģjs istÄĵm
Ġatra Å¡anÄģs
Ġt icis
es e
in Äģv
Äģt Äģs
Ġvis liel
Ġdaudz veid
atÄ«v o
Ġkust Ä«bas
Ġstandar ta
Ġvirtuv Äĵ
s nes
Ġiz gudr
om Äģs
Ġap av
Äį iem
Ġvakar u
Ġlauk umÄģ
ĠmaÅ¡ Ä«n
Ġaudz Äĵk
Ġkonf lik
pr oti
ej ai
iv ud
Ġmaz Äģs
ĠÄ«paÅ¡ nieks
Ġdistanc i
Ġfoto apar
Ġkras tÄģ
b Äĵg
Ġgaid Äģm
Ġdokum entus
ĠizmÄĵÄ£ inÄģt
Äĵj uÅ¡as
Ġvai nas
dr oÅ¡i
Ġh er
inÄģ Å¡anÄģ
Ġpam Äģc
Ġaps aimniek
2 1
d iev
Ġmaz ais
ĠjÄģ ap
Ġsas lim
Ġstr Ä«d
Ġnoteik ts
Ġizm is
ĠtÄĵm as
s er
Ġs el
iz vÄĵl
Ġrakst Äģ
ĠpalÄ«dz Äĵs
Å«st ies
Ġnez ina
Ġtek sta
ĠkrÄ«z es
9 9
Ġk ais
Ġiz brauc
Ġuz p
Ġman tas
Ġre fer
Ġpu Ä·
Ġzem e
Ġilg u
Ġvalst is
ĠsalÄ«dz inÄģt
Ġobj ektu
Ġpos ms
paÅ¡ laik
ĠtelevÄ«z ijas
Ġiz sp
Ġkr Å«m
Ġval od
ed er
Ġpiec i
Ġ201 4
Ġaugst skolas
Ġpolic ija
att iec
ĠpastÄģst Ä«ja
Ġfon da
d ir
m ÄģjÄģs
Ġ aust
Ġs ekt
Äģj oties
Ä· us
ĠpÄģr sp
Ġkon d
Ġbr itu
Ġdev os
ceÄ¼ Å¡
Ġmeit enÄĵm
Ġdol Äģru
Ġs lud
Ġsk arb
Ġliet otÄģja
ĠbÄĵrn Ä«bÄģ
ĠnozÄ«m i
Ġpiec as
ĠÅ¡au b
ebruÄģr Ä«
Ġh al
kar s
ĠpasÄģk umus
ĠpÄģrbaud Ä«t
Ġrind Äģ
ĠkÄ¼Å«d as
ĠattÄģl umÄģ
Ġneizdev Äģs
Ġv Ä«z
Ġs omu
ek om
tr ukt
ts aim
ĠpÄĵc pus
Ġh ar
z v
Ġr at
Ġre Äģl
Ġgar as
ĠpiemÄĵr s
ĠekrÄģn s
Ġuzz inÄģju
Ġpaman Ä«ju
p amat
Ġie bild
sk Äģb
pÄģr is
Ġit in
Ġmilj onu
ĠpÄģrd ot
Ġorien t
d is
v Äģm
Ġperson Ä«gi
Ġsek ret
Ġkor pus
ĠstÄģvok lÄ«
a a
c aur
l aid
oj amies
Ġsas pr
ĠpÄģrst rÄģd
Ġrekl Äģm
Ġbi oloÄ£
Ġtransport lÄ«dz
i Ä·is
m el
or Äģ
iz skatÄģs
vis pirms
pat eic
Äģf r
ĠÅ¡odien as
Ġlat us
Ġvies nÄ«cas
Ġteik tu
ĠdziÄ¼ i
ĠaugÅ¡u p
b is
Ġ *
al itÄģtes
Ġie la
Ġgal va
Ġskai sts
Ġcuk urs
Ġnar kot
ĠmÄģrket inga
s ird
Ġ %
Ġg Å«
Ġg odu
Ġj Äĵkab
Ġno jau
gad simta
Ġveid os
ĠmÄĵ b
âĢ¦ .
Ġizkl aus
Ġok tob
Ġed gar
ĠreÅ¾is ors
m eÅ¾
p Äģ
Ġv Äģcijas
Äĵl Äģs
Ġjau k
Ġf o
un dr
Ġkr Å«z
uk tur
ĠnedÄĵÄ¼ Äģm
ĠdÅ¾ ek
Ġdzird Äĵjis
ĠdÄģrz Äģ
beig Äģs
m ent
ĠskrÄĵj iens
ĠdroÅ¡ Ä«bu
Ġdzird Äĵt
daÅ¾ i
inÄģtÄģj s
noteik ti
aprÄ« lÄ«
ĠleÄ£ end
m w
s ag
Ġg um
Ġjo c
vien u
Ġak cijas
ĠÄ· Äĵr
Ġkust Ä«bu
Ġdiz aina
ĠrÄ«c Ä«bÄģ
sept embrÄ«
en as
Ä«t Äĵs
ĠtÄģd Äģm
Ġservis a
Ġvizu Äģli
Ð¾ Ð
Ġvents pils
ÅĨu jor
Ġ200 3
Ġuzskat Ä«t
Ġaps Å«dz
ĠbÅ«v niecÄ«bas
ĠattÄĵl u
ĠtuvÄģk ajÄģ
ĠpÄĵd as
et Äĵm
Ġkl iedz
Ġgatav o
ĠÄ«s z
Ġkult Å«r
ĠsaÅĨÄĵm u
g oogle
h u
Ġt ec
Ġl oma
al itÄģte
Ġjaun ajÄģ
Ġpiln var
Ġpiln veid
ĠpiemÄĵr ot
inÄģs im
Ġvari an
ĠatÅ¡Ä·ir Ä«bas
Ġoper ÄĵtÄģjsistÄĵm
ĠpÄģrbaud es
Ġsagatav ot
ĠaugstÄģk Äģs
Ġok e
Ġlikum proj
m Äģr
Ġne Ä¼auj
Ġiz iet
on t
Ġz ud
iz mant
Äĵk s
man to
Ġjaun ie
ĠdaÅ¾ reiz
ef ox
Ġnoteik ta
ĠlÄĵm uma
Ġnesapr otu
katr am
ĠnovÄĵrt Äĵt
m Äģs
on ed
Ġgr Ä«das
Ġh ost
inÄģ tÄģ
ĠnepiecieÅ¡ amas
Ġvakar s
Ġatbild Äĵja
ĠpiedÄģvÄģj ums
Ġnoskaidr ot
Ġsun s
Ġmedic Ä«n
Ġsub j
Ġlinu x
i aliz
ar tam
Ġpr Äģta
ion Äģ
gan drÄ«z
ĠuzÅĨÄĵm Äĵj
Ä«gÄģk u
ĠattÄ«st Ä«ba
skol Äģ
Ġgul tas
e ÅĨus
Ġn af
am os
rÄ« tu
Ġlaik us
Ġsas tÄģd
ĠÅ¾ Äģv
ĠpÄģrs niedz
Ġautor u
Ġbir oja
Ġoz ol
Ġall aÅ¾
m ei
m Äĵm
Ġk ÄģjÄģs
Ġie vÄĵl
Ä£ im
inÄģj umam
vien Äģ
Ġvec s
ĠpriekÅ¡ stat
Ġsek as
Ġpan nas
ĠiestÄģd e
Ġpieaug ums
ĠierÄ«c i
Ġsum mu
Ġviel as
) )
Ġg b
os s
ĠpÄģr ÄĵjÄģs
ok as
niec es
Ġinf ras
embr is
ĠÅ¡ ajÄģs
Ġgad Äģs
Äĵd u
Ġskai stu
Ġned er
Ġieg Å«tu
Ġapm aks
Ġpol icis
ĠnepiecieÅ¡ ami
Ġaizmir s
Ġviel u
ĠacÄ«mredz ot
f u
ai p
in dra
Ġbl ack
Ġsapr otams
grÄģm ata
Ġattiek smi
Ġapjom s
Ġ #
Äĵj Äģmies
ĠpÄģr c
ib r
Ġlas a
Ġpor tÄģlÄģ
Ġdi Å¾
Ġjur is
Ġapstipr ina
Ġapgalv o
ĠiekÄģrt as
ĠpriekÅ¡roc Ä«bas
Ġn ama
an o
Äĵr t
ĠpÄģr k
op u
ac h
ĠkÄģrt Ä«ba
ĠattÄ«st Ä«t
Ġziv ju
il les
ĠekrÄģn u
princip Äģ
m etr
Äģt ie
Ġie brauc
Ġmat us
Ġbeig as
Ġrecep tes
ĠoficiÄģl i
w s
or am
om s
Ġnor d
Ġiev iest
Ġbrauc am
Ġdzied ÄģtÄģj
Ġtem at
Å¡ oties
ak Äģs
Ġz ag
Ġkal p
Ġizs lud
Ġpieej a
Ġpac iet
ĠspÄĵk iem
ĠdrÄĵb es
Ġd ieg
ak ter
ir a
im a
Ġdaudz us
Ġdom Äģts
Ġizd al
kon kur
ĠjÅ«t os
Ġapliec ina
ĠmÄ«lest Ä«ba
ĠÄģrzem ju
Äĵ p
Ġman ai
pr oduk
ĠlÄ«dz Ä«ga
Ġpirm ajiem
Ġpirm izrÄģd
rakst u
Ġsvar Ä«ga
Ġierakst s
2 2
n Äģv
Ġi tÄģ
ot er
Ġsv eic
ĠpriekÅ¡ likums
Ġviet ÄĵjÄģ
Ġlas Ä«tÄģju
ĠvÄ«r ieti
Ġlauk os
ilg i
Ġjum ta
Ġhol ivud
Ġskand inÄģv
ĠgrÄģmatved Ä«bas
d d
Ġ end
Ä« Å¡iem
ot nes
Äģd as
Ġvir k
Ġierakst a
Ġtau tsaim
Ġvit am
c etur
u Å¡u
Ġp iens
tu ra
ties Ä«bas
ĠvÄĵstur Äĵ
nev iens
Ġmetr o
Ġelektron isko
l y
er us
Ġat Ä¼auties
Ġak ciju
and as
Ġpav eik
Ä«z Äĵ
Ġkonkr Äĵti
Ġnok Ä¼u
ĠmaÅ¡ Ä«nÄģ
ĠmÄĵrÄ· iem
z s
Ġk odu
Ġpus stund
Äģtr i
anc e
Ġpor t
Ġstil a
Ġieraudz Ä«ju
b au
Ġrakst ura
ub lic
Ġkal nÄģ
Ġsaist Ä«ta
ber ga
ĠapstÄģk Ä¼iem
Ġbe dr
oned ÄĵÄ¼
d aÄ¼a
Ġp ogas
Ġm oc
Äĵj iet
Äģd a
Ġaiz st
Ġsl ink
pas Äģk
Ġatbild Äĵt
Ġinst ruk
Ġuzman Ä«gi
Ġmedic Ä«nas
Ġlaic Ä«gi
is a
ĠÅ¡ ajos
Ġveik ta
Ġlas Ä«tÄģjiem
Ġmat i
Ġandr is
Ġsmag i
Ġma Ä£
ĠdzÄ«vok lÄ«
Ä«sim ies
Ġmeh Äģnis
Ġneatcer os
s an
Ä« Å¡anÄģ
Ġv as
Ġie gr
dr aug
Ġjaun iem
Ġskol otÄģju
ĠÄ«s i
Ġagr i
Ġdep artam
nov embrÄ«
Ġlauksaim niecÄ«bas
f e
Ġs ier
Ġt ol
is tus
es ts
Ä«j umam
Ġmaz Äģks
Ġsal ik
Ġvil t
ĠvÄĵstur i
Ġkontek stÄģ
c in
g lu
Ġuz k
par eiz
Ġattiec Ä«gÄģs
ĠpasÄģk umiem
sa ei
Ġsarakst s
Ġbir oj
Ġrom ant
ĠiekÄģr tu
Ġ Âł
Ġ ejam
Ġr en
Ġjau tÄģ
ĠkÄģd Äģm
ĠiespÄĵj amo
Ġkar av
Ġmoder n
s ur
Äģ g
Ġno vÄĵl
Ġiz beig
uk a
Ġsek oja
Ġpap r
Ġik viens
Ġsaj auc
Ġneiz d
Ġmod eli
Ġav Äģr
Ġizmanto Å¡anas
ĠiestÄģd Äĵm
sas ka
Ġdet aliz
o ÅĨa
Ġ Äģt
Ġl Å«p
Ġne interes
ĠpÄģr veid
ev s
Äį s
Ġkl im
Ġpiem Ä«t
ov i
Ġnet iks
ĠpienÄģk umu
Ġb lu
Ġat vÄĵl
Ġap kur
Ġie bÅ«v
Ġval da
ju t
ĠdaÅ¾Äģd a
Ġizmant ota
ĠlabÄģk u
Ġpiec us
Ġmilz Ä«gs
ĠjÄģv eic
Ġn Äĵs
au ts
tÄģ z
Ġat nes
Ġneat rad
ĠskrÄĵj iena
ĠstÄģst Ä«t
Ġiemes la
Ġsadarb Ä«bÄģ
Ġroz Äģ
Ġsatvers mes
i x
z ina
am us
Ġr iÅĨ
isk ajÄģs
Ġf as
âĢĿ )
Ġtur n
Ġdr os
Ġturp inÄģja
Ä«gÄģk Äģ
Ġmal d
Ġdzelz ceÄ¼a
st os
Ġne lab
Ġj Äģc
Ġj Å«n
el Ä«
Ġin g
iz Äĵ
Ġpret end
Ġbeig u
ĠnodroÅ¡ inÄģtu
Ġciem os
Ġs ony
Ġap dz
el a
Ġie priec
ĠÅ¡Ä· Ä«r
Ġskat os
ĠlabÄģk Äģ
iÄ¼ as
Ġmobil Äģ
Ġpipar i
f acebook
Ġsap ul
ĠpriekÅ¡ m
ĠpienÄģk ums
otr Äģ
Ġsum ma
o ÅĨi
Ġbal vu
Ġfil mai
Ġal g
Ġpret im
Ġskol Äĵni
Ġatp Å«sties
Ġinteresan tas
ĠierÄ« Äįu
gar Å¡
Ġstil Äģ
Ġdistanc es
Ġapgr oz
ĠbÄģr iÅĨ
ĠtÄĵ va
p ies
t oreiz
is tÄģ
Ġne gad
Ġpie zÄ«m
aug ustÄģ
ĠtehnoloÄ£ ijÄģm
Ġattiek sme
Ġ '
Ġs ild
Ġpie liek
ĠvÄĵl ies
Ġpas lÄĵp
oc ijas
ĠvÄĵr ot
Ġiek Ä¼auj
ĠlabÄģk a
vid us
ĠizglÄ«t Ä«bu
Ġslim Ä«bu
ĠmÄ«k lu
ĠdzÄĵr ienu
ĠaÄ£ent Å«ra
Ġuzg lab
v esel
Ġst ok
ĠkrÄģs Äģ
Ġav ots
Ġsu dr
ĠÄįetr iem
Ġtum Å¡
ĠrÄ«c Ä«bu
ĠinstitÅ« ciju
Ġatkrit umu
es tu
ĠÅ¡ t
Ġvis tas
Ġman am
par s
Ġtev is
ĠrÄ«k oties
ber ry
Ġiespaid u
Ġlejup ielÄģd
ĠpÄģrmai ÅĨas
v ir
Ġm en
Ġiz lik
ei m
Ġap ÅĨÄĵm
iz dev
Ġsp Äĵs
Ġrakst i
ĠÄ«st ais
Ġdator s
Ġpubl iski
Ġzied u
ĠmÄ«k las
katr s
Ġbas ket
ĠpamÄĵÄ£ inÄģt
j Äģp
Ġv Äĵja
es ta
in oÅ¡a
el Äĵ
Ġkl in
ma ÅĨa
Ġlap Äģm
Ġsiev u
ĠÄĵd ien
Ġizr aisa
b Å«tu
Ġ Äįu
Ġd Ä«
Ġr ss
Äģl us
Äģl os
Ġies aka
ed Å¾
Ġveid ojot
Ġef ektu
Ġig au
ĠmÄ«lest Ä«bas
ĠtÄ«kl os
Ġresp ond
w or
an e
Å« rÄ«
Ġz Äģb
Ġgr edz
Ġkl ik
Ġcen Å¡os
pas aules
Ġaud uma
ĠnolÄĵm a
ĠeÄ¼ Ä¼u
Ġtras es
5 5
Ġs odu
Ġd inam
tu ru
ĠÅ¡ al
Äģt am
isk ai
iz Äģcija
Ġmil tus
ĠÄ«paÅ¡ umÄģ
bal st
Ġuzman Ä«ba
Ġmei ta
Ġdzer t
Ġtelp Äģs
Ġburt iski
ie vÄĵr
ot ajÄģ
Ġie plÄģn
Ġsk y
Äĵk a
Ġsap rastu
iedr u
ĠpriekÅ¡ lik
ĠspeciÄģl istu
Ġgai Å¡
Ġm l
ek sp
Ġpat laban
Ġre aÄ£
ĠlÄ«dz svar
Ġvid ÄĵjÄģ
ĠpiedÄģv Äģja
Ġtelef oniem
Ġpart iju
Ġnodarb ojas
ĠdzÄ«vok Ä¼a
ĠnepiecieÅ¡am Ä«bu
ĠbrÄ«n ums
Ġmetr us
Ġizbaud Ä«t
Ġ ÅĨujor
Ġl ig
ĠviÅĨ Äģm
Ġdz in
Ġstund Äģs
Ġakt os
ĠgarÅ¡ vielas
ĠÄģd u
Ġkons ultÄģ
otr s
Ġbaig i
Ġv Ä«n
Ġm ud
ot us
Ġpas kr
Ġdiv reiz
Ġal gas
ĠbÅ«t Ä«bÄģ
Ġstar t
Ġizmant oti
Ġproduk ta
Ġbrauc u
Ġbrauc iens
Ġpakalp ojumiem
Ġteik ts
Ġcer Ä«bas
Ġpavad Ä«t
daudz i
t ek
t ika
Ġp od
Ġs ien
at kar
Äĵj ai
ov er
Ġnez in
Ġiel Äģm
Ġnok Ä¼Å«t
ĠsÄĵd Äĵja
mat eriÄģl
Ġdis pl
Ġstrukt Å«r
Ġv Ä«na
Ġm ist
Ġr Å«g
Ġsk Äģr
Ġvec Äģs
Ġpor tÄģlu
Ġvari antu
Ġzvaigz nes
Ġfir efox
m Äģks
Ġl Äĵ
Ġz inÄģÅ¡anu
Ġtr akt
inÄģ Å¡anos
Ġel e
Ġpaz Å«d
Ġprogram mÄģ
Ġam ata
Ġmu ti
ĠmÄĵÄ£ inÄģja
Ġpiec u
ĠsvÄĵt kiem
Ġatcer as
ĠdzÄ«vok li
Ġsaska ÅĨ
Ġbaud Ä«t
b olu
Ä¼ Äģva
Ġie tur
ĠvÄĵl mes
Ġkatr ai
Ġrakstur o
Ġez era
Ġaizg Äģja
ĠĠĠĠĠĠĠĠĠĠĠĠĠĠĠĠĠĠĠĠĠĠĠĠĠĠĠĠĠĠĠĠ ĠĠĠĠĠĠĠĠĠĠĠĠĠĠĠĠĠĠĠĠĠĠĠĠĠĠĠĠĠĠĠĠ
Ġtums Äģ
ĠlÅ« pu
Ġarhitekt Å«ras
Ġnenoz Ä«mÄĵ
n r
y s
Ġs oda
Ġr Ä«v
Ġtr aÄ£
ĠjÄģ brauc
Ġnes ag
Å«k a
Ġdar u
Ġrun as
ceÄ¼ u
s ac
at Å¡Ä·ir
Ġuz skai
ĠlÄ«dz Äģs
Ġh e
ĠlielÄģk as
ĠiepriekÅ¡ ÄĵjÄģs
Ġstud ijas
Ġmir dz
Ġpuis is
Ġikvien am
Ġno strÄģd
Ġno likt
Ġjau ka
Ä«c ijÄģm
ĠattÄ«st Ä«bai
Ġpadom e
Ġautor a
Ġsvie sts
Ġinfras trukt
at p
ap i
pr ez
Ġgr uz
Ä«gÄģk o
Ġgais mu
ĠatÅ¡Ä·ir Ä«bÄģ
an Å¾
ol e
ol Å«
Ġnav ig
Ġaiz dev
ĠvairÄģk kÄģrt
ĠÄ«paÅ¡ Ä«bas
ĠzinÄģm u
ĠdeputÄģ tu
Ġneaiz mir
ĠeÄ¼ Ä¼as
vaj adz
Ġs ejÄģ
Ġt Äĵt
Ġkur ienes
ku st
Ġattiec Ä«gÄģ
ĠvÄ«r ieÅ¡a
ĠraÅ¾ otÄģji
Ġnen orm
nev ar
ĠjÄģd omÄģ
Ġmirkl Ä«
Ġelektro enerÄ£ijas
vÄĵst ur
Ġv Äģrt
ag e
ic k
Ġneb eidz
atÄ«v Äģs
Ġpamat s
Ġnem it
Ġnoz ieg
Ġslim nÄ«cas
ĠmarÅ¡ru tu
jÅ«l ijÄģ
ar h
Å¡ in
Ġr ul
Ġr Ä«s
Ġc Äĵs
Ġpat entu
Ġst eig
Ä«s iet
ĠjÄģ g
Ġban k
ĠnÄģkam ais
Ġjebkur Å¡
Ġnol em
Ġtal l
Ġsagaid Ä«t
ĠsastÄģvd aÄ¼as
Ġĉĉĉĉ ĉ
r ec
as v
Ġpar kÄģ
ĠpÄģr iet
tr en
Äį as
ic a
Ġjaun at
Ġnotik umi
Ġiel Äģd
vil k
Ġneap mier
ĠgrÅ«t Äģk
Ġkreis i
Ġstatist ikas
ĠsajÅ«s mÄģ
m ekl
Ġne Å¾Äĵl
ien Äĵ
Ġiz stÄģst
ĠÅ¡ Å«p
Ġko ks
op a
ĠjautÄģj umos
ĠpaÅ¡vald Ä«ba
Ġpunk ti
ĠjÄģat zÄ«st
Ġfirm as
jÅ«n ijÄģ
m Äģju
Ġt un
Ġi v
Ġr Ä«ts
Ġpar ametr
Ġf er
Ġdiv os
Ġnoteik tÄģ
Ġdab Äģ
ĠdÄģrz a
ĠkompÄģn iju
Ġstarptaut isko
ÂłÂł ÂłÂł
Ġps rs
p ac
Ġv sk
Ġl Ä«
Å¾ am
Ġpat ur
Ġpat stÄģv
Ġdarb os
Ġtr ij
ĠbÄĵr z
Ġmaks u
Ġform ÄģtÄģ
ĠskrÄĵj ienu
ord press
Ġvilc ienu
Ġnab adz
b it
Ġk g
Ġat dzes
ok us
Ġlab vÄĵl
oz i
Ġpied ev
las Ä«t
ceÄ¼ as
vad u
Ġ100 0
Ġtras Äĵ
Ġkv ieÅ¡u
ĠizÅ¡Ä·ir ts
Ġizvair Ä«ties
Ġbil Å¾u
st er
od e
Ġpl aukt
Ġmaks a
Ġ200 2
Ġorgan is
Ġiel Äģs
Ġdi ag
ĠplaÅ¡ Äģk
Ġpaliel inÄģt
Ġmuz eja
ĠsareÅ¾Ä£ Ä«t
Ġsmil t
g er
Äģr o
uk st
Ġjaun ajiem
Ġattiec Ä«bÄģm
ĠbrÄ«v u
Ġbild Äĵm
ĠpÄģrd oÅ¡anas
Ġska ÅĨu
Ġtend ence
j Äģnis
ie rÄ«
as ts
Ġs omas
Ġr Äģm
Ġap k
ĠpÄģr var
oc iÄģl
Ġdaudz u
Ġkar te
Ġ3 2
Ġproc entu
Ġautor e
Ġkoment Äģru
Ġig nor
ĠkriminÄģl proc
Ġnopir ku
ic ion
ĠsÄģk s
ekt ors
ĠmaÅ¡ Ä«na
ĠierÄ«c e
nek ad
ĠjÄĵ ga
ĠmÄģr is
Ġangl iski
Ġazarts pÄĵÄ¼u
Ġv Äģra
Ġs int
Ġu t
Ġnes trÄģd
Ä«d s
Ġizveid ota
mal c
Ġnedz ird
ĠlÄ«n ijas
Ġmaksim Äģli
Ġp Äģv
Ġiz kr
Ġka z
Ġap sar
ag u
Ġaiz braukt
Ġliet otÄģjam
Ġnes a
ĠpÄĵt ers
Ġstud entu
ĠrobeÅ¾ u
o h
Ġveid iem
las h
Ġpras mes
Ġnepat ika
for mu
Ġaizdom as
ÂłĠĠ Âł
Ġnord ea
s pr
v Äĵ
Ġz elt
Ġrakst us
Ġpus dienas
kat Äģs
ĠgadÄ«j ums
run is
ĠmateriÄģl i
nek o
ĠenerÄ£ iju
Ġalb ums
Ġuztais Ä«t
pol it
f iks
Ġs n
Ġs Äģ
Ġie b
Ġie strÄģd
Ġgar laic
ĠÄ· Äĵd
ĠvienkÄģr Å¡u
Ġab on
Ġmal u
Ġpunk tus
Ġteritor iju
Ġnegrib as
ĠnacionÄģl Äģ
Ġkoncer tu
ĠvelosipÄĵd u
7 5
j os
k ult
s ec
Ġ aks
Äĵj ams
or ies
ip t
ĠnorÄģd Ä«t
Ġizt Äĵl
vid eo
Ġim por
ĠÄģrst niecÄ«bas
Ġtom Äģtu
Ġtemperat Å«ra
Ġpalas Ä«t
Ġnekav Äĵjoties
w h
Ġi sl
es tr
Ġj Å«tu
Ä«g ajai
Ġveic ot
Ġsti mul
ĠpienÄģk umus
Ġs Äģcis
Ġm er
Ġaiz v
Ġaug Ä¼u
Ġveik ts
Ġliek u
ĠtrÅ«k umu
Ġtram vaj
b s
o Ä¼u
Ġj Å«rÄģ
er im
ent os
Ġsag aida
Ġvajadz Äĵs
Ġsabiedr Ä«bai
Ġmat iem
pus es
ĠbrÄ«v prÄģt
ĠmÄĵne Å¡os
ĠpozitÄ«v i
Ġstandar tu
Ġdis c
Ġcitr ona
d ams
o Å¾u
Ġne pras
Ġie likt
Ġtr aki
Ġlatv ieÅ¡i
Ġned ar
ĠbÅ«t isk
te ÅĨu
ĠÄ«st Äģ
ĠÄ£ Äĵrb
Ġcent Äģs
punk tÄģ
Ġliterat Å«ras
Ġsekund es
Äģr us
on es
Ġpie eju
pr of
Ġtur Äĵt
Ġdr amat
Ġattiec Ä«bÄģs
kÄģd Äģ
Ġvirs u
Ġmir st
Ġ Äĵt
Ġ eju
Ġp Ä«
in oÅ¡u
Ġz iep
Ġes oÅ¡Äģs
uÅ¡ iem
Ġvad a
ĠvÄĵst uli
Ġbrauc iena
eks u
Ġmam mu
otr kÄģrt
Ġbas e
Ġdiskus ijas
Ġstok hol
as p
Ġs eja
Ġs fÄĵr
is u
Ġat tur
Ġsp og
Ġst iep
ĠÄ¼ aus
gr oz
Ġnod ot
Ġpiln vÄĵrt
ĠpalÄ«dz Äĵja
Ġkonkr ÄĵtÄģ
Ġdiev a
Ġkartup eÄ¼u
Ġieguld Ä«jumu
____ ____
Ġpietr Å«kst
e y
Ġm iera
Äĵt ajÄģm
dr u
Ġnep iem
sm Äĵ
Ġizd osies
Ġw h
ĠdÅ¾ emp
Ġnom ier
mar tÄģ
Ġmarat onÄģ
Ġizmai ÅĨÄģm
ĠaplÅ«k ot
ĠnepÄģrtrauk ti
Ġi i
Ġl ind
us Ä«
itÄģ cijas
ent e
Ġsaist Ä«tas
Ġfan tÄģz
iÄ· iem
Ġmor Äģles
ĠnormatÄ«v ajos
Ġv eter
ik Äģcija
Ġno gÄģd
Ġsiev as
Ġprojek tÄģ
ĠÄ«s u
Ä·er t
Ġizteik ti
Ġlikum d
Ġpagatav ot
at es
oj umos
vien Ä«gi
Ġinter eÅ¡u
Ġsul as
Ġpacien tu
nozÄ«m Ä«gi
Ġledusskap Ä«
Ġl auz
Ġlab klÄģj
Ġmaz i
Ġiet aup
ĠÄģr sta
atÄ«v Äģ
Ä«gÄģk i
Ġgalven Äģs
Ġsan Äģcis
Ġ7 5
Ġizlas Ä«ju
Ġmilz Ä«gu
ĠrobeÅ¾ Äģs
Ġbiedr u
Ġsadarb Ä«bu
ĠmÄģjaslap Äģ
Ġk up
Ġi p
Ġpr oduc
Ġie ÅĨem
Ġin ov
Ġin Å¾en
ĠÄ¼ Äģva
Ġjaun Äģko
Ġkom it
Å¡Ä· er
Ġiek ar
Ġskol otÄģja
Ġneiz mant
Ġuzs vÄĵra
mai l
Ġmas a
Ġmeit eni
Ġvasar a
Ġfiz iski
Ġrind as
ĠreÅ¾Ä«m u
Ġapgr Å«t
Ġvalm ieras
g iem
g ais
s est
Ġuz liek
Ġpr emj
ul u
man Äģ
Ġkom for
Ġnet ais
pad om
ĠjÄĵ gas
Ġt ot
Ä«g ajam
Ġin val
rÄ« n
inÄģt os
ĠvairÄģk Äģm
Ġnoteik to
Ġrad Ä«ja
Ġpad ev
Ġnotiek oÅ¡o
Ġnepam an
Ġies k
ĠdzÄ«v oj
Ġpret Äĵji
Ġel ast
Ġrez er
Ġnop Äĵr
Ġveic ina
ĠvadÄ«tÄģj u
bÄĵr ni
Ġg o
Ġap aÄ¼
Ġie pat
Ġsap ÅĨ
Ġsab oj
Ġturp m
Ġgrup Äģs
ĠnacionÄģl o
ĠautomaÅ¡ Ä«nas
Ġeg l
Ġlv l
Ġsimp Äģt
l d
r Ä«gÄģ
v iÅĨiem
Ġn iek
or es
Ġvien tu
ĠÄ¼ aut
ĠnedÄĵÄ¼ a
jo projÄģm
Ġ25 0
Ġsmar Å¾a
Å¡Äģd a
Ġalb umu
Ġmei tas
Ġsmaid u
Ġglez n
ĠtÄĵj k
Ġ eb
Ġs ienu
Ġu kr
Å« Å¡
Ġnep azÄ«st
Ġties Ä«bÄģm
ĠmÄ« lu
Ġep iz
ĠatÄ¼auj u
2 8
t ab
ot ajiem
Ġne iespÄĵj
Ġr isk
ies mas
ak l
Ä· im
Ġf ona
ieg t
ĠgadÄ«j umi
Ġkal niem
Äģz ijas
aliz Äģcijas
Ġvel o
bieÅ¾ i
Ġpabal stu
oktob rÄ«
3 9
g Äģja
t witter
es i
Ä«t im
ĠÅ¡ Ä¼
Ġsk ar
ul s
ov ad
Ġtuv ojas
if i
Ġnen ol
Ġpakalp ojuma
Ġdi al
Ġkont akt
bÄĵr nu
Ġdistanc Äĵ
qu ot
Ġnekust amÄģ
Ġasoci Äģcijas
Ġpaaudz es
ĠpÄĵters Ä«
Ġp ik
Ġv ÄģcijÄģ
Ġd edz
es ti
Ġg Äģju
Ġat alg
Ä«t Ä«
Ġlatv ia
Ġviet Äĵjie
dzÄ«v o
ĠkÄģrt Ä«bas
pils ÄĵtÄģ
Ġrecep ti
Ġĉĉ ĉ
Ġkred Ä«t
Ġbrokast is
Ġbiks es
Ġv ag
ot Äģm
al as
Ġne ier
on g
on st
Ġkl ajÄģ
ib er
Ġkar tÄĵ
Ġgais ma
ĠjÄģm eklÄĵ
ĠatgÄģd inÄģja
ĠatÄ¼auj as
Ġuzm undr
ĠolÄ«v eÄ¼
c elt
n om
s h
Ġn az
Ġb el
ek Ä¼u
Ġz Äģli
Ġz inÄģju
ĠÅ¡o f
Ġw or
Ġmal t
Ġnosauk uma
Ġklas Äĵ
inÄģtÄģj u
Ġsvaig i
Ġizklaid es
Ġbau skas
Ġpiespied u
j Äģm
Ġv Ä«l
al is
Ä«t Ä«gi
Ġpa iet
ĠpiemÄĵr ots
Ġa f
Ġministr a
ĠnorÄģd ot
Ġinstit Å«c
ĠdÄ«v aini
ĠÄģb olu
ĠmÄģs a
Ġpedag oÄ£
rakstur vÄģrdi
Ð »
ai t
ol l
Ġies kr
ĠÅ¡Ä· Ä«v
ov skis
Ġpiln as
Ġzv anu
skr iet
Ġkil ogram
Ġsmar Å¾u
we et
v in
v ers
Ġt avas
Ġl Äĵk
il ka
Ġat rÄģd
Ġliel isku
var Äĵtu
lai ka
Å¡Ä· Ä«r
ĠceÄ¼ ojumu
Ġier ind
ĠjÄģs Äģk
Ġav i
ĠreÄ£istr Äģ
Ġkred Ä«tu
ĠinstitÅ« cijas
Ġeksk urs
v iÅĨai
Ġp auz
Ġpr Äģtu
Ġvai c
Ġmaz ie
Ġkam er
liel ÄģkÄģ
Ġsieviet ei
Ġbeidz ies
Ġpunk tiem
ĠautomaÅ¡ Ä«nu
iklÄģv s
s un
Ġv i
at Å«ra
dz Äĵs
iÅĨ desmit
ĠÅ¡ itÄģ
Ġie stÄģj
Ġz el
Å«t Ä«ja
Ġskai stÄģk
Ġal gu
Ġattiec Ä«go
Ġfr ak
Ġgrup Äģm
Ġapskat Ä«ties
ĠizstrÄģd Äģt
Ġneliel as
Ġtav Äģ
j us
Ġt us
Ġgr and
rakst s
Ġpak laus
ĠplÄģn i
Ġser g
entu zi
Ġban ka
Ġsaim niecÄ«bas
Ġrealiz Äĵt
ĠÄĵdam kar
nel iel
Ġapak Å¡Äģ
p ektÄ«v
Ġno klaus
dz ied
Ġkl Ä«n
Ġvec umu
ĠÄģd a
Ġaleks andr
m Ä«t
t or
Ä« tÄģm
Ġn iec
ik Äģm
Ġne nÄģk
Ġap v
Ġgr aud
ent es
ĠÄ«st o
Ġilg ter
Ġpien Äģcis
ĠgrÅ«t Ä«bas
Ġrek om
Ġuzd Äģv
ĠreÄ£ion a
Ġdizain par
er tu
Ġiz kÄģrt
Ġf eder
og Äģ
vis a
Ġnod ib
Ġsap nis
Ġpiek ras
ĠmÄģc Äģs
Ġsu gas
Ġrekl Äģmu
Ġpusmarat onu
mus ic
Ġparal Äĵli
Ġl omÄģ
Ġj Å«ru
Ġpie zvan
ĠceÄ¼ i
ĠÄį eh
Ġpiet eic
Ġpolit iku
Ġtais Ä«t
Ġskrie Å¡ana
Ġatv ain
ĠnormatÄ«v o
Ġigaun ijÄģ
Ġ Äĵstu
Ġr Ä«tu
Ġiz brauk
Ġz Ä«d
Ġiet eikt
atÄ«v a
ĠstrÄģd Äģja
ojam u
Ġveic a
Ġaugst as
ĠpÄģrsteig umu
Ġkilometr i
2 3
Ġn am
Ġno gul
Äģr Äģs
Ġat ved
ĠvÄĵl Äĵtos
gad s
Ġredz es
Ġel pu
Ġkriev ijÄģ
Ġsim tiem
pal Ä«dz
Ġapz inÄģti
Ġskrie Å¡anu
Ġnag u
Ġtreil eris
Ġsmadz eÅĨu
pak alp
c itÄģ
p t
Ð º
us e
Ġvis lab
Ġst end
Ġliet der
Ġkop Ä«gi
ĠmÄģj ok
ĠpatÄ«k ams
Ġsvar u
Ġnev ain
Ġnotik ums
ĠmateriÄģl us
Ġjebkur a
Ġrekom end
r Äģ
s aul
man ds
Ġmar in
Ġietek mÄĵt
ĠmeklÄĵ Å¡anas
saska ÅĨÄģ
f o
i h
ac is
aid Ä«ja
Ġjaun umiem
Ġas inis
Ġlas ot
Ġatp az
ĠstÄģv Äģ
ĠvÄĵrt Äĵjums
Ġnum urs
Ġtuk Å¡
ĠguÄ¼ am
ĠpÄģrsteidz a
fot ograf
Ä«j uÅ¡as
ok Å¡
Ġneat liek
Ġdab u
Ġietek me
Ġinf l
Ġteor Äĵt
valst Ä«s
p Äģrd
Ġv en
er es
Ġiz lÄ«dz
Ġpie lik
Ä£ Äĵr
Ġpas ak
lai ku
Ġvec mÄģm
Ġpaz aud
sar kan
latv ieÅ¡u
Ġmier Äģ
Ġnoder Äĵs
ĠÄ·erm eni
dec embrÄ«
Ġiz b
Ġie stat
Ġf av
un t
Ä«v as
Äĵd ams
Ġmaz ajiem
Ġsas malc
Ġnor ÄĵÄ·
griez t
ĠpaziÅĨ ojumu
Ġmaiz i
Ġpalik usi
Ġsaskat Ä«t
ĠvÄĵstul es
n en
r aÅ¾
at Å«ru
il la
ed a
Ġsat ikt
Ġnosk a
Ġkomp on
Ġneskai ta
astr of
izs lÄĵg
ĠÅ¡Ä·Ä«r Äĵj
2 9
p iet
Ġiz Å¡
Ġie rast
ĠlÄ«dz Ä«gas
Ġliel iem
ĠstÄģ sti
Ä«pa Å¡
Ġpils ÄĵtÄģs
ĠpÄĵt Ä«jumÄģ
ĠdÄģv an
ĠnÄģkot ni
Ġiesnieg t
ĠrÅ« Ä·is
Ġjelg avÄģ
Ġietilp st
r Ä«ga
s ad
z aÄ¼
Ġs or
il j
Ä«v Äģ
ĠpÄģr lieku
Ġies pr
Ġmaz os
Ġaut ob
Ġreiz e
Ġskat Ä«tÄģju
ĠbrÄ« Å¾os
ĠmateriÄģl s
Ġsakar s
ĠtÅ«r istu
Ġpiekr it
ĠgrÄģd iem
o ÅĨiem
r an
z inu
Ġb or
Ġap els
el p
Ġsp ar
Ġmaz iem
Ä«z ijas
Ġdator Äģ
ĠtÄ«k ls
ĠsaÅĨem s
ĠmÄĵnes s
Ġanal Ä«zes
Ġsmiekl Ä«gi
2 6
Ġl aur
Ġg am
ti z
Ġdz int
Ġtr ek
mÄĵr am
Ġizmant otas
ĠpÄģrd od
Ġizdom Äģt
Ġadres es
Ġboj Äģj
Ġprojekt iem
Ġbat er
Ġlaip ni
Ġ Äģ
Ġv Ä«ra
ik i
Ġr ieb
Ġuz klaus
ĠpÄģr gÄģj
Ġjaun Äģm
ĠÅ¡Äģd Äģm
ĠÄ«st s
Ġpras Ä«bu
ĠvÄĵstur e
Ġstat usu
ĠpÄĵr k
Ġsest dien
3 3
d aÄ¼u
g am
g abal
n Äģc
n ob
p oz
Ġp Å«d
Ġp Ä«p
Ġiz ej
ir t
Ġap ÅĨem
Ġgr eiz
Ġre form
Ġvair ums
pl an
Ġsa Å¡
iniek a
Ġmod ific
Ġatm iÅĨu
Ġpirk stiem
Ġpieaug umu
Ġmot or
Ġred akt
Ġkonkurs Äģ
ĠjÄģg aida
c a
Ġ entuzi
Ġv ikt
Ġne tik
ap skat
Ġat lai
ol iem
Ġsav i
Äĵk u
Ġmin Äĵju
Ġrakst Ä«ja
Ġfil iÄģl
Ġsai tes
Ġsabiedr iskÄģ
ĠizstrÄģd es
Ġizlas es
Ġatteik ties
Ġizcel smes
2 7
Å¡ Äģdi
ik Äģs
Ġkr ast
Ġrun Äģja
Ġsad aÄ¼Äģ
Ġmed ikam
Ġgais mÄģ
Ġsast ap
ĠlÄ«n iju
Ġkoord in
pateic oties
g Äģt
p iec
p iena
Ġp Å«l
Ġpie st
ĠĠ ĉĉ
Ġnos l
Ġ3 6
Ġsai ti
Ġskol Äģs
Ġgaid u
ĠjÄģn os
ĠzaÄ¼ o
Ġtem pu
ĠoriÄ£ inÄģl
* *
s ociÄģl
tÄģ li
or ator
Ġvien i
Ġsk ul
ok Äģ
Ġinter pr
of iciÄģl
ĠÄģtr uma
Ä«l s
Ġveikal s
Ġsim t
ĠspÄĵk us
Ġgabal s
Ġvies nÄ«cu
Ġvers ijÄģ
Ġbiedr Ä«bas
sÄģkot n
Ġt aur
dz an
Äģm Äģ
em es
Ġval mier
Ġh ron
nes katoties
Ġveid ots
Ġcen Äģm
Ġskol a
Ġizskat a
ĠnÄģkam gad
Ġinst al
mÄĵ neÅ¡a
ĠkÄ¼Å«d u
Ġnozar Äĵ
Ġdebes Ä«s
ĠpÄ¼ av
iÄį s
Ġman tu
Ġnor mas
Ġnov irz
ĠatÅ¡Ä·ir Ä«ba
Ġekonom isko
ĠapstÄģk Ä¼u
Ġbiedr i
jaun ais
ĠÅ¡os ejas
Ġze Ä·
m er
r en
y ou
on ika
Ġlai st
ĠarÄ« dzan
ĠvÄĵl ams
ĠlÄ«dz eklis
ĠjÄģ ÅĨa
Ġpied od
Ġvid Äĵjo
ÄĵtÄģj am
tÄĵ vs
Ġsvar a
ĠzÄ«m e
Ġtek st
Ġapg abal
Ġistab u
Ġamatperson as
Ġizn Äģca
Ġ aig
ot ru
ien e
on Ä«m
Ġgr an
aug stÄģk
ĠdzÄ«v Ä«bas
vis iem
ĠbÅ«s im
and a
Ġskr ienu
jau tr
Ġiem aks
ĠdÄģrz eÅĨu
ĠzÄģl e
Ġanal Ä«ze
ĠkopÄĵj o
Ġsaei mÄģ
Ġfilm Äģs
Ġpraks Äĵ
Ġph one
Ġkais l
at ch
et am
Ġap sk
Ġie lai
rÄ« na
Ġpas tu
Ġpas aka
ĠlÄ«dz dal
ĠjÄģ aiz
ĠiespÄĵj ama
Ġpret ÄĵjÄģ
ing t
Ġpils on
Ġskol Äĵniem
Ġbalt kriev
Ġpipar us
ĠkuÄ£ a
Ġrek ord
pol ic
Ġpazud a
l Ä«n
Äģ Äģ
Ġv est
Ġb enz
Ġr aug
ur k
Ġz onÄģ
isk ajos
isk ajam
man e
uk u
Ġliet ojot
Ġskr op
Ġiem Ä«Ä¼
Ġpiet iks
ĠvÄ«r i
Ġdab a
latv ija
ĠskrÄĵj Äĵju
Ġlietu v
Ġnodok li
Ġtau ta
Ġaustr umu
ĠÅ¡it o
jÄģat zÄ«st
Ġl Äĵc
Ġne ir
ad u
Ġuz likt
Ġc an
et o
Ġdarb Ä«bÄģ
Äģn iem
Ġpl Å«d
Ġmil tu
Ġsil ts
Ġmekl Äĵjot
Ġslik ts
ĠtÄĵm Äģm
Ġdir ektÄ«v
Ġsum mas
Ġbit es
ĠcepeÅ¡krÄģs nÄ«
% )
4 8
e ur
is h
Äģm o
ap mÄĵram
Ġies lÄĵdz
Ġaiz d
Ġgar Å¡a
nes en
oloÄ£ isko
Ġ200 1
Ġtir gu
ĠpÄĵt Ä«jumi
Ġvirs ot
ĠreÄ£istr a
vil kt
ĠmateriÄģl a
ĠÄįetr us
Ġaustr um
Ġsmal k
Ġtrau kÄģ
Ġyou tube
ĠreÄ£ionÄģl Äģs
inst al
Ġpui Å¡i
Ġv Ä«nu
Ġpas arg
op s
Ġak tris
Ġtam lÄ«dz
reiz Äĵm
Ġsaj u
Ġatkl Äģja
Ġvies u
Ġaud io
Ġfiz isko
Ġaktu Äģl
Ġautobus s
Ġpens ijas
Ġkaim iÅĨ
ĠvisÄģd as
3 6
m iem
Ġl Ä«st
st ories
or as
Ġz inÄģja
Äģn e
Ġpirm os
Ġmin Äĵts
Ġaut ovad
Ġvad Ä«ba
ĠpÄģrstÄģv jiem
Ġizmanto Å¡ana
ĠsaÅĨÄĵm is
ĠmÄģrt iÅĨÅ¡
kÅ«k as
g Äģju
Ġne rad
Ġc on
ĠpÄģr met
Ġto starp
aut ors
vien mÄĵr
Ġmaz gÄģ
Ġtel e
Ġsl id
Ġas tr
Ġier aug
Ġier Äĵd
gal es
Ġtuv Äģko
Ġizt Äĵr
grib u
Ġizl em
Ġresurs i
Ġpalik uÅ¡i
Ġpagas tÄģ
glu Å¾i
c r
s e
Ġ auz
Ġat grie
Ġdz ijas
Ġtr Äģp
Ġkl usi
Ġdom e
Ġveik ti
ĠpalÄ«dz Ä«ba
darb s
Ġizdev umus
ĠÄ£im enei
Ġtrad Ä«cijas
ĠrÅ« Ä·i
Ġnon Äģca
g Äģr
t Ä«
Ã ¸
Ä£ is
ne esmu
Ġvad Ä«t
pie ÅĨem
ĠpaziÅĨ o
ĠpievÄĵr s
Ġbrauk Å¡anas
Ġvienal dz
ĠstÅ«r es
Ġatjau not
Ġlatgal es
d on
Ġm p
Ġd an
Ġno kÄģrt
Ġr ie
Ġat skai
et ra
âĢĿ ),
Ġbr Äģlis
Ġkat astrof
akt iski
Ġvakar os
inter n
ĠtreÅ¡ ais
Ġdokum enti
pan tÄģ
Ġierad Äģs
Ġdaug avas
Ġbit e
Ġizsk an
Ġieteic ams
ĠlÅ«p Äģm
h abil
z d
z in
ad s
Ġr itu
Äĵt ai
ek onom
em pl
Ġf ig
tr u
Ġdar Ä«ts
Ġvad Ä«bÄģ
ĠÄ«st am
Ġid i
ĠsaÅĨem Å¡anas
Ġsird Ä«
Ġekonom iskÄģs
Ġpab eidz
ĠÅ¾urn Äģla
Ġskaist as
ĠkolÄĵÄ£ iem
Ġsmil Å¡u
m or
Ġpar ka
umu l
ok am
Ġbr Å«n
Ġpadom Äģt
Ġakt ieri
Ġmon itor
Ġizmaks u
k ulis
Ġno bals
ul e
Ġgad simta
Äģv u
Ġkom ers
Ġaug s
Ġredz i
Ġprogram mÄģm
Ġsan Äģks
ĠiestÄģd Äĵs
Ġteik sim
Ġup ur
Ġfran cijas
Ġatd al
Ġdurv ju
Ġnenot iek
Ġieslodz Ä«juma
ĠaktivitÄģ tÄĵm
Ġinterpr etÄģ
m Ä«k
Ä« Å¡us
Ġv e
Ġs Ä«ru
Ġiz ju
Ġvien lÄ«dz
ĠstÄģ d
Ġvec a
Ġredz ama
Ġskat Ä«jÄģs
Ġproc enti
ĠattÄ«st Ä«bÄģ
sav u
ĠsvÄĵt dienas
Ġien Äģca
skr Äĵj
Ġpos mu
Ġmuz eju
Ġizdom Äģju
pÄĵt Ä«juma
ĠatkÄģrt oti
ĠkrÄĵm s
Ġdzelz s
ĠkapitÄģ la
ĠdigitÄģ l
Ġprogrammat Å«ras
Ġpers pektÄ«v
Ġaizm ig
Ġn ai
Ġr audz
Ġsp ied
Ġlab Äģs
Ġnep ac
Ġvec u
Ġgatav ot
Ä«gÄģk ie
Ġcentr Äģl
ĠraÅ¾ otÄģju
Ġpolit isko
ĠsÄĵd Äĵt
ĠmÅ« Å¾a
Ġatbalst Ä«t
Ġmot oc
ĠÄģrzem Äĵs
Ġmag n
Ġattais n
music stories
n im
st eidz
Ġne pr
Ġj ogur
inÄģt Äģs
Ġbr ig
skat u
inÄģ Å¡anÄģm
Ġdar Ä«ja
Ġter ap
Ġdal Ä«ties
Ġpriek a
Ġmain Ä«jies
inÄģtÄģj a
Ġaizr aut
Ġizklaus Äģs
r od
Ġ ogu
Ġn amu
Ġl Ä«b
Ġno maz
aj a
Ġjau d
eik s
ĠpaÅ¡ nÄģv
pat i
Ġsapr ata
darb Ä«bu
ĠmÄĵÄ£ inÄģju
Ġpart ija
ĠplaÅ¡ s
ĠziÅĨ ots
Ġrecep te
Ġtau tu
Ġiec irk
ĠcÄ« ÅĨa
Ġkos mos
Ġt itu
Ġu b
Ġb mw
ak ot
ĠÅ¡ amp
Ġie liek
Äģl am
ĠpÄģr vÄĵrt
Ġsav dab
Ġgr ieÅ¾
Ġbal vas
Ġatp azÄ«st
Ġform a
Ġlid ostas
Ġsaim nieks
ĠsÄĵ ÅĨu
Ġiespaid s
Ġdienes ts
Ġdet aÄ¼as
Ġn amÄģ
ot h
Å« kÄģ
Ġno Å¡
Ġar od
ĠvÄĵl amies
Ġkr Äģp
ist am
Ġjaun ieÅ¡iem
ĠdzÄ«v Ä«bu
Ġnevar am
Ġrok a
tam bor
Ġatrad Äģm
Ġpavad a
ĠdrÄ«z umÄģ
Ġatbr auc
ĠstÄģvok lis
Ġziv is
ĠnÄģv i
ĠpakÄģp eniski
maiz es
jÄģs aka
j Å«ras
r iet
Ġs irm
Ġb b
Ġpr ied
ĠpÄģr Äĵjos
Ġliel Äģm
Ġnes kaidr
Ġan ti
Ġan im
Ġliek i
ĠraÅ¾ otÄģjs
ĠvarÄĵs im
Ġdiz ains
arm on
Ġpud eles
Ġatsauk smes
Ġrup j
l Äģm
s n
Â °
Ġap dzÄ«v
Ġz onas
Ġin tr
Ġpav eic
Ġbal tu
Ġproc entiem
Ġatp Å«t
Ġatbild Ä«bas
Ġpor tu
ĠsalÄ«dz inÄģjumÄģ
Ġuzman Ä«bas
ĠdÄģv anas
Ġriet umu
Ġnopeln Ä«t
nÄģkam ajÄģ
Ġkvalif ikÄģcijas
Ġrezer ves
» ¿
ï »¿
Ġl ip
Ġg Ä¼
Ä«t r
Ġsk aÅĨ
Ġw ifi
ver t
pas niedz
ĠÄ«paÅ¡ as
ĠÄĵd iena
cen a
Ġfunk cija
ĠenerÄ£ Äĵt
Ġfl or
ĠsastÄģvd aÄ¼a
ĠizvÄĵr tÄĵ
Ġdisc ipl
Ä£Äĵr bu
as ta
Ġb ied
Äģr as
os a
Ġap gÄģd
Ġnep av
Ġrok darb
Ġmal Äģm
ĠpÄĵt Ä«jums
ĠnorÄģd Ä«ts
Ġslim nÄ«cÄģ
Ġ18 0
Ġzviedr u
ĠnosÅ«t Ä«t
Ġpla Å¡u
Ġl if
Ġiz kÄģp
Ġap b
Ġlab orator
auk st
ac Ä«m
Ġnep az
Ġsas od
Ġvid ei
Ġbal tic
Ġskr Äĵju
te in
ĠÄģr stu
ĠpiemÄĵr u
ĠÄ«paÅ¡ nieki
Ġizr iet
Ġdraudz ene
Ġvidus skolas
ĠlÄĵt Äģk
jeb kurÄģ
Ġnesan Äģk
7 2
g aid
m on
Ġl Äģc
Ġb Äĵg
irk st
Ġmil itÄģr
Ġsat iek
Ġiem Ä«l
ĠattÄ«st Äģs
Ġnotik t
ĠzinÄģm a
Ġkult Å«ru
pils Äĵtu
Ġterm iÅĨÅ¡
ĠadministratÄ«v Äģ
Ġasto ÅĨ
Ġnosp ied
ĠbibliotÄĵk as
v ies
ie Å¡ana
Ġiz tikt
ĠÅ¡ ar
ek u
ol ogs
Ġre gl
Ġsp al
oz Ä«cijas
niec Ä«bai
ov as
Ġrun Äģjam
Ġvesel s
Ġfr ag
Ġit kÄģ
Ġzaud Äĵ
Ġuzdev umi
ĠsÄĵd Äĵ
Ġmam mai
Ġugun sk
Ġma x
Ġinf o
ĠmÄĵrÄ· tiec
Ġpartn eri
Ġsvai gu
Ġpaj au
b aid
Äģ Å¡anai
Ġl Äģp
ĠsÄģk sies
Ġveid i
Ġveik Å¡anai
jau nÄģ
ĠplÄģn Äģ
ĠizvÄĵl Äĵjos
ĠmazÄģk a
bal v
Ġzv ana
Ġklien ti
Ġaizsardz Ä«bu
Ġtend ences
Ġsem in
ĠportÄģl s
diez gan
Ġtautsaim niecÄ«bas
d es
l ine
Ġk ant
il u
Ġap brÄ«n
Ġnot ies
ent Äĵ
Ġmin er
sav Äģ
Ġdod os
Ġrekl am
Ġklien ts
Ġdiev u
met ru
Ġperi od
Ġpasaul ei
Ġfak ultÄģ
Ġzviedr ijas
ĠÄ·erm enis
f ebruÄģrÄ«
k Äģdi
p iel
Ġl eta
Ġr ub
iz Äģciju
Äģn ija
Ġmin ÄĵtÄģs
Ġan sam
ĠdaÄ¼ Äģs
Ġiev ies
Ġdal Ä«bu
Ġpiek Ä¼u
Ġgais s
ĠraÅ¾ ot
Ġuzdev umus
Ġbiedr iem
Ġizkl Äģ
Ġnaf tas
ĠitÄģ Ä¼u
t an
Ġuz skait
Ġvar onis
Ġies kaitot
Ġgar o
Ġdar i
inÄģm s
Ġtau p
Ġpacien tiem
Ġmedij i
n k
r auk
ai sta
Ġm akar
Äģd Äģ
un tu
Ġre habil
Ġsp e
Ġskat ies
ÄĵtÄģj us
Ġmed u
Ġcaur spÄ«d
ĠbrÄ«v dienas
Ġpor tÄģla
Ġsim ts
ĠskrÄĵj ienÄģ
ĠslÄĵp jas
Ġde pres
Ġdus m
Ġblack berry
om b
el Äĵm
el ektr
Ġvar en
ĠiespÄĵj ami
Ġdom Äģja
Ġvid Äĵjais
Ġaps vÄĵr
Ġuzs Äģkt
Ġfunk cionÄģl
vakar Äģ
ĠÄ·ir b
3 4
Ġ ogas
Ġv ak
Ġi lu
Ġes oÅ¡Äģ
pr ob
inÄģj os
Ġviet ai
Ġties Ä«b
Ġnevar Äĵs
Ġneat bild
ĠspÄĵl Äĵs
Ġmel nÄģ
Ġmas as
Ġatm iÅĨa
Ġslik tu
Ġpusmarat ona
div as
ĠizpÄĵt es
a Å¡u
l it
n akt
v uÅ¡i
Ġd on
Äģd u
or n
ab u
Ġap li
ul a
Äģv Äģs
nÄģk amais
Ġsaj ust
Ġvakar iÅĨas
Ä«gÄģk ajiem
Ġtehn ikas
sar un
ĠdzÄ«ves veid
ĠskrÄĵj Äĵji
Ġuzvar u
Ġdeg vielas
ĠtÄĵl u
Ġsmal ki
ĠkÅ«k as
Ġnest eidz
ĠsadzÄ«v es
Ġprop or
Ġholivud as
r oz
Ñ ĥ
ol id
Ġpirm oreiz
Ġliet oÅ¡ana
Ġbl oÄ·
Ġsam aisa
Ġ: ).
ĠnekÄģd Äģ
ÄĵÄ· inÄģs
ĠjÄģs krien
Ġgul Äĵja
Ġnok av
grÄģm atÄģ
sal d
Ġpateic a
Ġpieteik uma
pied Äģv
Ġieraudz Ä«t
ĠnevÄĵl as
Ġtes ta
ĠtÄĵ vu
rim in
ĠatgrieÅ¾ as
n eiz
r om
Ġ q
Ġs y
or us
oj oÅ¡o
Ġap p
Ġman d
sp ec
Ġsar Ä«k
Ġzem nieku
Ġtelef onam
Ġatbilst oÅ¡u
Ġtek sts
ĠizmÄĵr u
ĠatklÄģt i
Ġnepareiz i
am Ä«bu
ur Ä£
Ġman us
Ġtr ep
ĠdzÄ«v oja
Ġh d
Ġsl Ä«d
Ġsa Å¡u
ĠÄį etru
ing v
ĠmÄģc Ä«bas
kop Ä«bas
Ġpubl isko
ĠiestÄģd Äĵ
Ġef ekts
Ġatrod ams
ĠcÄ«n Ä«ties
Ġpiekt dienas
ĠpÄģrl ej
Ġk oda
Ġb us
tr ol
ĠlÄ«dz Å¡in
Ġnep ad
Ġliet oÅ¡anu
Ġsm s
Ġbez jÄĵdz
Ġsv Äģrst
Ġredz ami
ĠkÄģrt ÄĵjÄģ
ĠuzÅĨÄĵm umam
ĠparÄģd Ä«ja
ĠstÄģv u
Ġstund Äģ
Ġorganiz Äĵ
ĠpatÄĵr iÅĨa
cilvÄĵk s
Ġlaim Ä«gi
Ġvan nas
Ġstingr i
ĠrÄĵzek nes
z ied
Ġ Äĵnas
Å¡ ai
Ġm Äĵl
um bu
Ġne x
Ġno likums
Ä¼ Äģ
Ġvar ÄĵÅ¡u
dr as
akst a
Ġaiz bild
Ġst Å«rÄ«
Ġpirm kÄģrt
vÄĵr Å¡
ĠdzÄ«v oju
Ġpu p
Ġ19 6
cep t
prÄģt Ä«gi
Ġkor por
Ġpunk ta
ĠnÄģkam Äģs
Ġmugur Äģ
ht ml
Ġv eÄ£
Ġb ud
Ġne re
Ġap Ä£Äĵrbu
Ġdz iju
Ġaiz viet
ĠjÄģ pas
Ġsas tr
no st
Ġ5 5
Ġlas Ä«ju
Äĵjo Å¡u
Ġkval ific
Ġied ves
Ġaprakst a
Ġeks empl
Ġautobus a
l iep
Ġt onis
ek ven
Ġpie bild
Ä«v o
Ġliel am
lu at
Ġdom Äģs
Ġveid ota
Ġskat ienu
Ġlas Ä«tÄģji
Ġiev a
Ġizs niedz
Ġdraug us
Ġapskat es
Ġatrad a
ĠievÄĵr ojot
Ġizl aid
Ġdesmit iem
Ġprot ok
Ġsaz iÅĨas
ĠpÄģrskat u
Ġjust ies
Ġintel ektu
ĠpÄģrsp Ä«l
k g
Ġd im
tÄģ ciju
Ġpie v
ĠpÄģr Äĵjais
ĠmÅ«s dien
Ġviet ÄĵjÄģs
Ġpies kÄģr
Ġrekl Äģma
Ġaprakst u
Ġbals Ä«
ĠuzstÄģd Ä«t
ĠapmeklÄĵtÄģj u
ĠkonkurÄĵts pÄĵj
d Äģv
d ep
v usi
Å« tÄģ
Ġgr ez
Ġkl avi
Ġbr emz
Ġnod aÄ¼Äģ
ov ska
Ġkal po
Ġpras Ä«ja
Ġbrauc Äģm
Ġlauk iem
Ġbild Äĵ
Ġmekl Äĵju
ogrÄģf ijas
Ġmai ja
ĠÅ¾urn Äģlu
Ġpavasar is
Ġadres e
ĠÄ¼au Å¾u
ĠglÄģb Å¡anas
Ġparlam enta
Ġedgar s
m eklÄĵ
r aid
Ġk emp
Ġd ei
Ġuz sp
Å¾ s
Ġjau ks
Ġvis apkÄģrt
Ġdaudz Äģs
itÄģ tei
ĠpriekÅ¡ metu
Ġw ordpress
ĠsociÄģl ajos
ĠnolÄĵm Äģm
Ġsez onÄģ
Ġkompl ektÄģ
Ġzvaigz ne
Ġus b
st Ä«t
Ġno br
Äģd Äĵ
oj uÅ¡Äģs
Ġf en
Ġpat enta
Äģn ijÄģ
Ä«c ijÄģ
uz reiz
oloÄ£ iju
Ġnop Äĵrk
ĠuzÅĨÄĵm umÄģ
dev u
ĠbrÄ«v dienÄģs
Ġvesel Ä«bai
Ġmu tÄĵ
Ġorganiz Äģcija
Ġaps ol
ĠdroÅ¡ s
Ġvies nÄ«cÄģ
ĠbrÄ«n um
Ġteor ijas
ĠcÄ« ÅĨu
o ur
Ġ Äģfr
Ġat veid
et as
Ġie ejas
Ġko ki
Ġliel ajÄģ
Ġbr Äģl
Ġnep ies
lai m
ied arb
Ġbal tÄģ
ig ht
ĠĠĠĠ Ġ
ojÄģm ies
brauc ot
ĠstÄģvok Ä¼a
ĠmÄģs as
Ġpiekr Ä«t
Ġfond u
ĠpazÄ«m es
ĠÄ·Ä«n ieÅ¡u
h el
Ġm ult
Ġb ik
Ġr Å«d
Ġap dar
Ġval dz
Ġnos auc
Ġmil ti
nÄ«c Äģs
ĠzinÄģt nieki
Ġnoz ag
ĠpieÅĨem Å¡anas
Ġlietu vÄģ
Ġslik ta
Ġvasar u
ĠtÅ«kst oÅ¡us
Ġpieteik umu
svar Ä«gi
andr is
ĠcÄ« ÅĨas
Ġuguns gr
Ġs ir
Ġuz st
og i
op ul
inÄģj usies
Ġpl Äģks
Ġaug sta
Ġsak op
tik ko
Ġgaid Ä«ja
Ġdzim t
ĠsvÄĵt kos
Ġeksp luat
Ġelektr Ä«bas
Ġeksper tu
Ġmetod e
Ġuguns dzÄĵs
ĠsÄ«p oli
ĠprezentÄģ cijas
Ġklik Å¡Ä·
r Å«
Ġz inÄģÅ¡anÄģm
Ġnot eic
ac ea
Ġdaudz Äģm
Ġinter j
sm a
Ġpav Äĵst
Ġpag Äģja
ĠdÅ¾ ons
ĠminÅ«t Äĵs
Ġsald o
Ġtv it
fil m
Ġkoncer ts
Ġterm iÅĨu
pagÄģjuÅ¡ ajÄģ
j elg
Ġn ul
Ġl ec
Ġb un
Ġne run
er os
ap ollo
Å¾ ÅĨu
Ġpr okur
âĢĿ ).
Ġtur ku
Ġnep Äģrs
Ġned om
ĠbrÄ«v Äģ
Ġspec ializ
Ġprojek ti
zem Äģk
Ġnodarb oties
Ġied al
Ġaud umu
Ġsec inÄģt
Ġapj omÄģ
ĠdziÄ¼ Äģk
Ġso Ä¼
Ġdef ic
Ġag nes
Ġriet um
Ġtrener is
l ad
s Ä«k
Ġl uks
Ġgad sim
ras ts
gad sim
Ġdr av
ĠstrÄģd Äģju
Ġpien Äģca
Ġizdev umu
Ġdator iem
Ġnok Ä¼
Ġaprakst s
Ġaic inu
daÅ¾ as
ĠpiedzÄ«v ojumu
ĠpatÄĵr ÄĵtÄģju
Ġstandar tiem
Ġkartup eÄ¼us
Ġpiesaist Ä«t
j ums
z Äģ
an aliz
Ġm Å«r
Ġj Å«ra
ies aku
ab as
Å¡i m
sk u
aut o
Ġkr Äĵjuma
Ġgal er
Ġjaun umu
Ġkat lÄģ
ĠpriekÅ¡ likumu
Ġlas Ä«Å¡anas
ĠparÄģd Ä«sies
Äĵn Äģ
Ġkor up
apr ot
Ġris inÄģt
viel Äģm
Ġuztur Äĵt
ĠnepiecieÅ¡am Ä«ba
ĠseÅ¡ iem
ĠÄ«r es
Ġsau lÄĵ
Ġpiekt dien
pul kst
Ġmi gr
ĠshÄĵm as
ĠpÄģrraid es
Ġener g
Ġk i
Äĵj ama
aÄ¼ ai
Ġlaik i
Ġh ob
Ġak umul
ĠbÅ«t Ä«bu
ĠÄį Å«
Ġgrib Äģs
Ġliek ot
Ġpolit ika
ĠtreÅ¡ Äģs
Ġstarptaut iskÄģs
Ġsta f
Ġdiz ainu
ĠieÅĨÄĵm umu
l os
Äĵ Å¡anÄģm
Å¡ Äģm
au tu
ek v
Ġvar ÄĵjÄģm
ip u
Ġbal to
Ġviet Äĵjiem
ĠÄ· Ä«nas
ĠlabÄģk ajiem
Ġsaist Ä«bu
Ġris inÄģjumus
Ġkab atÄģ
Ġpareiz o
Ġiemes liem
stÄģv u
Ġrek onst
Ġlido stÄģ
Ġfut bola
c ijÄģs
s Äģku
Ġv ik
Ġl op
en Äĵs
Ġc ar
ĠÅ¡ veic
Ġneb aid
Ġpu Ä·u
Ġpav Äĵl
Ġnoteik tas
Ġpies ar
Ġgalven ie
Ġprojek tus
Ġsitu ÄģcijÄģs
ĠkÄģr tu
Ġkontrol i
eÅĨ os
ĠkÄ¼uv uÅ¡i
Ġkomerc iÄģl
ĠmaksÄģj umu
Ġfut bol
w ed
Ġp e
Ġl auc
Ġd isku
Ġr iska
ap tuveni
Äģj uÅ¡ies
Ġpas p
Ġperson Ä«bas
Ġlas u
ĠvÄģrd os
redz ot
ĠÄ«paÅ¡ nieku
Ġab us
Ġpiek Ä¼Å«t
Ġ6 00
Ġziem a
ĠizglÄ«t Ä«ba
ĠskrÄĵj Äĵjiem
Ġapr it
ĠapkÄģrt nÄĵ
Ġdisk rimin
Ġamat Äģ
mÅ«s dienÄģs
Ġkras ta
ĠeÄ¼ Ä¼a
pav asar
ĠrÄĵÄ· ina
l et
Ġl omas
Ġr ak
Äģl ie
ĠpÄģr tiku
Ġto brÄ«d
Äģn us
Ġliel os
ĠvairÄģk Äģs
Ġvec umam
Ġsap ÅĨu
Ġpies pr
me ist
gu Ä¼
Ġiev ain
Ġam atu
Ġizp al
Ġpac el
Ġav otu
Ġbar s
ĠpÄģrliec inÄģta
Ġkap te
kom p
Ġapj oma
Ġizg aism
ĠpozitÄ«v u
ĠcÄ« ÅĨÄģ
ĠloÄ£ iski
Ġidenti fic
ĠizvÄĵrt Äĵt
3 7
t irg
Ġ ÄĵÅ¡anas
Ġp oga
ÅĨ ai
Äĵj oÅ¡s
Ġuz kl
ĠpÄģr klÄģj
Ġsk al
Ġnot eica
Ġpl Å«st
ĠÅ¡o vakar
Ġredz Äĵja
Ġor Ä·es
Äĵst ies
kat ra
dev a
ĠvÄ«r ietim
stÄģ sts
ĠdÅ¾ eks
Ġspr aud
ĠsaÅĨem tu
viel a
ĠaugstÄģk Äģ
Ġuzvar as
svÄĵt ku
ĠpievÄĵr st
ban k
Ġneie vÄĵr
sapr ot
Ġregl am
Ġl av
Ġat vad
on ds
Ġman Äģs
lai kÄģ
pl aÅ¡
Ġizmant oja
Ġizm ain
tik mÄĵr
agr Äģk
ĠdalÄ«b nieks
Ġspr iest
Ġmier s
Ġma Ä£istr
Ġatgriez Äģs
Ġprincip s
ĠpÄģrkÄģp umu
valst Ä«m
Ġpagal mÄģ
Ġsmadz enes
i oz
Ġs Äĵn
Ġir on
Ġuz trauk
Ġap Äĵd
Ġtik uÅ¡i
ĠdzÄ«v ei
Ġh armon
Ġsal u
kur a
Ġrad ot
Ġor g
Ġil ze
ĠtÄģl runi
Ġtehn isko
ĠtieÅ¡ saist
Ġdok t
ĠbudÅ¾ etu
Ġsilt uma
Ġamer ikas
ĠmÄģju p
Ġieras ts
piek t
izglÄ«t Ä«bas
rec ep
prof es
p ien
t ec
Ġs ist
Ġi vars
Ġm m
Äģr ÅĨ
Ġat vas
Ġap lÄ«
Ġkon tu
Ġnu pat
Ġiek Äģp
Ġpap Ä«r
Ġilg a
Ġid ejÄģm
Ġvil k
sav ilk
ĠmÄĵne Å¡i
Ġdarbiniek s
Ġauk sts
ĠsÄ«p olu
Ġjautr i
Ġfon ds
ĠÄĵdien kar
Ġn Å«
at Äģm
Äĵj umam
Ġuz kÄģp
em s
Ġf lash
Ġpas aku
Ġaiz sk
Ġpirm ajÄģm
Ġorganiz Äĵt
Ġoper as
Ġstil u
ĠÄ«sten Ä«bÄģ
Ġnoti c
Ġbat erijas
Ġnegaid Ä«ti
xx xx
Ġfol kl
Ġsiguld as
t weet
Ġk var
Ġn Äģcies
Ġl oku
Ġd en
Ġb iÅ¡
Ġvien nozÄ«mÄ«gi
ĠpÄģr trauc
Ġes oÅ¡ajiem
Ġlab dar
Ġpl ay
Ġlatv ieÅ¡iem
Ġh ig
ĠÄģr sts
Ġvir sp
ĠÄ«st a
Ġac s
Ġziem eÄ¼u
Ġvel k
Ġvirz ienu
Ġsarkan Äģ
Ġkoncer ta
Ġautobus Äģ
Ġalkoh ol
Ġcim d
vok Äģts
g b
Ġi os
Ġg ust
ur e
ul dz
Ġpat ri
Ġtr i
var i
rÄģd a
Ġpus ei
ĠnÄģk t
Ġpamat skolas
Ġab sur
ĠuzÅĨÄĵm Äĵjiem
Ġsabiedr iskÄģs
ĠstrÄģd Äģjot
ĠbrÄ«v a
Ġpadom Äģ
ĠsvÄĵt dien
Ġma Äį
sas tÄģv
Ġarm ijas
Ġkuld Ä«gas
Ġfav or
f an
Ġ qu
Ġm b
st Ä«m
Ġno min
Ġr ast
Äĵj oÅ¡a
Å¾ ot
Ä«j uÅ¡Äģs
Ġpal aid
Ġpal aist
ĠsÄģk Äģm
Ä«d i
ĠizvÄĵl oties
Ġstund a
Ġizt eic
Ġsu ÅĨu
ĠÅ¡Ä·ir nes
ĠÄįempion Äģta
Ġmieg s
ĠdvÄĵs eles
Ġnesan Äģca
lau ra
sac ens
p az
um br
Ġuz rad
Ġie griez
Ġtik usi
ĠpÄģr run
pr ieks
man as
Ġsv Äģr
pas kat
ĠÄ«paÅ¡ niekiem
ĠtieÅ¡ Äģ
Ġnotik umus
ĠspeciÄģl ists
Ġsamaz inÄģs
Ġsald Äĵjumu
ĠmateriÄģl iem
Ġ12 0
Ġmilz Ä«ga
Ġnopiet nÄģk
ĠglÄģ zi
Ġok up
Ġtil tu
ĠÄĵrt Äģk
ziem as
olog i
mÄģt e
p irk
v iz
Ġt ac
au ta
Ġm oz
Ġd otos
Äģk Äģm
Ġtik Å¡anos
Ġst ore
Ġliel ie
gr Å«t
Ġkom iks
Ġrakst iem
Ġakt ieris
Ġteic is
ĠzÄ«m i
ĠrÄ«k u
tÄģd Äģ
Ġput ni
Ġef ektiv
Ġstarptaut iskÄģ
Ġiesnieg umu
Ġpiemin Äĵt
pÄĵdÄĵj o
Ġmei teÅĨu
Ġliep ÄģjÄģ
ĠgrÄģd u
ĠkÅ«k u
Ġnepac iet
m b
Ġp v
Äĵj oÅ¡i
Äĵj oÅ¡Äģ
Ġap stÄģj
el im
Äģl e
Ġkur su
Ġmin ÄĵtÄģ
Ġredz Äĵtu
Ġizmant ojam
Ġilg s
Ġvirs rakst
Ġzaud Äĵt
Ġatst Äģjot
Ġvilc iens
Ġuztver t
ere oti
Ġaptauj Äģto
ĠÅ¡u j
k Å¡
v ied
am Äģm
in ies
Äģj amies
oj uÅ¡as
ĠlÄ«dz vÄĵrt
Ġnep iek
Ġkom Äĵd
Ġdom Äģjis
Ġsl ied
Ġvajadz Ä«go
Ġilg Äģku
Ġpamat ojoties
Ġcep am
ĠpÄģrstÄģv e
otr ajÄģ
Ġtrad Ä«ciju
Ġprot est
Ġizpr ast
ĠkrÄ«z e
Ġinvest Ä«ciju
ĠlidmaÅ¡ Ä«nas
Ġrei Å¾u
prob lÄĵm
i Ä¼u
r Å«p
Ġ `
Ġd o
Ġd il
am bul
Äĵr ijas
Äģj usies
iz on
eik tu
Ġgr as
ĠbÅ«s i
ĠceÄ¼ ojums
Ġas t
Ġrun Äģju
Ġiev Äģr
Ġizveid ots
Ġzv ej
ĠrÄģd Ä«ja
Ġstud enti
ĠkÄģr tÄģm
ĠattÄĵl a
ĠjÄĵ gu
Ġalb uma
Ġsmu k
ĠÄįempion ÄģtÄģ
ĠsmarÅ¾ o
atÅ¡Ä·ir Ä«bÄģ
l ed
p el
t ieÅ¡Äģm
v Äĵj
z vaig
Ġg ov
or t
Ä· e
Ġkas tes
pr ov
oÅ¡ am
Ġned od
Ġal ber
veid Äģ
brauc am
Ġsil tu
Ġvari anti
ĠpÄģrliec Ä«bu
Ġdokum entÄģ
Ġaic inÄģja
ĠsaÅĨÄĵm usi
Ġobj ekts
Ġlog iem
Ġapt iek
grieÅ¾ as
Ġtic Äĵt
Ġsez ona
Ġteor Äĵtiski
ha els
odr oÅ¡
Ġcie ÅĨu
Ġatn Äģca
k ons
m Ä«n
n t
Ġk ung
Ġm ij
Ġvien oÅ¡anÄģs
aid s
Ġpav ed
Ġ4 8
ĠspÄĵl Äĵm
Ġsapr Äģt
Ġizdar Ä«ts
Ġgai Å¡i
ow n
Ġcer Ä«bu
Ġsavien Ä«bÄģ
Ġraj onu
ministr u
Ġide Äģli
Ġtrauc Äĵ
ĠprecÄ«z Äģk
ĠnoslÄĵp ums
ĠizstÄģd es
t op
Ġ !
Ġ od
ie w
ar mands
Ġt akas
Ġr ikt
Äģt ais
Ġvis drÄ«zÄģk
Ġkon tÄģ
ieg Äģd
Ġier o
ĠjautÄģj umÄģ
Ġkap Äĵc
Ġsadarb Ä«ba
Ġfakt ors
Ġpieteik ties
ĠsareÅ¾Ä£ Ä«ti
Ġkok iem
ĠreÄ£ion Äģ
Ġtauk u
Ġras ties
ĠkrÄģÅ¡ ÅĨ
sÄģkotn Äĵji
Ġmotoc ik
Ġm Äģra
st Å«r
Ġg ÄģjÄģm
Ġg oda
Ġr isku
Ġr isks
tÄģ cijas
Ġiz Å¡Ä·
Ġpr Äģts
Ġpie reÄ£istr
Ġap balv
dr uk
iz dab
ip ul
Ġtel pa
ĠÅ¡Äģd os
Ġgrib am
Ġnez inÄģju
Ġparas to
Ġnorm Äģlu
Ġdzies mÄģm
Ġien es
ĠnovÄĵr st
Ġsauc a
Ġaic inÄģti
Ġpriec Ä«gs
Ġlog o
Äĵz i
ĠmÄ«k sti
Ġresurs us
Ġsun i
ĠÄ«pat svar
Ġpopular itÄģti
Ġdegun u
6 6
an tiem
Ġd akter
oj oÅ¡u
ĠviÅĨ Äģ
id eja
Ġlab ajÄģ
ep ar
Ġnes am
ent Äĵt
Ġpu iÅ¡
Ġgaid Ä«ju
Ġkol on
Ġaps Äĵd
Ġkab atas
Ġnodarb Ä«bas
Ġmetod i
ĠadministratÄ«v o
draug iem
s amsung
â Ĥ
Ġm o
Ġne Äĵr
en ko
Ġdz ir
Ġsp ons
Ġned omÄģju
Ġlas i
oloÄ£ ija
ĠÅ¡Ä·iet ami
ĠÄ«sten ot
ĠbrÄ«n umu
proj ekta
Ġaus Ä«m
ĠkomentÄģr us
Ġkategor ijÄģ
Ġneskai tÄģ
Ġnomain Ä«t
Ġteleviz oru
ĠnodarbinÄģt Ä«bas
âĤ ¬
3 2
d aÄ¼Äģ
f f
p ier
Ġv ok
Å« Å¡anas
Ġg Å«st
Ġne j
Ġap kar
Äģc Äģm
tr aukt
ĠvÄĵl ÄĵÅ¡anÄģm
Ġmaz Äģku
Ġbal ts
Ġnoteik tÄģs
Ġveik smes
Ġmar ta
ing Äģ
Ġvajadz Ä«gi
ĠnepiecieÅ¡ amÄģs
Ġfr iz
ĠtrÄ«s desmit
Ġris inÄģjumi
ĠlÄĵm umus
ĠkÄģr ta
Ġkons olid
Ġstrukt Å«ru
Ġret Äģk
Ġse ans
ĠdabÅ« ju
Ġsky pe
n orm
u Ä¼
Ġm Äģti
st ot
Ġpie tuv
Ġap ollo
Ġkaut ko
ni g
kr ist
Ġperson Äģla
Ġvesel a
Ġparedz Äĵti
Ġmel no
Ġpac Äĵl
re inis
Ġprec iz
ĠdÄģv ana
Ġtem pa
ĠpierÄģd Ä«t
Ġaustr Äģl
Ġolimp i
Ġfail us
b ir
c iÅĨu
l pp
Ġl itr
Ġm oÅ¡
us Äģ
Ġliet oÅ¡anai
Ġak tiem
ĠbÅ«t Ä«bas
Ġredz ot
Ġredz Äĵjusi
Ġmar Ä·
Ġnevar i
Ġ4 2
ĠÄ«st u
ĠÄģtr umÄģ
Ġlas Äģm
Ġ19 7
Ġmu itas
Ġatrod ama
ĠmÄģksl inieku
ĠspÄĵc Ä«gi
ĠienÄģk umu
Ġĉĉ Ġĉĉ
Ġdv d
Ġnoris es
Ġmak Å¡Ä·er
Ġsier s
saei mas
Ġpiesar dz
4 4
d ok
d ÄĵÄ¼
p usi
s uper
Å¡ ov
Ġd Å«m
ek lu
Ġf arm
lab Äģ
Ġredz ÄĵjuÅ¡i
zÄ«m Äĵ
latv i
ĠraÅ¾ otÄģjiem
Ġveic inÄģt
ĠspÄĵc Ä«gs
ĠmÄĵrÄ· a
ĠrÄ«c Ä«bas
Ġtras e
ĠlÄ«d eris
fin ans
Ġnelik um
Ġkinote Äģtr
Ġdepartam enta
Ġmen edÅ¾
Ġnenol iedz
k ru
n akts
v Äĵt
Ä« ÅĨu
ar tis
Ġv idz
Ġv ibr
Ġn a
an tÄĵ
Ġne runÄģjot
Äģr e
et Äĵ
Äĵr u
Äĵt am
ac he
Ġpu Ä·es
Ġbal si
pirm Äģs
Ġatp al
Ġtehn iku
Ġvil kt
Ġbrauc ienu
Ġpapild inÄģt
ĠrÄ«k s
ĠpaÅ¡vald Ä«bÄģm
ĠpienÄģk as
Ġdisk ut
Ġklus ums
ĠjÄģd odas
ii i
Ġmik ro
Ġatsk an
ĠviedtÄģlru ÅĨu
ĠitÄģl ijas
Ġnetrauc Äĵ
f ini
Äģ Å¾a
Äĵ Å¾
Ġv Äģk
Ġs edz
Ġr Äģp
Ġsp ÄĵjÄģm
Ġliel ajiem
eÄ¼ Ä£
nes t
eg a
ĠpieÅĨem u
Ġperi ods
Ġlep n
Ġaizmugur Äĵ
ĠavÄģr ijas
p end
v o
Ġk Å«p
Ġv eÄ¼as
al o
Ġno beig
ak Äģm
Äģj i
Å«t Ä«t
Ġtr ol
kr auk
Ġned arb
atÄ«v s
Ġinform Äģt
Ġatbild Ä«gÄģs
Ġam b
Ġam az
Ġvieg ls
Ġop en
Ġatbilst Ä«bu
Ġcer Äĵt
Ġpriec Ä«gi
ĠgÄģj Äĵju
cit i
maiz i
Ġaizlieg ts
Ġkul inÄģr
Ġener go
Ġhok eja
ĠbaÅ¾ as
Ġslink ums
ĠskÄģr ien
Ġnenorm Äģli
s ia
Ġp Ä«rÄģ
Ġz aÄ¼Äģ
ol as
ĠpÄģr ejas
Ġsp oÅ¾
Ġveid oÅ¡anas
Ġnod om
Ġnod omÄģju
Ġpad arÄ«
Ġskat Ä«jos
Äģz e
Ġsvar s
Ġizveid o
Ġpakalp ojumi
Ġpubl iskÄģs
jan vÄģra
Ġdebes is
ĠkrÄĵm u
Ġkandid Äģtu
ĠsavstarpÄĵj i
ĠÅ«den skr
Ġtol aik
Ġaks esu
izdab z
t p
at rad
Ġne itr
Ġno liek
Ġiz run
Ġpar ku
Ġap ciem
ul es
Ġ3 3
Ġsl ov
ieÅ¾ am
ĠtÄģl umÄģ
Ġkal nos
Ġizdev umi
zem Äĵ
Ġkult Å«ra
Ġgul b
Ġuzrakst u
Ġperi odu
Ġzob u
ĠsÄ«p olus
ĠkomentÄģr iem
Ġizprat nÄĵ
Ġnovad Äģ
Ġze Ä·es
piln Ä«gi
ĠpÄĵcpus dienÄģ
Ġisl and
t Å
Äģd ams
Ġpa Äĵd
ĠvÄĵl ÄĵjÄģs
ĠtÄģd am
ĠvairÄģk os
Ġzem u
ĠpiemÄĵr ota
Ġuzskat Ä«ja
Ġpunk tÄģ
Ġkonkr Äĵto
Ġplat i
Ġteik Å¡u
ĠekrÄģn Äģ
Ġdiev am
Ġmai ÅĨu
ĠmÄ«k la
Ġkomun ikÄģciju
Ġmei tu
Ġneatkar Ä«bas
iÄ· a
ĠpÄģrdom as
Ġvaro ÅĨi
Ġmieg a
ĠÅ¾an ra
b iks
m Ä«Ä¼
at balst
Å« nu
ap a
Äģj umu
Ġkur sa
Ġkr Äĵjums
Ġval Å«tas
itÄģ tÄĵm
kar sÄĵ
Ġier odas
Ġapm et
Ġnov ec
Ġpien Äģc
Ġkonkur su
Ġstud entiem
Ġgabal os
ĠapstÄģk Ä¼us
ĠziÅĨ ojumu
ĠkÄ¼Å«d a
Ġlit er
qu are
Ġjurid iskÄģs
ĠlÅ« pas
Ġmeh Äģn
Ġpusstund u
ĠtiesÄ«b sar
t Äĵs
ķ Ã¸
Ġn Ä±
Ġm Äĵt
Ġd os
av e
ek a
ek o
vÄĵr tÄĵ
ĠsÄģk usi
Ġpak l
Ġpies kar
Ġparedz Äĵt
Ġmain a
Ġpiedal Ä«sies
Ġof f
Ġpaliel inÄģs
Ġneap z
Ġkontrol e
ĠbudÅ¾ etÄģ
Ġprincip u
Ġkak la
Ġatras ts
papild inÄģts
Ä± tÅ
ĠkosmÄĵt ikas
ĠÅ¡Ä·Äĵr Å¡
Ġnemit Ä«gi
ĠnÄ± Ä±tÅ
ĠnÄ±Ä±tÅ ķÃ¸
m ic
Å¡ ies
Ġd am
Ġno lai
Ġpie fiks
Ġvis daÅ¾Äģd
iz ÅĨemot
ok Ä¼u
Ġst ereoti
Ġpam et
Å«d a
ka ÅĨ
Ġiem a
Ġe ÅĨÄ£
Ġtehn iskÄģs
ĠmÄģks la
vil nis
ĠnolÄĵm is
nev is
ĠizmÄĵr s
ĠdÄĵl u
Ġatlik uÅ¡o
ĠpanÄģk umiem
Ġnosac Ä«jumiem
Ġdirekt ore
ĠapmeklÄĵtÄģj iem
Ġse Å¡i
ĠiemÄģc Ä«ties
ĠsÄĵk las
Ġperf ekti
amer ikÄģ
ĠtÄĵt is
Ġsastr Äĵg
Ġm ez
Ġd ots
al t
Ġr eit
Ġvien Ä«go
Ġtik lÄ«dz
Ġ( "
ul as
Ġpat iks
oÅ¡ ajam
Ġpas trÄģd
ac z
Ġor anÅ¾
Ġsek os
liet a
Ġblog iem
ĠpatÄ«k ama
ĠgarÅ¡ vielu
Ġprofes ionÄģ
Ġtren iÅĨos
Ġner vu
Ġnopiet ns
Ġmai ÅĨas
Ġmais Ä«jumu
Ġpiepras Ä«jums
Ġtum Å¡i
Ġnel eg
Ġkalend Äģru
ĠkrÅ«t Ä«m
mÅ«z ikas
s Äģp
Ġm ap
Ġuz stÄģ
iet o
Ġpus otru
Ġpret run
ĠceÄ¼ ojumÄģ
Ġsam ier
ĠgadÄ«j umiem
pas tÄģ
Ġdzim uma
ĠsvÄĵt kus
Ġkons ist
Ġstil s
Ġmuz ejÄģ
Ġloc eklis
ĠnonÄģk uÅ¡i
Ġinterv ijas
Ġuzl Ä«m
Ġvan iÄ¼as
Ġatris inÄģt
vÄ«r ietis
ĠtÄĵj kar
Ġzup u
Ġpadal Ä«ties
Ġilu str
j s
l ana
Ġk Äģj
at liek
Ġl en
ij is
ad e
Ġr Ä«dz
Ġat min
Äĵm u
Ġvar ot
aut obus
Äį akar
Ġtr iec
Ġaug Ä¼us
otÄģj as
Ġizskat u
Ġmeit en
Ġkor id
ĠievÄĵr ot
Ġfiz iskÄģs
Ġkust Ä«ba
Ġtal ant
Ġkonstat Äĵts
augu sts
Ġht ml
ĠbÄ¼ odÄģ
Ġkurp es
Ġkarj eras
Ġasar as
Ġrefer end
i al
Ġm y
Å« kl
Ġno griez
ĠpÄģr z
ej b
Ġpl au
skat a
Ġmod eÄ¼a
ĠbrÄ«v Ä«bu
ĠkrÄģs ain
ĠiekÅ¡ Äĵjo
anc rossfit
Ġdraudz enes
Ġprinc ipa
ĠpazÄ«st ams
ĠizcÄ«n Ä«ja
Ġapkur es
d in
m eta
p ir
in us
Ġuz trauc
ir e
iz strÄģd
auc as
ĠsÄģk umu
Ġpav eikt
Ġskat Ä«tÄģjiem
ĠpiedÄģv Äģts
me ÅĨi
Ġatbild Ä«ba
Ġnevien Äģ
Ġdev u
ĠmÄģks lu
Ġizpild i
Ġx p
Ġiedom Äģjos
Ġsez onu
Ġdebes Ä«m
ĠatslÄĵg as
ĠÄ£ener Äģl
Ġp Å«k
Ġk ind
Ġs and
Ġm aj
Ġb und
ĠÅ¡ v
Ġap griez
ti p
var am
Ġbez vadu
Ġbal z
Ġsak nes
Ġnor it
ĠlabÄģk Äģs
Ġiem Ä«t
Ġpies ÄģrÅĨ
nÄ«c ai
Ġizs lÄĵdz
Ġatz Ä«t
bal vis
Ġgabal iÅĨu
Ġsarakst a
Ġzaud Äĵjumus
Ġteritor iÄģl
ĠtÄĵl s
Ġstaig Äģt
ĠÄģrkÄģrt as
ĠlÄĵ nÄģk
ĠveÄ£ et
b il
c ien
d f
l in
Ġs Äģr
Ġi ii
Ġj omÄģs
Ġno j
ĠÅ¡ in
ĠÅ¡ onedÄĵÄ¼
Ġka Ä·i
it al
Ġkr auk
Ġtr oks
Ġliel uma
Ġaug sts
Ġveid oÅ¡anÄģ
Ġpus aud
Ġtel ekom
atÄ«v as
Ġskol otÄģji
Ġatm aks
Ġpolit iskÄģs
Ġvies i
Ġiesaist Ä«ties
ĠbiÄ¼ eti
Ġapmier inÄģts
Ġsasniedz a
Ġzin iet
Ġpabal sta
Ġserver a
ĠsiÅ¾ eta
Ġlaul Ä«bas
ĠbÅ« Å¡ot
f on
j ur
o il
ie Å¡anu
Ġv Ä«t
Ġg ult
Ġr od
Ġap bÅ«v
Ġie Å¡
un Äģ
Ġvien Äģdi
ag s
ist es
Ġnod od
Ġnov ed
Ġsnieg u
Ġparas tÄģ
Ġapt aujas
Ġfinans Äĵjumu
Ġsta cijÄģ
ĠjÅ«t ams
Ġinstit Å«ta
Ġbiznes s
Ġbiznes u
ĠdÄģrg i
Ġkartup eÄ¼i
Ġzviedr ijÄģ
Ġros acea
ebru Äģra
l av
Ġl g
Ġiz ol
ĠÅ¡ am
iz veid
ok i
Ġgr im
ter a
Ġveid us
par t
ov e
ĠgrÄģmat ai
ĠvÄĵrt Ä«bÄģm
ĠraÅ¾ o
Ġme tÄģl
fil mu
ĠsÄģp Äĵm
Ġtum Å¡s
ĠreÅ¾Ä«m s
spÄĵl es
ĠprivÄģt person
Ġpabeig t
ĠsiÅ¾ ets
Ġsau li
Ġrei b
meit ene
ĠglÄģz es
m en
Ġl ieg
Ġm c
Ġno pr
Ġr and
os i
ĠâĢ Ŀ
Ġtr okÅ¡
lik Å¡Ä·
Ġnes kat
Ġpam ost
Ġvec ums
Ġan na
Ġredz Äĵsim
liel s
Ġkonkur ss
Ġatcer Äĵjos
ĠvarÄĵs i
Ġprincip iem
ĠkvalitatÄ«v u
ĠsajÅ«s m
Ġieviet ot
ĠatÄ¼au ts
Ġrim i
Ġhor izon
Ġno klus
Ġiz bÅ«v
Ġz inot
Ġz upa
Ġpa ÅĨÄĵma
Ġkas pars
sk i
Äį us
Ġgad Ä«ties
Ġliel us
Ġh o
Ġpu tu
Ġizd arÄ«
ef s
ĠbÅ«t iska
Ġnor mu
Ġskat Ä«t
Äģz i
ĠkrÄģs Äģs
Ġnorm Äģla
Ġgai tu
Ġneliel Äģ
Ġautor iem
Ġpriec Äģjos
Ġuzvar Äĵja
Ġeksper ti
prec Ä«z
Ġplatform as
Ġneinteres Äĵ
t um
ie sts
ar k
Ġt iec
Ġn Äģc
at is
Ġiz lÅ«k
Ġkl Äĵp
Ġliet Äģs
ĠsÄģk uÅ¡i
lu z
Ġ3 4
ĠkÄģrt Äĵjais
ĠpalÄ«dz Äĵtu
ĉĉ ĠĠĉĉ
Ġpadom i
Ġsil ti
Ġmarat onam
Ġandr ejs
Ġapvien ot
Ġpiepras Ä«t
Ġemoc iju
div i
nod arb
ĠapÄ£Äĵrb a
ĠÄ£en Äĵtiski
ĠmÄ«n us
Ġsien Äģm
) !
- -
5 9
n ie
ie Ä£
Ġar b
Äģj iet
Ġman ipul
Ġies Äģc
Ġh om
nes s
Ġte Äģtr
Ġsm ej
Ġ3 7
ĠÄģr lietu
Ġstarp niecÄ«bu
Ä«gÄģk as
Ġter or
Ġsac er
ĠpÄģrliec Ä«ba
ĠsÄ«k Äģk
Ġkont ak
Ġtemp Äģ
Ġnepar edz
Ġapar Äģts
Ġamatperson u
Ġizrais Ä«t
Ġslep kav
Ġpagr ab
riek stu
ĠuzÅĨÄĵmÄĵj darbÄ«bas
m obil
Ġt Äĵja
at er
Ġne ÅĨem
ap ple
ek rÄģn
Ġf onÄģ
Ġkas es
Ġin tu
Ġpirm ajÄģs
Ġpam est
Ġrakst Ä«jis
vai dz
ekl Ä«
Ġskr Äĵja
Ġmu tes
Ġatz iÅĨas
Ġparedz Äĵtas
Ġveic as
Ġsamaz ina
ĠapkÄģrt ni
mal as
Ġkan Äģlu
Ġsarkan o
Ġpiepras Ä«juma
Ġsilt umu
Ġbaud u
ĠfotogrÄģf iju
Ġpild a
dab as
Ġkod s
paÅ¡ vald
mam ma
ĠgrÄģd os
ĠapstrÄģd es
Ġslap j
l ijs
t al
ij os
Ġj omas
Ġno dzÄ«v
Ġno krÄģs
Ġpie audzis
Ġap Ä¼a
Ġap prec
ĠpÄģr mÄĵr
Å«t Äģs
Ġaiz brauk
Ġbr on
Ġsm iek
Ġtel ts
ĠplÄģn iem
stÄģ sta
Ġvieg la
Ġatrod am
ĠsÄĵr iju
Ġpiepras a
ĠkuÄ£ i
Ġneskai tÄģm
ĠdÄĵv Äĵ
pievien o
Ġele gan
n Äģca
r ob
Ġpie Ä·er
Å«r s
Å«r Äģm
Ġpol ijas
ĠuzÅĨÄĵm Äĵju
Ġ6 5
Ġsaist Ä«bas
Ġpakalp ojums
omÄģ tus
Ġpirk st
Ġkontrol Äĵt
ĠÄįetr Äģm
nev aj
Ġatst Äģja
ĠmÄĵrÄ· us
Ġep id
Ġkok os
Ġkaim iÅĨu
Ġsamaks u
ĠkÅ«k a
Ġmom entÄģ
ĠÄ·ipl oku
Ġlond onÄģ
Ġlond onas
Ġrespond entu
Ġub untu
Ġm iks
Ġb uk
st aig
Å« ns
ĠÅ¡ orÄ«t
Ġlai vu
Ġsav Äģkt
Ġst Ä«v
Ġdr eb
Ġorgan ismu
Ġskaidr oja
ĠspeciÄģl istiem
Ġoper Äģcijas
ĠdÄģrz u
Ġaprakst Ä«t
Ġpriec Äĵ
Ġatbr auk
ĠrÄ«c Ä«ba
Å¡Äģd u
Ġdub ult
ĠvienkÄģrÅ¡ Äģk
Ġnelai m
Ġnotur Äĵt
ĠdaiÄ¼ rad
8 8
d aug
Ġp aust
Ġb od
Ġne las
ei b
it h
Ġvien Ä«bas
skat s
Ġgal v
ĠpaÅ¡ Äģm
Ġveid otÄģji
Ġredz Äĵs
ĠgadÄ«j ies
Ġik dien
mi gr
ĠizstrÄģd Äģ
Ġnorm Äģls
Ġsu ic
Ġaud i
Ġbiedr s
Ġterm iÅĨa
ĠtrÅ«k uma
ĠbiÄ¼ eÅ¡u
ĠmÄĵrc e
Ġdiskus iju
ĠcÄ«n Äģs
ĠpÄģrlÅ«k s
Ġnekust amo
klas es
Ġfestiv Äģla
ĠpasaÅ¾ ieru
ĠizmeklÄĵ Å¡anas
Ġsudr aba
b ook
c on
s akar
au sm
Ġb ad
Ġne w
Ġj as
Äģr am
Ġpr ogres
Ġpie ejas
Ġap dom
ru p
ĠĠ ĠčĊ
pa ÅĨem
ain ais
Ġcit reiz
Ġties ne
aka o
Ġvil nas
ĠiekÅ¡ ÄĵjÄģ
Ġ8 00
anc es
Ġvald Ä«bu
Ġnotik usi
skol u
Ġtais no
Ġsu gu
Ġiemes li
ĠplaÅ¡ a
ĠkÄģp o
Ġeksper t
Ġkok vil
Ġmaig i
Ġstul b
ĠjÅ«rmal as
d ur
n ai
s itu
Ñ ı
in ts
Ġne iedom
Ġsk Å«p
iz stÄģd
Ġaiz vÄĵr
Ġtr iju
Ġkon ven
ĠdzÄ«v ojamo
Ġbal ta
Ġsl Äģ
auj u
Ġpak Ä¼au
end er
Ġgaid ot
ĠizrÄģd es
Ġatrad is
ĠrÄ«k ot
ĠpÄģrs nieg
Ġtv net
Ġfinans Äĵjuma
ĠpieÅ¡Ä·ir t
Ġseg m
Ġindiv Ä«da
Ġelem entu
Ġaus is
ĠreÅ¾is ora
Ġprojekt am
ĠvÄĵd era
Ġdienvid u
Ġkn api
Ġjut os
ĠpirmizrÄģd e
Ġmij iedarb
Å« pÄĵj
Ġg Äģd
Ġr am
en Äįu
os u
Ġ( !
aut ies
Ġaiz sÄģk
ÅĨÄĵm u
Ġvir smas
ver onika
Ġpap Ä«ru
ĠspÄĵl Äĵja
Ġvil nis
ĠiekÅ¡ lietu
ost ac
ĠzinÄģt ÅĨu
ĠvadÄ«tÄģj i
Ġierakst us
Ġoper ators
ĠdÄģrz eÅĨus
Ġzaud Äĵja
ĠstÄģst us
Ġiepaz Ä«t
Ġsmar t
ĠdomÄģ Å¡anas
Ġkilometr iem
ats eviÅ¡Ä·
Ġalkoh olu
Ġapgalv ot
iniec e
ĠtÄ«kl iem
ĠÅ¡Å« nu
Ġpud eli
ĠkonkurÄĵts pÄĵjas
Ġeksist Äĵ
ĠjÄĵkab pils
latvi ancrossfit
ĉĉĠĠĉĉ ĠĉĉĠĉĉ
m Ä«
Ġp Ä«l
Ġs omÄģ
st atu
Ġc Ä«tÄ«gi
Ġap vain
Ä«j i
aiz mir
Ġsal ikt
Ġpies Äģt
ĠjautÄģj a
Ġizdar a
Ġmeit enei
ĠgarÅ¡ Ä«gi
Ġem Ä«l
Ġnegrib Äĵja
spor ta
Ġdienes tu
Ġziv s
Ġkau tr
Ġamatperson a
Ġlic ences
Ġiepak ojuma
Ġizskaidr ot
kap ars
Ġtrans form
Ġdaugav pils
e am
m un
at iz
Ġl il
Ġc eh
ĠvÄĵl aties
ru d
ic Äĵt
Ġnek Ä¼
Ä«n Äģm
Ġcit ai
Ġvakar dienas
Ġsapr oti
Ġpras Ä«t
Ġbur tu
ĠattÄĵl us
Ġnol emj
ĠmÄĵnes is
Ġmetod Äĵm
Ġkod ol
Ġstrukt Å«ras
Ġsasniedz is
Ġieteik tu
Ġvirtuv i
mil j
Ġkampa ÅĨas
ĠbÄģriÅĨ tiesas
e tus
s il
Ġl Äģs
Ġb umbu
am Ä«bas
el u
Ġpa Äĵst
Ġpl e
gad os
Ġnes at
Ġkop Å¡anas
ĠstÄģ Å¡anÄģs
Ġlauk uma
ĠmeÅ¾ s
ĠzinÄģm as
Ġpareiz Äģ
Ġsu ÅĨi
ĠpÄģrsteig ts
Ġneredz u
ĠprofesionÄģl o
Ġez eru
Ġieraudz Ä«ja
Ġkoncep tu
au str
Ġd ez
al fs
tu ves
ĠÅ¡ Äģv
Ġvis beidzot
Ġvien tul
Ġgal s
Ġek st
Ġsal v
Ġsal auz
Ġrad Ä«tu
Ġmil l
Ġilg ts
Ġab c
ĠvÄ«r am
Ġizs auk
ĠzinÄģm Äģ
Ġgabal us
Ġpietiek oÅ¡i
Ġperi oda
Ġpalik uÅ¡as
Ġelem enti
Ġinterv iju
Ġbalst Äģs
ĠpÄģrlÅ«k u
Ġmotiv Äģcija
v it
Ġd Äģmas
Ġie pl
Ġz iÅĨÄģm
dr audz
Ġies ild
Ġtr aus
Ġliel l
Ä«st en
ieg u
pl at
ĠÄģr Äĵjo
Ġsa Ä«s
ĠparÄģd Ä«ties
Ä«gÄģk Äģs
ĠpÄĵdÄĵj ie
Ġblog os
Ġpiek ri
darb Ä«ba
Ġlauk umu
Ġnom iz
Ġmobil ais
Ġciet umÄģ
Ġizg Äģz
Ġnesapr atu
ĠnepiecieÅ¡am Ä«bas
Ġsul a
ĠjÄģr ÄĵÄ·inÄģs
Ġiztur Äĵt
Ġaizg Äģju
Ġliterat Å«rÄģ
Ġph p
Ġspilg t
0 1
4 9
h s
k il
m y
n iklÄģvs
r us
s c
Å¡ kapars
dz er
el ties
Ġes tÄĵt
Ġdarb ojÄģs
op t
Ġnos pr
Ġsal iek
Ġpret enz
ov u
Ġsak ap
ĠlielÄģk i
Ġaps veic
Ġpaties Ä«ba
ĠlÄ«dzek li
Ġcer emon
Ġsarun Äģ
ĠsÄĵd i
Ġkoment Äģri
ĠspÄĵj Ä«gs
Ġaktu Äģla
inÄģtÄģj i
Ġskaist o
Ġdistanc e
Ġcent os
ĠviedtÄģl runi
Ġex pl
Ġhip ot
siev iete
ciem a
Ġaugstskol u
kÅ«k u
i an
Ġs ods
Ġl ot
ad ic
on ai
or y
Ġvis tu
ĠlÄ«dz jut
Ġek ran
Ġbal tÄģs
las ot
par Äģd
ĠdaÄ¼ Äģm
Ġskaidr a
mi haels
Ġkomand ai
Ġsept embrÄ«
Ġpild Ä«t
cilvÄĵk u
Ġpadz iÄ¼
h ron
n b
ai ÅĨ
Ġm eta
Ġat cel
Ġpr ogr
Ġf Ä«
Ġin c
Ġgad am
Ġst Å«ra
Ġinter aktÄ«v
Ġsv iest
kur u
Ġpag aidu
Ġkal t
Äĵn am
Ġprob l
Ġnov Äģr
ĠzÄ«m ju
bild es
Ġkomand Äģ
pils Äĵta
Ġied eg
ĠatseviÅ¡Ä· as
Ġkonf igur
Ġsta ciju
Ġpsih i
Ġnon Äģcis
ĠÄ·Ä«m ijas
ĠfiniÅ¡ am
Ġinstrum entu
Ġnetr Å«kst
Ġekspor ta
wed bank
r ekl
s o
Ġk um
Ġs audz
Ġs Äģcies
Å¡ orÄ«t
Ġg Äģjis
Ġne il
Äģk am
Ġiz lai
iet s
em ent
Ġaiz kav
Ġgar i
Ġik gad
inÄģm ies
droÅ¡ Ä«bas
Ġvieg lu
brauc Äģm
Ġspr Äģdz
Ġaplik ÄģcijÄģm
Ġtren iÅĨiem
Ġgroz Ä«jumi
Ġsmag u
ĠdzÄ«vok Ä¼u
Ġpriv Äģto
Ġmugur u
ĠaÄ£ent Å«ru
Ġzir gu
Ġsamaks Äģt
Ġrel atÄ«vi
Ġfantast iski
Ġpagal am
Ġceturt dien
Ġdomin Äĵ
Ġlien e
ĠpriekÅ¡stat s
Ġigau ÅĨu
kult Å«ras
you tube
Ġ Äĵnu
Ġv aÄ¼
Ġn Ä«d
Å« Å¡anu
er Ä£
Ġuz c
Ġlai me
tr Å«kst
Ġpas lud
Ġpirm ajam
Ġjaun ÄģkÄģs
Ġliet oÅ¡anÄģ
Ġnu dien
lab s
sar dz
Ġuzskat Äģmi
Ġatkl Äģju
ĠrÄģd Ä«tÄģjs
ĠkÄģr lis
Ġklien ta
Ġsaz inÄģties
andr a
Ġapar Äģtu
ĠizstÄģd e
ĠbÄģz e
Ġizst aig
ĠgÅ« gl
Ġfrag m
0 5
Ġm est
Ġd Å«r
Ġno fotograf
dz ird
Äģj ams
Ġlai d
ts ar
op ol
oz e
Ġkar oti
las s
Ġmar ket
gal a
Ġotr kÄģrt
liel a
pie st
mai ja
Ġkriev ija
pal iek
Ġizpild Ä«t
ĠpatÄĵr iÅĨÅ¡
Ġatkar Ä«ga
ph p
Ġpulkst enis
Ġbibli ot
ĠsÅ«t Ä«t
Ġcelt niecÄ«bas
Ġsest dienas
Ġsubj ektÄ«v
l ej
w atch
Ġno pl
Ġar i
Ġpie gÄģj
var a
Ġh im
ĠsÄģk am
inÄģ tus
Ġskai stÄģ
ĠÄģr sti
iedz a
Ġorgan isms
urs quare
Ġdzim um
Ġierakst i
Ġaugst umÄģ
Ġzaud Äĵjumu
ĠattÄĵl s
ĠaprÄ« lÄ«
Ġsin ep
Ġilgst oÅ¡i
ĠnestrÄģd Äģ
dep utÄģ
Ġl odz
Å« Å¡ana
ap p
Ġc in
Ġap Å¡aub
Ġvis umÄģ
Ġko al
Ġpirm dien
Ġieg Å«s
Ġatr ak
Ġsek m
Ġlas Ä«jis
ĠlabÄģk ie
Ġattiec Ä«gajÄģ
ĠjÄģs aprot
Ġ0 6
Ġdat umu
Ġglu d
Ġrind a
Ġlaim Ä«gs
nep iecieÅ¡
ĠtÄģlru ÅĨa
ĠÄģt ru
Ġdei vid
odroÅ¡ ina
4 7
] .
d eg
t Ä«k
Ä« rÄ«
Ġv Äģku
tÄģ t
kr Ä«t
Ġlas Ä«tÄģjs
Ġjeb kad
iniek us
ĠmazÄģk Äģs
Ġprof ils
Ġgrup ai
Ġpiec desmit
skol a
ĠrÄģd Ä«t
Ġpoz Ä«cijas
Ġdokum ents
Ġ199 9
Ġskait lis
Ġkartup eÄ¼iem
Ġska ÅĨa
ĠseriÄģl a
ĠiekÄ¼au ts
Ġakme ÅĨiem
Ġfranc ijÄģ
ĠkritÄĵr ijiem
ĠÄ£e ogrÄģf
Ġvin n
Ġsaspr ing
d aÄ¼
e et
i gan
k in
v irs
Ġv ij
Ġv aÅ¾
al u
Ġj oks
Äģj Äģmies
or it
Ġ- -
Ġpal Å«k
Ä«n us
ent il
Ġpav eras
Ġpied urk
Ġdar Ä«jumu
gal Äģ
ĠÄ£ er
ĠÄĵd ieniem
Ġministr iju
Ġsol Ä«ja
ĠÄĵr ta
auz e
Ġsald Äĵjuma
mal Äģ
Ġdokum entiem
ĠÅ¾urn Äģls
Ġskan Äĵja
skaidr s
Ġelem entiem
apz iÅĨas
ĠmatemÄģt ikas
3 1
Ġ )
ie stu
is e
ad i
er land
Ġiz redz
eik a
Ġsp ÄģÅĨu
Ġdaudz os
ĠjÄģ ies
auc Äģs
Ġaug t
Ġ3 8
pl auk
Ġas s
cer ams
Ġvajadz Ä«gas
Ġsiev iÅ¡Ä·
Ġtelef oni
Ġtehn iski
ĠpÄĵt eris
ĠnodroÅ¡ inot
Ġkriev iju
Ġind eks
nek Äģ
Ġiegu vis
Ġaizmir su
Ġelem ent
ĠapmeklÄĵtÄģj i
Ġpraks e
ĠiekÄ¼au ti
ĠcÅ«k as
Ġizpau Å¾as
Ġtarif u
Ġnat o
Ġjaunat nes
Ġilgter miÅĨa
0 9
t ml
Ġs Äģrt
Ġn Äģcis
an Äįu
Ġl ol
Ġb eÄ¼Ä£
Ġuz zÄ«m
Ġuz vÄģra
Ġpa Äģtr
Ġjaun os
Ġgar laicÄ«gi
and u
Ġsar aÅ¾
ier es
ĠpriekÅ¡ statu
Ġskol otÄģjs
Ġkal ns
nÄģk amÄģ
Ġneiz bÄĵg
Ġkol ed
ĠsociÄģl i
ĠatÅ¡Ä·ir Ä«bu
Ġatkl Äģts
Ġkonkr Äĵtas
ĠrobeÅ¾ Äģm
Ġapmekl Äĵjuma
Ġizg lÄģb
ĠÄĵk a
Ġresurs iem
Ġsertif ikÄģcijas
Ġjan vÄģrÄ«
ĠpeÄ¼ ÅĨas
Ġkaus a
Ġeksk luz
Ġkundz e
ĠpriekÅ¡lik umus
Ġiepat ikÄģs
b ag
m eni
Ġs Äģc
at z
al ai
Ġar Äģb
Ġiz brÄ«
Ġz inÄģtu
ĠpÄģr p
eik i
Ġsp ir
Ġkr Å«
tÄģj u
Ġdarb Ä«bÄģm
Ġnes ap
Ġaug Ä¼
Ġiet eica
Ġiek ais
Ġlap Äģs
Ġjeb kÄģd
Ġvakar am
Ġbrauc a
Ġbrauc ienÄģ
kÄģd reiz
Ġpaties Ä«bu
Ġnotik uÅ¡o
mar ta
ĠtehnoloÄ£ ija
Ġdat ums
Ġpareiz Äģk
ĠÄ·er ties
pag atav
ĠÅ¡au bas
Ġsmar Å¾as
Ġinv ent
Ġjurid isko
Ġpraks es
Ġizprat ni
ĠteÄģt rÄ«
ĠbÄģz i
Ġslikt Äģk
3 00
4 6
g Äģm
h m
i Å¾as
m iÅĨÄģ
Ġat star
Ġap run
og iem
id o
Ġlab umu
Ġst ikl
ild a
Ġdom Äģjot
ef ic
ĠvÄĵr s
dzÄ«v es
Ġmaks ÄģtÄģj
ĠuzÅĨÄĵm Äĵji
ĠÄ£im enÄĵm
ĠaktÄ«v u
ĠaugstÄģk o
kon kr
ĠsÄĵr ija
Ġiedom Äģjies
ĠkopÄĵj ais
Å¡Äģd Äģ
Ġklub u
Ġsagaid Ä«ja
ĠsastÄģvd aÄ¼u
Ġkonfer encÄĵ
Ġmedij os
Ġstad ijÄģ
pÄĵr n
Ġpartner iem
ie dzÄ«v
au tr
au ja
Ġl os
al i
Ġr oc
Ġjau ku
Ġgad Å¾
ĠpÄĵc Äģk
Ġjaun ums
ĠsÄģk ties
Å«k s
Ġpus dien
ĠbÅ«t isku
Ġskat a
ĠmÄĵr oga
Ġw e
ĠÅ¾ Å«r
Ġats vaidz
Ġorganiz atori
mar gar
ĠtreÅ¡ dien
sl im
ĠnepiecieÅ¡am os
Ġmaiz e
Ġkrist Ä«ne
Å¡Äģd s
ĠgÄģj iens
Ġserver i
Ġizprat ne
Ġpiel ej
Ġplec iem
ĠjÄĵdz iens
Ġizst iep
ĠmeklÄĵj umos
l mt
p opul
r at
Ġ ei
Ġp ek
Ġb Äģrd
Ä£ i
oÅ¡ ajai
Ġkr iÅ¡
Ġaug sti
Ġkar stu
Ġinteres Äĵm
Ġmar t
ĠkÄģrt o
ĠgadÄ«j Äģs
Ġmaks Äģja
tÄģv ok
Ġmat r
Ġuzskat Ä«ts
ĠmÄĵÄ£ inÄģjums
bal tic
Ġnotik uma
Ġierakst Ä«t
Ġkontrol Äĵ
ĠsÄ«k i
Ġtil ts
ĠÄ¼au tu
ĠpierÄģd a
Ġpres ti
Ġizj Å«tu
ĠzinÄģtn iskÄģs
maiz e
jÅ«l ija
ĠsÄĵk l
Ġplatform a
Ġmask avas
Ġnaz i
p ieÅ¾
Å į
Ġp uÅ¡
Ġp aul
Ġd ay
in dz
Ġpie ÅĨÄĵma
Ġgr auz
rÄ« k
ĠlÄ«dz tiesÄ«bas
ĠsÄģk tu
Ġmin Å«ti
Ġpav Äĵrs
enc Äĵm
Ġsad er
Ġai vars
ĠkÄģp t
Ġku ÅĹ
Ġfiz iskÄģ
Ġapg Å«st
Ġfinans Äĵjums
Ġseg as
ĠmÄģs u
Ġapst rÄ«d
Ġge oc
Ġdec embrÄ«
prom ocijas
nedÄĵÄ¼ as
ĠidentitÄģ tes
ester e
ĠmÄĵb eles
d Ä«v
Ð ¼
Ġp auda
ai ÅĨu
Ġm Äģl
Ġd sl
om p
Ġka Ä·is
Ġf abr
tr am
ul Äĵt
Ġre g
Ġst ambul
Äģn os
Ġgar ums
Ġrad ies
vÄĵl as
Ġturp inÄģjums
Ġnet Ä«r
Ġpiec Äģm
ĠÄĵr ts
Ġpoz Ä«ciju
Ġmai ÅĨa
Ġfakt oru
Ġnakt Ä«s
Ġelektron iskÄģ
Ġatd ot
Ġbalst oties
Ġkategor ijas
Ġaugu sta
Ġpirc Äĵju
Ġet n
Ġasin sv
Ġsapul c
ievÄĵr o
ĠkinoteÄģtr os
8 5
f unk
k un
Ġ ost
Ġd esm
Ġno mas
Ġr Å«t
Ġat Ä¼Äģv
Ġie stud
Ġst ie
ĠpaÅ¡ us
rakst Ä«t
Ġrad usies
ĠpriekÅ¡ nes
Ġsaj Å«tÄģm
Ġmed Ä«bu
ĠpasÄģk umos
Ġvald is
ĠpÄģrs lÄĵg
Å«g t
ĠkÄ¼Å«d Äģm
Ġkras tu
Ġsaprat is
tul k
Ġnians es
ĠpÄģrk aisa
oter ap
] ,
l ija
w ay
au ru
au lÄĵ
Ġd ota
Ġb en
oj oÅ¡Äģ
Ġpie rast
Äģl ajiem
sk al
Ġlab ais
Ġnep l
uÅ¡ Äģm
ist Äĵ
tur e
Ġkat al
Ġkar sts
Ġnoteik umos
Ġpret runÄģ
Ġilg as
Å¡Ä·ir as
Ġsaj auk
ĠkrÄģs nÄ«
Ġtais ni
Ġpiepras Ä«jumu
erc uk
ĠziemassvÄĵt kiem
Ġber l
Ġorien tÄĵ
ĠbibliotÄĵk u
nem az
Ġgum ijas
eto oth
c iÅĨas
h an
t ver
z il
as a
at nÄĵ
Ġl Å«z
Ġm ok
Ġne lÄ«dz
Ġno gr
Ġka Ä·
Å¾ el
ĠkÄģ zu
Ġjau smas
tr Å«d
Ġaiz skr
aid i
skat oties
Ġsm ird
ĠplÄģn us
gl ez
Äĵn Äģm
Ġsaist Äģs
ĠmeÅ¾ on
Ä¼auj as
Ġslim Ä«ba
Ġtais a
Ġoper Äģciju
Ġgroz Ä«jumus
bÄĵr niem
Ġuzt vÄĵr
Ġpublic Äĵt
Ġ199 8
Ġizj Å«tas
punk tu
Ġtauk i
vaj ag
ĠpaÅĨÄĵm u
Ġvaro ÅĨu
Ġmedij iem
ĠÄ£en iÄģl
Ġsertifik Äģtu
Ġneizd odas
Ġminer Äģl
Ġrekonst ruk
Ġamaz on
Ġp auÅ¾
Ġno spÄĵl
Ġpie turas
Ġap lis
Ġpu ika
ĠÅ¡Ä· ist
Ġpak Ä¼aut
nÄ«c Äģm
Ġkal ni
Ġgatav ojas
Ġgalven ajiem
ĠsistÄĵm ai
ĠmeÅ¾ os
Ġmilj ar
Ġmilj ard
Ġpieaug uÅ¡o
ĠaugstÄģk a
ĠÄģd ai
Ġpriec Äģties
Ġsmag s
Ġatrod ami
Ġmuz ejs
pÄĵdÄĵj ais
Ġunivers itÄģtÄĵ
Ġtwitter Ä«
Ġnosac Ä«jumi
Ġspilg ti
jautÄģj ums
Ġpulver i
Ġatdzes Äĵ
Ġplaukt os
5 6
b Ä¼
k od
z aud
Äĵ Å¾as
Ġd osies
Äģr ais
Ġpar ks
ĠÅ¡ ej
Ġpa ceÄ¼
it i
Ġbet a
id s
akst u
Ġbr is
Ġliet ojam
ne bija
sm Äĵm
kr Äĵs
Ġrakst ot
mÄĵr a
ier us
Ġsl in
Ġrad Ä«ts
Ġpiln Ä«gs
ko pÄĵj
Ġproduk cijas
Ġpadom u
Ġparedz Äĵto
ĠmeÅ¾ i
Ġbar ot
Ġdzird Äĵju
ĠatseviÅ¡Ä· a
Ġup i
Ġcetur to
Ġo ut
ĠnÄģv e
ĠnormatÄ«v ajiem
Ġstrukt Å«ra
ĠzinÄģtn isko
Ġstaig Äģ
ĠsiÅ¾ etu
ovi Äįa
Ġieraug ot
Ġrehabil itÄģcijas
ĠÅ¡in Ä«
Ġexpl or
g us
in skis
Ġne ju
Ġno sm
Ġr ais
tÄģ di
Ġuz br
Ġtr oÄ¼
lik umÄģ
ĠdzÄ«v niekiem
Ġsas kÄģr
Ġtiek am
Äģks im
Ġvid ÄĵjÄģs
Ġstar ts
Ġpag Äģjis
ĠÄ· im
Äĵn us
Ġ6 4
Ġgais ot
ĠiedzÄ«v otÄģjus
Ġmir is
daÅ¾ reiz
Ġrind u
inÄģtÄģj iem
Ġbi Å¡u
ĠgrÅ«t niecÄ«bas
pied od
ĠatkÄģrt ot
Ġkreis o
Ġved a
Ġrestor ÄģnÄģ
ĠsakÄģrt ot
istab Äģ
Ġapav iem
attiec Ä«gi
bau skas
ĠinstitÅ«c ijÄģm
Ġserg ejs
Ġvalmier Äģ
Ġtrol ejb
u to
Ġvar a
Ġpat r
gr Å«ti
Ġjaun ajÄģm
Ġatt ap
Ġaug Ä¼i
Ġaug Å¡as
of f
Ġsai k
dzÄ«v e
ĠÄ· ieÄ£
Ġnor aid
ĠnozÄ«m Ä«gs
Ġop t
Ġveikal iem
Ġmel od
Ġkriev iski
Ġierakst Äģ
ĠpÄģrliec inÄģt
ĠsÄĵd es
Ġaktu Äģli
Ġmai jÄģ
Ġauk stÄģ
Ġkaf ija
pret Ä«
ĠpasÅ«t Ä«t
ĠvisÄģd us
Ġrepublik Äģ
Ġreal itÄģtes
Ġpasnieg Å¡anas
Ġneman ot
Ġniek a
Ġtelekom un
3 8
d eb
at bilst
Ġd in
Ġiz skr
ĠÅ¡ ad
ĠÅ¡ or
Ġie iet
un o
Ġkr ita
eid o
vis vairÄģk
Ä«n iem
Ġizd od
pÄģr baud
ÄĵÄ£ ina
me tÄģ
Ġblog i
ĠiepriekÅ¡ Äĵjos
Ġproj Äģm
ĠmÄĵÄ£ inu
sv eic
ĠapkÄģrt Äĵjo
ĠpÄģrbaud a
Ġdraudz eni
ĠÄģd Äģ
20 13
Ġnakts mÄ«t
ĠdeputÄģ ts
Ġklub Äģ
Ġzvaig Å¾ÅĨu
Ġatras tu
siev ietes
Ġzib sp
ĠjÅ«l ija
nok ia
Ġatgrie Å¡anÄģs
Ġbb c
n at
Ġ ainas
Ġs iena
Ġl ent
Ġr iga
or ds
Ġpr oz
ek Ä¼iem
Ġgr u
Ġies Äģkt
niek Äģ
sp ot
Ġbal tas
Ġizm aksÄģ
ĠpatÄ«k amu
Ġnez inÄģja
Ġakt ieru
Ġbar Ä«bas
ĠkÄģp ums
Ġsauc as
ĠÅ¾urn ÄģlÄģ
Ġpusmarat ons
Ġtemperat Å«rÄģ
Ġrob erts
Ġstad ion
Ġlocek Ä¼i
salÄ«dz inot
poz itÄ«v
Ġarod biedr
p ur
s ai
z es
Ġk Äģrd
an k
Ä¼ aus
Ġc r
Ġap jau
Ġvien ot
Ġ3 9
pl us
Ġsek Äģm
Ġiek laus
ĠparÄģd Ä«ba
Ġorgan isma
ĠvienmÄĵr Ä«gi
Ġparas ts
Ġteik s
ĠekrÄģn iem
aust ies
Ġkomis iju
ĠpiedzÄ«v ojumiem
ĠspÄĵc Ä«ga
Ġtuk Å¡a
Ġsaprot am
Ġbals is
rez um
program mu
Ġnetic ami
Ġtrauk u
Ġmusku Ä¼u
izslÄĵg ts
c ir
r ita
t on
Ġp in
Å¡ al
Ġn ic
au kÄģ
Ġl az
is i
es ot
Ġpie Å¡
it Å«
Ġgr iest
ĠmÄģj saim
kar tes
Ġvad Ä«bu
Ġiek as
pas tÄģv
Ġik t
inÄģm i
Ġtehn ika
Ġneiz tur
Ġneiz prat
agr am
brauc u
ĠspÄĵk i
ĠmÄ« las
Ġietek mes
otr ais
Ġapstipr inÄģja
Ġapvien Ä«bas
Ġbaz nÄ«cu
ht c
ĠcÅ«k u
izmant ojot
Ġblu etooth
jÄģp ie
s nieg
Ġiz braukt
iet a
Ġap et
Ġz au
ĠkÄģ z
Ġjau du
Ä«n ai
Ġh am
ma ÅĨu
up es
ĠÄ· Ä«
Ġskat i
ĠkÄ¼ Å«tu
ĠkrÄģs ns
Ġizs aka
Ġuzs vÄĵr
ĠnodroÅ¡ inÄģÅ¡anai
ĠzÄ«m olu
Ġpapild ina
ĠiegÄģd ei
Ġcer ams
Ġdokum enta
Ġsarun a
Ġaktu aliz
pild a
ĠÄ¼auj ot
Ġdzied Äģt
Ġsmil Å¡
pret im
ĠseÅ¡ as
Ġkak lu
Ġizmaks Äģm
Ġlaic iÅĨu
program mas
Ġĉĉĉĉ Ġĉĉĉ
Ġarom Äģts
ĠnopÄĵr kam
Ġskul pt
spec iÄģl
m p
m enis
Ġt oni
Ġd ruk
ak al
Ġiz lo
Ġka Å¾
Ġpie likt
ĠpÄģr ÄĵjÄģm
Ġtas t
Ġdarb av
ne ws
Ġveid oja
uz man
Ġrun Äģj
ĠnozÄ«m Ä«gu
Ġsad aÄ¼a
Ġter as
Ġvesel as
Ġmel ns
ĠspeciÄģl iste
Ġgl iem
ĠpaziÅĨ ojums
lap as
Ġanal Ä«zi
Ġvelt Ä«t
ĠÅ¡okol Äģdi
ĠcitÄģd Äģk
h ar
l Ä«g
Ġs ilv
Ġt akt
Ġd a
er y
or iÄ£
Äĵt ajam
oj oÅ¡Äģs
Ġz Ä«l
Ä£ er
Ġpas Äĵd
Äģn am
vÄĵr s
Ġh ans
Ġdom Äģta
kr ekl
Ġrakst uru
Ġizd omÄģ
Ġbal su
Ġrad ik
Ġlap iÅĨas
oloÄ£ iski
ĠsaÅĨem ot
taut as
Ġbir Å¾as
Ġvilc ienÄģ
Ġklub s
Ġizviet ot
Ġkau ns
Ġapst Äģties
ation al
Ġtes tu
Ġslep en
telef ons
Ġneaizmir st
ĠlabklÄģj Ä«bas
n acionÄģl
Ġi j
Ġg or
Ġno Ä·ert
Ġiz spÄĵl
et iem
Ġap avi
Ġf u
ul Ä«
Ġdz en
Ġkr is
Ġkl au
vien laikus
tur pat
uz z
Ġneat tiec
ĠÄ«paÅ¡ o
Ġtelef onus
Ġnen op
ĠrÄģd Ä«tÄģji
Ġaizsar gÄģj
Ġmobil Äģs
ĠmÄģksl inieks
Ġfakt ori
Ġinf ic
Ġkoncer t
Ġmot Ä«v
ĠÄ¼au nu
Ġmetr i
ĠuzÅĨem Å¡anas
Ġjelg av
Ġver tik
ĠvisÄģd iem
Ġreal itÄģte
Ġkn ab
ĠsÄģn iem
Ġgaras tÄģvok
Ġfo ursquare
atp akaÄ¼
Ġnolem ts
i pÄĵj
p lÄĵ
Ġ ĉ
Ġk ot
al ds
aj u
Ġkr avas
Ġpl uss
vien Ä«gÄģ
Ä«st i
Ġnep amat
Ġja h
ist iski
ĠdzÄ«v s
vis us
Ġnes m
Ġgar n
Ġnod al
Ġkat e
Ġsap ni
Ġtam lÄ«dzÄ«gi
dom Äģ
Ġsaj Å«t
ĠkrÄģs Äģm
Ġiel Å«g
Ġmilj ons
Ġizc ili
Ġsec Ä«bÄģ
Ġku pl
Ġtap is
Ġrit eÅĨ
Ġservis iem
ĠspÄĵc Ä«gu
Ġvain Ä«gs
Ġstatist iku
ÂłĠ ÂłĠ
ĠsagÄģd Äģ
Ġdiag nost
Ġpv n
d am
n aud
o ut
r odas
t ieÅ¡
iek Äģrt
isk am
Ġsav Äģc
sk an
Ġre c
ej Äģdi
Ġlab ad
Ġh u
Ġdr Å«
Ġpav ilj
Ġsm ejas
las i
Ġsag aidÄģm
ĠÄ· Ä«nÄģ
Ġproc entus
Ġkomp oz
ks nÄ«
ĠlÄ«m enim
Ġatrad Ä«sies
ĠÄ«s s
ĠnÄģkam ajam
Ġsakar a
Ġtek stÄģ
Ġnopiet na
Ġlog i
Ġistab a
por t
ĠlÄ«n ija
ĠsvarÄ«gÄģk ais
Ġbrokast Ä«m
ĠakadÄĵm ijas
ĠaprÄ«k ots
teik sim
Ġdienn akts
ĠskandinÄģv ijas
ĠvÄģrt iem
acÄ«m redzot
Ġvirsp us
ĠÅ¡uj maÅ¡
e in
l Äĵk
p ost
Ð ´
Ġk akao
Ġl oks
Ġg mail
Ġuz pild
Ġpar k
Ġpr Äģm
Ġes oÅ¡ie
Ġko oper
eÄ¼ Ä¼u
ĠjÄģ strÄģdÄģ
ĠjÄģ zina
vis Äģ
Ġnes kr
vai c
Ġpav Äģr
Ġlik ties
Ġsal Äģtiem
ĠbÅ«t Ä«ba
ĠbÅ«t isks
Ġpiem ekl
Ġil Å«z
Ġotr dien
Ġkal or
Ġpadom us
ĠmÄĵÄ£ inot
ĠpÄģrstÄģv ju
Ġatrad uÅ¡i
ĠpÄģrs Å«dz
Ġizpild dir
Ġstat uss
res p
Ġmai kl
Ġapz iÅĨa
Ġinf ekcijas
ĠpozitÄ«v as
Ġnoskaidr otu
Ġso Ä¼us
ĠpilsÄĵtÄģ m
Ġuzd ot
vel k
Ġnosac Ä«jumus
punk ts
Ġkreis ajÄģ
Ġkonfer ences
ĠlÅ«dz a
dod amies
Ġatg Å«t
ĠatlÄ«dz Ä«bu
ĠstruktÅ«r vien
Ġportu g
5 8
d ama
f iz
k aul
ar ez
Ġt enis
Ġl iber
Ġb ais
ij us
Ġiz cep
Ġuz tura
Ġc v
Å¾ urn
Ġpr o
Ġpie run
isk umu
Ġtik Äģm
Ġto bi
Ġbet ona
Ġsp ogu
Ġlab iem
Ġpil ni
Ġaug ustÄģ
Ġstr esa
Ġstr uktur
Ġsar Ä«v
Ġmar gar
Ġskol otÄģjiem
Ġab Äģs
ĠpiedÄģv Äģs
Ġgatav oÅ¡anas
Ġnez aud
ĠiekÅ¡ ÄĵjÄģs
Ġziem u
Ġpiec padsmit
Ġsu ven
tÄģd u
Ġnopiet n
Ġsaglab Äģ
Ġpolic ijai
Ġtemp s
ĠgrÅ«t Ä«bÄģm
Ġlok Äģ
Ġtemperat Å«ras
Ġex po
ĠdigitÄģ lo
Ġsimp tom
ĠizdzÄ«v ot
ĠlielbritÄģn ijÄģ
Ġneier obeÅ¾
Ġl amp
am Ä«ba
st Ä«ja
Äĵj amies
en r
ak oties
aj s
ab eig
Ġz Äĵns
Ġko Å¡
aiz devu
Ġdarb Ä«bai
Ġtr ik
Ġh ome
Ġpus dienÄģm
est Äĵt
Ġatr un
ator am
ĠmÄĵr Ä·u
Ġsvar Ä«gu
Ġveikal i
Ġizdar Ä«jis
ĠizstrÄģd i
ĠskrÄĵj Äĵjs
Ġatkl ÄģÅ¡anas
Ġtren iÅĨÅ¡
ĠiegÄģd Äģjos
ĠdÄģrz eÅĨi
ĠstÄģst iem
Ġsec inÄģju
ĠplaÅ¡ as
Ġnoskat Ä«jos
ĠnoslÄĵp um
Ġuzb ru
Ġatras ties
Ġstatist ika
ĠstratÄĵÄ£ ijas
Ġsvai gs
ĠplanÅ¡etd atoru
Ġkonstruk t
ĠtÄ« rÄ«
Ġgredz en
h am
Ġ ÄĵÄ£
Ġp es
Ġs eb
Ġd oto
Ġg av
Äĵj uÅ¡Äģs
Ġlai vas
em Ä«ls
Ġpl Äĵv
Ġak red
Ġinform Äĵt
Ġotr ai
ĠlielÄģk ajiem
Ġrun Äģts
Ġiev ilk
Ġcep t
Ġav otiem
Ġ9 9
ĠÄ«s umÄģ
ĠreÄ£istr Äģciju
ĠjÄģn i
Ġnopiet nu
ĠziÅĨ kÄģr
ĠpienÄģk umi
Ġizdom Äģja
Ġvilc iena
ĠpanÄģk umus
ĠkvalitatÄ«v i
Ġrev olÅ«
ĠpiegÄģd es
Ġintel iÄ£
pagÄģjuÅ¡ Äģ
Ġnavig Äģcijas
Ġkomit ejas
m ot
Ġp j
at gÄģd
Ġi migr
Ġl ies
am ajiem
Ġno stÄģd
Ġuz met
Ġf it
ĠpÄģr m
Ġin ese
inÄģt ais
Ġkl ip
Ä«n Äģs
Ġatb il
Ġaut oc
Ġnod Äĵv
Ġvec i
Ġieg Äģdi
Ġpies lÄĵdz
Ġgatav as
ĠmÄģc a
Ġprec Äĵm
Ġjebkur as
Ġuzdev umiem
ĠsÄĵ Å¾u
Ġnoder Ä«ga
Ġsept iÅĨi
Ġtranspor tu
ĠdÄ«v ain
Ġsport isti
eirop Äģ
rezultÄģ ts
d ara
o ÅĨ
r eÅ¾
u ta
Ġp au
Ġi kr
Ġd otu
Å« nas
Ġne runÄģ
ek Ä¼i
Ġie j
Ġie lÅ«k
Ġvis ta
itu s
Ġkar stÄģ
Ġkar tÄĵm
ĠvÄĵr ien
ĠmÄģj ai
ietÄģ m
Ġ4 6
âĢľ .
ĠÄ«s Äģ
Ġpieredz Äĵ
Ġien aid
Ġtren iÅĨi
Ġjebkur am
Ġbiedr Ä«ba
Ġlog s
ĠpatÄĵr iÅĨu
Ġpublic Äĵts
Ġemoc ionÄģli
Ġcien Ä«j
Ġinterv ijÄģ
Ġizrais Ä«ja
Ġnelai mes
ĠpeÄ¼ ÅĨu
Ġpasnieg t
ĠapmÄģc Ä«bas
ĠÅĨujor kas
m ais
s ig
Ġ aina
Ġv ul
Ġb a
dz ies
os p
Ġuz v
Äģl Äĵ
un ts
ul da
Ġin ga
Ġkon ta
Ġnep iet
Ġdaudz uma
Ġgar Äģs
Ġned ab
Ġbal k
Ġfil tr
Ġveik tas
Ġredz amas
pas t
Ġmaks Äģs
ĠlielÄģk Äģs
ĠzinÄģm i
ĠrÄ«k o
Ġris inÄģjumiem
Ġgabal iÅĨus
Ġsarun Äģs
Ġteritor ija
Ġkont aktu
Ġrit eni
ĠmÄĵrÄ· im
Ġcetur tajÄģ
Ġgudr i
Ġraid Ä«jumu
Ġplec u
Ġmul s
ĠdzÄ«vojam Äģs
ĠkrÅ«t is
skrien ot
Ġrekord u
Ġauz u
c uk
Ġ ?
Ġs ur
Ġi man
Ġj un
er ot
Äĵr Äĵ
Ġko kt
og Äģm
Ġpas likt
Ġaiz ÅĨÄĵm
Ġtr ib
ĠpaÅ¡ saprot
Ġnod eva
par edz
Ġdar Ä«ju
Ġdar Ä«tu
Ġier un
pirm ie
Ġpiet ika
Ġa er
Ġmod eÄ¼i
ĠpasÄģk umam
Ġorganiz ÄģcijÄģm
ĠdÅ¾ o
Ġvald Ä«bai
ĠjÄģs am
Ġnem ald
ĠklÄģt es
ĠierÄ« k
Ġsald Äģ
ĠpÄģrvald e
kon cer
Ġnum ura
Ġizplat Ä«t
Ġtop Äģ
Ġvelt Ä«ta
Ġpusmarat onÄģ
jan vÄģr
Ġiepirk Å¡anÄģs
Ġpur va
ĠpÄģrdom Äģm
Ġsadz ird
Ġrestor Äģnu
ĠbÅ«d ams
Ġeb r
g aÄ¼u
m ieg
n ik
n ej
s om
z iv
Ã ©
Ġk eb
ar ch
Ġiz griez
Ġuz stÄģj
Å¾ us
Ġie ra
Ġvai na
Ġvien dab
Ġgr Å«
Ä«s a
Ġbr ied
Ġh an
Ġpu tr
Ġsal Äģti
Ġpiln Ä«ga
iks eÄ¼u
Ġiem et
Ġvajadz Ä«bu
oloÄ£ iskÄģ
Ġblog us
ĠÄĵd u
ĠbrÄ«v o
ĠsistÄĵm Äģm
ĠraÅ¾ otÄģja
ĠdÅ¾ eim
Ġsil ta
ĠpaÅ¡vald Ä«bai
Ġautom ob
Ġobj ektiem
Ġlog Äģ
ĠslÄĵp ni
Ġbaud a
pÄĵdÄĵj os
Ġsmaid s
ĠizstÄģd i
ĠdabÅ« j
ĠjÄĵdz ienu
ĠitÄģl ijÄģ
ĠpagÄģt nÄĵ
Ġbiroj Äģ
sest dien
r ai
Ġ ÄĵkÄģ
Ġl uktur
Ġm eks
am ajÄģ
Ġr otÄģj
Ġie jauk
ĠvÄĵl Äĵjos
inÄģj uÅ¡ies
Ä«st u
ĠjÄģ ievÄĵro
Ġjaun umus
ĠdaÅ¾ Äģs
Ġak cija
Ġkat l
pl kst
Ġsv e
ven ts
Ġas iÅĨ
Ġties lietu
ĠlabÄģk as
ĠjautÄģj uma
Ġad Ä«t
inÄģm a
ĠattÄ«st Ä«ties
Ġdal Äģs
ĠpÄĵt Ä«t
ĠdÄģr gs
Ġbur bu
Ġsil tÄģ
Ġatkl Äģs
kom is
Ġdraudz Ä«gi
Ġlau p
ĠsÄģp ju
Ġprincip us
Ġ199 7
Ġrot aÄ¼u
nov embra
ĠlÄ«d eri
Ġpazem es
Ġmies as
ĠÅ¡ur p
Ġoke Äģna
Ġinfrastrukt Å«ras
savilk ums
s um
Å« na
ad vokÄģts
ap lik
Ġiz ÅĨemt
Ġiz brÄ«n
Ġlab us
aÅ¾ u
Ġbr illes
Ġjaun ajam
Å¡Ä· Äĵrs
sm ar
Ġnos Äĵd
Ġpu Å¡u
Ġan onÄ«m
Ġreiz ei
Ġsa f
ĠmÄĵs l
ĠnekÄģd us
ĠatÅ¡Ä·ir Ä«gi
ow er
ĠpÄģrliec inÄģti
tÄģd as
Ġsavien Ä«ba
Ġklien tus
Ġsec ina
Ġdatu bÄģz
ĠaÄ£ent Å«rai
Ġlaim Ä«ga
Ġtrau mas
ĠkrÄĵs lÄģ
Ġinvest Ä«cijas
Ġcil ts
Ġparal Äĵl
ĠeksÄģm enu
Ġcigar etes
ĠlielbritÄģn ijas
ĠÄĵdamkar otes
Ġfen om
Ġ ogres
Ġv entil
Ġt Ä«ra
am bor
on da
Ġie deva
Ġst op
op e
uk i
val itatÄ«v
Ġveid oÅ¡anu
ĠvÄĵr ojama
Ġcen Å¡oties
ĠÅ¡Ä· ips
Ġel pa
Ġvakar iÅĨÄģm
Ġdev iÅĨdesmit
darb i
Ġsvar Ä«gas
Ġgu va
Ġkap s
ĠdÄģv is
Ġpos ma
Ġgod am
Ġklaus oties
omas s
Ġpiekr ita
Ġdel eÄ£
Ġrel j
ĠpÄģrviet oties
Ġuzved Ä«bas
Ġzup as
meit enes
istab as
Ġorganis mÄģ
Ġdizainpar auga
ĠÅ¡Ä·Ä«rÄĵj tiesas
ĠpÅ«d ercuk
f aktiski
i gr
Ã Ĺ
Äģ Å¡u
Ġk p
Ġk aujas
Ġt aku
Ġl om
Ġr Ä«m
ur b
Ġap Äĵst
ol ogu
Ġdarb osies
ic es
ed ia
Ġpl os
Ġkl ep
Ġgal du
ist ikas
Ġinter pret
ĠvienkÄģr Å¡Äģ
kal n
vÄĵrt Äĵjums
Ġkol ek
sim t
Ġdarbiniek us
ĠrobeÅ¾ a
Ġobj ektus
ĠmÄģksl inieki
ĠierobeÅ¾ ot
Ġbals ot
Ġmeln Äģs
ĠizstÄģd Äĵ
Ġgalam Äĵr
ĠbÄ«st ami
ĠpÅ« Å¡
tv net
Ġremon t
ĠnolÅ«k os
Ġiest Äģjas
ĠpagÄģt nes
attÄĵl s
ĠneiespÄĵj ami
Ġwor ld
Ġdan iel
atbalst Ä«ts
b iznes
g urs
m eln
p ietiek
p auze
s pÄĵc
v Ä«na
Ġ Å«
Ġv amp
Ġl uk
Ġm em
in iem
Ġr ih
ĠpÄģr v
Ġsar k
ĠÄģr valstÄ«s
Ä«d ams
Ġsai ts
aus mu
ĠÄį ak
kar a
Ġizm ekl
Ġizveid ojis
Ġnev eic
Ġnem ier
Ġspr iedz
ĠpÄģrbaud i
starp taut
Ġeks ot
Ġapmier inÄģt
Ġkait Äĵjumu
Ġieguv usi
Ġresp ektÄ«vi
Ġmom ents
ĠjÅ«rmal Äģ
Ġveter inÄģr
Ġaig ars
0 3
4 1
4 2
r ok
u g
Ġv Äĵju
Ä«v Äģs
ob e
Ġval ent
vis beidzot
Ġveid otas
Ġal f
ĠÄį ip
Ġw ith
Ġneat ÅĨem
ĠplÄģn ot
ĠpiedÄģv Äģto
Ġdev Äĵjs
Ġmod eÄ¼u
Ġnov embrÄ«
Ġsac ep
ĠnovÄĵr Å¡anas
Ġekonom iskÄģ
tais n
ĠdÄģrz eÅĨiem
Ġpopul Äģrs
Ġnoskr Äĵju
pied al
Å¡Äģd as
ĠÄ¼au nd
ĠatklÄģt a
dec embrim
Ġmur mul
Ġgrie Ä·
Ġvalod Äģs
groz Ä«jumi
Ġiema ÅĨas
Ġexplor er
jÄģpie bilst
' s
d em
n ab
Ġt at
au m
Ġb and
Ġno las
Ġr ap
Ġr em
Äģj s
Äģt e
oj oÅ¡s
im s
ĠvÄĵl amo
aÄ¼ Äģs
Ġkl av
Ġpal odz
Ġkaut kÄģ
Ġmar ks
Ġperson Ä«go
Ġvad u
Ġvajadz Ä«ba
Ġsad ur
Ġatbild Ä«gs
min i
Ġmod eÄ¼iem
Ġmu t
Ġizdev Ä«gi
Ġaps veik
Ġdzim is
Ġatcer ies
ĠierobeÅ¾ ojumi
ĠnonÄģk t
Ġide Äģls
Ġapl oks
Ġnog Äģz
ĠjÄģt iek
Ġog Ä¼
Ġasfal ta
Ġlabdar Ä«bas
h idr
l or
y an
Ġp ump
Å¡ te
Ġr Äģv
Äĵj ami
Ġpie stÄģv
ok r
Ġdz irkst
Ġkr Å«Å¡u
Ġkon tein
iev a
ĠbÅ«t iskas
Ġsv iedr
niec i
ĠÄ«st as
oloÄ£ iskÄģs
Ġbeig sies
Ġdev Äĵju
Ġcentr am
ost Äģv
Ġpavad Ä«ju
Ġsagatav o
Ġnoder Ä«gs
ĠjÄģiz vÄĵlas
Ġsept iÅĨiem
ĠtÅ«kst oÅ¡
ĠnepÄģr prot
ĠienÄģk uma
ĠÄģb ol
Ġatlik a
Ġviel Äģm
gatav oÅ¡ana
ĠlidmaÅ¡ Ä«nu
Ġlic enci
Ġapspr ied
Ġkarj eru
gru pas
ĠplÅ«s mas
ĠmaÅ¡Ä«n Äģm
Ġdros m
prez id
Ġp ain
Å¡ ajiem
Ġl eÅĨ
Ġb es
Ġar e
Ġiz liek
ei v
Ġpar oli
oj at
ĠpÄģr ÅĨÄĵma
ob rauc
Ġpas es
Ġdarb asp
ac i
Ġaug stÄģ
Ġaut ent
ef a
Ġdiv padsmit
Ġkar Å¡u
Ġbeig usies
Ġop era
Ġbild Äĵs
Ġprofes iju
Ġobj ekta
Ġpaman Ä«ja
:) )
Ġtic u
Ġtirdz niecÄ«bu
Ġnozar u
cilvÄĵk iem
ĠreÅ¾Ä«m a
Ġaizdom Äģties
Ġierad uÅ¡ies
ĠaprÄ« Ä¼a
Ġdel fi
Ġjurid iskÄģ
ĠlÅ«g umu
ĠslÄĵg t
Ġiedv esmu
ĠĠĠ ĠčĊ
jÅ«n ija
Ġleg Äģli
Ġru dz
Ġdieg u
ĠcÄĵs u
Ġentuzi as
Ġvidz emes
efic ien
d o
j Å«
s ez
t ap
Ñ ĭ
Ġk ir
en am
ap stÄģk
Ġie Å¡u
ec h
Ġmaz Äģm
Ġkom b
Ġkop ienas
Ġkar Å¡
ier e
par ast
Ġsl Äģp
ĠceÄ¼ ved
up u
ĠpiedÄģv Äģju
Ġcentr ÄģlÄģs
Ġpieej amo
Ġnet Ä«
Ġkol ekcijas
Ġbar j
cen z
Ġplat formu
vil c
ĠdÄģrz s
Ġup e
Ġugun i
ĠnÄģkot ne
ĠpastÄģv Ä«gi
Ġnodok lis
ĠtÅ«kst oÅ¡u
Ġapstipr inÄģt
Ġ, ,
ĠkuÄ£ is
ĠnoslÄĵg umÄģ
Ġaizg Äģjis
Ġsaprat Ä«s
Ġpieejam Ä«bu
Ġieras ties
Ġiedz iÄ¼
ĠpÄģrmai ÅĨÄģm
Ġdzemd Ä«bu
Ġpopular iz
Ġgarant ijas
ĠÄ·ipl oka
ĠiekÄ¼aut as
Ġapmai ÅĨas
Ġvarian tÄģ
cetur t
Ġpiedev Äģm
9 5
b iÄ¼
f m
p iens
Ġk auj
an i
Ġre ad
ĠjÄģ ÅĨu
Ġh ak
Ġskr Å«v
Ġiek Ä¼u
Ġneat kÄģrt
ĠuzÅĨÄĵm Äĵjs
liel Äģ
ĠpiedÄģv Äģjot
Ġid ent
Ġpan or
brauc iens
grib as
Ġkonkr ÄĵtajÄģ
Ġied od
Ġsarun Äģm
daÅ¾ kÄģrt
Ġnoder Äĵt
Ġbiez a
ĠienÄģk umi
Ġpipar mÄĵt
Ġlu pat
proj ekts
embr i
klas Äĵ
Ġinternet am
Ġievie Å¡anu
Ġlocek Ä¼iem
Å¡aub Äģmi
Ġauditor iju
Ġizk aus
Ġproced Å«ru
Ġtual etes
Ġalg orit
padom ju
intern eta
Ġkokvil nas
0 2
b udÅ¾
c s
p ers
Ġv lad
Ġl Äĵti
Ġm af
Ġpie g
Ġz Äĵni
Ġz ÄģÄ£
dr Ä«kst
eik u
Ġpirm ajos
Ġmaz ajÄģ
dien s
Ġnes al
Ġnes lÄĵp
Ġrakst urs
kar u
Ġw i
Ġpamat Ä«gu
Ġpiet ic
Ġbiju Å¡ais
Ġsaj ut
Ġvel na
Ġnem Ä«l
Ġ9 5
Ġautor tiesÄ«bu
ĠpÄģrliec inoÅ¡i
Ġizpild es
Ġnegrib ÄĵjÄģs
Äĵz es
Ġsarkan Äģs
Ġbir oju
ĠÅ¡au bu
Ġteor iju
punk ta
Ġizvair Ä«tos
Ġjap ÄģÅĨu
Ġpietr Å«ka
ĠatvaÄ¼ inÄģjuma
Ġiemaks u
Ġsasod Ä«ti
Ġkind le
Ġilgts pÄĵj
Ġkokt ei
w indows
Ġv ic
Ġg oog
os eksu
Ġpr Äĵm
Ġpie lÄ«dz
el la
Ġkr i
Ġpas pÄĵju
aug oties
ĠdzÄ«v nieki
Ġmin Äĵtajiem
ĠÄģr ÄĵjÄģs
Ġnor obeÅ¾
ĠizrÄģd i
lo w
Ġpolit iÄ·i
ĠgarÅ¡ Ä«gs
Ġ0 2
ĠiestÄģd i
ĠievÄĵr ojam
Ġpaliel ina
Ġsasnieg tu
spor t
Ġrakstur Ä«ga
ĠrÅ«p es
Ġkont in
ĠenerÄ£ ija
veik sm
svar Äģ
Ġkomun ik
Ġsvaig Äģ
Ġnevajadz Äĵja
mam mas
ban kas
jÅ«s u
Ġreal itÄģti
Ġgald Äģ
Ġprogrammat Å«ru
blog spot
Ġekstr Äĵm
umt irdz
Ġpaskr iet
Ġreform as
Ġkosmos a
gadsim tÄģ
zvaig z
mic rosoft
r audz
v ieg
Ġ Ä«k
Ġl ek
Ġd Ä«d
Ġd ejas
al b
Ġj akas
Ġno kl
dz emd
ak Äģ
Ġc d
Ġz obus
Ġko eficien
Ġre Äģlu
ec k
ĠpaÅ¡ mÄģju
Ġkaut kas
Ġsap ÅĨi
Ġveik tu
Ġinform Äģcijai
Ġneat laid
ĠplÄģn oju
Ġad vok
Ġgu vis
Ġspr ieÅ¾ot
Ġatkl ÄģjÄģs
Ġprec i
ĠnovÄĵr ot
Ġprofes ionÄģli
Ġsu ÅĨa
Ġizpl et
Ġuzlab otu
nos ac
Ġapmekl Äĵjums
Ġtal kÄģ
Ġelektron iskÄģs
Ġlikt enis
Ġplauk tÄģ
Ġjan vÄģra
Ġkaudz i
Ġdipl omÄģt
ĠlejupielÄģd Äĵt
vÄĵj Å¡
r ia
Ġ $
ak e
av Äģm
Ġuz vÄģrdu
Ġat dz
ĠÅ¡ Å«t
ab an
ĠpÄģr ÅĨÄĵm
Ġes oÅ¡ais
ĠkÄģd os
ob j
niec Äĵm
Ġsl Ä«p
Ġviet nÄĵ
Ġgrib at
Ġlas Ä«tÄģjam
Ġiem ÄĵÄ£
Ġilg ums
tÄģl s
Ġbiju Å¡o
Ġsad aÄ¼u
Ġiev ieÅ¡
âĢ¦ âĢĿ
Ġizskat Ä«ties
Ġizveid i
Ġorganiz ator
ĠraÅ¾ oÅ¡anu
Ġizpild Ä«jumÄģ
Ġuzvar Äĵt
Ġtaut ai
Ġaizsardz Ä«ba
ĠjÄģiz manto
Ġsniedz a
Ġpavasar i
ĠpazÄ«st ama
Ġtelp Äģm
Ġtradic ionÄģli
Ġprogramm ÄĵÅ¡anas
ĠiekÄ¼au ta
ĠkapitÄģ ls
Ġinsp ekcijas
Ġmirk Ä¼a
diev s
mÄģks l
Ġgrand ioz
Ġneattiec as
u gun
Ġ ostas
as to
Ġs oma
Ġb onus
Ġg ol
Äģr os
Äĵj amo
Ġpie zem
Ġie z
Ġsav v
Ġtur as
Ġnek on
ĠvairÄģk ums
ĠsÄģk usies
Ġvec as
Ġkat oÄ¼u
Ġsai tu
Ġpiln Ä«gu
kal na
ĠÄ«paÅ¡ nieka
ĠparÄģd u
Ġveic u
ĠizrÄģd e
Ġkonkur ences
Ġplat es
Ġpopul Äģra
Ġsasnieg Å¡anai
Ġatrod amas
ĠjÄģat rod
ĠmÄģt ei
Ġlit ru
Ġtom s
Ġch r
Ġsom ijas
ĠskÄģb o
Ġul dis
Ġaugstskol Äģ
Ġatlaid es
Ġspried umu
Ġreak cija
ĠatmosfÄĵr a
Ġoktob rÄ«
Ġbasket bola
pieÅĨem u
ĠtieÅ¡saist es
d an
ar da
Ġn ams
il ze
Äĵr iju
on im
Ä«t ajÄģm
ĠÅ¡ ok
ir ku
Äĵl is
Ġvien Ä«bu
ĠpÄģr cel
iz l
ok iem
vis bieÅ¾Äģk
Ġal erÄ£
Ġskat Ä«jumÄģ
Ġizmant otu
Ġmil tiem
kas t
Ġac tion
aliz Äģcija
Ġuzskat Äģms
ĠÄĵd ienus
aig a
ĠnorÄģd es
Ġ8 5
Ġnem Äģc
Ġban kÄģ
Ġsagr ib
Ġtrad Ä«cijÄģm
grÄģm at
Ġauk stu
Ġuztur Äģ
ĠtÄ«r s
ĠtÄĵr p
Ġkred Ä«ta
Ġpur v
ĠtelevÄ«z ijÄģ
Ġkalend Äģra
Ġmig la
ĠmuÄ¼Ä· Ä«bas
Ġhum ora
Ġmask avÄģ
ĠburkÄģ nus
Ġizaic inÄģjums
ĠvÄĵt ra
Ġla acz
ĠizÅĨÄĵm ums
attÄĵl Äģ
Ġneatrad u
Ġtall inas
ĠÅ¡of eris
ĠsÄĵn Äĵm
Ġpatri ot
Ġikdien iÅ¡Ä·
ĠnÄ«d erland
Ġizlo Å¾u
9 7
c ap
f eis
h h
Ġv Ä«
Ġi tu
Ġd iska
st Äģs
Ġne prot
Ġne jÅ«t
Ġne Å¡Ä·iet
Ġat om
Ġz ona
em ents
eik Å¡u
Ġdaudz ajiem
vis labÄģk
Ġatt eicÄģs
no w
Ġsek un
Ġsek sa
Ġiem Å«Å¾
Ġpamat iem
Ġturp inu
ĠpiedÄģv Äģta
ĠtieÅ¡ o
Ġatz Ä«ts
Ġorganiz ÄĵÅ¡anas
ĠnedÄĵÄ¼ Äģs
ĠzinÄģt nieku
Ġpievien oties
Ġprof ila
ĠsociÄģl ais
ĠsociÄģl ajÄģ
Ġsaim niece
Ġpos mos
Ġsmag a
Ġeksper ts
ĠbudÅ¾ ets
Ġstandar tiz
Ġnakt is
ĠmarÅ¡ru ts
ĠpriekÅ¡r oku
ĠdÄĵv Äĵt
Ġskum ji
Ġprior itÄģtes
Ġcol lu
Ġnelab vÄĵl
ĠÅ«denskr it
Ġlot erijas
c ita
m ad
Ġ âĤ¬
Ġk ed
Ġv ÄĵjÄģ
Ġs eÅ¡u
Å« Å¡as
Ġne gr
Ġar tis
er ta
Ġiz ejas
sk y
iz ej
Äĵs iet
Ġgad alai
ĠtÄģd os
Ġpal iku
Ġh ekt
Ġliet otÄģjus
Ġlik u
Ġviet nieks
Ġmar tÄģ
ĠpÄĵdÄĵj iem
ĠÄ£im n
Ġmas ka
Ġmeit ai
ĠjÄģs katÄģs
ĠÄĵr iks
Ġizmanto Å¡anai
ĠbÅ«v Äĵt
Ġstat usa
Ġef ektÄ«vi
Ġpaman Ä«t
Ġskrie Å¡anai
Ġmais ot
Ġbaz nÄ«ca
ĠreÄ£ion u
Ġtip s
Ġnoris inÄģjÄģs
Ġizdz ird
vienkÄģr Å¡
ĠpiegÄģd ÄģtÄģj
Ġur b
ĠmÄģko ÅĨi
ĠatÄ¼au ja
Ġmikr of
Ġkafej nÄ«cÄģ
Ġbulj onu
Ġapav us
Ġnepiem Äĵr
Ġaktris e
0 8
d ib
l c
n ad
p sih
p ÄĵkÅ¡ÅĨi
Ġd Ä«z
Ġpar augu
Ġz ol
ĠpÄģr traukt
aÄ¼ Ä£
uÅ¡ ajÄģ
Ġliet ots
Ġek ipÄĵj
Ġier od
Ġsam ekl
me tus
Ġmat os
Ġnez inot
Ġmal Äģs
ĠjÄģs ag
Ġpubl isk
Ġgai l
Ġvies iem
Ġkonkr Äĵta
Ġpieaug uÅ¡ie
Ġpriec Ä«ga
ĠÄĵk Äģm
Ġmetr iem
Ġsmil tis
ĠseÅ¡ us
Ġmeln ais
Ġnon Äģcu
ĠatbrÄ«v oties
ĠpÄģrskat a
Ġsom ijÄģ
Ġvaro ÅĨiem
Ġizaug smes
ĠmÄģjaslap a
ĠsagÄģd Äģja
ĠlÄģ Äį
Ġnopir ka
Ġpietur Äģ
nop iet
Ġdienn akt
ĠatspoguÄ¼ o
ĠĠĠĠĠĠĠĠĠĠĠĠĠĠĠĠĠĠĠĠĠĠĠĠĠĠĠĠĠĠĠĠĠĠĠĠĠĠĠĠĠĠĠĠĠĠĠĠĠĠĠĠĠĠĠĠĠĠĠĠĠĠĠĠ ĠĠĠĠĠĠĠĠĠĠĠĠĠĠĠĠĠĠĠĠĠĠĠĠĠĠĠĠĠĠĠĠĠĠĠĠĠĠĠĠĠĠĠĠĠĠĠĠĠĠĠĠĠĠĠĠĠĠĠĠĠĠĠĠ
Ġprobl emÄģt
% ),
b ru
k v
t iÅĨa
Â ·
ar p
Ġl nt
Ġuz Å¡
Ġpie stipr
Ġap avu
Äģl ajÄģm
Ġkr itu
Ġliel dienu
ain Ä«t
vis ticamÄģk
Ġnes ak
Ġsm aida
pÄģr svarÄģ
Ġsak i
enc ei
ĠÄ«paÅ¡ ums
ĠizvÄĵl ÄĵjÄģs
Ġdev Äĵja
Ġdraug a
Ġmel na
Ġpirk sti
Ġind ijas
tel e
Ġdzird u
ĠkÄģp ÅĨu
Ġnopiet nas
Ġveiksm i
ĠÄįetr desmit
Ġapt ver
ĠkompÄģn ijÄģ
Ġprezid entu
ĠÄģb oli
Ġierad ies
Ġsin dr
Ġnogur ums
Ġinteresant Äģk
Ġmeg a
ĠdomÄģj ams
Ġaleksandr s
ĠpavÄĵst Ä«ja
Ġnemald os
b Äĵ
e or
n ija
Äĵ Å¾u
Ġl oj
Å« stu
Ġiz ceÄ¼
isk uma
Ġkas ti
tÄģj a
Ġtr il
Ġor d
Ġsak rit
Ġpad smit
Ġrok darbu
Ġmel nu
Ġsitu Äģcijai
Ġekonom iski
Ġtav i
ĠlÄ«g umÄģ
Ġzied i
Ġpriec Äģjas
ĠpÄĵr l
ĠnacionÄģl ajÄģ
Ġadministr Äģcijas
Ġcetur tÄģ
ĠpastÄģst Ä«Å¡u
ĠzinÄģtn iskÄģ
Ġkreis Äģs
Ġlikums akar
Ġprognoz es
ĠizpÄĵt Ä«t
Ġtreil eri
ĠsÄĵÅ¾ ot
Ġgau mes
Ġlido stu
ĠsÅ«dz Ä«bas
ĠÅ¡Ä·idr umu
Ġreak cijas
ĠÄ«sz iÅĨas
Ä£im enes
Ġuzskai tes
sastÄģv daÄ¼as
n on
Ð ²
Ġ ÅĨÄĵma
Ġd viel
st Äģm
Ġuz kars
Ġpr akti
pr iek
Ġsp Äģnijas
Äģn iju
ed es
Ġdien est
Ġh orm
oz a
te or
Ġsa Å¡Ä·
Ġstar tu
ĠgrÄģmat Äģs
Ġmed aÄ¼as
stÄģ Å¾u
ĠstÄģv a
aliz Äĵt
Ġvil ka
Ġkval itÄģtÄĵ
Ġtirg o
Ġnen od
Ġmain Ä«jusies
Ġnem Äģk
Ä¼auj u
ĠrÄģd Ä«tÄģju
Ġteik tÄģ
ond u
ĠdzÄ«vok lis
Ġbi ogrÄģf
bur gas
Ġindividu Äģli
ĠdrÄĵb Äĵm
Ġjut Äģs
ĠÄĵdam k
vasar as
ĠjÄģl iek
patÄ«k ami
rr rr
Ġbiroj s
Å¡Ä·Ä«r Äģs
nakt Ä«
ĠaugÄ¼ Ä·er
b Äģr
c u
t iÅĨas
Ñ Į
ai ÅĨa
Ġl ekciju
Ġb y
Ġno bild
ien Äģk
en iem
Ġiz gul
Ġat dzÄ«v
Ġpr epar
Ġf akti
Ġman Ä«t
Å¡u j
ĠvÄĵl ÄĵÅ¡anas
Ġaiz vain
Ġtr aks
Ġte Äģtri
ĠstÄģ stÄģ
Ġbez cer
ĠceÄ¼ us
Ä«d iem
Ġel pas
Ġdar Ä«jis
Ġiek l
ĠnozÄ«m Ä«ga
ĠbrÄ«v Ä«ba
Ġnez ini
Ġpan nÄģ
Ġlauk a
ĠsociÄģl ajiem
Ġspor tis
Ġpac elt
Ġmekl Äĵjam
Ġkor iÄ£
ĠiegÄģd es
ĠsastÄģv s
Ġuzvar a
Ġbag ÄģÅ¾
Ġpir ts
Ġdeb ijas
ĠatvÄĵr ts
Ġsaprot ami
Ġmaiz Ä«tes
Ġizmai ÅĨu
Ġtras i
Äĵsim ies
ĠÄģrzem Äĵm
ĠpieslÄĵg umu
Ġdiskus ija
Ġbrok astu
Ġfini Å¡Äģ
kap itÄģ
mÄģc Ä«bu
Ġcipar u
ĠklÄģ stu
vit auts
margar Äĵta
e at
f c
ar us
Ġl el
Ġl Ä«v
Ġr ull
Äģm Äģm
Äĵl s
Äĵl u
sk Äģ
âĢĿ !
pa Å¡i
lÄĵ gu
Ġpal Ä«gÄģ
Ġnek am
pat laban
Ġdom ub
br emz
Ġrad Ä«jis
pÄģr ejas
ov iÄįs
Ġinteres Äĵs
Ġpaz iÅĨas
Ġpap Äĵt
Ġpien Äģks
Ġfr on
Ġizdev umiem
Ġproces i
Ġvald e
Ġierakst iem
Ġpirk umu
ĠkÄģp nÄĵm
Ġtap Å¡anas
ĠpiedzÄ«v ot
Ġbir st
Ġsilt ums
Ġtil p
Ġemoc ijÄģm
ĠpazÄ«st ami
ĠnonÄģk am
Ġdzer Å¡anas
Ġsvaig as
Ġuzd Å«r
Ġplauk stas
Ġsatr auc
Ġpazud is
Ġatlaid i
Ġgrie Ä·u
Ġapels Ä«nu
ĠlÄ«b ieÅ¡u
ĠÄ«patsvar s
nevaj ag
5 2
5 7
h one
k oka
l an
p ienu
t ol
Ġv s
au sta
Ġl ink
Ġm es
Ġb aÄ¼
al c
Ġne iek
Ġne jÄĵdz
er o
Ġat gad
on ija
on ijas
Ġpie Ä·Äĵr
Ġvai nu
Ġf okus
Ġvien Ä«gie
Äĵc a
Ġsp o
ej iem
ej Äģs
Ġliel isko
aud itor
Ġtur ieni
ain Äģm
Ġdr ausm
uz skatu
Ġlik umi
Ġtel ti
Ġas i
vÄĵl ÄĵÅ¡anu
Ġpils oÅĨu
Ġik dienu
Ġmed aÄ¼u
Ġizskat s
ĠbrÄ«v s
Ġvesel i
Ġpan kÅ«kas
Ġnotik tu
ĠtÄ«k li
ĠpÄģrliec inÄģties
ĠmÄ«l Äĵt
Ġfiz i
bÄĵr ns
ĠpÄģrkÄģp umiem
Ġparakst u
ĠtÄĵv am
Ġkaim iÅĨiem
Ġiepirk umu
Ġzvan Ä«t
Ġliterat Å«ru
Ġsub s
ĠÅ¡Å« nas
ĠprezentÄģ ciju
Ġiecien Ä«t
ĠÅĨÄĵm u
ĠpieÅĨÄĵm usi
Ġapkalp oÅ¡anas
Ġprop ag
ĠvÄĵt ras
ĠbrÄģ Ä¼i
Ġkinote Äģt
Ġnarkot iku
Ġlikumproj ektu
Ġbasket bol
Ġvientu Ä¼
Ġlietuv ieÅ¡u
Ġpiebild a
ĠteÄģtr is
adic ionÄģl
b az
d at
l etes
y n
Ġt in
Ġl ei
Ġne Äĵd
Äģk ajam
Ġr an
Äĵj oÅ¡Äģs
ap gÄģd
Ġiz dienas
Äģj uÅ¡as
or ien
Å¾ Äģ
ek ot
Ġes oÅ¡os
Ġdaudz umÄģ
Ä«c a
Ġlik umiem
Ġkar u
ĠvÄĵr sties
ĠÄį ili
lÄģ p
ĠpiemÄĵr i
Ġneat griez
Ġad v
ener go
ĠpÄĵt niecÄ«bas
Ġmain Ä«jÄģs
Ġfor Å¡
Ġfor umÄģ
Ġpolit iskÄģ
Ġdod oties
Ġpieaug a
Ġput n
Ġaktu Äģls
Ġsagr Äģb
kon tr
Ġsta cion
Ġrind Äģs
ĠtÅ«r istiem
Ġaizr au
Ġkompl ekts
Ġvelt Ä«ts
Ġnon Äģks
Ġapmier inÄģti
ĠpÄĵd Äģm
Ġjum tu
Ġvide os
osim ies
Ġcepur i
Ġnab aga
ĠacÄ«mredz ami
Ġnepal Ä«dz
ĠnorvÄĵÄ£ ijas
Ġnepied al
Ġpiedz Äĵr
ĠjÅ«l ijÄģ
ĠÄ·Äĵd es
Ġzau bes
Ġitu nes
4 3
h ot
j ams
m ur
p iez
s lik
at izÄģcijas
Ġl ekcijas
in oÅ¡as
oj oÅ¡i
Ġz o
it es
Ġkur zemes
Ġkon gr
ĠtÄģd Äģs
Ġskr ip
Ġzem gales
Ġnor un
Ġskat Ä«Å¡anÄģs
Ġstarp Ä«ba
Ġpies kat
Ġblog eri
Ġdab iski
Ġnevien as
Ġfr ei
Ġspor ts
Ġav oti
Ġput nus
Ġneuz tic
Ġdienes tÄģ
pÄĵdÄĵj Äģs
Ġkrist aps
ĠrÄ«t iem
Ġrest aur
Ġapgalv oja
Ġnoris inÄģs
Ġnepie ÅĨem
sept embra
ĠkÄ¼uv uÅ¡as
Ġglab Äģt
ĠiekÄģr tÄģm
Ġizpau smes
Ġju ta
Ġbaid Äģs
Ġaizved a
Ġdipl om
ĠaudzÄĵk ÅĨi
Ġiesk atu
Ġturpm Äģko
Ġnenoliedz ami
c Ä«
g aÄ¼as
s Äģ
t iÅĨu
t ajos
Ġp et
Ġv Ä«ns
is es
Ġd ainis
ik o
Ġj aku
tu k
en g
Ġuz vÄģrds
ĠÅ¡ auj
Ġvai gu
un da
Ġes oÅ¡ajÄģ
ej i
id a
ĠcilvÄĵk tiesÄ«bu
Ġpil i
Ġned omÄģ
ekl im
Ġsai sta
ĠÄ· ep
Ġsek ss
ĠÄ£ itÄģr
ĠÄ«paÅ¡ niekam
ĠmeÅ¾ apar
Ġtirg ot
ĠnodroÅ¡ inÄģta
Ġdator i
ĠzÄ«m ola
Ġparas ta
ĠÄ«s a
Ġvies mÄ«l
Ġgul tu
Ġsti pend
Ġtren iÅĨ
Ġcer Ä«ba
Ġizlas e
Ġsavien ojumu
Ġsec inÄģjumi
Ġsadarb oties
nev aru
grieÅ¾ oties
Ġsarkan u
ĠpagÄģjuÅ¡ o
Ġpiemin ekÄ¼a
Ġkriet nu
Ġ199 5
turp ina
ĠinstitÅ« cija
Ġsagriez tus
ĠdvÄĵs eli
ĠpilsÄĵt ai
Ġpaskaidr oja
Ġjok am
pÄĵl es
Ġpludmal es
Ġslodz es
Ġparun Äģt
Ġarom Äģtu
Ġiegr im
ĠjÅ«n ijÄģ
Ġvi ol
ĠorientÄĵ Å¡anÄģs
Ġtelekomun ikÄģciju
l Äģs
m itr
r Ä«ts
ie sta
Ġl ejas
Ġb Ä«b
am b
tÄģ cija
Ġkas tÄĵ
ag Äģ
Ġre in
Ġre di
ĠÄ¼ Äģv
Ġpil no
ĠdaÅ¾ os
Ġmin Äĵtais
gan istÄģ
Ġlik s
Ġjeb ko
ĠizvÄĵl Äĵ
eri a
ĠvÄĵrt Äĵjumu
Ġfr om
Ġizt eica
Ġbur tiem
Ġpievien oju
Ġizdar Ä«ju
Ġsnieg Å¡anu
Ġsil tas
Ġparas tu
Ġatrad Ä«s
Ġkomand Äģm
Ġstud ijÄģm
Ġkonkr ÄĵtÄģs
Ġsamaz inot
cen as
Ä¼au tu
Ġnoder Ä«gi
ĠÄ«sten oÅ¡anai
ĠrÅ« Ä·u
Ġplan Äĵtas
Ġizj Å«t
Ġizj Å«ta
Ġieteik umi
Ġtemperat Å«ru
ĠkrÄĵs la
ĠaktivitÄģ Å¡u
Ġklei tu
ĠieslÄĵg t
________ ________
Ġfrak cija
Ġcan on
Ġnepl Äģn
h z
t ums
Ġp odz
Ġn ac
Ġd Äģma
Ġb ab
Ġg ast
Ġiz audz
Ġiz ra
Ġat stÄģ
oj oÅ¡a
Ġpie Å¡Ä·
Ġap brÄ«
Äģl Äģm
ol oga
ul im
ev u
ain e
Ġpal Å«dz
Ġrakst veidÄģ
ĠmÅ«s mÄģjÄģs
Ġpus gada
pl ay
Ġveik li
par al
ĠÅ¡Äģd am
est Ä«ba
ka f
Ġskat Ä«tÄģji
inÄģm Äģ
ĠstÄģv Äĵt
Ġproduk ciju
Ġfor Å¡a
ĠgarÅ¡ oja
Ġslim Ä«bÄģm
Ġkab at
ĠievÄĵr o
ĠaktÄ«v a
Ġgroz Ä«jumu
Ġsasnieg ts
ĠpÄĵr nÄģ
Ġstarptaut iskajÄģ
ĠpozitÄ«v a
Ġatbalst Ä«ts
Ġder Äĵs
Ġieteik umus
ĠnevÄĵl os
ĠsÅ«dz Ä«bu
Ġanaliz Äĵt
Ġbriesm Ä«gi
Ġnepas tÄģv
Ġvirk ne
Ġiedves mas
5 00
k p
s or
t ajiem
y b
Ġ Äģrd
Ġ Ñģ
Äĵ Å¡
Ġl Ä«gas
Ġd b
Ġg in
Ġr etr
et h
Ġpie veik
Ġpie rasts
Ġap stÄģjÄģs
Ġpa Äį
Ġgr ab
oÅ¡ ai
Ġbr a
niek os
Ġnek laus
ĠÅ¡o vasar
sp al
Ġpus lÄ«dz
Ġsal a
Ġredz ÄĵjÄģm
ĠpriekÅ¡ nieks
Ġsai te
pÄģr liec
kar tup
ĠlabÄģk ajÄģ
ĠgadÄ«j umus
Ġik diena
Ġizp eln
Ġtehn iskÄģ
ojam Äģs
Ġizdar Ä«ja
Ġatkl Äģjas
ĠdroÅ¡ Ä«ba
ĠapmÄĵr u
Ġtren iÅĨus
Ġatcer ÄĵjÄģs
ĠsastÄģv u
Ġveiksm Ä«gs
Ġkomis ijai
Ġklaus os
Ġpaman Ä«jis
ĠrÅ«p niecÄ«bas
ĠvÄģr tus
Ġservis i
ĠienÄģk umiem
Ġsaz van
izrÄģd Ä«jÄģs
ĠapdroÅ¡ inÄģÅ¡ana
ĠoficiÄģl Äģ
ĠÄįempion Äģts
ĠpÄ¼ avas
Ġint Ä«m
Ġsertif ic
Ġreal itÄģtÄĵ
Ġdzemd es
Ġdegun a
Ġmeg ap
ĠizstrÄģdÄģtÄģj i
Ġsertifik Äģta
Ġaizmirs is
h ip
n Ä«tes
Ġ ec
Ġp Å«c
Ġn aid
Ġl iv
Ġd ace
Ġb ol
Ġne Ä¼Äģva
Ġj omu
ak mens
Ġuz val
Ġc irk
Äģj ums
ir in
el ei
Ġz onu
Ġz ane
Ä· ir
ĠpÄģr kl
tr Å«k
pr iv
Ġin s
Ġpat reiz
Ġkr Äģm
uÅ¡ am
ĠÅ¡o va
Ġsal Äģ
Ġsai mes
ĠÄ· em
Ġtelef onos
ant am
Ġpiek rÄ«tu
Ġspec ef
Ġol a
Ġav Ä«zes
ĠÄ«s laic
Ġslim nÄ«cu
Ġiepaz Ä«Å¡anÄģs
Ġgod s
Ġlau ru
ĠsÄģp Ä«gi
mÅ«s dienu
sal as
ĠjÄģat cer
Ġaktiv itÄģte
Ġcent Ä«Å¡os
Ġapjom i
ĠlÄ«k umu
Ġhol and
ĠkrÄ«z i
uc k
Ġvents pilÄ«
lat telecom
ĠapmÄģc Ä«bu
Ġkampa ÅĨu
Ġstul bi
Ġfotoapar Äģtu
ĠÄ«sz iÅĨu
Ġklim ata
citÄģ di
Ġbenz Ä«n
dok um
Ä«sten Ä«bÄģ
ĠÄĵÄ£ ip
Ġredi Ä£
k Å¡Ä·
k aus
z iÅĨ
Ġv itr
Ġn akÅ¡
Ġl Ä«va
Ġl pp
av ai
os kop
ek as
Ġie brauk
Ġsk aid
Ġko Å¡i
Å¡u vu
Ġsp iest
Ġtr af
Ġkl eit
Ġkl ost
Ġtur ienes
ĠiespÄĵj amÄģs
Ġinter feis
kl ub
Ġas ist
Ġsek mÄ«gi
Ġpol ijÄģ
Ġneiz skatÄģs
Ġvesel Ä«ba
Ġvesel Ä«gu
Ġmu gurs
ĠtieÅ¡ raid
Ġnom ira
mai ÅĨas
Ġmet Äģs
grib Äĵju
Ġautor am
Ġnok Ä¼Å«st
ĠvÄĵstur iski
20 12
Ġim prov
ĠdzÄĵr iens
ĠjÄģm aina
Ġsatik sme
att Ä«st
ĠkuÄ£ u
Ġroz es
Ġbalst Ä«ta
nod r
cit iem
Ġsin hron
Ġapst Äģjas
ĠÅ¡Ä·idr uma
ĠnolÅ«k am
Ġneiet ek
Ġatjauno Å¡anas
ĠklÄģ sts
Ġklei tas
ĠkvadrÄģt metr
Ġgandar Ä«jumu
Ġjoc Ä«gi
Ġhig i
ĠinformÄģt ikas
Ġkontak tus
d iskus
m iÅĨas
t y
Ġk anc
Ġs iek
Ġt Äģr
es Äģ
om ot
Ġpr ei
Äĵl as
sk Äģr
Ġkr eklu
eÄ¼ os
Ġlatv ietis
ĠjÄģ ÅĨ
Ġjaun Ä«bas
ne tÄģ
Ġmin Äĵtos
Ġaug a
itu cionÄģl
Ġaut ostÄģv
Ġsv Ä«tr
ĠpriekÅ¡ met
irk t
ĠmÄĵr ogÄģ
Äģp j
Ġpies aista
Å«z a
ĠÄ«paÅ¡ Äģ
ĠÄĵd ieni
ĠdÅ¾ ord
Ġveic inÄģtu
Ġsol Ä«
Ġsol iÅĨa
bal sta
Ġkonkur entiem
Ġgai tas
ĠatÅ¡Ä·ir Ä«ga
tel ev
ĠjÄģn odroÅ¡ina
Ġaplik ÄģcijÄģ
Ġtren Äĵties
Ġuzz inÄģtu
Ġsept embra
ĠpievÄĵr sta
ĠviedtÄģl runis
Ġieguv ums
ĠvÄĵd erÄģ
Ġspie sti
ĠalternatÄ«v u
ote hn
Ġpludmal Äĵ
Ġkond icion
sag atav
nob eig
i ot
k e
l ot
p aj
t l
Ġk Å¾
Ġv az
Ġm iel
Ġb ob
Ġun gÄģr
Ġr acionÄģl
Ġuz karsÄĵ
Ġat Ä¼aut
Ġpar Ä«zes
Ġie bilst
Ġin di
Ġies m
ĠlÄ«dz inÄģs
Ġlab ot
Ġst al
Ġ- >
Ġkl aj
Ġjaun ÄģkÄģ
Ġdr Äģmas
Ġkop Ä«ga
Ġrakst veida
and s
Ġvec Äģkus
Ġkar am
pÄģr Äĵjie
atÄ«v ais
Ġ5 6
Ġats Å«t
Ġgaid Ä«Å¡anas
Ġgaid Äģms
Ġlauk ums
Ġproces us
ĠizstrÄģd Äģts
Ġ0 3
vair s
Ġobj ekti
Ġklus Äĵ
Ġtaut Ä«bas
ĠÅ¡os eju
lap u
ĠpozitÄ«v o
ĠatvÄĵr tÄģ
marat ons
ĠrÅ« pÄĵjas
Ġteor ija
spÄĵl e
Ġpacien ti
Ġnoris inÄģsies
Ġfai ls
Ġmotiv Äģciju
Ġizprat nes
Ġkul ta
Ġmant ojuma
Ġrev Ä«zijas
ĠstratÄĵÄ£ ija
Ġievie Å¡anas
ĠpaÅ¡reiz ÄĵjÄģ
ĠsavstarpÄĵj Äģs
Ġriek stu
Ġbezdarb nieka
ĠpieklÄģj Ä«gi
piet eik
Ġnetik tu
Ġnotic Äĵt
arez ultÄģ
b iez
d Äģ
h ans
u ch
Ã ¶
Ġd un
Ġb iz
Ġj el
Ġj ac
Äĵj Äģt
Äĵr c
ĠÅ¡ m
Ġvien oÅ¡anos
ĠpÄģr pild
Ġvar oni
ul Äĵ
Ġgr il
ĠvÄĵl mÄĵm
ob log
Ġpas pÄĵl
âĢĿ ?
ru b
ed gar
lik um
Ġgar s
Ġneb ijÄģm
Ġrakst Äģm
Ġlik mes
ĠÄį Äģr
Ġpag u
jau no
Ġsam aksas
Ġiek Ä¼Å«t
ĠlabÄģk ajÄģm
Ġrez ult
Ä«gÄģk ajÄģm
Ġbij i
Ġsan dra
Ġveic is
ĠnodroÅ¡ inÄģs
Ġmel nas
ĠvadÄ«tÄģj iem
Ġkor ekcijas
Ġpavad Ä«ja
Ġciet uma
aÅĨ Ä·
ĠpiedzÄ«v ojums
Ġatgriez ies
Ġtal antu
ĠprofesionÄģl Äģ
ĠeÄ¼ Ä¼Äģ
ĠpÄ¼ avÄģ
Ġangl ijas
ĠlidmaÅ¡ Ä«na
Ġpuis i
treÅ¡ Äģ
Ġprofil aks
god Ä«gi
ĠklÄģtbÅ«t ni
ĠfantÄģz ijas
ĠpuiÅ¡ iem
Ġoff ice
Ġtril oÄ£
t ar
Ġvien oties
Ä£ ir
iz tur
Ġgr Ä«du
Ġmin Äĵtie
Ġveid oti
ĠmÄĵ tÄģj
Ġzem eÅĨu
liel Äģkais
tÄĵ v
Ġneiz s
Ġizs auc
Ġmu Ä¼
ĠsociÄģl os
ĠklÄģt ienÄĵ
mal u
nos auk
Ġapvien Ä«ba
Ġservis Äģ
Ġaizr Äģv
ĠmÅ«Å¾ Ä«gi
Ġcien Ä«tÄģjiem
Ġmus ul
ner eti
Ġdub ul
Ġon line
Ġaizs pried
ĠvÄĵd eru
ĠpÄģrdev Äĵja
Ġbumb as
Ġprofil u
inform Äģcijas
inform Äģcija
ĠÅ¡Ä·Äĵl Äĵs
Ġatlas es
ĠobjektÄ«v u
Ġputek Ä¼u
Ġuzrun Äģja
ĠjÅ«n ija
ĠizstÄģst Ä«t
Ġatskai tes
Ġnepav isam
Ġnul les
9 8
g ov
Ġs Äģt
Ġs Äĵtas
Ġs Äģnu
Ġm ust
am Äģkais
um iÅĨu
Ġne Å¡Ä·
Ġne ilgi
Ġj oku
en k
Ġap tuven
Ġjau das
Ġf ac
Ġjaun Äģkais
ĠdzÄ«v ojot
Ġh idr
Ġnes av
Ġskai tam
Ġbal ti
ig aun
ator us
Ġel iz
Ġlas Ä«Å¡ana
ĠtÄģl runis
Ġizm et
Ġats akÄģs
Ġblog am
pu i
pus e
ĠbrÄ«v dienu
Ġvil Å¡anÄģs
Ġcep Å¡anas
Ġpiedal Ä«Å¡anos
Ġnem ÄĵÄ£
Ġban kr
ĠnovÄĵr stu
Ġsec inÄģjumus
ĠpÄģrbaud e
Ġku ÅĨÄ£
ĠspÄĵj Ä«gi
Ġapz inÄģties
ĠmÄ«Ä¼ ÄģkÄģ
Ġbag Äģts
Ġmon tÄģ
Ġiesnieg Å¡anas
Ġmor Äģli
Ġuztic Ä«bu
Ġraid Ä«juma
Ġeg o
ĠpÄģrviet oÅ¡anÄģs
Ġsekund Äĵm
ĠÅ¡Å« Å¡anas
Ġmig l
Ġkonstruk cijas
Ġeti Ä·
Ġpaveik to
vesel Ä«bas
Ġklin ts
liep Äģjas
Ġrikt Ä«gi
" !
k ino
v Äĵja
Ã ¼
Ġ oc
Ġs ain
an tus
Ġr aust
Ġr iÄį
ies im
Ġiz lab
Ġiz beidz
Ġuz instal
Äĵr ija
im db
Ġjo stas
Äĵd ama
ic h
nes a
ĠpaÅ¡ no
Ġaug Ä¼iem
Ġkar sta
Ġveik Å¡anu
Ġrad oÅ¡o
ator Äģ
Ġskat Ä«jumu
Ġsab l
Ġsab ruk
ver u
Ġa es
Ġpras mju
ĠmÅ«z ikÄģ
Ġban kom
ĠatÅ¡Ä·ir Ä«gas
Ġautor es
Ġsaim nieki
Ġizl oz
Ġizl ozes
Ġregul Äĵ
Ġraj ons
ĠpieÅ¡Ä·ir ts
Ġpipar u
Ġsadal a
kait Ä«t
Ġzob iem
Ġpiesaist Ä«ja
Ġievad Äģ
Ġteleviz ora
Ġpierad is
Ġkompens Äģciju
Ġvirk ni
Ġele on
ĠolÄ«veÄ¼ Ä¼u
ĠgrieÅ¾ as
Ġdzir nav
ĠuzstÄģ Å¡anÄģs
b ai
g et
v ikt
Ñ ĩ
Ġg ot
iem es
Ġne rÄģd
en tr
Ġat dar
or f
Ġie ceÄ¼
Ġvien otu
ais Ä«t
Ġtr Å«c
Ġval k
Ġvair umÄģ
Ġjaun umi
Ġskai tÄģs
Ġizv ilk
rakst i
Ġsal ab
par asts
Ġsag ad
vÄĵl os
Ġ5 1
Ġ4 4
Ġsat el
ĠpiemÄĵr otu
ojam Äģ
Ġapr obeÅ¾
Ġplat e
Ġdzird Äĵts
Ġput ns
ĠpieÅ¡Ä·ir ta
Ġaktiv iz
Ġatbalst Ä«ja
Ġuzd od
Ġaus s
Ġmieg Äģ
dec embra
Ġfirm a
Ġmeist ars
kriev ijas
Ġpirc Äĵjiem
Ġpub lika
Ġpic as
Ġjos lÄģ
Ġauditor ijas
Ġproced Å«ras
rezum Äĵ
nodr oÅ¡
h id
v ju
Ġs ing
Ġt omÄģtus
Ġb ack
Ġg ovs
Ġg auÅ¾
Ġj avas
Ġr ut
Äĵj amÄģ
ak Å¡u
av Ä«k
Ġuz runÄģ
Ġie stÄģjÄģs
Ġsp er
Ġliel iskas
Ġnot e
Ġnos Å«ta
Ġpu ikas
Ġlik te
Ġkat rÄ«na
Ġpus otra
Ġbl Ä«v
ĠvienkÄģr Å¡as
jau ns
vÄĵl reiz
ud a
Ġvad Ä«ja
Ġotr reiz
Ġattiec Ä«gu
ĠÄ«paÅ¡ Ä«bÄģm
Ġpiet eikt
Ġtuv ojÄģs
Ġnov embra
urs u
ĠtrÄ« c
Ġizveid oja
Ġkol ekciju
Ġproces am
Ġbild Ä«tes
Ġmain Ä«ties
ĠatÅ¡Ä·ir t
ĠiestÄģd ei
Ġsamaz inÄģtu
Ġprofes ors
Ġsaim niecÄ«bu
Ġklien tam
Ġciet i
Ġklaus Äģs
Ġprom ocijas
ĠjÅ«t ama
ĠdzÄĵr ienus
Ġez erÄģ
augu sta
Ġpiekr ist
ĠatzÄ«m Äĵ
ĠatzÄ«m Äĵt
ĠpakÄģp i
ĠpÄģrlÅ«k a
Ġpastaig as
Ġieslodz Ä«to
Ġikvien u
ĠatgrieÅ¾ oties
ĠvÄĵrtÄĵ Å¡anas
Ġraim onds
Ġnoska ÅĨu
Ġvikt ors
Ġansam b
Ġkorup cijas
Ġenergo ef
ĠklÄĵp Ä«
reÅ¾ is
l Äĵc
s eviÅ¡Ä·
z iniet
Ġv Äģka
Ġt Å«
Ġl is
Ġm ol
Ġr ib
Äĵj amas
Ġz Äģdz
it Äģru
Ġaiz krauk
Ġlaik meta
Ġlaik metÄģ
oc a
Ġveid oÅ¡ana
Ġkop ums
Ġizd ot
Ġnod aÄ¼u
Ġsap ra
Ġskr ej
Ġviet Äĵjais
ĠÄį ig
jau nÄģk
Ġpirms skolas
pas aulÄĵ
Ġad ekv
me ÅĨu
ĠrezultÄģ ta
Ġpras Ä«ba
ĠmazÄģk as
ĠmÄĵÄ£ inÄģjumi
Ġpel es
Ġatbilst oÅ¡a
ĠrÄģd Ä«s
Ġsald Äĵjums
ĠatseviÅ¡Ä· os
Ġnol iedz
Ġlau ra
Ġiespaid Ä«gs
Ġmais u
Ġ16 0
Ġneuz trauc
ĠatvÄĵr ta
ĠdeputÄģ tiem
Ġvidus skolÄģ
ĠÄģrpus es
ĠbiÄ¼ ete
andr oid
Ġtom Äģti
ĠpieslÄĵg uma
Ġdel f
ĠpÄģrr audz
Ġasoci Äģcija
Ġprogramm Äģs
ĠseriÄģl u
Ġpirc Äĵji
Ġinici atÄ«vas
ĠpriekÅ¡m eta
ĠkonsultÄģ cijas
ĠfiliÄģl es
Ġastr onom
ĠdzÄ«vesveid u
l ar
m iÅĨu
n Äģs
s Äģls
t Å«l
Ġs iet
Ġl r
Ġd auz
al e
Ġne Å¡aub
Äĵj oÅ¡as
Ġf ebruÄģrÄ«
pr okur
aug s
Ġdarb oÅ¡anÄģs
Äĵd am
Ġbr az
itÄģ Å¡u
Ġrakst Ä«Å¡anas
Ä«c ijÄģs
Ġzem enes
Ġrad Ä«ta
ekt am
Ġdar Äģm
Ġdar Ä«s
Ġ4 3
ĠÄ«st ajÄģ
ĠvÄģrd am
Ġgatav u
ĠpÄĵdÄĵj am
Ġizs Å«t
Ġministr ijai
kai ta
ĠÄ£im eÅĨu
Ġpaties s
ĠpÄģrliec Ä«bas
Ġpieaug uÅ¡ajiem
Ġsald Äĵt
Ġsald ais
Ġoper atora
ĠmÄ«Ä¼ ie
ĠnolÄĵm usi
Ġapvien o
ĠkolÄĵÄ£ is
ĠpotenciÄģl u
ĠkrÄģj aizdevu
Ġcivil Äģs
aprÄ« Ä¼a
Ġju tu
Ġkuk ur
Ġlaikrakst s
Ġpolicis ti
Ġaizst Äģt
saul e
polic ija
ĠogÄ¼ hidr
izej vielas
5 1
7 6
c iÅĨa
h l
j Äĵ
Ġ ov
ar at
Ġt ant
au ti
Ġd id
Ġg aujas
Ġpar oles
Äģt ajiem
id as
ed s
iv al
Ġsm ÄĵjÄģs
niec ei
Ġpret Äĵjo
ĠÅ¡Äģd ai
Ġats lÄĵdz
pas aul
Ġdab Å«s
Ġneiz manto
Ġizs alk
Ġ7 00
Ġpubl iskÄģ
pal ik
ĠjÄģn o
Ġsaim niek
ĠsaÅĨÄĵm uÅ¡i
Ġklus s
bÄĵr n
ĠfotogrÄģf ijÄģm
Ġ199 6
Ġzil Äģ
Ġpadar Ä«ja
Ġpacien ta
Ġelem ents
Ġuzl Äģd
ĠÐ ¿
Ġjos las
Ġtim es
Ġkvad r
Ġra Ä·
Ġapk aim
Ġsmiek li
Ġbibliot ÄĵkÄģ
= =
e en
n um
s is
z ir
Ġp ods
ai ÅĨi
Ġd ik
Ġiz laist
Ġuz turu
ab ai
Ġkur ieni
Ġkas ta
ĠtÄģ f
Å«t os
Ġre formu
Ġkr isti
Ġaiz Ä·er
Ġst er
Ġbr Äģli
Ġnes kar
ne ap
Ġkar sti
Ġpret stat
Ġties nesis
bÅ«t Ä«bÄģ
Ġpamat Ä«gs
ĠlielÄģk ie
ĠspÄĵl ÄĵtÄģji
Ġsoc i
Ġai nu
ĠzÄ«m Äĵm
Ġapskat i
ĠpieÅĨem Å¡anu
ĠpaziÅĨ ot
Ġfunk cijÄģm
Ġsasnieg umiem
Ġapmekl Äĵjumu
ĠpÄģrsteig t
Ġtuk Å¡as
ĠtÄĵr pu
Ġez ers
valst Ä«
nep at
Ġtrau mu
Ġbau mas
Ġnenot iks
ĠpÄģrsteidz oÅ¡i
Ġnovad u
ĠÄ¼aud Ä«m
Ġapspr iest
lau ma
Ġpagr Å«ti
ĠÄ«patn Ä«bas
ĠmÄ«n uss
mÄģt es
Ġreak ciju
Ġsekt orÄģ
Ġgo vis
Ġaf ganistÄģ
Ġpiekras tes
- )
k Ä¼
p ab
p ed
s istÄĵm
s ant
v ei
Ġp ÄĵkÅ¡
ar y
Ġv aÅ¡
Ġt vai
al ber
Ġg igan
ek ul
Ġie droÅ¡
ol fs
Ġvis k
ĠpÄģr ÄĵjÄģ
Ġko stÄ«m
Ġgr Äģdi
Ġgr Å«ts
Ġre pu
Ġkr at
Ġpas pÄĵja
inÄģt iem
skat os
ne atkar
Ġneb rauc
Ġcit y
Ġpu st
Ġpus gadu
Ġsal Äģtu
Ġan k
ĠceÄ¼ ot
Ġperson Äģ
Ġperson Ä«bu
Ġizm est
Ġjeb kÄģdas
iniek am
ĠpÄĵt Ä«jumiem
ĠraÅ¾ oÅ¡anÄģ
Ġnen oj
Ġpievien ojot
zem e
Ġmekl Äĵja
brÄ« Å¾iem
Ġizlas i
Ġuzlab o
Ġapz iÅĨas
Ġiegu vu
Ġauk sti
Ġatst Äģju
ĠpiedÄģvÄģj uma
Ġpublic Äĵ
Ġloc Ä«t
ĠkopÄĵj Äģs
Ġrom Äģns
ĠjÄģp ies
Ġmeln bal
paÅ¡ reiz
ĠstÅ«r i
ĠtÄ«kl us
ĠpÄģrvÄĵr Å¡as
ĠpaÅ¡reiz Äĵjo
Ġsign Äģls
ĠscenÄģr iju
ĠplÅ«s mu
Ġbezgal a
Ġsaut Äĵ
Ġkorpus s
Ġietaup Ä«t
ĠinÅ¾en ier
ĠugunsdzÄĵs Ä«bas
q l
Ġs of
Ġl ine
Ġd ns
Ġd ikt
Ġb akst
ot am
ÅĨ Äģs
Ġno liet
Ġat ves
Ġap el
Ġie tu
em at
Ġsk ept
Ä£ ener
ĠâĢĵ âĢĵ
Ġpas pÄĵt
mu z
Ġnep ak
skat Ä«jÄģs
Ġdr az
Ġnos akot
Ġaut os
Ġstr eet
Ä«z a
Ġal um
ing o
Ġperson Ä«gÄģ
Ġsek oju
Ġpamat us
Ġcentr ÄģlÄģ
Ġpievien ojÄģs
Ġsnieg Å¡anas
Ġspr ieÅ¾
Ġprofes ion
Ġklas isko
Ġzaud Äĵjis
Ġuzlab oÅ¡anai
Ġtrad Ä«cija
Ġpolic iju
Ġizteik ts
Ġizteik ties
ĠpieÅ¡Ä·ir Å¡anu
ĠtÄĵr Äĵt
Ġlikt eni
Ġver d
Ġsaules br
Ġapmier inÄģta
Ġglab Äģ
Ġbai lÄĵm
Ġplec a
ĠviedtÄģlru ÅĨa
ĠprezentÄģ cija
Ġbrokast Ä«s
Ġpartn eris
ĠmÄģm iÅĨu
Ġraim is
Ġsvec es
Ġsekt ora
ĠpÄģrvar Äĵt
Ġskrop stu
Ġinc id
resp ektÄ«vi
ĠjÄģatcer as
seviÅ¡Ä· i
4 00
g ust
m is
m Äģrt
n ra
z elta
Ä« lÄĵ
Ġp ants
Ġl et
Ġd if
Ġj Äĵz
Äģk st
Ġr og
Ä¼ o
ei ta
Ġc auru
Ġpar Ä«zÄĵ
Ġpie Ä¼aut
Ġie ÅĨemt
Ä£ a
ok Ä¼a
Ġgr o
Ġdz idr
Äį aks
Äį etr
ĠĠ ĉ
Ġbr ieÅ¾
ĠtÄģd ai
Ġnes Äģp
Ġnes aist
ĠÅ¡o vu
sp ied
Ġperson isko
ĠÄģtr s
ĠizvÄĵl ies
ĠspÄĵl ÄĵtÄģju
Ġsad aÄ¼as
Ġatp Å«ta
ĠiepriekÅ¡ min
Ġskaidr Äģ
ĠbrÄ«v as
Ġsac en
Ġpriek i
ĠzÄ«m Äĵ
Ġsim bolu
ĠdalÄ«b niekus
Ġaugst o
Ġdi ametr
Ġput niem
Ġiesp ied
20 14
ĠpÄĵr kot
ĠsÄ«k ums
Ġuztur ÄĵÅ¡anas
ĠienÄģk umus
Ġpaskat a
Ġbaz il
Ġbaz nÄ«cÄģ
ĠmÄĵrc es
Ġmirkl is
galven Äģ
Ġsasniedz ot
Ġsatr iec
gatav o
Ġlep ni
Ġkarst umÄģ
ĠstratÄĵÄ£ iju
Ġiedz ert
Ġsastop ami
Ġintegr Äģcijas
ĠÅ¾el ejas
Ġasin Ä«s
ĠizslÄĵg t
balt ijas
Ġvisliel Äģko
ĠreklÄģm Äģm
ĠmehÄģnis ms
ĠneskaitÄģ mas
ĠÅ¡am pan
Ġzibsp uldz
l Äĵt
Ġs wedbank
Ġt aka
Ġd Äģmu
Ġne liec
ad o
Ġr ent
Ġiz kÄģ
Ġuz sm
Ġap stÄģd
Ġie Äį
Ġz Äĵnu
Ġf rÄ«
ĠpÄģr nes
tr an
ej o
aÄ¼ i
ec ina
op Äĵd
Ġval ters
ist ika
Ġkad ru
tur i
Ġtiek u
Ġnos od
ĠvÄĵr ta
Ġveik Å¡anas
ĠÄģr ÄĵjÄģ
Ġieg Å«ta
Ġreiz Äĵs
Ġlap ai
Ġats Å«tÄ«ja
Ġnop el
vald es
Ġturp inot
Ġturp inÄģjÄģs
ĠizvÄĵl Äĵts
tik pat
darb us
Ġmod eÄ¼us
ĠnorÄģd i
Ġvirs mu
Ġkonkur Äĵt
Ġfot or
Ġplat Ä«ba
Ġgl az
Ġsagatav oÅ¡anas
Ġnegrib Äĵtu
ĠÄįetr Äģs
ĠmeklÄĵ Å¡ana
ĠjÅ«t ami
ĠatvÄĵr a
ĠnonÄģk usi
Ġsmu ks
Ġpiekr itu
Ġsport istu
Ġpastaig Äģ
Ġfirm u
Ġth at
vÄ«r s
ĠfiniÅ¡ s
pam azÄģm
ĠbrÄ«niÅ¡Ä· Ä«gi
ĠalternatÄ«v a
Ġatver ot
Ġsign Äģlu
Ġha ot
ĠizlÄĵm u
ĠÅ¡ausm Ä«gi
ĠidentitÄģ ti
Ġslud inÄģjumu
ĠpriekÅ¡m ets
ĠrÄ«s u
Ġpatur Äĵt
ĠpaÅ¡nÄģv Ä«bu
Ġanim Äģcijas
Ġki os
d ot
m c
r iem
x t
Ġl ie
Ġl Ä«ga
Ġl tv
Ġno grieÅ¾
Ġat Å¡Ä·
od ams
Ġman Äģmi
Ġaiz kust
ter i
ep s
Ġbr Ä«t
ain ajÄģ
Ġbl ond
evi Äįs
Ġsai tÄģ
Ġsak laus
Ġats av
ĠvÄ«r iÅ¡Ä·
Ġcentr Äģlo
Ġakt ier
Ġkriev i
ĠvadÄ«tÄģj am
Ġfor Å¡s
Ġpolit ikÄģ
ĠmÄ« Ä¼i
Ġ:) )
Ġnosauk umi
ĠapkÄģrt nes
ĠplaÅ¡ Äģku
Ġciet a
Ġraj onos
ĠmÄ«Ä¼ Äģko
kon fer
ĠpastÄģ sta
ĠatgÄģd inÄģt
Ġsvie stÄģ
Ġatl icis
Ġpild Ä«jumu
ĠpievÄĵr sties
Ġveido Å¡anos
ĠgÄģj ienu
Ġelem entus
ĠreÄ£ion os
Ġkaim iÅĨi
klaus Äģs
Ġtend enci
Ġasto ÅĨiem
ĠsajÅ«s mu
Ġlaic iÅĨa
ĠtÅ«l iÅĨ
Ġizaug smi
Ġtums a
ĠpaplaÅ¡ inÄģt
Ġjos lu
Ġinsp ekcija
Ġsvai ga
Ġpierad uÅ¡i
Ġieskat Ä«ties
ĠscenÄģr ija
vietÄģ m
Ġaptur Äĵt
ĠoperÄĵtÄģjsistÄĵm u
ĠkonsultÄģ ciju
Ġnepras a
Ġgreiz sird
ĠastoÅĨ desmit
Ġansam bl
ĠnepÄģrs niedz
cien Ä«j
Ġbalk ona
s andra
t it
v Äĵm
Äĵ Å¡os
Ġk Äģja
Ġl o
Ġl Äĵz
Ġm aps
Ġb os
es es
ur Äģ
Ä«g ajos
Ġap ciet
Ġvien iem
sk Äģrt
ĠkÄģd Äģs
ild e
Ġatt eic
inÄģ tÄģm
Ġsas kr
Ġlik ts
Ġsap nÄ«
lab u
Ġbl end
Ġsak nÄĵm
Ġdar ot
Ġmar ija
Ġ4 1
Ġlas Ä«tÄģj
Ġiem aksas
Ġpievien ojas
ĠsociÄģl ie
Ġdzim tas
Ġlid ojuma
ĠsaÅĨem u
Ġ0 8
tel ekom
Ġsamaz inÄģjies
Ġmier Ä«gs
Ġneg od
ĠmÄ«k sta
ĠzaÄ¼ Äģs
Ġsatik ties
Ġaizdom Äģs
Ġkok te
Ġtul ko
Ä·Äĵr a
Ġspie sts
Ġstad ionÄģ
Ġcitr onu
Ġapgaism ojuma
Ġnepied Äģv
ĠbÄĵrnudÄģr za
emi us
Ġprim itÄ«v
Ġkomfor tab
Ġinval id
Ġmodific Äĵto
Ġtitu lu
profes ionÄģl
Ġnepaciet Ä«bu
e u
h al
s vaig
Ġk Å«r
Ġs Å«k
Ġn as
Ġm iskas
Ġg er
Ġne dzÄ«v
il ku
Ġc ss
ĠÅ¡ ausmu
Ġpie ri
Ġkas te
Ġes u
aud Å¾u
ĠjÄģ ie
ĠÅ¡o fer
sp ie
Ġaug i
Ġsm ieties
Ġvec ie
Ġredz Äĵts
erson s
Ġ4 9
Ġpaz iÅĨÄģm
Ġvienu viet
Ġab os
bl akus
ĠbrÄ«d ina
Ġdal Ä«bas
Ġtirg um
Ġol balt
Ġpievien ots
Ġ15 00
Ġpac Äĵla
ĠspeciÄģl u
ĠsaÅĨem ties
Ġsu ÅĨiem
Ġzaud Äĵjumi
ĠattÄĵl Äģ
vÄģrd a
Ġizteik ta
Ġfakt oriem
Ġim pÄĵr
Ġviegl atl
Ġdzied Äģja
Ġciem at
Ġarh Ä«va
ĠdÄ«v aina
Ġ199 1
Ġder Äĵtu
vec Äģki
Ġneatkar Ä«bu
ĠnoslÄĵg uma
Ġoblig Äģto
Ġdebes u
Ġvaro ÅĨa
Ġrai b
Ġlejup iel
Ġievie Å¡ana
Ġcepur es
iepriekÅ¡ ÄĵjÄģ
ĠzvÄĵr u
ĠmaksÄģt nes
ĠvÄĵstul e
Ġtim i
ĠburkÄģ ni
ĠizstrÄģdÄģtÄģj iem
Ġfe ed
Ġpulver a
Ġle on
ĠbrÄģ Ä¼a
ĠdirektÄ«v as
Ġrie pas
Ġfolkl oras
ĠskÄģrien jÅ«t
b ijÄģm
i Ä¼a
k oc
l Ä«m
m ak
m Äģj
s ens
Ġt Äĵti
an gl
am am
Ġr ac
iÅĨ r
Ġc s
Ä«t am
Ġka zas
ĠvÄĵl ÄĵtÄģju
Ġkr ok
id ar
Ġpas tas
Ġliel ai
Ġkl int
Ġpirm ajai
Ġjaun ajai
Ġnek ait
Ġdom Äģjam
ion s
of il
Ġnoteik tos
mÄĵr Ä·is
Ġal as
ĠÄį au
ub l
Ġw in
Ġrok ai
Ġsad edz
Ġatp Å«tu
ĠiepriekÅ¡ Äĵjais
Ġcep umus
Ġakt ieriem
Ġpaties o
Ġeksp ed
apr Äģt
Ġplat Ä«bas
Ġbalt ijÄģ
ĠrobeÅ¾ ai
Ġkons ul
Ġzied ot
Ġapt ums
Ġnees at
ĠmÄ«Ä¼ Äģkais
ĠpastÄģv Äĵt
Ġbiez u
ĠiegÅ«t o
Ġnepar Äģd
ĠdÄĵl a
ĠseÅ¡ desmit
Ġber g
Ġiepirk t
ĠsastÄģvd aÄ¼Äģm
ĠaugÅ¡ ÄĵjÄģ
ĠÅ¾an ru
ĠdvÄĵs ele
ĠsagÄģd Äģt
Ġjap Äģnas
Ġnemain Äģs
fot ogrÄģf
Ġnesp Äĵs
Ġaust iÅĨas
ĠdziedÄģtÄģj a
Ġven Äĵc
Ġnobr ied
ĠneÄĵr ti
Ġvlad im
Ġprakti z
0 6
v irz
at bilde
Ġl iesmas
Äģk ai
dz el
dz elt
Äĵj umos
Ġuz nÄģk
Ġc or
on tÄģ
Äģj ieties
iet Äĵm
Ġz os
Ġvis augstÄģk
Ġsp ieÅ¾
ĠlÄ«dz finans
ic Äĵ
Ä«s s
ist iskÄģ
Ġjaun am
Ġdr op
Ġnes atr
Ġmin Äĵja
sm ju
Ġek o
Ġstr Ä«du
Ġ3 000
Ġot o
Ġpiem iÅĨas
ĠpiemÄĵr oti
vÄĵrt Äĵjot
ĠvispÄģr ÄĵjÄģs
Ġdraug am
Ġsol o
Ġspor tu
ĠspeciÄģl Äģ
ĠatÅ¡Ä·ir Ä«gs
Ġkor i
Ġekonom ika
ĠziÅĨ oja
Ġveiksm Ä«gu
Ġliec inÄģja
ÄģtÄģj i
sl av
Ġim db
ĠierobeÅ¾ ojumus
Ġprincip i
Ġ14 0
Ġskrien am
tim etr
bur t
Ġparakst a
ĠpasÅ«t Ä«juma
Ġnag iem
Ġnogur d
ĠlÄ«k um
Ġolimp isko
Ġfestiv ÄģlÄģ
Ġtan Ä«
ĠrotaÄ¼ lietas
vasar Äģ
ĠprÄģt Ä«gi
mil z
Ġhel Äĵna
Ġasin Ä«m
Ġslodz i
ĠkvadrÄģt metru
san Äģk
Ġinfl Äģcijas
Ġpieg Äģdi
paral Äĵli
1 50
k Äģm
n ing
Ġ |
Ġ Äģm
Äģ ÅĨi
Ġp df
Ġs up
Ġi b
Ġl i
Ġd uÅ¡as
Ġne liekas
Ġr otas
dz Äĵr
us is
ak cija
on akt
Ġf ood
un ds
Ġkas par
tr Ä«c
Ġre Äģlo
Ġaiz gÄģd
Ġlab Äģm
Äĵd ami
Ġval kÄģ
Ġval kas
Ġlaik apstÄģk
Ġgal iem
Ġh it
Ġh ist
Ġatt Ä«r
Ġsas tÄģda
Ġkop Ä«gu
Ġvec ÄģkÄģ
Ġsal di
Ġiet Äĵr
lab Äģkais
Ġal ga
ĠÅ¡Äģd Äģs
Ġpak lÄģj
Ġperson Äģls
Ġlas t
Ġliek o
darb Äģ
Ġizveid es
Ġcep Å¡anai
ĠmeÅ¾ iem
Ġsnieg to
vid es
Ġkonkur encÄĵ
ĠiedzÄ«v otÄģjs
Ġpoz icion
Ġtren iÅĨa
Ġmier Ä«ga
ĠglÄģ ze
Ġrecep Å¡u
Ġciem a
Ġsadal Ä«t
Ġpadar Ä«tu
Ġnoskaidr ots
Ġfantast isks
Ġeksperim entu
ĠglÄģb t
ĠizvÄĵrt Äģs
pam ÄĵÄ£
ĠbÄ¼ od
ĠcilvÄĵc es
ĠiespÄĵjam os
ĠshÄĵm u
Ġauditor ija
Ġakc ent
Ġpamod os
Ġdaugav pilÄ«
Ġcigar eÅ¡u
ĠpaspÄĵj is
Ġapsaimniek oÅ¡anas
Ġapv elt
ĠÄģfr ikas
0 4
b y
h op
p ot
s ab
t omass
an Äģs
Ġno brauk
Äģd ama
Ġiz var
Ä«g ajÄģs
Ġvien atnÄĵ
ev er
Ġnot r
ain os
Ġmaz umtirdz
ieg Å«t
Ġliet oti
Ġgar antÄĵ
Ġned ara
Ġvid Äĵja
Ġstr Å«kl
Ġbal tais
br ok
Ġrad oÅ¡Äģ
Ġpiln Ä«gÄģ
lÄģ z
Ġw ar
Ġsek ojot
Ġskol Äģm
Ġats lÄĵgu
Ġneat s
ĠparÄģd Ä«jies
ĠnozÄ«m Ä«gi
Ġdev is
Ġsac Ä«t
Ġsaist Ä«ba
ĠreÄ£istr u
ĠrÄģd Äģs
ĠlÄĵm umi
Ġfot okam
Ġagr Äģ
kom pl
Ġlabs aj
Ġfan i
Ġkan Äģla
ĠjÄģp Äĵrk
ĠpakÄģp es
Ġnosac Ä«jumu
Ġglab Äģjas
Ġvirtuv e
ĠnegatÄ«v i
Ġslep k
treÅ¡ ais
Ġpaskaidr ot
Ġakme ÅĨi
Ġlocek Ä¼u
ĠdÅ« mu
Ġog Äģm
god Äģtie
materiÄģl u
Ġkrauk Å¡Ä·
precÄ«z Äģk
ĠgauÅ¾ Äģm
5 4
p ik
s lÄĵp
ar gÄģ
Ġv Äģciju
at n
au ra
Ġl ir
Ġl ev
st ac
um st
Ġne rakst
Ġr yan
Ġuz vÄģr
Ġuz spÄĵl
om etru
Ġsp ÄģnijÄģ
inÄģt ie
Ġst aip
Ġlatv isk
Ġmaz g
Ġnes tÄģ
Å«d aÄ¼
ĠvÄĵr o
ĠÄģr a
Ġrad Ä«to
ig u
Ġskat iens
ĠlabÄģk os
Ġizm aisa
Ġturp inÄģju
dom a
Ġiev irz
ĠstÄģv ot
Ġuzskat Ä«ta
run a
Ġop oz
ĠmazÄģk Äģ
Ġuzs Äģka
Ġsen o
ĠatÅ¡Ä·ir Ä«gu
Ġslik tas
ĠnÄģkam reiz
Ġdzird Äĵjusi
Ġteik umu
Ġiemes lus
ĠaktÄ«v s
Ġveiksm Ä«ga
Ġlog us
ĠrÅ«p niec
Ġnoder Ä«gas
ĠÄ«sten o
Ġgalvas pilsÄĵtÄģ
ĠsareÅ¾Ä£ Ä«ts
saim niecÄ«bas
Ġlu gas
valst is
Ġdirekt ora
Ġtend encÄĵm
Ġbit Äĵm
Ġprojekt os
Ġrai ti
Ġvide ok
Ġizz iÅĨas
Ġkru sta
ĠrotaÄ¼ lietu
saj Å«ta
ierÄ« c
ĠfakultÄģ tes
analiz Äĵjot
c d
j ag
v Äģc
w all
Ġ Äģzijas
Ġp aud
Ġv or
Ġs iks
Ġl oter
um j
al ans
ies Äģk
ak tiv
ap u
Å¾ ÅĨ
Ġie bÄģz
em a
im eo
oÅ¡ ajÄģs
Ġliel ums
inÄģj umos
Ġbr il
ĠtÄģd ejÄģdi
Ġnep abeig
Ġmaz ajÄģm
gr audu
Ġkom prom
Ġh es
ĠdaÅ¾ ned
Ġaut onom
Ġpav er
Ġpav ir
Ġkar ot
Ġsal Äģtus
Ġveik umu
ĠceÄ¼ as
Ġpag ÄģjuÅ¡i
kal ns
Ġsat iku
Ġsam eklÄĵt
iÄ¼ Ä¼u
ĠiepriekÅ¡ Äĵjiem
Äĵn ai
le ÅĨu
ĠmÄģc Ä«bÄģm
Ġnet eiktu
Ġpadom Äģju
Ġkol os
Ġkol ekcija
Ġdraug os
ĠmeÅ¾ Ä£
Ġmel l
Ġdator am
ĠmÄĵÄ£ inÄģjis
Ġgu v
ĠreÄ£istr Äģcija
ĠdroÅ¡ a
Ġdi Å¾i
ĠbÅ«v es
Ġkoment Äģrs
ĠmÄģksl inieka
pap Ä«ru
Ġsaei ma
ĠsareÅ¾Ä£ Ä«ta
Ġso Ä¼i
Ġmic ro
ĠpanÄģk umi
ĠziemassvÄĵt kos
Ġtauk os
Ġminim ums
Ġasoci Äĵjas
Ġpo Ä¼u
Ġnenot ika
Ġnoviet ot
Ġbumb iÅĨas
ĠviedtÄģlru ÅĨiem
Ġaptauj u
ĠbÄĵd Ä«gi
Ġaizmugur es
ĠvienÄģd as
zinÄģt n
ĠsantÄ«m i
Ġiekr ita
Ġgandar Ä«jums
ĠmedicÄ«n iskÄģs
Ġpod kÄģ
Ġkapte inis
Ġkoled Å¾as
Ġgeoc ach
k ok
l n
r egul
Ġv iest
an al
Ġl od
ik ip
Ġr ol
Äģr dz
ak cijas
Ġpr inter
ek Ä¼us
Ġz Å«d
ol Äĵ
tr i
im ies
Ġsav Äĵjo
Ġsp oguÄ¼
oÅ¡ ajos
Äģv as
Ġtur Äĵja
Ġnes ek
Ġnes tÄģv
Ġkaut kur
iez Ä«mÄĵ
Ġdiv atÄģ
rakst Äģ
las a
Ġ5 2
ĠlabÄģk i
Ġiev Äģk
Ġizp Äĵti
Ġizskat Äģ
ĠpÄĵt Ä«jumos
Ġeirop u
Ġproces ors
Ġpaties Ä«bas
Ġinteresan tus
Ġapskat u
Ġkonkur ence
Ġzv ans
ĠpÄģrs las
ĠrÄģd Ä«tÄģjiem
Ġied ot
Ġoper atÄ«vi
Ġteik to
Ġsavien ot
Ġpab ar
ĠkÄ¼Å«st ot
Ġbiez s
Ġbiez piena
Ġiesaist Ä«to
Ġsaprot ama
ĠziemassvÄĵt ki
ĠatbrÄ«v ot
Ġizviet oti
ĠkrÄĵm a
ĠpÄģrdev Äĵjs
ĠturpinÄģs ies
ĠreliÄ£ isko
Ġgald iÅĨa
Ġeur o
Ġpaaudz e
ĠpÄģrvÄĵr st
Ġasar Äģm
Ġsudr ab
jelg avas
Ġefektiv itÄģti
problÄĵm a
Ġslov Äģk
atbilst oÅ¡i
o ÅĨus
p azÄ«st
r aim
t f
z z
Ġl emj
Ġd isks
Ġd ejot
Ġb Äģl
Ġb ut
Ġb akal
st il
Å« mes
Ġr otÄģ
Ġc ilp
et ov
oj oÅ¡as
Ġz atl
Ġjau kÄģ
Ġgr audu
Ġsp Äĵjis
Ġst Äģr
Ġst ing
Ä«s umÄģ
Ġpl akst
Ġpl Ä«ts
aÅ¾ i
Ġkl Äģjas
ain iem
Ġh on
Ġatt Ä«rÄ«
Ġgar min
Ġak ti
sm ei
Ġveid otu
Ġpam ud
Ġkop iju
Ġkar ogu
Ġpus l
kur as
Ä«d Äĵja
pÄģr Äģk
Ġpad us
Ġsek u
Ġgatav oju
inÄģs i
Ġliek a
Ġgalven ajÄģ
ĠstrÄģd Äģs
Ġizveid ojusies
Ġgaid am
Ġol Äģm
Ġbar iÅĨÅ¡
ĠreÄ£istr Äĵta
piem in
Ġkor ekti
Ġvies nÄ«ca
ĠievÄĵr oju
Ġobj ektÄ«vi
Ġapz iÅĨu
Ġapz inÄģs
Ġuzrakst s
Ġrakstur Ä«gs
Ġizg Äģja
ĠpozitÄ«v s
eÄ£ istr
Ġsmu ka
Ġgudr s
ĠvisÄģd Äģm
dÄģr z
ĠpÄĵd u
Ġamatperson Äģm
Ġasp ekts
Ġsagriez tu
ĠtradicionÄģl o
Ġkompet ence
ĠportÄģl am
ĠjÄģpie ÅĨem
ĠsantÄ«m iem
Ġnerv oz
ĠkultÅ«r vÄĵstur
pasÄģk uma
Ġparametr iem
Ġut ml
Ġspog ulÄ«
Ġlind a
Ġlikumd oÅ¡anas
Ġbater ija
Ġsaju tu
Ġdrav nieks
trÅ«d e
Ġtobi ass
budÅ¾ eta
ĠdaÅ¾ned aÅ¾
5 3
d amies
n ers
w are
Ä« Ä«
Ġk akt
ar am
Ġs Äĵt
Ġt Ä«ru
Ġt akÅ¡
Ġl eÄ¼Ä¼u
Ġr Ä«si
il c
Ġpie res
Ġsk ur
Ġkr izdabz
Ġdaudz viet
Ġh els
aks n
ent Äģs
Ġrakst am
Ġkar oga
br Å«n
las Ä«ju
Ġcen timetr
lab a
Ġgrib Äĵs
ĠmÄĵr s
Ġ4 7
ver a
enc is
Ġkal kul
Ġskaidr u
Ġuzskat i
Ġmu iÅ¾
liek i
Ġatz Ä«ta
kÄģd ÄĵÄ¼
ĠmÄĵÄ£ inÄģÅ¡u
Ġsnieg umu
Ġsim fon
ĠminÅ«t Äĵ
ĠdalÄ«b valstu
Ġ0 4
Ġdod ot
Ġfot os
ĠlÄ«g umus
kom un
Äĵz e
Ġuzvar ÄĵtÄģju
Ġrakstur Ä«gi
Ġiespaid Äģ
Ġtic Ä«bas
âĢĻ ,
Ġsept iÅĨas
ĠdomÄģ Å¡anu
Ġtum Å¡Äģ
Ġcent ies
Ġrom Äģnu
ĠautomaÅ¡ Ä«na
ĠÄ·ir ur
Ġmotiv Äģcijas
Ġpraks i
Ġatzin umu
ĠdabÅ« ja
Ġinsp ekt
ĠiegÅ« Å¡anas
Ġelp ot
Ġsmilt Ä«s
ĠÅ¡Ä·Ä«v ja
Ġgam es
Ġagnes e
Ġputu kr
Ġgliem eÅ¾
h y
n ec
s ony
t Äĵr
Ġp aug
Ġn Ä«k
Ġl aka
Ġg ab
Ġne liek
Ġne oficiÄģl
av Äģs
Ġiz Ä«r
ĠkÄģ zas
Ġvien otÄģ
Ġkr Å«ts
ĠlÄ«dz Ä«gÄģ
Ġpl Äĵs
Ġgal ds
Ġgal arezultÄģ
iÄģl i
Ġsas kan
Ġizv ilkt
Ġdom Äĵ
Ġnos auca
Ġor hid
ĠplÄģn os
Ġjeb kÄģdu
Ġcaur umu
Ġproces iem
Ġvald Ä«ja
Ġpiec os
Ġkonkur entu
ĠizstrÄģd e
ĠdalÄ«b valsts
Ġapr ind
ĠgarÅ¡ Ä«ga
ĠsaÅĨem ts
Ġpieaug uma
Ġdzird ÄĵjuÅ¡i
Ġoper atoru
ÄģjuÅ¡ Äģs
Ġzied iem
ĠkompÄģn ijÄģm
Ġuztur ÄĵÅ¡anÄģs
Ġim pul
ĠsÄĵr ijÄģ
Ġterm iÅĨÄģ
Ġkun ga
Ġnik ol
Ġakme ÅĨu
Ġmul tim
Ġkurs Äģ
Ġball Ä«tes
pareiz Äģk
Ġatpaz Ä«t
Ġaizsk ar
Ġgru pÄĵj
Ġkate dr
d atu
d ig
f ebruÄģr
j Äĵkab
v Äĵs
v Ä«ns
Ġ Å«s
Ġv o
an te
Ġl ove
st eig
in oÅ¡o
Ġne eks
Ġne valst
Ġno Ä·er
ak ami
os lÄĵp
Ġc iest
Äĵl ies
Ġlai ma
Ġjau ko
isk ums
Ġre Äģls
Ġre ÄģlÄģ
Ġaiz rÄģd
ez a
Ġpal Ä«g
Ġizv ad
lu b
Ġstr Ä«p
Ġvec um
Ġlik tu
Ġsap uto
kar te
Ġats lÄģb
Ġpamat oti
âĢ¦ âĢ¦
Ġtirg otÄģji
Ġapskat ot
Ġpiedal Ä«tos
Ġpiedal Ä«jies
Ġnem Äģku
Ġdarbiniek a
Ġtek stus
ĠplaÅ¡ Äģ
Ġkoment Äĵt
pan tu
Ġsaglab Äģjas
Ġkan ÄĵÄ¼
Ġapmekl Äĵja
Ġapmekl Äĵju
for Å¡i
Ġresurs s
ĠtÄĵl a
Ġpipar iem
Ġtrauc Äĵjumi
ĠsavÄģd Äģka
ĠlÅ«g t
Ġintens Ä«vi
ĠmuÄ¼Ä· Ä«gi
Ġraud Äģt
Ġkaudz e
Ġfond Äĵto
sabiedr Ä«bas
Ġvitam Ä«nu
Ġinstruk t
Ġziep ju
ĠÅ¡Ä·Ä«rÄĵj ties
ĠapÅĨem Å¡anÄģs
l ien
n y
n ord
w eb
Ġv Äģv
ik dienÄģ
Ġr tu
Äĵj uÅ¡o
ak os
ei tu
ei ts
ĠÅ¡ Å«n
Äģl ija
un s
Ġvar avÄ«k
Ġman ev
Ġman liekas
Ġgr auj
Ġre Äģla
Ġsp am
Äį o
Ġpas akas
Ġaiz ies
Ġst ir
Ġtur ot
br uno
dzÄ«v okÄ¼u
ĠtÄģl ab
Ġpaz iÅĨu
ĠizvÄĵl Äĵjies
Ġsabiedr iskajÄģ
Ġnaud iÅĨu
Ġneiz dar
Ġneiz prot
Ġpras Äģs
Ġmod el
pil i
ĠtieÅ¡ Äģs
ĠvÄĵrt Ä«bÄģ
ĠmÅ«z iÄ·i
âĢľ ,
Ġai tas
ĠdzÄ«ves vietas
ĠspÄĵk am
Ġpirk uma
Ġklas iskÄģ
vair Äģki
ĠrobeÅ¾ sar
ĠkÄģp ost
ĠzÄģl Äĵm
Ġzied us
ĠattÄĵl i
Ġizteik smes
Ġnesapr ata
Ġterm inu
Ġnozar i
Ġizdom Äģjis
Ġtrauc Äĵjumiem
ĠÄģb olus
bi an
Ġmeln ie
Ġiztur Ä«bu
Ġalkoh ols
Ġpeld Äĵt
galven okÄģrt
lauk u
Ġlatgal Äĵ
ĠpriekÅ¡roc Ä«ba
Ġnelik Äģs
Ġasfal tu
ĠiesÄģk to
Ġlem ts
Ġizmis Ä«gi
Ġpusstund as
Ġfas cin
ĠtraÄ£ Äĵd
Ġukr ainas
Ġluks of
ĠkapitÄģls abiedr
Ġjavas cr
d et
h i
n og
t Å«r
Å¡ onedÄĵÄ¼
Ġl iedz
Ġl ive
Ġne Äĵrt
Ġr um
Ä¼ ot
Ġat gu
Ġto ÅĨi
Ġpas i
lik Äģs
ĠpaÅ¡ Äģs
Ġizv ilka
Ġek ip
Ġstr Ä«da
tus i
Ġskr Äĵjis
Ġsv er
ĠceÄ¼ os
pas ts
Ġizskat Ä«sies
Ġuzskat s
Ġuzskat Äģma
Ġizveid e
Ġizveid ojuÅ¡i
ĠvispÄģr Äĵjo
kÄģd am
Ġbur z
Ġpaties u
tÄģm ies
Ġmas ku
ĠjÄģs as
Ġnem aks
ĠrÄģd Ä«tÄģjus
Ġkult Å«rÄģ
Ġkonkr Äĵt
Ġklas if
Ġdraudz es
ĠaugstÄģk u
Ġstipr s
Ġnoder Ä«gu
ĠpiedÄģvÄģj umus
Ġrep ertu
ĠÅ¡Ä·ir ÅĨu
Ġkonstat Äĵju
Ġso Ä¼iem
Ġkos m
ĠÄ·ir urÄ£
Ġasto ÅĨi
ĠÅ¡okol Äģde
Ġnumur Äģ
Ġklases biedr
Ġuzved Ä«bu
Ġfestiv Äģlu
Ġslaven o
Ġelektro enerÄ£
Ġparast Äģs
Ġparlam ent
Ġom ul
Ġinici atÄ«vu
ĠpiezÄ«m es
ĠlÄ«dzdal Ä«bu
mÄ«k lu
Ġaizmig t
Ġsy m
Ġnex us
Ġna Å¡Ä·
Ġplau Å¡u
ugun s
Ġsavv aÄ¼as
Ġeliz ab
) -
d iz
l er
r ot
as e
Ġl akas
st am
Ġr id
on iski
Ġap Å¡
Ġvien padsmit
Ġ1 10
Ġkr amp
Ġliel ajÄģm
ist as
Ġcit viet
Ġtiek ot
ig o
Ġpad ot
ĠÅ¾ ur
ĠuzÅĨÄĵm umus
ĠuzÅĨÄĵm umos
ĠparÄģd Ä«ts
aliz Äģciju
vÄĵrt ÄĵjumÄģ
kop savilkums
Ġsan Äģkt
kÄģd ijs
eks s
star ta
ber z
ĠsaÅĨem Å¡anai
Ġ0 9
ĠÅĨem ts
ĠatseviÅ¡Ä· iem
Ġkoment Äĵ
Ġneap Å¡aubÄģmi
ĠattÄĵl ot
Ġnol aid
Ġnol iegt
ĠvÄģr tu
ĠierobeÅ¾ ojumiem
Ġcetur ksnÄ«
Ġseg u
Ġapliec Ä«bu
ĠuzÅĨem ties
ĠjÄģp av
ĠattÄģl ums
Ġkok us
Ġkrust iÅĨ
Ġattiek smes
ĠnoslÄĵp umu
Ġinstrum ents
Ġnumur iem
Ġiepak ojums
Ġart Å«rs
Ġeti Ä·i
ern itÄģtes
ĠmeklÄĵtÄģj u
Ġiebild umu
ĠtransportlÄ«dz ekÄ¼u
ĠmehÄģnis mu
Ġlig zd
Ġatvain ojos
ĠenerÄ£Äĵt ikas
Å¡ov akar
pagatav oÅ¡ana
Ġdarbasp Äĵka
edgar s
8 6
c itu
k au
l ietÄģm
n auda
p es
p agr
p eld
t b
Ġ enc
Ġk er
Ġk ni
Ġt aiz
Ġm ent
Ġb ig
al ga
Ġg ir
Ġno plÅ«d
ak iem
Ġc am
ĠÅ¡ tr
Ġf ok
un a
Äĵm a
Ġes iet
Ġko ko
az iÅĨas
Ġaiz kar
Ġaiz gÄģj
ĠdzÄ«v a
nes e
tur s
Ġdom Äĵna
Ġkop ijas
Ġsm Äĵr
Ġbal va
Ġas tes
est Ä«bas
ĠÄį ep
Ġgrib ot
ĠÄ· Ä«p
Ġsak rÄ«t
Ġel Ä«na
ĠlielÄģk ajÄģ
ĠvÄ«r us
pie aug
Ġmod u
Ġgaid Ä«jis
Ġsaist Ä«to
Ġcep umi
ĠraÅ¾ oÅ¡ana
Ġmet eor
Ġdzim st
grib Äĵtos
Ġlid ot
ĠreÄ£istr Äĵties
Ġpunk tos
ĠlÄ«dzek Ä¼a
Ġgabal i
Ġem u
ĠsalÄ«dz ina
Ġmobil ajÄģm
Ġkap u
Ġsagatav oties
Ġizl emj
Ġkust Äĵties
Ġuzrakst Ä«jis
Ġsaul Ä«te
Ġatrod oties
Ġkonf ekt
ĠkompÄģn ijai
Ġfakt iem
Ġaktiv itÄģti
Ġtuk Å¡s
ĠnepatÄ«k ami
Ġpulkst eni
Ġizklaid e
ĠpÄģrdom Äģt
Ġsport istiem
Ġstabil i
Ġdienvid os
Ġer ot
ĠmaksÄģj umus
nol Äĵmu
Ġnest abil
ĠjÄģpie vÄĵrÅ¡
Ġpublik ai
ĠapÄ£Äĵrb s
ĠuzrÄģd a
Ġnodev as
Ġneveiksm Ä«gi
Ġlig z
mÄģks las
Ġgruz ijas
Ġstokhol mÄģ
ĠpilnvÄĵrt Ä«gi
ĠdigitÄģl Äģs
Ġnedom Äģjot
nie Äįu
tÅ«l Ä«t
f as
Äĵ Å¡ot
Ġb ek
in oÅ¡Äģ
Ġne gar
Ä¼ Äģp
Ġie ju
Ġie dzim
iel iek
Ġdz ija
Ġliel umu
Äĵd as
inÄģj i
ĠÄ¼ eÅĨ
Ġpirm dienas
Ġmaz ajam
Ġgal us
vis Äģdi
val od
ĠvÄĵr ojams
Ġsar gÄģ
Ġbl Å«z
eg s
Ġas iÅĨu
Ġdar Ä«juma
ĠmÄĵr a
Ġiek Ä¼auties
pie Ä¼auju
Ġskaidr ot
Ġizs pr
ĠmazÄģk i
Ġlauk i
Ġnen ok
Ġuzs vars
Ġnom ir
ĠmÄĵÄ£ inÄģjumu
baud a
ĠizstrÄģd Äĵ
Ġstud Äĵt
und am
ĠapkÄģrt Äĵjiem
ĠattÄĵl o
Ġkomis ijÄģ
ĠpÄģrd esmit
Ġpaman Ä«juÅ¡i
Ġnodok Ä¼us
ĠÄ«sten oÅ¡anu
els ies
ĠtÄĵl i
Ġcel ties
ĠdÄģrg Äģk
Ġiepirk uma
ĠpotenciÄģl o
ĠlidmaÅ¡ Ä«nÄģ
Ġsimbol s
ĠiegÅ«st am
ĠnorvÄĵÄ£ u
Ġkafej nÄ«cas
ĠatmosfÄĵr u
Ġaizpild Ä«t
Ġkalp ot
Ġkarav Ä«ru
atkar Ä«bÄģ
Ġspons or
Ġpalodz es
ikip edia
d ist
d ub
f ord
h mm
l ers
l iÅĨÅ¡
Ġs Äģl
Ġs ienÄģ
Å¡ amies
ies p
on Ä«
Ġap kl
el dz
Ġtik ties
ag l
Ġsp ur
id oja
ras ti
Ġjaun ieÅ¡us
Ġliet iÅ¡Ä·
Å«k snes
Ġveid oÅ¡anai
Ġvec os
Ġfil mÄĵt
ĠÅ¡Ä· Å«n
Ġpirms Äģk
Ġlas Ä«ja
ĠtÄģl ajÄģ
Ġpaz u
Ġsiev ai
Ġnop ublic
tik lÄ«dz
Ġeir ov
ĠstrÄģd Äģjis
Ġvesel Ä«gi
Ġizveid otu
Ġ7 6
ĠdÅ¾ ung
Ġesam Ä«bu
ĠzÄ«m Äĵt
Ġpiedal Ä«jos
Ġav eÅĨu
inter v
ĠmÄ« lÄĵ
Ġatkl Äģjot
ĠpÄģrs pÄĵj
ĠnÄģkam ajai
Ġekonom iku
Ġtren eri
ĠievÄĵr oÅ¡anu
ĠsÄĵd Äĵju
lÄ« p
ĠatseviÅ¡Ä· s
ĠatseviÅ¡Ä· Äģs
ĠvarÄĵs iet
Ġnegrib Äĵju
Ġfiz ikas
Ġsta cija
âĢĻ .
Ġrit mÄģ
Ġbi Ä·er
Ġskaist umu
Ġpieder Äĵja
Ġseg umu
fr anc
ĠmÄĵrc Äĵ
Ġaus Ä«s
ĠpÄ¼ avu
Ġkau lu
ĠÄ·ir Å¡u
Ġpabeig ta
ĠÄ·erm enÄ«
ĠatstÄģj is
Ġnesan Äģks
Ġmitr uma
Ġaizbrauc a
Ġkart ona
Ġtec hn
Ġvarian tiem
Ġend om
Ġstokhol mas
pakalp ojumu
Ġbater iju
ĠmÄĵrÄ·tiec Ä«gi
lit erat
Ġmand eÄ¼u
Ġslied Äĵm
ĠpienÄģc Ä«gi
popul Äģr
naud as
ĠbenzÄ«n tan
l ip
r ef
s agr
Ð ·
Ġv itÄģ
Ġt uÅ¡a
at nes
Ġj ans
Ġr omas
ur Äģt
it Å«d
Ġf ans
Ġsp ektr
Ġkr et
Ġkr ut
Ġpl Å«m
vien am
ieg lo
ĠjÄģ iev
tur b
Ġaug uma
Ġveid oÅ¡anÄģs
Ġpus dienu
ier od
Ġas prÄģt
Ġgrib Äĵt
Ġpak Äģrt
Ġpap ras
Ġapm ain
Å«z as
Ġjeb kÄģda
ĠizvÄĵl ÄĵjuÅ¡ies
Ġgatav oÅ¡anÄģs
ĠvÄ«r iem
Ġnosk alo
Ġvil ni
ĠvÄĵrt Äĵt
mi x
Ġteic iens
Ġapskat s
Ġatbilst oÅ¡as
ĠjÄģn or
ĠkÄģr p
Ġpieaug s
ĠlÄ«g umi
interes ants
ĠpÄģrvald Äĵ
Ġapg Äģz
Ġdisk urs
ĠpiedzÄ«v ojis
svÄĵt dien
Ġmon str
ĠprecÄ«z u
Ġez er
Ġelektron iski
ĠoficiÄģl o
ĠÐ ½
ĠamerikÄģ ÅĨi
ĠiekÄģr ta
Ġglez nas
ĠmÄģjaslap u
ĠÄ·Ä«m isko
Ġdzemd Ä«bÄģm
Ġsekoj oÅ¡i
uzÅĨÄĵm uma
ĠmÄģm iÅĨas
ĠpasaÅ¾ ieri
Ġnenoz Ä«m
Ġindustr ijas
ĠpÄģrstrÄģd es
vidus skolas
Ġorganis mam
Ġkaz ino
Ġpremj er
ĠÅ¡ej ienes
ln nk
% ).
) ?
k ab
s in
s Äģksim
as tÄģ
Å¡ am
Ġl Ä«go
Ġb om
Ġuz vilk
Ġsav ilk
Ġpat ik
Ġpat ikt
arb ara
Ġre cenz
id Å¾
ic as
Ġpal Ä«gs
Ġliet i
Ġkar s
Ġbal ans
ĠÅ¡Ä· iedr
Ġlas Ä«Å¡anu
Ġizskat Ä«Å¡anai
Ġcep umu
Ġuzs pr
Ġmain Ä«sies
ĠskrÄĵj Äĵja
ĠrÄ«k i
ĠgarÅ¡ vielÄģm
Ġmilj on
ĠjÄģn ot
Ġprofes ijas
Ġizc elt
io us
Ġsasnieg usi
Ġtran z
Ġklus u
Ġuztur ÄĵÅ¡anu
ĠizmÄĵr i
Ġstandar ts
Ġtirdz niecÄ«ba
ĠpazÄ«st am
Ġkompl ektu
Ġkred Ä«ts
turp inot
ĠlÄĵn Äģ
ĠpÄģrkÄģp uma
ĠpieslÄĵg ties
ĠinstitÅ« ts
ĠrÄĵÄ· inu
Ġapkop ot
ĠslÄĵg ta
Ġpieliet ot
ah oo
Ġsirsn Ä«gi
ĠizstrÄģdÄģj umu
ĠstrÄģdÄģj oÅ¡o
pareiz i
ĠbÄģriÅĨ tiesa
ĠpatstÄģv Ä«gi
Ġbaltkriev ijas
led us
Ġberl Ä«nes
plÄĵ Å¡a
ĠmÄĵsl oÅ¡anas
ĠnetÄ« Å¡Äģm
ĠÄ«k Å¡Ä·
7 9
r or
Ġp Å«t
au stu
Ġl omÄģs
es tas
al es
in fo
Ġne atv
Ġne gul
ad arb
Ġpie aic
Ġie eju
Ġie vÄĵrt
em e
Ġes oÅ¡ajÄģm
Ġto pa
ob s
Ġtr ub
ma x
uz var
ĠÅ¡Ä· Ä«d
Ġzem ei
Ġzem apz
ĠÄį akar
Ġsab alans
Ġneat Å¡Ä·iras
Ġfin ÄģlÄģ
Ġvesel Ä«ga
Ġsitu ÄģcijÄģm
Ġpiedal oties
pal iel
Ġizr ÄĵÄ·
Ġsec inÄģjums
Ġup Äĵ
Ġnol Å«kÄģ
Ġiegu ves
ĠjÄģiz dara
Ġmais iÅĨu
Ġkabin etÄģ
Ġkoncer tÄģ
Ġsatik smi
Ġy our
Ġseg uma
Ġkomun ikÄģcija
Ġrek ords
Ġmus ic
Ġtom Äģtiem
Ġuzb ud
cit s
ĠviÄ¼ ÅĨa
ĠÅ¡Ä·Äĵrs lis
Ġsmadz enÄĵm
Ġer nes
ĠiegÅ«st ot
ĠpÄģrmai ÅĨu
treÅ¡ kÄģrt
ĠÄ£en Äĵt
ĠaizstÄģv Äĵt
ĠburkÄģ nu
Ġfail iem
Ġmusku Ä¼i
ĠbÄĵrnudÄģr zÄģ
Ġses ijas
Ġnepiln gad
Ġindustr iÄģl
Ġbulj ona
skÄģb es
Ġvarian tus
Ġilgter miÅĨÄģ
Ġhom oseksu
" )
8 9
k er
s iet
s el
Ġp en
Ġp ist
Ġp ower
Ġn aksn
at eriÄģl
Ġm iÄį
Ġd j
ik op
Ġno brauc
Ġr au
dz en
il is
Ġc re
iet ilp
Ġka za
ĠpÄģr skait
iz mÄĵÄ£
ok lis
Ġgr amat
Ġdz ejas
og us
Ġkr op
Ġkr avu
ec tr
Ġtr ijiem
Ġkl Ä«st
Ġbr un
Ġbr Å«c
ĠÅ¡o vs
Ġaug snes
Ġkop Ä«gÄģ
Ä«c ijai
Ġzem s
Ġzem Äģka
Ġbl a
Ġieg Å«ts
Ġviet nes
Ġsak ÅĨu
Ġperson Ä«ba
me ÅĨiem
Ġblog eru
bl e
stÄģ sti
Ġizp austies
Ġpiek to
run Ä«
ĠiekÅ¡ zemes
ĠpÄĵt niec
Ġlauk s
Ġparedz ÄĵtÄģs
Ġizt eicÄģs
anc i
Ġpac iÅĨu
Ġgai Å¡s
ĠpieÅĨem ti
Ġizc ils
Ġdokum entÄģl
ĠbÅ«v niecÄ«bu
Ġnepat ik
Ġneap rakst
Ġaprakst i
Ġfiz isku
Ġdir iÄ£
ĠpÄģrsteig ta
ĠspÄĵc Ä«gas
Ġrecep tÄĵ
ĠpazÄ«st amas
ĠrÅ« Ä·iem
Ġide Äģla
ĠapdroÅ¡ inÄģÅ¡anu
ĠlÄĵn as
paÅ¡ am
Ġbalst Ä«ts
ĠatklÄģj ums
ĠaprÄĵÄ· ina
Ġfini Å¡u
Ġpeln Ä«jis
Ġeksist enci
ĠpagÄģt ni
ĠplÅ«s ma
Ġnokr iÅ¡
ĠkosmÄĵt iku
ometr s
Ġoktob ra
wor ld
eksp erim
Ġmalt Ä«ti
neliel s
Ġpiezvan Ä«t
Ġdokt ora
b ij
o sta
o stÄģ
s auc
t iÅĨÅ¡
Ġp odÄģ
Ġm ost
Ġb Äĵn
Ġb ada
Ġc ib
Ġat skait
Å¾ Äģv
oj oÅ¡ais
Ġz ig
Ġf un
Ġvar Å¡
Ġpat vÄĵr
Ġgr ami
man n
Ä«k a
ĠÄ¼ oo
Ġkl Äģj
gr ad
Ġdr oÅ¡u
ne y
uz dev
Ġvec Äģkais
ĠvÄĵr ojot
Ġskr ies
Ġzem a
Ġrad Ä«Å¡anas
ĠpriekÅ¡ metus
ekt os
Å«r Äģs
Ġrez um
ĠizvÄĵl os
ĠizvÄĵl Äĵtos
liel ais
bl ack
Ġcentr aliz
Ġizs v
Ġ6 9
ĠdÄģr ga
Ġlid ojumu
Ġfor uma
Ġdesmit gad
vakar a
Ġsmag as
Ġuzrakst Ä«ts
ĠierobeÅ¾ otas
Ġpieteik ums
Ġ199 3
Ġsadal es
Ġkun gu
kaidr o
Ġso Ä¼a
beig u
Ġkras i
Ġnosac Ä«ti
ĠpieslÄĵg t
Ġtab ul
Ġprognoz Äĵ
Ġeksperim ents
Ġsaimniec Ä«bÄģ
Ġrestor Äģns
jauk u
Ġpic u
Ġremon tu
Ġtulk ojums
Ġkurs us
Ġpateik Å¡u
ĠatlÄ«dz Ä«bas
sat ik
ĠklÄģtbÅ«t ne
ĠriÅĨ Ä·
wor k
Ġnesa ÅĨem
Ġziep es
ĠmazgÄģ Å¡anas
Ġizpal Ä«dz
Ġkung i
Ġnomiz o
Ġdeivid s
ĠkÄģz Äģm
f ebruÄģra
r oku
Ġv ip
Ġs ejai
Å¡ e
Ġl Ä«c
Ġd Äģs
Ġd istr
st umbr
Ġne ws
Äģk ajos
en h
Ġiz kus
Ġpie tura
Ġz on
it iv
Ġto ks
aut as
ic u
eÄ¼ Å¡
ain ie
Ġdr eam
Ġtel tÄ«
Ġsap ut
zÄ«m es
Ġrad Ä«ti
Ġatr ieb
ov am
Ġpiln varu
Ġizmant os
ĠkÄģrt Ä«gu
ĠplÄģn Äģs
ĠÄ«paÅ¡ Äģm
ĠlielÄģk iem
nÄģk ot
tÄĵ va
ĠnozÄ«m Äĵja
min Å«t
Ġsevi Å¡Ä·
Ġcentr iem
Ġvil ks
Ġsan ta
Ġsaist Ä«tÄģs
ĠspeciÄģl o
Ġpirk stus
Ġpareiz a
Ġoper atoriem
ĠsastÄģv a
Ġuzdev uma
Ġaprakst Ä«ts
nek Äģdu
Ġnol aup
ĠslÄĵp j
ĠrÅ«p nÄ«cas
Ġpir am
Ġnoder Äĵja
Ġauk sta
Ġatkar Ä«bu
ĠdomÄģ Å¡ana
Ġstandar tus
ĠnoslÄĵg t
ĠpasÅ«t Ä«jumu
Ġieguld Ä«t
ĠmÄĵdz u
Ġoblig ÄģtÄģs
ĠmarÅ¡ru ta
ĠpotenciÄģl s
Ġliterat Å«ra
ĠskÄģb ais
Ġpastaig a
Ġsem ant
ĠpeÄ¼ ÅĨa
Ġkoncep cijas
ang e
Ġaizrauj oÅ¡i
ĠmÄģko ÅĨiem
Ġtrij os
ĠsfÄĵr Äģ
Ġepiz od
Ġatalg ojumu
Ġlauc iÅĨÄģ
Ġnedarb ojas
Ġtroks nis
Ġasinsv adu
m ag
r am
v ajÄģ
v iegl
Å¡ ÅĨ
ai gu
Ġb eb
in Äĵt
Ġr ab
er ties
Ġat ceÄ¼
oj um
Ġpa gad
it ai
iz Äĵts
Ġ1 30
Ġtr ill
iv er
ĠdzÄ«v u
Ġnes mu
val m
Ġdom br
Ġdom Äĵnu
ĠbÄĵr zu
Ġkat rÄ«
Äģrd a
Ġsv eÅ¡u
Ġsv ilp
eg as
Ä«d is
Ġsak Äģm
la a
Ġpamat i
ĠlielÄģk ajai
ĠpiedÄģv Äģti
ĠvÄ«r usu
Ġmal a
Ġmal kas
ĠnorÄģd Ä«jis
Ġfr ekven
Ġkomp akt
Ġnen om
Ġsol Äģs
Ġmas kas
Ġmet oÅ¾u
ĠizstrÄģd Äģta
Ġeksp oz
ĠjÄģn im
Ġpareiz u
ĠvÄĵstur isko
Ġpab Å«t
Ġsaglab Äģjot
Ġkan Äĵli
Ġsept iÅĨdesmit
Ġpriv ÄģtÄģ
Ġnost Äģju
ĠdÄĵl am
Ġdet aÄ¼Äģm
ĠsavÄģd Äģks
ĠjÄģr aksta
ĠkvalitatÄ«v a
Ġsaprat Äģm
atr od
ĠpÄģrviet ojas
Ġnejau Å¡
ĠsÄĵÅ¾ am
Ġtak Äģm
Ġkru stu
Ġseksu Äģlo
Ġfestiv Äģls
Ġtim e
Ġdus mas
ĠoriÄ£in Äģlu
ĠpieÄ¼auj u
Ġfunkcion alitÄģti
ĠpÄģrtrauk uma
mÅ«z ika
emi um
Ġlin ku
sek o
ĠoperÄĵtÄģjsistÄĵm a
ukst Äĵja
Ġaizv est
Ġkomfor ta
Ġizlem t
Ġinterj era
Ġenerg ores
ĠarÄģb u
Ġkanc el
vikt ors
' ,
m Äģrs
p ent
r ind
Ð ¹
Ġp ok
Ġn iklÄģvs
Ġm ov
Ġm Äģla
Ġd eÅ¾
st ik
Ġne tur
Ġj er
Ġar omÄģt
en os
Ġiz ceÄ¼as
Ġat vilkt
ĠÅ¡ an
pr aks
Ġre organiz
Ġsp ontÄģ
ĠlÄ«dz en
ĠlÄ«dz Ä«giem
Ġst en
auk u
aud Äģs
Ġnek autr
Ġveid otÄģjiem
Ġpav eid
Ġvec iem
Ġvec Äģks
Ġbl oku
Ġsl avas
Ä«d ama
kar ti
Ġnor ma
Ġsek s
Ġcentr ÄģlajÄģ
da y
ĠpÄĵt nieki
sav ulaik
ĠdzÄ«ves biedr
Ġvirz iens
Ġizc Ä«
Ġizlas Ä«jis
Ġmilz Ä«gas
Ġbalt ie
Ġneap st
Ġizpl Å«d
interes ant
Ġfan u
Ġkrit iku
Ġcuk ur
nos kat
ÄģtÄģj s
ĠmÄģksl Ä«gi
ĠpatÄĵr Äĵ
ĠjÄģm ÄģcÄģs
Ġtranspor ts
ĠtÅ«r isti
Ġgalvas pilsÄĵtas
Ġapliec inÄģja
Ġskait Ä«t
ĠpÄģrt ika
bo ard
Ġdet aÄ¼u
ĠnoslÄĵg ts
ĠpieslÄĵg ums
Ġizmaks Äģs
ĠmarÅ¡ru tÄģ
Ġnag i
ĠreliÄ£ iskÄģs
ĠiezÄ«m es
Ġnumur us
Ġarm ija
Ġtan te
Ġpeln Ä«t
ĠkolektÄ«v s
ĠdzÄ«vojam Äģ
Ġtermin i
Ġklei ta
Ġlielveikal u
ĠmÄģksliniec e
ĠnorÄĵÄ· inu
ĠsÄ«ru pu
Ġtri um
Ġsark ans
0 7
6 5
l iju
l oÄ£
n iÅĨa
s aules
Ġ Â
Ġ emp
Ġv Äĵz
at griez
Ġl and
Ġl oka
Ġd ag
Ġg ood
Ġr Äĵg
Ġr oÅ¾
Ġiz druk
Ġpie griezt
az e
arb on
iel as
Ġgr ants
atv ers
ter u
ed iju
inÄģj uÅ¡as
ÅĨem as
ist iskÄģs
kl ien
oz ol
tur n
Ġpam eta
Ġstr Äĵm
Ġvec Äģka
Ġ3 50
Ġsl iekÅ¡
Ġvir sm
Ġrad Ä«jusi
Ġas ti
ĠpriekÅ¡ noteik
Ġkam ol
Ġatr ib
ĠÄį alis
ud en
Ġier auga
Ġliek am
Ġser v
ĠstÄģv s
ĠmÄģc Ä«Å¡anÄģs
ĠtrÄ« sp
Ġpor n
Ġpor tr
ĠskrÄĵj ieni
Ġlid ojums
Ġiel ej
ĠsaÅĨem Å¡anu
Ġatkl Äģtu
Ġnosauk umÄģ
su dr
Ġekonom ikÄģ
Ġteritor ijÄģs
Ġizpild a
Ġuzvar ÄĵtÄģji
ĠslÄĵp ÅĨa
ĠpiedzÄ«v o
Ġiespaid i
Ġtic Ä«ba
Ġsept iÅĨus
ĠatvÄĵr tu
Ġtuk Å¡u
Ġprot oti
Ġprot esta
Ġep astu
ĠseÅ¡ os
ĠsveÅ¡ a
Ġieguv uÅ¡i
Ġev olÅ«
Ġkategor ijÄģs
Ġfai la
ĠsajÅ«s mas
Ġfantast ikas
Ġdraud us
Ġpabal sts
Ġspie dienu
Ġpieejam Ä«bas
Ġrev id
Ġpirc Äĵjs
ĠbrÄ«niÅ¡Ä· Ä«ga
Ġze Ä·u
Ġmig lÄģ
ĠmÄģrt iÅĨa
Ġparast ais
Ġriek stus
Ġro Å¾u
ĠgÄģz i
ĠdomÄģj at
Ġpudel e
ĠrÄĵzek nÄĵ
ĠminÄĵt ajÄģm
ĠmÄĵb eÄ¼u
Ġnedar Ä«t
Ġiekar ot
Ġeb ay
raÅ¾ otÄģjs
Ġpiedod iet
Ġbars el
tirg us
Ġapet Ä«ti
vents pils
Ġdrop box
8 4
j p
m ain
r ep
Äģ pa
Ä« la
ar kÄģdijs
Ġt Å«daÄ¼
Ġl Äĵr
Ġm Äĵm
Äĵj oÅ¡os
Ġat ÅĨemt
Ġie braukt
Ġvar darbÄ«bas
tr op
Ġdarb iÅĨÅ¡
Ġnep ier
oc Ä«gi
Ġdaudz sol
Ġpal iet
eic u
Ä«r iem
Ġbal les
pl ÄģnÄģ
Ġsal onÄģ
tus ies
Ġsv Ä«t
no vÄĵl
Ġrad uÅ¡ies
ĠÄį iek
iedz iÄ¼
Ġ5 4
Ġmar vel
ing i
ĠpiemÄĵr iem
Ġpap Äĵ
Ġiem ies
ĠnozÄ«m Ä«gumu
Ġdev iÅĨiem
Ġizveid ojot
Ġtirg otÄģju
Ġmas Äģ
Ġmet as
Ġform Äģta
ĠskrÄĵj Äĵjus
ĠreÄ£istr Äĵti
ĠsaÅĨem ta
Ġizr ak
Ġvers ijÄģm
mal a
Ġmobil e
Ġpavad Ä«jÄģm
olu cion
Ġsagatav oÅ¡anÄģs
Ġapj uk
Ġiespaid iem
Ġdeb ess
Ġsarkan ais
ĠvÄģr ti
Ġatkar Ä«ba
Ġmot Ä«vu
fr ei
Ġpalik tu
Ġjelg ava
ĠjÄģr edz
Ġatd od
Ġnon ÄģcÄģm
Ġvain ag
ĠÅ¾urnÄģl istiem
Ġdig g
Ġprognoz Äĵt
veikal Äģ
organ izÄģcijas
program ma
Ġsekund Äĵ
Ġur ban
Ġtambor Äĵt
Ġbiks Äĵm
ĠjÄģl ieto
telef ona
ĠÅ¾el at
Ġtaust iÅĨu
Ġprov inc
Ġslodz e
Ġapd Äģv
Ġren ov
ĠsaÅ¡ aur
Ġpabeidz u
sacens Ä«bu
Ġapkar oÅ¡anas
ĠvaÅ¾ iÅĨr
Ġryan air
c Äĵs
Ġl etes
Ġb ot
Ġg und
Ġr all
Ġuz min
Ġuz jautr
ĠÅ¡ tel
Ġf al
ĠpÄģr g
Ġ( @
dr us
atv ain
Ġaiz ver
Ġnek Äģrt
Ġizv elk
sm iekl
br ig
Ġsl aid
ĠnÄģk usi
Ġsai ta
Ġatr odu
ĠÄ· eks
Ġel l
Ġlas Ä«Å¡anai
Ġiek Ä¼
Ġiem ant
Ġik mÄĵneÅ¡a
Ġab pus
Ġad ap
Ġtuv ÄģkÄģ
Ġskaidr Ä«bas
Ġizveid ojies
Ġ6 6
Ġcep amo
Ġnom Äģc
ĠskrÄĵj ienam
ĠpÄģrstÄģv i
Ġapr ik
Ġgabal a
ĠkÄģr kl
vil ka
Ġklas iskÄģs
Ġatcer amies
ĠÅĨem am
Ġsarun Äģt
Ġup uri
Ġkrit ums
ĠnolÄĵm uÅ¡i
ĠpiedzÄ«v oja
Ġpir Äģt
Ġstarptaut iski
Ġprezid ente
Ġtil tam
Ġseg a
Ġsast apt
Ġide oloÄ£ijas
iÄ· us
ĠapdroÅ¡ inÄģÅ¡anai
Ġpacien tam
iekl Äģj
ĠpanÄģk umu
Ġvizu Äģlo
ĠjÄģv eido
ĠvÄĵd ers
ĠuzsÄģk ta
ĠsÄģkotn ÄĵjÄģ
Ġsaimniec iskÄģs
ĠtradicionÄģl Äģs
ĠportÄģl iem
ĠportÄģl os
Ġaugstskol a
Ġhel ikop
Ġkombin Äģcija
ĠiepazÄ«st inÄģja
Ġargum ents
ĠdemokrÄģt ijas
Ġdec embra
Ġbrend u
Ġkorpus a
ĠskandinÄģv u
saei ma
ĠÅĨujor kÄģ
ÂłÂłÂłÂł ÂłÂłÂłÂł
Ġtramvaj a
Ġnoklaus Ä«ties
Ġdim ens
Ġbik Å¡u
Ġvik ipÄĵd
ĠbiÅ¡ kop
fan tast
Ġmoz illa
Ġfarm ac
Ġarb itr
situ Äģcija
atz Ä«Å¡os
Ġbraz Ä«l
c as
c amp
g n
Ġk eram
Ġs ÄĵdÄĵj
Ġb on
al eks
Ġj Å«dz
Ġr us
Ġr Å«s
Äĵj oÅ¡ie
Äģm Äģs
ap akÅ¡
Ġiz kop
Ġuz ad
Ġpr ieÅ¾u
Ġap cer
Ġap kal
Äģl ai
Ġvar iet
Ġ( ~
Ġes oÅ¡u
iz Äĵta
Ġlab ums
ed ev
gr af
Ġsas aist
Å«k t
sm ag
pl Å«st
Ġal sun
rÄ«d a
Ġrad uÅ¡Äģs
Å«r i
ĠÄ· ek
Ġiem aisa
ĠÄ«paÅ¡ Ä«bu
Ġvakar iÅĨÄģs
Ġmod e
if orn
Ġnev iÄ¼
Ġapskat a
ĠdalÄ«b valstÄ«m
ĠrÄ«k ojas
ĠÄĵr g
ĠreÄ£istr Äĵts
Ġstud ents
Ġslik to
Ġsamaz inÄģts
Ġzemes trÄ«c
ĠstÄģst Ä«jumu
Ġpopul Äģri
Ġfan iem
ĠmÄģksl iniekiem
Ġsept iÅĨu
Ġatgriez Ä«sies
ĠizmÄĵr Äģ
ĠdÄ«v Äģna
Ġzil o
Ġpacien ts
Ġkrust ojumÄģ
Ġtauk us
Ġfai li
Ġsin tÄĵ
Ġnogur is
Ġorien tÄģciju
Ġatzin Ä«bu
Ġtreil era
Ġresp ekt
Ġkonfer ence
Ġnik e
Ġparad umus
Ġmul ti
Ġnec ieÅ¡
Ġball Ä«te
ĠmÄģko ÅĨ
Ġkompleks s
Ġdej o
ĠatvaÄ¼ inÄģjumu
Ġieinteres Äĵt
Ġkuld Ä«gÄģ
Ġher o
ĠÄģt ra
Ġrul lÄ«
Ġredzes l
Ġredakt ors
Ġizju st
Ġpaveic ies
Ġapb ed
xxxx xxxx
Ġuzrad Äģs
viz u
ĠievÄģr Ä«jumu
Ġceh s
Ġatbil Å¾u
Ġnegr as
Ġcs dd
6 3
g h
j evs
k b
m ena
t iks
Ġ aur
au tÄģ
es tÄģ
al koh
in j
Ġg ÄģjuÅ¡i
Ġno liec
Ġat likt
ĠÅ¡ les
om etra
Ġap vid
Ġap Ä¼us
em Äĵ
ĠpÄģr Ä£Äĵrb
Ġes tr
Ġsav ain
Ġlab uma
Ġlab irin
man Äģs
Ġtr ac
uÅ¡ us
uÅ¡ ajÄģm
uÅ¡ ajam
lik u
Ġmin ÄĵtajÄģ
ip as
Ġstr ad
Ä«z ei
Ġveik to
Ġan o
ĠÅ¡Ä· iÅĨ
Ġvir t
ekt or
ĠpiemÄĵr otas
Ġpamat princip
ĠnepiecieÅ¡ amÄģ
Ġpiek tÄģ
Ġpiek Äģp
Ġgalven ajÄģm
Ġmod Äĵ
Ġ: -)
Ġmal iÅĨas
Ġmal ku
Ġpriek am
Ġorganiz atoru
Ġind ijÄģ
Ġmarat on
Ġizr audz
Ġpareiz s
Ġvirz ienos
Ġsaim nieku
Ġsaim nieka
Ġmilz Ä«gÄģ
ĠatseviÅ¡Ä· Äģ
ĠpiedzÄ«v ojumi
sl Ä«d
Ġsniedz Äĵjs
person Ä«gi
Ġprezid entam
ĠdzÄĵr ieniem
Ġrud eni
Ġbiznes Äģ
Ġbals oÅ¡anas
Ġ199 0
Ġbrauk Å¡anu
ĠnovÄĵrt Äĵjumu
Ġbas Äģm
Ġsaus as
Ġmik ros
ĠzinÄģtn iski
ĠcÄ«n Ä«jÄģs
ĠpotenciÄģl i
Ġindividu ÄģlÄģs
Ġnosp iest
ĠseriÄģl s
Ġplec us
Ġiecer Äĵts
Ġkompet ences
Ġain avu
ĠbrÅ« kl
Ġjok iem
Ġuzkr Äģj
Ġzib en
uzÅĨÄĵm ums
ĠÅ¡Ä·Äĵl Ä«tÄĵs
Ġatjauno Å¡anu
mod er
istab u
ĠtÄģlru ÅĨu
Ġpension Äģru
Ġnepiln Ä«bas
ĠmedicÄ«n isko
Ġpaciet Ä«bu
ĠlÄ«dzsvar u
ĠizÅ¡Ä·irts pÄĵju
plan Äĵt
Ġvak cin
hel Äĵna
n it
v est
Ġ Äĵ
Ġ Äģz
Ġp on
Ġk Äģt
an im
Ġl ib
Ġm Äĵd
al us
Ġne gan
Ġno baud
ir kl
isk Äģk
Ġvien o
Ġvien Ä«gÄģs
Ġman os
Ġgr Äĵks
ob lig
aud i
Ġliet ojams
Ġlik umus
Ġkar stas
Ġfil mÄĵ
Ġskr und
Ġrad oÅ¡i
ekt ora
Ġlas Ä«jumÄģ
ĠgadÄ«j umam
Ġpamat ot
Ġrun ÄģjÄģm
Ġblog eriem
arÄ« nu
ĠzinÄģt ne
lo ud
Ġpiec elties
Ġsim ti
Ġnem aksÄģ
Ġpolit iÄ·u
ĠrÄ«k us
Ġ0 7
mÄģm iÅĨa
Ġsaglab Äģtu
ĠpÄĵr ti
Ġkust Ä«bÄģm
ĠrÅ«p Äĵties
Ġatbr auca
Ġrit mu
ĠdzÄĵr ieni
Ġiesaist Ä«ti
Ġciem Äģ
Ġsast ing
pÄĵt Ä«jumÄģ
Ġaizdom Äģjos
Ġkak lÄģ
Ġasto ÅĨas
Ġfilm ÄĵÅ¡anas
ĠpaÅĨÄĵm is
ĠtelevÄ«z iju
Ġmur akami
Ġhip er
iepriekÅ¡ Äĵjos
dal Ä«b
Ġkompet enci
Ġremon ts
Ġnepal iek
Ġpublik as
gru pa
Ġpierakst Ä«t
Ġatn Äģcis
ĠatvaÄ¼ inÄģjumÄģ
ĠemocionÄģl o
Ġprezent Äĵja
ĠgaidÄģm o
ĠÅ¡aub os
ĠnÄĵs Äģt
Ġkoks nes
Ġfeder Äģcijas
pier edz
Ġxp eria
Ġho use
Ġintu itÄ«v
Ġpsihi atr
ĠceÄ¼ved is
Ġchr ome
Ġenergoef ektiv
Ġsym bian
b Ä«st
d ai
h ai
j ap
m aksÄģ
Ã ¤
ie Å¡anai
ie stÄģd
ar o
ar iem
Ġb Äĵ
Å« sti
Ġg atis
Ġg emius
Ġne pa
Ġno iet
av el
ĠÅ¡ er
aj as
oj oÅ¡os
ab Å«t
Ġap bur
Ġlai Å¾
ĠkÄģ pa
Ġf ebruÄģra
iz Äĵtu
ic kr
ac u
Ġbr e
Ġgal ot
Ġjaun Ä«bÄģ
Ġnek r
vis ai
Ä«n ija
Ġh em
Ġgar umu
Ġak tus
Ġnos pried
Ġvec Äģm
ĠbÅ«t ne
Ġstar tam
Ġpad odas
Ġlas Ä«tÄģjus
Ġiek Ä¼Äģv
Ġkal v
ĠizvÄĵl amies
Ġgatav oties
Ġvieg las
Ġpel i
Ġpieredz Äĵj
Ġaugst uma
Ġaugst Äģks
Ġnoskr Äĵjis
Ġfan tas
Ġuzrakst Ä«Å¡u
Ġbag Äģta
Ġpolic ijÄģ
Ġsarkan a
Ġatv ieglo
Ġapstipr inÄģts
ĠdzÄĵr a
Ġrecep tÄĵm
Ġcetur tais
katr ai
Ġneredz Äĵju
maÅ¡ Ä«na
Ġo Ä¼
ĠpierÄģd Ä«jumu
ĠnormatÄ«v ie
ĠjÄģr unÄģ
Ġviel a
Ġinterv ija
Ġfak tus
ĠpÄ¼ Äģp
Ġbai ba
ĠkrÄĵs lu
Ġjok i
Ġpublik Äģcijas
Ġledusskap ja
Ġmiz as
ĠscenÄģr ijs
teik Å¡u
ĠnovÄĵrtÄĵ Å¡anas
Ġvisliel Äģkais
Ġsekret Äģre
ĠrÅ«g t
ĠielÄģd Äĵt
ĠneÅ¾Äĵl Ä«gi
Ġvaic Äģja
Ġreglam ent
Ġgov ju
ĠapsÄĵd Äģs
rud ens
Ġgriest iem
ĠpieÅ¡Ä· Ä«ra
Ġlis ab
ĠvaÅ¡ ingt
2 50
6 4
7 7
8 00
m ig
r auj
v aÄ¼
Â ²
Ġ ;
as h
Ġk ut
Ġv Äĵzi
Ġs s
Ġn ieks
at on
Ġno lika
Ġiz gr
Ġuz droÅ¡
Ġuz vilkt
ĠÅ¡ k
Ġka Ä·u
ĠpÄģr ÅĨemt
ĠpÄģr palik
tr o
Ġin j
Ġlab umus
aid Ä«ju
Ġh p
ĠÅ¡o v
ip hone
kr im
kr izdabz
Å«d eni
Ä«r ijas
Ġpu pas
Ġcen ti
Ġan ket
par k
Ä«d amies
ig n
Ġties ai
Ġskol Äĵna
Ġturp inÄģjumu
Ġnen Äģca
Ġai ja
Ġapskat us
Ġban Äģnu
inter netÄģ
Ġatbilst oÅ¡s
Ġstud ijÄģ
Ġagr eg
Ġsavien Ä«bu
Ġpaliel inÄģjies
ĠkÄģp j
Ġaprakst Äģ
ĠpÄģrd oÅ¡anÄģ
Ġfiz iskas
Ġuzvar ÄĵtÄģjs
ĠÄįetr os
Ġapz in
ĠmÄ«Ä¼ Äģ
kon t
Ġpir ku
Ġstarptaut iskajiem
sal Äģ
ĠdÄĵl i
Ġnogal i
Ġrom Äģna
ĠÐ ²
Ġmaksim Äģlo
Ġdai viÅĨas
Ġatras ta
ĠviÄ¼ ÅĨi
ĠaugÅ¡ pusÄĵ
Ġkalend ÄģrÄģ
Ġtums as
Ġmac book
kriev u
ÄģÅ¾ Äģ
pe Å¡i
ĠatslÄĵg a
Ġtan tes
ĠprÄģt am
Ġfiks i
fin ÄģlÄģ
Ġball Ä«ti
ĠnorvÄĵÄ£ ijÄģ
ĠizslÄĵg ts
Ġbrend s
Ġneizd osies
ĠizÅ¡Ä·irts pÄĵja
Ġaustrum eiropas
ĠpiekÄ¼u ves
tsar akstu
f irm
f ast
r est
t Ä«ri
Ð ¿
Ġ ÄĵnÄģ
Ġt w
Ġm aur
Ġm Äģku
Ġd oc
Ġd odu
Ġno ÅĨemt
ies kaitot
Ġiz maz
Ġiz stÄģÅ¾u
Ġap sp
el Ä«ne
Ä· Ä«ti
Ä· Ä«tis
it ÄģrÄģ
ais u
ĠvÄĵl Äĵties
id i
Ġaiz stÄģj
Ġpl Äģt
Ġlaik met
Ġtur cijÄģ
Ġmaz inÄģt
Ġjaun ai
Ġjaun ietis
ent o
sp ace
Ġdom Äģjusi
Ġnod omu
ĠceÄ¼ gal
ĠÄ· ib
ĠÄģtr Äģ
Ġats Äģk
Ġik viena
ĠlielÄģk ajÄģm
Ġad ren
Ġprogram mai
ĠiepriekÅ¡ ÄĵjÄģm
Ġam iz
ĠpatÄ«k am
Ġpras mi
Ġvil ties
ĠcitÄģ da
ĠiekÅ¡ pusÄĵ
Ġministr ijÄģ
Ġnev esel
Ġuzs varu
Ġnom aina
Ġvel ns
Ġsnieg Äģ
ĠdalÄ«b nieka
Äĵjam u
Ġklas ific
Ġcer Ä«bÄģ
ĠierÄ«c Äĵs
Ġuzz inÄģja
Ġbiedr Ä«bu
Ġkai l
Ġrakstur ot
Ġskaist ums
Ġsaz in
Ġrealiz Äģcijas
Ġpres Äĵ
Ġatd ala
ĠsÄ«p ols
Ġlietus sar
gatav ot
Ġstik lu
ĠpÄģrdev a
Ġasp ektu
Ġieras to
Ġmig las
Ġpedag ogu
Ġkontek sta
Ġpiebilst ot
ĠalternatÄ«v as
ĠoriÄ£in Äģls
mÄģc Ä«bas
ĠizstrÄģdÄģtÄģj u
Ġvol ej
ĠfinansiÄģl i
Ġpludmal i
Ġpiedzim a
amer ikas
ĠbÄĵrz iÅĨÅ¡
Ġnopr ast
ĠnekÄ¼ Å«d
ĠnepÄģrprot ami
pasaul e
l oc
m Å«Å¾
n ar
v iÄ¼
z ÄģÄ£
Ġp c
Å¡ v
at kl
Ġl ob
Ġm ob
ik ul
Ġne lÄģ
Ġar he
dz iesmas
il Äģ
Ġiz rakst
Ġf os
od is
Ġvar Äĵjis
Ġgr Äģb
Ġre ÄģlajÄģ
Ġies Å«tÄ«ja
ru pu
ekl am
Ġbez darba
Ġvec pilsÄĵtas
Ġviet Äĵjos
reiz i
Ġ5 3
Ġ5 000
Ġsek otÄģju
aÅ¡ a
Ġpiet iktu
inÄģm as
ĠparÄģd Ä«jusies
Ä«gÄģk os
Ġskaidr as
Ġizskat Ä«tos
Ġbeig t
aliz Äĵ
Ġop ozÄ«cijas
Ġizveid ojÄģs
Ġsil u
Ġkonkur enci
ĠjÄģs a
iep azÄ«st
ĠapkÄģrt ÄĵjÄģs
Ġsald us
laik os
Ġautom Äģtu
ĠpaziÅĨ ots
Ġtek sti
mÄĵ ness
Ġviedok Ä¼i
Ġstipr a
Ġsaul riet
Ġsept iÅĨ
ĠvÄģr Ä«tiem
ĠnacionÄģl ais
aic inu
Ġamer ik
ĠprofesionÄģl u
Ġplan k
ĠattÄģl umu
'' .
Ġierad Äģmies
Ġfl ickr
Ġsaus a
proj ektu
ĠkvalitatÄ«v s
Ġon ku
ĠreÅ¾is oru
Ġminim Äģlo
ĠkrÄģj umus
ĠizpÄĵt e
Ġdraud iem
ĠbÄ«st amo
Ġkarst ums
Ġasp ekti
Ġpiepild Ä«t
ĠmÄģjaslap as
Ġkonfer enci
Ġakme ÅĨ
Ġjos la
Ġjap ÄģnÄģ
Ġatn Äģks
Ġneno Å¾Äĵl
Ġapak Å¡as
Ġakc Ä«zes
Ġnodev u
Ġsiguld Äģ
Ġtual eti
Ġsel erijas
ĠÄ·Äĵr os
san Äģca
Ġrisk Äĵt
Ġkant or
Ġprotok olu
Ġatskan Äĵja
ĠkulinÄģr ijas
Ġpagrab Äģ
Ġkokos riekstu
Ġizredz es
Ġkatl iÅĨÄģ
nad Ä«ne
sant jag
Ġskur st
9 6
e Äį
n iÅĨu
t Ä«m
u u
z ob
Ä« ÅĨ
Ġv ice
Ġs auj
Ġs ch
ai sti
Ġm Äĵli
um irkl
in oÅ¡
ad as
Ġr odr
ap vien
Ġc al
Ġc ache
Äģj ami
iet as
ab l
Ġpie iet
Ġie eja
em in
Ġf m
Ġman ag
iz mÄĵr
ĠvÄĵl Äģs
aug i
Ġpil Ä«
Ġgar Äģks
Å«k u
ĠbÅ«s iet
Ġnos log
up e
Ġor an
Ġinteres entiem
ÄĵtÄģj as
Ġrez id
stÄģ stu
Ġdab Å«tu
pu is
ener is
Ġtirg os
Ġkonkur enti
ĠmÄĵne Å¡
Ġspr idz
Ġind ieÅ¡u
Ġmilz Ä«go
ĠspÄĵj Ä«ga
iespÄĵj a
Ġsadarb ojas
ĠsÄ«k umi
Ġiespaid Ä«gi
Ġfinans ÄĵÅ¡anas
Ġtic Ä«bu
ĠÅ¡au smas
Ġizteik tu
Ġmais Ä«jums
ĠierobeÅ¾ ots
ĠdzÄĵr iena
ĠpiedÄģvÄģj umiem
Ġatbalst am
Ġ199 2
Ġkred it
Ġalb umÄģ
Ġbrauk Å¡ana
ĠrÄ«t am
Ġsmil ts
Ġdib enu
ĠsveÅ¡ Äģ
ĠpiedÄģvÄģt Äģs
ĠguÄ¼ ot
Ġtar tu
Ġrel aks
ĠdrÄĵb ju
Ġangl ijÄģ
ĠaprÅ«p i
Ġtrauk us
Ġlaul Ä«bu
Ġzib ens
fl or
Ġkompleks u
ĠpazÄ«m Äĵm
Ġparaug s
ĠapzÄ«m Äĵ
Ġbank Äģm
mekl Äĵjot
pac ien
ĠiztÄĵl oties
Ġkamer Äģm
ĠmÄĵl es
atrad u
kun dz
piedod iet
d im
f igur
k atu
l aul
l avas
n Äģks
Ġp ogÄģm
Ġk it
Ġv Äģcija
Ġv nk
Ġs ib
Ġn fc
an na
Ġl Äģcis
Ġm s
Ġb ox
ÅĨ o
Ġne droÅ¡
Ġj or
Äģk ajÄģs
Ġuz stÄģjÄģs
Ġat dev
Ġap Ä¼i
Ġie ÅĨÄĵma
Ä· eks
Ġsav laicÄ«gi
Ġpat vers
ru t
Ġkon ts
vÄĵr u
ne g
Ġneb r
Ġal Å«ksnes
Ġpiem irs
Ġsl ieks
Ġrad Ä«s
ĠÄį Ä«kst
ĠÄģtr Äģs
Ġskol Äĵns
ĠgadÄ«j uma
Ġiem in
oloÄ£ e
Äģz Äĵ
ĠspÄĵl Äĵties
Ġgatav Ä«bu
ant ijas
Ġskaidr ojums
darb iem
ĠÄĵd ot
rast os
Ġnov Äģk
Ġsaist Ä«t
ĠraÅ¾ oÅ¡anai
Ġbur ti
mai rita
ĠspeciÄģl Äģs
Ġneliel i
ogrÄģf ija
Ġgabal iÅĨiem
Ġnosauk umus
Ġlietu vu
ĠjÄģn od
Ġied er
skr Äĵju
ond o
aust Ä«t
sÄģk Å¡u
Ä·er as
Ġsniedz Äĵju
ĠmeklÄĵ Å¡anu
Ġanal Ä«t
Ġnakt Ä«m
Ġmot Ä«vs
Ġmugur kaul
ĠdÄ«v ains
daudz iem
ĠuzÅĨem ta
Ġmic ros
Ġlikt en
Ġkait Äĵjums
Ġpagas tu
Ġtor ÅĨa
ĠprivÄģt Äģs
ĠÅ¡Ä·Äĵrs ot
Ġdienvid iem
Ġtums u
Ġasp ektiem
Ġuzm Äģc
kol ds
ĠvÄĵs s
Ġiepak ojumu
Ġpaskaidr o
ĠnoskaÅĨ ojums
ĠsÄĵk lu
Ġsku dru
Ġprogrammat Å«ra
Ġrag ana
Ġunik Äģls
ĠÅ¡aub Äģm
Ġdiag noz
Ġwh at
Ġsor tim
Ġmedikam entu
Ġaizd edz
ĠÄ·irb ju
Ġcimd us
Ġnesat ur
ĠgÅ«gl es
Ġebr eju
b aig
b ulis
c ements
v Äģri
an es
Ġl iesm
Ġm oto
Ġm ess
Ġb akt
Ġne cer
Ġar nol
Äĵj oÅ¡iem
Ġiz eju
ĠÅ¡ e
Ġap ceÄ¼
Ġz Äģr
Äģl isma
Ġlai vÄģ
Ġes s
Ġto uch
Ġies im
Ġlab iekÄģrt
Ġst ep
Ġkl Äģja
Ġmaz iÅĨÅ¡
Ġdaudz kÄģrt
ib u
ĠsÄģk Å¡u
Ġak ta
Ġrakst os
Ġnos vin
and Å¾el
Ġzem Äģkas
Ġpret inieku
Ġrad iem
Ġrad Ä«sies
Ġel ectr
Ġties Ä«ga
Ġpils onis
Ġsab r
Ġsab iez
Ġlap iÅĨu
ĠjautÄģj u
ĠbÄĵrn iÅĨÅ¡
Ġad atas
liel Äģk
dom Äģjams
ĠbrÄ«d inÄģjuma
Ġsol im
Ġmel i
Ġsim ul
Ġpubl iskajÄģ
Ġnorm ÄģlÄģ
Ġatrad usi
ĠgarÅ¡ Ä«gu
und er
Ġaugst Äģs
Ġkonkr Äĵtais
Ġkonkr Äĵtiem
Ġpoz Ä«cija
Ġsu gÄģm
Ġveiksm e
tuv e
stÄģv Äģ
ĠslÄĵp nis
Ġkan Äģls
Å«c a
ĠpatÄĵr ÄĵtÄģjiem
person as
ĠjÅ«t ies
ĠierobeÅ¾ otu
ĠzaÄ¼ Å¡
ou ch
cilvÄĵk a
Ġsmu ku
Ġziv i
ĠeÄ¼ Ä¼
Ġsaus zemes
ĠatzÄ«m es
ĠkvalitatÄ«v as
ĠautomaÅ¡ Ä«nÄģm
Ġkonst ru
veic ot
Ġnepil nu
Ġaizlieg umu
ĠtelevÄ«z ija
Ġpastaig Äģties
Ġkalend Äģrs
Ġbumb a
aprÄ« lis
Ġolimp iskÄģs
Ġkaln iÅĨÅ¡
Ġton Ä«
Ġbu f
Ġsastop amas
Ġkompet encÄĵ
Ġpartn eru
Ġtest ÄĵÅ¡anas
ĠkolektÄ«v a
ĠmÄģm iÅĨa
Ġlak at
ĠfinansiÄģl o
Ġskap Ä«
ĠbÄĵrnudÄģr zu
ĠpavÄĵr Äģs
Ġkoord inÄģt
Ġparametr i
ĠiestÄģj ies
Ġpaklaus Ä«ties
Ġpiest Äģt
piekt dien
Ġokup Äģcijas
Ġpiesardz Ä«gi
Ġreib umÄģ
Ä£er trÅ«de
Ġread er
Ġaizrau Å¡anÄģs
p Äģs
t avs
Ġ oks
Äģ Ä¼i
Ġp Ä«t
Ġt Ä«t
Å¡ ajÄģs
in ess
Ġj Å«d
dz iÄ¼
en us
il es
os Äģ
Ġpr ev
Ġpr iest
un c
pr Äģts
sk aist
Ġre fl
ĠvÄĵl Äĵsies
ĠlÄ«dz jÅ«t
Ġlab ie
op Äģt
ĠpÄĵc tam
Ġ- ,
Ġnep Äģrd
ĠjÄģ iem
gad iem
Ġgar ais
Ġak r
Ġcit planÄĵt
gan a
Ġkar ogs
Ġsar edz
Ġskr ietu
pÄģr i
Ġmar k
Ġperson iskÄģs
ĠpiemÄĵr oÅ¡anu
Ġvakar iem
bl oÄ·
Ġneiz sak
Ġpan nu
Ġkol h
Ġnen on
Ġit al
Ġnorm Äģm
ĠspeciÄģl ista
ĠpÄģrstÄģv jus
ĠierÄ« ko
ĠnovÄĵr Å¡anai
ĠaktÄ«v o
ĠpaÅ¡i z
ĠkÄģp nes
Ġsasnieg uÅ¡i
20 10
Ġkai r
Ġapt auja
ĠsÄ«k umiem
Ġled u
Ġiesaist Äģs
ĠÅ¡Ä·ir ties
ĠrÄ«t dien
Ġzir gs
ĠvisÄģd u
Ġraid Ä«jums
ĠiznÄģk usi
Ġtab akas
Ġpabeig ts
Ġnetic u
Ġjust os
ĠjÄģpie bilst
Ġfotograf Äĵt
ĠÅ¡Ä·Äĵl es
Ġieskat s
Ġneman Äģmi
ĠsantÄ«m us
Ġspilv enu
Ġizsm alc
neliel a
Ġflor ence
Ġvirsrakst i
kru st
ĠtiesÄ«bsar ga
Ġpiekri Å¡anu
Ġgrauz d
Ġiera Å¡anÄģs
Ġfotor ad
Ġfotos es
c he
f ai
Ġs Å«ta
Ġg et
Äģs i
Ġr iev
iet eik
Ġpa Ä¼auties
Ä«j Äģt
ĠpÄģr grieÅ¾
ĠpÄģr prat
Ġaiz nes
Ġaiz ceÄ¼
Ġaiz ÅĨÄĵma
Ġst umbr
Äģv is
ilv Äĵc
Ġdaudz dzÄ«vokÄ¼u
ib o
ist aba
Ġliet ai
Ġliet otu
ied ves
Ġsas trÄģd
Ġak cept
Ġlik umam
Ġsv ÄĵtÄģ
Ġas u
ov iÄ¼
lv l
Ġlas Ä«jusi
ĠbÄĵrn Ä«bu
Ġsad Äģrdz
Ġskaidr Ä«bÄģ
Ġskaidr ojumu
Ġnosk al
Ġpiek tajÄģ
str auj
jÄģ ÅĨem
ĠvÄĵst Ä«ja
Ġmu te
Ġfr Äģzes
Ġcep u
ĠzÄ«m ols
pad omÄģ
Ġkrit iski
Ġklus a
Ġkont akti
ĠÅ¡au ru
bu Äįas
ĠpozitÄ«v Äģ
ĠpozitÄ«v Äģs
ĠnepÄģr var
Ġtranspor tÄģ
ĠnepiecieÅ¡am ais
ĠbrÄ«n umus
maÅ¡ Ä«nÄģ
Ġlaim Ä«gu
bur gÄģ
nep ar
nep Äģr
Ġuzl Äģdes
Ġtip u
ĠskaÄ¼ ru
Ġdol Äģrus
iniec es
uc i
tiek amies
Ġrai ÅĨa
ĠnegatÄ«v o
ĠtÄ«m eklÄ«
ĠtradicionÄģl Äģ
apz iÅĨu
Ġremon ta
Ġskum jas
Ġnodar Ä«jumu
ĠieÅĨÄĵm umi
Ġiest Äģties
Ġprior itÄģte
Ġjubil eju
sabiedr Ä«ba
pamat Äģ
pasÄģk ums
Ġnozieg umu
Ġepiz odes
Ġatved a
ĠvecmÄģm iÅĨas
sad arb
Ġterap ijas
ĠpÄģrvÄĵrt Äģs
Ġiedves ma
paÅ¡vald Ä«bas
ĠkÄģpo stu
Ġneil ga
glez n
Ġikr eiz
Ġjavascr ipt
7 1
\ '
b ab
b arbara
c c
c ar
g lÄģ
j Å«r
l ep
m Äģja
Äģ Ä¼a
ie stÄģ
Ġp ig
Ġl Ä«z
Ġm Å«ra
st ep
al st
Ġg old
Ġj am
Ġr Ä«tos
on to
Äĵt ikas
Ġvar on
Ġsk aud
aiz sardz
Ġaiz ej
Ġtr Å«d
Ġkon ver
ĠjÄģ par
Ġkom pres
Ġnes niedz
Ġkop tren
Ġek v
Ġsap ÅĨiem
ĠÅ¡Ä· it
Ġtam dÄĵÄ¼
Ġzem kopÄ«bas
Ġrad oÅ¡Äģs
ĠpriekÅ¡ vÄĵlÄĵÅ¡anu
ust am
Ġik p
Ġmed ia
Ġe y
Ġuzskat us
ĠiekÅ¡ puses
Ġministr e
Ġkol or
ĠraÅ¾ as
Ġnom aks
Ġvald Ä«bÄģ
mai js
Ġvel ta
Ġmain ot
ĠzÄ«m u
mar ts
Ġav otus
skai sti
Ġstud ija
auz a
Ġsamaz inÄģjums
Ġklas i
Ġpareiz Äģs
Ġsarun Äģties
Ġner egul
ĠpÄģrbaud Ä«tu
ĠziÅĨ Äģs
Ġviedok Ä¼u
Ġviedok Ä¼us
Ġuzrakst Ä«ju
ÄģtÄģj a
:) ))
ĠvÄģr Ä«t
ĠierobeÅ¾ ojumu
Ġbi ot
Ġtuk s
Ġkompl im
Ġpaskat Äģs
ĠÄģrpus Äĵ
ĠmÄĵdz a
ĠkrÄģj umu
Ġlep oties
Ġsekund Äĵs
ĠiestÄģ Å¡anÄģs
Ġpieejam Ä«ba
jÅ«l ijam
Ġinstrum enti
Ġizskaidr o
sapr atu
Ġriek stiem
Ġkonflik ta
Ġkond itor
zv iedr
ĠkriminÄģlproc ess
Ġkilogram u
ĠveÄ£et Äģr
cap e
apgÄģd es
n oj
r ev
r Äĵzek
v Ä«nu
Ġp iks
ai ÅĨiem
Ġl ut
Ġm Äģn
ad res
Ġj aka
Ġno ra
Äĵl os
Ġlai v
em as
isk v
Ġkur ss
Ġvar darb
ul dzes
Ġdz es
tÄģj i
Ġaiz ÅĨemt
Ġaiz bÄĵg
Ġkl aip
vien alga
Ġtur Äĵties
auc u
Ġaug l
Ġkop vÄĵrtÄĵjumÄģ
gan s
Ġstr op
Ġfil ejas
Ġtel tis
Ġsar Å«p
Ġzem nieki
Ġrad u
Ġinteres Äĵjas
Ġnor egul
ĠkÄģrt ot
Ġturp inÄģtu
me ÅĨus
Ġblog osfÄĵr
Ġtuv ojoties
ĠvispÄģr ÄĵjÄģ
Ġparedz ÄĵtÄģ
ĠmÄĵÄ£ inÄģs
Ġinteresan tiem
mar tam
Ġpor tÄģli
Ġatm iÅĨÄģs
Ġ201 5
Ġpolit iski
Ġkor el
Ġgabal Äģ
ss on
Ġnodarb Ä«bu
Ġmobil ajÄģ
Ġzaud Äĵjumiem
ĠaktÄ«v Äģs
Ġaic inÄģjumu
ÄģtÄģj u
ĠpastÄģv ÄĵÅ¡anas
bÄĵr z
Ġservis us
ĠmÄģr as
ĠmÄĵrÄ· auditor
Ġsez onai
Ġnozar Äĵs
ĠpazÄ«st u
Ġvidus mÄĵra
Ġpadar ot
Ġziv Ä«m
Ġsmaid Ä«t
Ġmus kul
ĠpakÄģp e
Ġizmaks Äģja
Ġatras ti
Ġkonst itÅ«
Ġfantast iska
Ġserver is
Ġpieliet ojumu
Ġidenti f
proc esa
Ġgraf iku
kol ÄĵÄ£
pÄĵl Äĵ
Ġaizrauj oÅ¡s
oktob ra
Ġlaikrakst Äģ
ĠiegÅ« Å¡anai
Ġuzlik ts
Ġhok ej
Ġproced Å«ra
Ġpier obeÅ¾
Ġpapr ikas
ĠÅ¡t ata
ĠkriminÄģlproc esa
sec inÄģjumi
ĠÅ¡of eri
Ġlietder Ä«gi
Ġsasmalc inÄģtus
Ġdzint ars
Ġpasarg Äģt
ĠnokÄ¼ Å«tu
f ur
j et
n ÄģcÄģs
r okas
Äģ Å¡anÄģs
Ġk ef
Ġv af
Ġl Äĵto
Ġd akÅ¡
al v
Ġne ied
av Äģr
Ġka Ä¼
Ġtik Å¡u
Ġvar darbÄ«bu
Ġman ta
Ġgr unts
Ġkr em
Ġst ock
Ġmaz us
Ġgal ap
ĠsÄģk umam
pat ieÅ¡Äģm
Ġlik e
Ġredz Äĵto
Ġinteres enti
Ġdar k
Ġskat iem
Ġmar g
ĠtÄģl Äģko
Ġiem est
Ġilg gad
Ġik on
end s
Ġjeb kas
Ġab str
ĠÅ«d eÅĨiem
tÄĵ Å¡anas
Ġgatav ojot
Ġgatav ojoties
ĠpÄĵdÄĵj Äģm
ĠvÄ«r ieÅ¡us
Ġtehn iskais
Ġfin Äģl
Ġpieej amÄģs
Ġproduk tiv
Ġministr am
Ġ7 4
Ġnen ob
Ġizdar Ä«jusi
kam era
ĠizrÄģd a
Ġpiec ÄĵlÄģs
Ġpul ss
Ġgabal iem
ĠpieÅĨem ot
Ġgul bis
Ġplat a
Ġpavad Ä«bÄģ
Ġsec inÄģjuma
ĠkÄģp umu
Ġpaliek u
Ġsmag o
Ġkan alizÄģcijas
Ġklus o
Ġizteik sm
Ġsirds apziÅĨas
Ġdist anÄįu
Ġarh Ä«vu
maÅ¡ Ä«nas
Ġo stÄģ
ĠrÄ«t dienas
Ġlu dz
ĠoficiÄģl ajÄģ
Ġaizdom Ä«gi
ĠpanÄģk tu
Ġzir ga
ĠreÄ£ion iem
Ġvan nÄģ
ĠsveÅ¡ s
Ġdel eg
ĠÅ¾urnÄģl am
Ġzvan Ä«ja
ĠjÄģv Äĵr
Ġievad Ä«t
Ġsau Ä¼
ĠreliÄ£ ijas
ĠjÄĵdz iena
ĠbibliotÄĵk a
Ġlatgal ieÅ¡u
ĠbruÅĨ oto
ĠsadzÄ«v ot
Ġnetrauc Äĵja
Ġmiz u
Ġza Ä·i
ĠsÄģn os
Ġcim di
ĠpavÄĵr ot
Ġuzrun Äģt
Ġpension Äģriem
ĠÅ¡ur pu
Ġvalod ai
Ġpolicis ts
Ġizslud ina
Ġturn Ä«ra
ĠpriekÅ¡lik umi
Ġimpor ta
Ġdzint ara
ĠizklÄģ st
Ġtvit erÄ«
biks es
Ġpamost ies
Ġekspert Ä«zes
Ġliell opa
Ġkoal Ä«cijas
Ġuzbru c
Ġapel Äģcijas
mÄģrt iÅĨÅ¡
f y
l ok
n Ä«ti
o stu
p et
p Äģrt
Ġp i
Ġv es
Ġn iklÄģv
at grieÅ¾oties
Ġd ump
Ġb ÄģrÄģ
al Äĵ
Ġg astr
Ġr ik
en iek
ur iem
ap strÄģd
Ġuz tambor
Ġat gr
Äĵr kam
Äģj iem
Ġpar Å«pÄĵj
Ġpie turu
ĠpÄģr eju
Ġkr istus
akst s
Äĵd Äģm
ild es
Ġpl ik
Ġkl iÅ¡
ĠpaÅ¡ os
Å«d enÄ«
Ġrakst Ä«Å¡ana
Ġnoteik s
Ġveik s
Ġsa Ä£Äĵrb
atÄ«v ie
Ġskat Äģmies
Ġties Ä«gs
Ġ5 8
Ġsab er
Ġpies kai
Ġpies piest
Ġpamat Ä«ga
Ġpamat ojums
ĠspÄĵl Äĵju
Ġnet ieÅ¡i
Ġorganiz atoriem
ĠdÅ¾ ins
Ġbur g
Ġvel obrauc
Ġdator us
Ġdzim tsarakstu
Ġpac il
Ġban kai
Ġ9 00
ĠspeciÄģl a
sim ts
re Ä£
pras mju
Ġem igr
Ġsamaz inÄģÅ¡ana
ĠvÄĵstur iskÄģ
Ġsec inu
Ġdraudz enei
Ġsagatav ots
Ġnepat ies
Ġsauc Äģs
Ġciet ums
ĠslÄĵp ÅĨus
ĠsÄĵ ne
andar ta
ĠbÄĵrni Å¡Ä·
Ġauk l
Ġrit eÅĨiem
Ġiesnieg uma
Ġiesaist Ä«t
Ġnogal inÄģt
Ġkrim in
Ġkreis Äģ
ĠpÄģrskat s
Ġapar Äģta
Ġmoder no
Ġapst eidz
ĠvÄĵ Å¾a
Ġsmadz enÄĵs
ĠziemeÄ¼ iem
ĠpilsÄĵt iÅĨas
Ġgarant iju
brÄ«d Ä«
Ġanaliz Äĵjot
ĠsavstarpÄĵj o
apt ver
Ġaizbrauc Äģm
Ġkompens Äģcijas
ĠkritÄĵr iji
ĠÅ¾el eju
Ġza Ä·is
Ġkaral is
ĠklÄģtbÅ«t nÄĵ
produk ta
Ġturn Ä«rÄģ
ĠpriekÅ¡m eti
tek us
vajadz Äĵs
Ġsteig Äģ
Ġnetais n
Ġinfl Äģcija
Ġnerad a
Ġpup iÅĨas
Ġneapz inÄģti
janvÄģr im
ĠkanÄĵÄ¼ a
b ibli
h or
k ins
l ietus
s atvers
z iÅĨas
Ð ³
Ġ Äĵna
Ġ Â°
Ġp ant
Ġn ÄĵÄ£
Ġl aku
us m
en Å¡as
âĢ ĺ
iÅĨ Ä£
Ġf ur
Ġpat iktu
iec as
Ġkr Äģtu
Ġaiz aug
aÅ¾ a
ÅĨem am
Ġpirm Äģm
Ġnep ag
Ġnek valitatÄ«v
sp Äģr
Ġlik umos
ĠvÄĵr oju
Ġpus dienÄģs
Ġsap ÅĨus
Ġsag ur
pÄģr ÄĵjÄģs
Ġpak as
Ġ5 9
Ġvad lÄ«n
ĠÄ£ ir
Ġpies kaÅĨ
Ġac umirkl
ĠÅ«d eÅĨi
Ġbiju Å¡Äģ
Ġfin Äģla
ĠstrÄģd Äģtu
ĠÄĵd inÄģÅ¡anas
Ġmod elim
Ġziem ai
Ġeirop a
Ġsol Ä«ts
Ġsol Ä«jumu
ĠnodroÅ¡ inÄģÅ¡anu
Ġapskat ei
Ġform Äģtu
Ġpel Äĵc
ĠspeciÄģl as
ĠdroÅ¡ Ä«bai
Ġsavien o
ĠaugstÄģk as
Ġsasnieg ums
Ġciet o
Ġaic inÄģt
fil tr
Ġuzlab ojumi
ĠpiedzÄ«v ojusi
Ġsniedz ot
erv ers
ĠpagÄģjuÅ¡ Äģs
Ġpublic ÄĵÅ¡anas
Ġnepar asti
Ġtau tÄģ
Ġpsih oterap
Ġapliec inÄģjums
ĠrÅ« pÄĵj
Ġunivers itÄģte
ĠbiÄ¼ etÄĵm
ĠkuÄ£ iem
cion Äģli
ĠkrÄģj umiem
ĠpaÅĨÄĵm ienu
200 9
Ġsagriez ti
Ġieras tÄģ
ĠdigitÄģ lÄģ
Ġdefin Ä«cijas
Ġpulver is
ĠizlÄĵm Äģm
Ġjubil ejas
Ġdienn akti
mÄģr k
konkur sa
ĠreaÄ£ Äĵ
Ġneapmier inÄģt
Ġtramvaj u
Ġfrak cijas
Ġpiekras tÄĵ
ĠmÄģjok Ä¼a
Ġrie pu
Ġatpal iek
Ġmez gl
ĠtroÄ¼ Ä¼i
ĠriteÅĨ brauc
Ġakred it
Ġuzkars ÄĵtÄģ
Ġmultim ediju
` ,
s mu
s aus
Ġv irm
Ġl an
Ġb akl
st ila
in f
in Äĵ
Ä¼ aud
ap j
Ġuz plauk
Ġc ap
ab o
el y
Ġie br
Ġjau kas
tr ans
auk a
ĠdzÄ«v nieks
Ġliet ojis
ne aizmir
Ġrakst nieks
Ġvec is
Ä«z Äĵm
br e
Ġcen z
lab o
Ġsv iedru
Ġredz amo
up s
ekt oru
kar st
Ġperson iski
ĠÅ¾ il
Ġilg Äģ
Ġik ea
Ġad apt
ĠizvÄĵl Äĵsies
ĠparÄģd Ä«tu
Ġgalven os
ĠbrÄ«v ajÄģ
Ġgaid Ä«ts
Ġizdev Ä«gÄģk
Ġtirg otÄģjiem
ĠdÅ¾ ob
ĠizrÄģd Ä«sies
ĠmÄĵÄ£ inÄģjumiem
Ġsnieg tÄģs
Ġpapild inÄģts
Ġpor ciju
Ġgai tÄģm
si Å¾
Ġpolit iÄ·iem
Ġaizsar gÄģ
Ġsaim niekiem
Ġandr a
Ġdi Äģna
Ġaud ums
Ġizl ec
Ġregul Äĵt
Ġtap s
Ġmai l
ĠmÄ«Ä¼ oto
bÅ«v es
Ġdeb at
Ġaizsardz Ä«bai
ĠÄ«sten oÅ¡anas
Ġmais Äģ
ĠnepÄģr liec
onis ts
Ġtal ants
ĠjÄģd od
ĠattÄģl uma
Ġvain Ä«ga
Ġplauk stu
Ġag rÄ«
sept embrim
ĠpotenciÄģl ajiem
Ġabsol Å«t
ĠslÄĵg ts
Ġaizlieg t
Ġkandid Äģts
ell ine
Ġizn Äģcis
sapr otams
Ġlikvid Äĵt
sak ot
ĠshÄĵm a
Ġnesp Äĵtu
lÄ«d Äĵja
ĠnoÅ¾Äĵl u
ĠbaÅ¾ Äģm
ĠatÅĨem Å¡anu
sap ul
Ġfotoapar Äģts
Ġpolicis tu
Äģg st
Ġdetaliz Äĵti
ĠreaÄ£ Äĵt
ĠsÄģ pÄĵja
ĠdÅ¾emp eri
ĠpÅ«l es
ĠapsvÄĵr umu
ĠÅ¡veic es
Ġepid emi
ĠpÄģrsnieg t
ĠpÄ«l es
Ġuzbr Å«k
Ġgaisot nÄĵ
ĠpasÄĵd Äĵt
Ġmeks ikÄģ
yb elline
iemes ls
ĠjÄĵz us
6 9
d ami
f re
k ey
l ist
m k
t w
z ag
z inot
z Äģles
Ġs f
Ġs iv
Ġl Äĵts
Ġd oÅ¡anÄģs
Ġb Ä«d
Ġb io
Å« pÄĵjas
in box
Ġuz lÅ«k
Ġpr ost
Ġz aÄ¼a
Ġf undam
Ġko kÄģ
iz Äģcijai
iz klausÄģs
Ġgr av
Ġlab am
ic al
Ġmaz gÄģt
itÄģ cija
Ġak ka
Ġdom Äģti
Ä«r us
ef ektÄ«v
Ġkat lu
Ġpret Ä«m
Ġsa as
ĠĠĠĠ ĠĠ
Ġlas iet
Ġsam uls
ĠpiemÄĵr o
Ġpol ig
ĠplÄģn ota
liel iski
Ġrun u
ĠspÄĵl ÄĵtÄģjs
ĠspÄĵl ÄĵtÄģjiem
Ġiev ada
Ġuzskat iem
Ġizs akoties
Ġizveid otas
Ġsan k
Ġatz iÅĨa
ĠdÅ¾ in
Ġmel ni
Ġsnieg tu
ĠzÄ«m Äĵjumu
Ġgai Å¡a
Ġris inÄģÅ¡anÄģ
Ġelektr isko
Ġsird ij
Ġtav am
ĠÅĨem u
Ġpab r
Ġneg Äģja
Ġdep oz
ĠziÅĨ ojums
Ġdesmit i
tuv Äĵ
ĠierobeÅ¾ o
ĠizmÄĵr iem
ĠjÄģm ÄĵÄ£ina
ĠpiedÄģvÄģj am
ĠpiedÄģvÄģj umi
Ġkompl ekt
Ġpild spal
krÄģs as
net ic
ĠoficiÄģl Äģs
Ġdirekt or
Ġiepirk ties
Ġigaun iju
ĠvelosipÄĵd a
ĠÄ·erm enim
Ġlic enc
Ġkoncep cija
ĠkolektÄ«v u
Ġrag anu
Ġsens e
Ġsapl Äģn
Ġru Ä¼
ĠsantÄ«m u
Ġhot el
Ġtec h
mei ta
Ġmud ina
Ġkilogram us
Ġpauz es
ĠdÄģvan Äģm
Ġautob rauc
polic ijas
Ġvirsot nÄĵ
Ġlaborator ijas
Ġklavi atÅ«ras
nig ht
ĠmotÄ«v iem
Ġmaikl s
tol aik
Ġaizkrauk les
mix news
7 3
b od
k az
k Äģjas
v d
z el
Ġ over
Ġu Å¡
Ġl ad
Ġl ag
Ġl Äģz
Ġg en
Ġne Å¡
Ġne form
Ġj Å«tÄģm
Ġuz vel
et Äģs
Ġpr Äģmi
ek cijai
Ġap aug
Ġie stipr
Äģl ijas
ĠkÄģ pu
isk Äģks
Ġko c
ev skis
Ġgr Ä«d
Ġgr amus
Ġdz iÄ¼u
kÄģ na
Ġst atu
Ġst ju
Ġgal vÄģm
ĠdzÄ«v niekus
Ġh ier
Ġdr Å«m
ĠsÄģk um
ĠdaÅ¾ s
Ġek os
pl Äģd
Ġcen sties
Ġan ul
Ġzem Äĵs
Ġas k
Ġnevar ÄĵÅ¡u
ĠkÄģrt Äģs
ĠÅ¾ ig
ĠplÄģn oto
ĠparÄģd Ä«Å¡anÄģs
Ġbiju Å¡Äģs
ĠnozÄ«m Ä«ti
ĠspÄĵl Äĵjot
pu Ä¼
vÄĵrt Äĵjuma
Ġpras Ä«s
Ġnov ilkt
Ġvil ku
Ġnev eid
klÄģt a
Ġizt Ä«r
Ġai tu
ĠizrÄģd Äĵ
star ts
Ġform Äģts
iep az
Ġpirk Å¡anas
re Äģli
Ġsamaz inÄģÅ¡anu
Ġnodarb inÄģto
af e
Ġsald u
Ġizc ÄĵlÄģs
Ġpietiek ams
Ġdi ab
Ġmilz Ä«gi
Ġnol ieg
Ġkrit umu
emon t
ĠzaÄ¼ i
Ġiesnieg ts
Ġsez on
ĠtrÅ«k a
ĠmÅ«Å¾ am
ĠgÄģj ienÄģ
ĠÐ º
Ġstabil u
Ġnelai me
Ä·Äĵr u
Ġnomain Ä«ja
ĠdrÄĵb Äĵs
Ġasp ektÄģ
ĠizvÄĵrt Äĵjot
ĠziemeÄ¼ os
Ġuzraudz Ä«bu
ation s
Ġsaskar as
ĠvÄĵs Äģ
Ġatteik umu
Ġlocek li
ĠatgrieÅ¾ amies
gru pÄģ
ĠefektÄ«v u
ĠpsiholoÄ£ iski
Ġpiedzim Å¡anas
Ġeti Ä·a
Ġgur Ä·i
Ġizcil u
Ġapn ik
attiec Ä«bÄģ
sird s
Ġlikumproj ekta
Ġklin Å¡u
ĠbÄĵrz iÅĨa
Ġpiedev u
Ġimpor t
Ġmalt Ä«tes
Ġizskan Äĵja
Ġiecirk ÅĨa
ĠpÄģrtrauc a
Ġgust avs
sakar Äģ
ostac ijas
Ġsekun Å¾u
ĠlÄģÄį plÄĵÅ¡a
ĠuzdÅ«r os
Ġmegap ikseÄ¼u
Ġpremjer ministr
c im
l ec
v sk
Ð ±
Äģ Ä·
Ġk en
Ġk vÄĵl
Ġt ib
Ġi f
Ġd illes
Ġb ook
Å« ma
Ġne cen
Ġne tiku
Ġno Å¾
Ġr uk
Ġr emd
Ġr Ä«gai
ap l
Ġiz gÄģ
Ġiz turas
isk Äģkais
og o
Ġies kait
aug iem
Äģn Äģs
Ġliel iskÄģ
Ġbr ÄģÄ¼u
ĠjÄģ ieg
ĠdzÄ«v otu
Ġkad astr
Ġveid oto
of r
ĠmÄģj dzÄ«v
Ġal t
est Ä«bu
Ġizmant ojis
ko stÄ«m
Ġiek rÄ«t
Ġpaz iÅĨa
Ġskol ai
Ġab or
ĠstÄģv us
Ġcaur ums
ĠmÄģc Ä«ba
Ġizveid oju
ĠcitÄģ ts
Ġmu iÅ¾as
Ġsac Ä«kst
ĠdÄģr gu
ĠdÄģr gas
ĠmazÄģk o
ĠbrÄ« Å¾i
Ġizdar Ä«tu
lo Ä·
grib i
ĠrÄ«k iem
Ġof isa
not ik
Ġvers ijai
rad io
ĠiegÄģd e
Ġpab rauc
Ġdraudz enÄĵm
ĠpÄģrd oÅ¡anu
Ġnol Äģd
Ġklaus Ä«jos
ĠslÄĵp oÅ¡anas
Ġapz iÅĨÄģ
ĠmÄ«k sts
Ġpiepras Ä«ja
Ġskaist Äģs
ĠtÄĵl o
Ġcien Ä«gs
Ġliep Äģja
Ġfl ag
Ġzir nek
ĠsveÅ¡ as
ĠpÄģrdom u
priec Äģjos
Ġjum ts
Ġsmiekl Ä«gs
Ġpasniedz a
Ġsaimniec Ä«ba
Ġul tr
ĠsvarÄ«gÄģk o
Ġaugu sts
Ġcepur e
Ġdru kÄģ
Ġkaus u
Ġpublik u
Ġkampa ÅĨa
Ġprofil Äģ
Ġargum enti
Ġaizsarg Äģt
Ġuzbruk umu
Ð½ Ð¸
ĠbrÄģ Ä¼iem
Ġparun Äģties
Ġapmai ÅĨa
ĠdÅ¾ek u
mÄģr is
Ġmodern Äģs
Ġuzglab ÄģÅ¡anas
ĠlÄ«dzdal Ä«bas
Ġtrep Äĵm
ĠkomÄĵd ija
ĠpadarÄ« Å¡ana
ĠprofesionÄģ Ä¼iem
Ġbron zas
ĠneizbÄĵg ami
Ġmurmul Ä«tis
ĠpiparmÄĵt ru
reÅ¾is ors
Ġbril lÄĵm
Ġbakal aura
a ha
c Äĵ
k Äģj
k ib
l ov
r t
s y
v eÅ¡
Ġ ÄĵÅ¡ana
Äĵ nes
Ġs ÄĵtÄģ
Ġt iz
Ġn ano
Ġi van
an is
Ġd uÅ¡Äģ
Ġd Äģnijas
Ġb Äģra
Ġj oma
Ġno Äį
ap aÄ¼
Ġc orn
Äģj ama
om an
om for
Ġpr at
el kot
Ġpa y
it ion
Ġsk ep
Ġto ÅĨos
Ġies Å«t
id g
Ġgad at
Ġaiz kl
Ġpl Ä«v
Ä«k s
ain es
Ġgar der
Ġkar odz
ĠvÄĵr oja
Ġan tiv
Ġzem niekiem
Ġbl ok
eg o
ven es
Ġties isko
Ġsat ais
Ġapm ald
Ġiem eta
Ġilg us
inÄģm o
ĠparÄģd Ä«s
Ġgatav ots
Ġblog eris
ĠnorÄģd Ä«to
Ġorganiz Äĵta
Ġpievien oto
ĠizrÄģd Ä«ties
Ġnotik uÅ¡as
Ġkonkur ents
Ġpiedal Ä«Å¡anÄģs
Ġav Ä«ze
Ġlid ost
gar Å¡a
Ġris inÄģjuma
Äĵjam Äģs
Ġelektr Ä«bu
Ġdod iet
Ġinst agram
ĠsalÄ«dz inÄģjums
Ġsakar i
ĠpaziÅĨ ojis
ĠierÄ«c Äĵ
ĠatseviÅ¡Ä· us
Ġsagatav oÅ¡anu
Ġizpl Äģn
ĠpienÄģk umiem
Ġsaglab ÄģÅ¡anu
Ġskaist um
Ġpiemin Äĵts
Ġpiemin ekÄ¼u
for man
Ġpaskat Ä«jÄģs
Ġiec el
Ġbrauk s
Ġdet ektÄ«v
dzim Å¡anas
Ġtul z
Ġtor nis
ĠÅ¾urnÄģl us
Ġraid Ä«jumÄģ
div u
ĠadministratÄ«v ajÄģ
Ġsom Äģm
Ġsmiekl Ä«ga
Ġserver iem
Ġkul min
ĠpÄģrdev Äĵju
Ġmant ojumu
ĠÅ¡Ä·idr ums
stund u
Ġatver as
ĠsÄģkums kol
Ġnomet nes
ĠkÅ« dras
Ġlielveikal os
Ġapd eg
meÅ¾ a
ĠoperÄĵtÄģjsistÄĵm as
Ġizbeig t
ĠrÄ«s iem
ierÄ« ces
Ġbase ina
Ġnogul d
Ġraug oties
Ġaizraut Ä«gi
ĠdzÄ«vesveid s
Ġgov Ä«m
Ġsegm entÄģ
Ġprei Ä¼u
7 8
d ob
z aÄ¼Äģ
Ä« skap
Äĵ sta
Ġk iv
Ġt etov
at h
at lik
Ġl Äĵta
is ter
Ġg lass
Ġne ad
Ġne prec
on Äĵz
Äģj uma
Ġz aÄ¼u
Ġjau da
ĠpÄģr eja
pr oduc
arb ojas
Ġre pres
Å¡u v
Ġkr Äģt
Ġies Äĵd
Ġst e
Ġst ef
mu iÅ¾as
op tim
ĠjÄģ turpina
Ġh and
kl aid
Ġnes ar
Ġgar Ä«dz
oz u
Ġkop Ä«gÄģs
Ġpav eicÄģs
Ġsl Äģn
Ġsl auc
aul t
ĠÄį akl
Ġpag ulÄĵt
ĠkÄģrt Ä«gs
ĠÄģtr o
Ġpies pie
eir o
ĠparÄģd Ä«bu
Ġser pent
Å«st ot
Ġizskat Ä«Å¡anas
Ġdev usi
ĠbrÄ«v dabas
Ġ: (
Ġproduk tam
Ġvismaz Äģk
ĠpÄĵt Ä«jumus
Ġnev ed
Ġproces oru
Ġveikal am
sav as
Ġbur tus
ĠmÄģks lÄģ
ĠizrÄģd Ä«t
ĠizrÄģd ijÄģs
zem nieks
Ġmas ai
ĠizstrÄģd ei
Ġatm est
ĠrÄ«k ojumu
ĠpaÅ¡vald Ä«bÄģ
Ġbar av
Ġiel og
Ġelektr Ä«ba
Ġdod ies
Ġkonkr Äĵts
Ġsamaz inÄģjÄģs
Ġplat Ä«bu
vil ku
Ġklas e
Ġsird is
sÄģk ums
nek ur
tuv ojoties
ĠpÄĵr les
Ġrakstur Ä«gas
Ġsaul ains
jaun ie
Ġsarkan as
Ġbir okrÄģt
Ġrind kop
Ġviz Ä«t
Ġizplat Ä«Å¡anu
Ġmugur a
Ġkomun icÄĵt
Ġgalvas sÄģp
Ġkrist of
vec ais
Ġuztic Ä«bas
ĠjÄģr Ä«k
Ġkait Äĵjuma
Ġizviet otas
Ġev aku
Ġsamaks a
Ġlaic iÅĨÅ¡
Ġinternet os
ĠapstrÄģd Äģt
Ġkoncep ciju
Ġpadz Ä«v
Ġintens Ä«v
ĠkonkurÄĵts pÄĵju
Ġmiz iÅĨu
Ġtermin s
ĠizÅĨÄĵm uma
ĠÅ¡ÅĨ ab
Ġra Å¡anÄģs
Ġdispl eju
Ġrul lÄĵ
ĠrÄ«s us
Ġip od
ĠpÄĵtersÄ« Ä¼u
Ġpieteic os
Ġatgrie Å¡anos
intern ets
Ġjogur tu
sarun as
deputÄģ ti
ĠjÄģies niedz
Ġdomub iedr
ĠpalÅ«dz a
nosauk ums
Ġansambl is
santjag oc
m ac
p Å«
Ñ ħ
Ä« Å¾u
Ġs iÄ¼
Å¡ t
Ġn Å«d
Ġl Äĵtu
Ġm iÄ·
Ġd iedz
am ajÄģm
Ġno Å¡Ä·ir
Äģr es
Äģr sta
Äĵj at
Äĵj oÅ¡ais
ak ovs
Ġiz kust
Ġat c
Ġat dzis
aj eb
Ġap iet
Ġz inÄģs
Ġvien mu
ti ons
ĠpÄģr b
pr o
pr aktiski
Ġin dra
Ġgr em
tÄģj s
ĠlÄ«dz Ä«gÄģm
Ä«st a
Ġnep iev
Ġmaz uli
ĠjÄģ ÅĨiem
Ġpil skal
Ġkad ri
ĠpaÅ¡ ap
Ġizd otos
Ġstr az
Ġvec Äģko
pl Äģns
Ġveik tÄģ
Ġal i
Ġzem Äĵm
Ġpiem ir
Ġieg Äģja
Ġvir Å¡u
aus a
aus i
ĠÄģtr Äģks
Ġpils oÅĨi
Ġturp u
ĠnozÄ«m Ä«gas
Ġsad raudz
Ġatbild Äĵju
Ġizskat Ä«t
ĠstÄģv i
ĠstÄģv lauk
ĠpÄĵt ot
Ġsaist Ä«tos
Ġbrauc is
Ġizdev usies
Ġ7 7
Ġuzs vÄĵrt
kÄģd us
mai jam
ĠlÄ«m eÅĨos
Ġpel na
Ġ0 5
Ġplat uma
Ġietek mÄĵs
Ġnodarb Ä«bÄģm
Ġcer Äĵju
piemÄĵr s
ĠievÄĵr ojamu
Ġtek stiem
ĠplaÅ¡ Äģkas
Ġpaliel inot
Ġregul ÄĵÅ¡anas
20 11
Ġuzrakst Ä«ja
Ġtran sp
Ġstipr u
Ġpaman u
Ġma h
Ġnodok Ä¼iem
lap a
Ġpast aigu
ĠsÄĵr koc
Ġbi od
Ġprakt iskÄģ
Ġprot okol
Ġanal Ä«ti
Ġnedr Ä«k
Ġsaz Ä«m
Ġder Ä«guma
Ġpipar kÅ«ku
Ġkonstat Äĵt
Ġsaules pu
ĠatzÄ«m i
Ġaizg ÄģjuÅ¡
Ġvain Ä«gi
Ġret or
Ġzob i
ĠcÄĵl onis
Ġsvin Äĵt
Ġeksperim entÄĵt
atcer ies
Ġjan ks
Ġgau mÄĵ
ĠnoskaÅĨ ojumu
Ġnec aur
Ġizsnieg t
ĠkolektÄ«v Äģ
Ġspried ums
Ġpamod Äģs
Ġdeklar Äģciju
Ġiedarb ojas
Ġnat ur
ĠmaÅ¡Ä«n ai
ĠkrÅ«m iem
ĠkrÅ«m iÅĨa
Ġgum ij
Ġapgroz Ä«jums
Ġiv eta
ĠpÄĵtersÄ« Ä¼us
ĠvÄ«l ies
Ġkatastrof u
Ġsist emÄģt
ĠapbÅ«v es
ĠpÄģrp ublic
orien t
Ġmazumtirdz niecÄ«bas
itiv us
ĠsliekÅ¡ ÅĨa
b ack
c k
k val
k oku
l ie
m Å«
r ÄĵÄ·
t Äĵl
Ġp Äģk
at kÄģrt
Ġl or
Ġd own
Ġne iel
Ġr ock
en ieks
il e
il le
Ġpar az
it ed
ĠpÄģr gÄģja
Ġman tÄģm
Ġsp ekul
aiz l
Ġies kai
Ġst um
Ġdarb ojoties
Ġnot ek
var pus
Ġkl aÅ¡u
ras ta
Ġh en
Ġliet ojum
Ġgar os
Ġtiek amies
Ġsm eldz
stu Ä¼u
Ġan at
Ġan ek
Ġsl avu
ĠpriekÅ¡ nieka
ĠnÄģk uÅ¡i
Ġvad Ä«bai
ĠÄ«paÅ¡ Ä«ba
ĠÅ«d enim
Ġmed iÄ·i
bl ogs
Ġpiek ar
Ġproduk tos
Ġsaist Ä«tu
tic i
cep eÅ¡
Ġpriek iem
Ġparedz ÄĵtajÄģ
Ġspor tÄģ
Ġinteresan tÄģ
Ġnem aina
Ġlat telekom
Ġgai tÄģs
ĠÄĵr tu
Ġind ik
Ġris inÄģs
ĠdroÅ¡ Äģk
Ġslik tÄģ
Ġinst ink
Ġdat uma
Ġpareiz ajÄģ
ĠpÄģrliec inÄģtos
Ġpieaug t
Ġup ju
ĠpÄģrvald Ä«bas
Ġkrit iz
Ġstipr Äģ
Ġbag ÄģÅ¾as
ĠmÄ«k stu
Ġatgriez os
Ġy ahoo
ĠfotogrÄģf ija
Ġvidus laiku
Ġkonstat Äĵja
Ġkonstat Äĵta
Ġso und
Ġcien Ä«gu
Ġstrauj Äģk
ĠoficiÄģl ais
Ġfran k
Ġber lÄ«n
ĠpopulÄģr as
ĠpiedÄģvÄģt as
Ġnoris i
Ġon kulis
ĠÅ¾urnÄģl isti
Ġnepie vÄĵr
Ġzvaigz nÄĵm
Ġapkop oti
Ġkv ant
ĠuzsÄģk Å¡anas
200 7
Ġmieg u
ĠvÄĵ sts
ĠiezÄ«m Äĵ
Ġiecer es
ĠbrÄ«niÅ¡Ä· Ä«gs
ĠbrÄ«niÅ¡Ä· Ä«gu
ĠmaksÄģj umi
Ġtulk ojumu
ĠvienÄģd a
Ġaizbrauc u
Ġkafej nÄ«cu
Ġkaul iem
Ñģ ÑĤ
Ġizaic inÄģjumu
ĠmÄ«n usi
ĠmeklÄĵtÄģj s
Ġnomet nÄĵ
ĠtransportlÄ«dz ekÄ¼a
ĠdÅ¾ek i
Ġatnes a
ys ql
Ġegl Ä«tes
ĠatrÄģd Ä«t
Ġvislab Äģkais
Ġraug Äģs
Ġapdar es
Ġstaf etes
Ġdiskrimin Äģcijas
Ġpalaid is
ĠpakÄ¼au ti
Ġpierun Äģt
nopiet ni
Ġgeocach ing
Ġadren al
santjagoc eÄ¼Å¡
9 2
c ie
s ub
s Ä«p
v imeo
z ini
Ġk us
Ġs ojas
Å¡ ajos
an tas
Ġl ija
Ġl ud
Ġl Äĵnu
Ġd mitr
Ġb ird
am ajam
um iÅĨÅ¡
Ġg oz
Ġno organiz
ĠÅ¡ ef
Äģt es
Ġap sm
Äģl ajam
Ġkur o
Äĵk i
ob iÄ¼
Ġaiz vÄĵrt
Ġst Ä«vs
ru st
Ġvair umam
Ġnep iel
Ġmaz am
ĠjÄģ pag
ĠcilvÄĵk os
itÄģ ciju
Ġjaun dzim
Ġdr Äĵg
Ġatt eikt
Ġnes aku
Ġgar iem
Ġgar Ä«gi
Ġmin Äĵti
Ġpu tas
mas k
Ġnod ots
Ġvec ajiem
Ġkar Äģ
ĠvÄĵr Å¡as
Ġcen Äģ
Ġveik uÅ¡i
maz Äģ
maz Äģk
kÄģrt Äĵjo
ĠÄ£ Ä«m
Ġpap l
ĠÅ¾ ag
Ä«l is
Ġatbild Ä«gi
Ġpiek l
ĠmÄģc Ä«jÄģs
ĠmÄģc Ä«bÄģs
ĠmÄģc Ä«tÄģjs
ĠvÄĵst Ä«jumu
Ġ6 3
Ġatz Ä«Å¡anu
Ġkomp ozÄ«cijas
Ġnen or
Ġol iv
Ġnom oc
Ġkriev iem
bild Äĵ
Ġav ota
Ġlat a
Ġeksp on
ĠspÄĵk os
Ġierakst Ä«ts
ber gu
ĠtreÅ¡ daÄ¼u
Ġgabal iÅĨÅ¡
af s
skr ieÅ¡ana
Ġdi ap
Ġzemes gabal
ĠaktÄ«v as
Ġizpild Ä«jums
Ġpaliel inÄģtu
Ġkan Äģli
ÄģtÄģj iem
Ġfinans u
Ġtic iet
Ġuztur ÄĵÅ¡anai
ĠmÄ«k lai
ĠierobeÅ¾ ota
Ġstandar tÄģ
Ġpateic Ä«bu
ĠpiedÄģvÄģj umÄģ
ĠzaÄ¼ umus
ĠiegÅ«t Äģs
Ġpublic Äĵta
Ġizplat Ä«bu
Ġpaskat ies
Ġ199 4
ĠbrÄ«n umi
qu e
Ġkonstat Äĵ
Ġsapratu Å¡i
Ġieguld Ä«jums
ĠapakÅ¡ ÄĵjÄģ
nod er
ĠadministratÄ«v Äģs
ĠlÅ«g ums
klas e
Ġglez nu
program m
Ġrestor Äģna
Ġul tra
ĠpÄģrl Å«kÄģ
Ġdegun s
Ġizcel smi
sapr otu
ĠvÄĵstul Äĵ
ĠÅĨ ir
Ġizsk al
Ġpagar inÄģt
Ġlam pas
ĠkrÅ«m os
Ġgredz enu
Ġdispl ejs
Ġspog ulis
Ġavi Äģcijas
Ġskrop stas
mor ics
ĠkonkurÄĵtspÄĵj Ä«gÄģs
Ġdefic Ä«ts
ĠizbrÄ« nu
Ġizpilddir ektors
Ġdiennakt Ä«
ĠsaldÄĵt avÄģ
gust avs
Ġrog ain
cienÄ«j amie
ĠÅ¡an h
c ent
d en
g las
l auc
l era
m ik
p j
v iÅĨ
v eikt
Ä« Å¡ot
ar di
Ġt en
au Å¡
ij ies
Ġno dr
Äģm ais
ap h
Ġc oca
on iju
ĠÅ¡ onakt
ĠÅ¡ edev
ab sol
Ġz ap
ol is
im etr
Ġsav ald
iz o
ok li
iel a
Ġkr on
inÄģt ajiem
Ġtr ail
eÄ¼ Ä¼a
var Äĵja
Ġtur cijas
Ġnek t
Ġkad rus
Ġliet iÅĨas
Ġgar Ä«go
Äĵju Å¡u
Ġsas ild
Ġak cijÄģ
Ġrakst Ä«Å¡anu
Ġvec ajÄģ
Ġvec vec
Ġlik mi
kur i
ĠÄį em
Ġpag aidÄ«t
Ġor nam
Ġskat Ä«tos
Ġvad Ä«Å¡anas
ĠÅ¾ ak
Ġpiet eicÄģs
ĠuzÅĨÄĵm a
Ġnaud iÅĨas
Ġ19 40
Ġizveid ojusi
Ġfr Äģze
Ġpadom Äĵ
ĠdÅ¾ er
Ġsim tus
Ġpiedal Ä«juÅ¡ies
Ġzv ir
ĠlÄĵm umiem
ĠnÄģkam nedÄĵÄ¼
Ġnodarb e
Ġizlas ot
ĠstÄģst Ä«ts
ĠievÄĵr Ä«bas
Ġner augoties
ĠtÄĵm ai
Ġnegrib i
ĠattÄĵl iem
fil mÄģ
vÄģrd us
Ġkan Äģdas
ĠgarÄģm gÄģj
ĠpieÅ¡Ä·ir Å¡anas
Ġtirdz iÅĨÄģ
Ġsaprot amÄģ
ĠpievÄĵr Å¡
Ġliep Äģj
ĠatklÄģt as
ĠÄįempion s
ĠÄįempion u
nov embris
Ġzvan i
ĠbÄ«st ama
ĠaprÄĵÄ· iniem
Ġkarst o
Ġizaug sme
Ġasp ektus
jÅ«n ijam
ĠsÅ«dz Äĵties
ziem Äģ
ziem eÄ¼
Ġsku j
Ġpalas Ä«ties
Ġiekr Äģs
Ġfilozof ijas
Ġbulj ons
zv ana
Ġsekret Äģrs
ĠriÅĨ Ä·Ä«
ĠstruktÅ«r f
ĠpilnvÄĵrt Ä«gu
elp ot
Ġuzklaus Ä«t
Ġgreiz i
Ġpiev eikt
recep te
ĠprofesionÄģ Ä¼i
Ġnolemj am
Ġmiljar di
Ġteras es
ĠpÅ«dercuk uru
Ġsubs Ä«d
ĠnakÅ¡ ÅĨ
Ġmusul maÅĨu
6 8
b us
b Äĵd
b ite
g aisa
h ost
m enu
r ag
s az
t il
Ġ ogr
Ġs ÄģnÄģ
Å¡ Äģv
Ġm Äģ
ot ajÄģm
al itÄģtÄĵm
Ġg eju
Ġno kÄģp
os as
et os
ĠÅ¡ ah
el Äĵs
Ġpa Ä£ir
ais ot
Ġvar Äģ
iz c
Äį uk
aug us
Ġtr otu
ter es
Ġmaz inÄģtu
Ġgal erijas
Ġmin or
edz en
Ġfil eju
Ġsap ÅĨos
ĠÅ¡Ä· Ä«b
Ġbl oc
Ġredz amÄģ
Ġinteres Äĵja
kal nes
gl ob
Ġad obe
Ġgatav oÅ¡ana
Ġdev iÅĨi
Ġdev iÅĨus
Ġuzskat Äģm
Ġcentr i
Ġ6 2
Ġparedz Äĵja
ĠmÅ«z iÄ·is
ĠdzÄ«ves vietu
ĠjÄģs pÄĵj
Ġnorm Äģlas
ĠmÄ« Ä¼u
ĠnovÄĵr Å¡
Ġsamaz inÄģjumu
Ġpieaug usi
Ġdzird i
Ġoper atori
Ġsavien ojums
Ġstat usÄģ
ĠpienÄģk usi
Ġaudz inÄģÅ¡anas
Ġklaus Ä«tÄģju
Ġiespaid us
Ġsta Ä¼
ĠtÄ«r Äģ
Ġprakt isku
ĠtÄĵr Äĵ
ĠÄģrst iem
ĠÄģrst ÄĵÅ¡anas
Ġnogal es
Ġbrauk sim
ĠlÄĵn s
Ġde ad
Ġdiskus ijÄģs
Ġeg les
ĠkriminÄģl likuma
Ġzvan iem
Ġzvan us
ĠapmeklÄĵtÄģj us
Ġstabil itÄģti
200 8
Ġtes ts
lauk a
ĠiespÄĵjam iem
med us
ĠjÄģt aisa
Ġsod Ä«t
Ġpasm aidÄ«ja
Ġkonserv atÄ«v
Ġnepied er
Ġpui Å¡u
Ġkast Ä«tes
Ġkonflik ts
arh it
ĠizÅ¡Ä·irts pÄĵjas
Ġpik n
musicstories lv
ĠplaÅ¡s aziÅĨas
ĠmaÄ£istr a
ĠtieÅ¡saist Äĵ
ĠaustrÄģl ijas
ĠdaiÄ¼rad es
Ġhans aban
Ġpj edes
cuk ura
Ġklep us
prezid ents
Ġpropag andas
Ġapkaim Äĵ
ĠjÄģnor Äģda
m it
n ijs
r aj
v eÅĨu
Äģ Å¡anÄģ
Ġp un
Ġn ils
Ġl ÄĵkÄģ
Ġm udÅ¾
Ġm aisa
Ġd um
Ġd ÄģmÄģm
Å« Å¡anai
Ġg aÄ¼
Ġg atv
Ġpr Äģ
Ġpie strÄģd
Ġpie brauc
Ġz Ä«da
Å¡i fr
im st
sk im
Ġsp Ä«t
og am
Ġst eth
Ġtr ijÄģs
Ġliel ajam
Ġh ard
Ġneb Å«Å¡u
Ġak meni
Ġcit ad
Ġpu iku
Ġek oloÄ£
Ġstr Ä«
Ġstr esu
Ġpiem eklÄĵt
ĠpriekÅ¡ galÄģ
Ġ5 7
Ġats Äģkt
Ġneat st
ĠplÄģn oÅ¡ana
Ġpamat ojumu
ĠÅ«d eÅĨu
Ġad op
Ġa h
ĠkÄ¼ av
ĠpatÄ«k amas
Ġdev ies
Ġ6 8
ĠvÄĵrt Ä«gu
Ġ7 2
Ġaps Äĵst
Ġmel ior
Ġbar Ä«bu
gar Äģm
Ġprec e
Ġatrast os
Ġmobil ajiem
Ġkap ac
ĠplaÅ¡ umos
Ġaktu Äģlas
interes anta
Ġliec Ä«bas
Ġviedok lim
Ġpos miem
Ġaudz is
Ġapz inos
Ġsaul lÄĵk
Ġpast kast
Ġneuz man
Ġkoncer tiem
ĠfotogrÄģf s
ĠnepiecieÅ¡am ie
ĠdÄ«v ainÄģ
Ġkred itor
Ġkred Ä«tie
Ġvidus skol
Ġsmu kas
ĠskaÄ¼ Äģk
ĠpÄģrskat Ä«t
otÄĵk u
Ġtab u
organ izÄĵt
ĠviÄ¼ ÅĨas
ĠloÄ£ isks
ĠbÄģz Äĵ
Ġnosp ieÅ¾ot
Ġmaig s
Ġlido sta
Ġsku dr
Ġglob ÄģlÄģs
Ġdemonstr Äĵ
Ġunik Äģlu
Ġkrekl s
Ġkaul a
ĠÄ«patn Ä«bÄģm
Ġtarif i
ĠizlÄĵm a
Ġus d
Ġcigar eti
jÄģat zÄ«mÄĵ
ĠpamÄģc Ä«bu
Ġnarkot ikas
Ġpilnveid ot
Ġnegad Ä«jumu
sec inÄģjums
ĠolÄ«veÄ¼ Ä¼as
Ġpauz e
Ġpiezvan Ä«ja
Ġmigr Äģcijas
Ġkomiks u
Ġmaj on
Ġsuic Ä«da
Ġliell opu
Ġmiljar du
Ġdienest am
Ġsportis ts
brok ast
ĠelektroenerÄ£ iju
6 7
g ÄģjÄģm
p Äģv
r iga
t ak
t Å«kst
w ordpress
Ġ ÄĵÅ¡anu
Äģ pÄĵj
Ġp Äĵta
Ġp ink
Ġs w
Å¡ ÅĨu
Å¡ ÅĨa
Ġb arb
ÅĨ lÄĵc
in dr
ik viens
ad ministr
Ġno dz
Ġar est
Ġr Äģmi
Ġc ens
Ġpar Å«p
or tÄģ
Ġpie ber
Ġpie biedr
ol Äģ
Ġsk ot
Ġsk ru
ul lÄĵ
aiz iet
Äį os
aid Äģ
Ġkl ej
vien ot
Ġtur ÄĵtÄģjs
oc is
uÅ¡ ai
ĠiespÄĵj amais
dien vid
Ġnes ad
Ġgar Ä«gÄģs
Ġgar laik
Ġsas p
sm Äĵs
Ġkop sum
li f
ĠÅ¡Ä· Å«
maz ais
Ġsl Äģnis
kur am
Ġsa aukst
Ġrad oÅ¡
Ġdar Ä«Å¡u
ing am
Ġier augu
Ġlap s
Ġizm ir
oloÄ£ ijÄģ
Ġa fr
Ġizp irk
Ġcentr os
Ġdienas grÄģmatu
ĠÄĵd a
Ġcaur laid
ĠbrÄ«v dienÄģm
Ġnov est
Ġvesel us
Ġizveid oÅ¡anu
ĠiekÅ¡ ienÄĵ
Ġspec ial
Ġorganiz ÄĵÅ¡anu
Ġizdar Ä«juÅ¡i
Ġvel oc
Ġsil to
gÄģd ina
ĠskrÄĵj ieniem
Ġatm et
Ġpul s
Ġ:) ))
Ġien Äģkt
ĠiegÄģd ÄģjÄģs
Ġcer ot
ĠpaziÅĨ ojumus
ĠpaziÅĨ ojumÄģ
ĠierÄ«c ei
ruk t
Ġkons ekven
Ġtap Å¡anÄģ
pan nÄģ
Ġaudz Äĵt
dar u
vairÄģk as
Ġkan Äģliem
Ġaizmir sts
ĠjÄģm in
Ġskaist uma
Ġnozar e
Ġpieder Ä«bu
ĠÄģb oliem
ĠnovÄĵrt Äĵjums
Ġpulkst eÅĨa
Ġparakst Ä«t
Ġieguv Äĵji
Ġplauk st
Ġasto ÅĨus
Ġnag us
Ġpazud usi
Ġkarst uma
Ġkandid Äģtiem
Ġspie diens
Ġcepur Ä«te
treÅ¡ ajÄģ
Ġmom entu
Ġuzsver ot
Ġfut bolu
Ġizsnieg Å¡anu
Ġkoncentr Äĵties
ood Äģr
Ġformul a
Ġtrener a
ĠatkÄģp e
Ġkvalif ikÄģciju
Ġneizmant oju
Ġnosl auc
ĠsaÅ¡u t
Ġgrez n
Ġsamier inÄģties
autobus s
Ġsinep ju
paj umt
Ġgalap unk
c iv
l eti
t ajÄģs
v Ä«t
v Äĵd
Äģ tÄģm
Ġp akar
Ġv ita
Ġt Äĵta
Å¡ ajam
at o
Ġm un
in tr
Ġg on
Ġne vÄĵr
Ġne tip
Ġr Äģdi
Ġiz ejot
Ġuz nÄģca
ek cion
Ġz ari
ol Ä«v
em u
ĠpÄģr a
Ġsav iet
Âł ĠčĊ
Äĵd iens
ed u
Ġpl ac
Ġlatv ju
ain im
ĠjÄģ dzÄ«vo
ist isko
Ġnek aun
Ġliet ojama
ied Äĵt
pat Äĵr
Ġdom starp
kr ed
Ġrakst nieku
Ġnod oÅ¡anu
ĠvÄĵr st
ĠÅ¡Ä· Äĵ
Ġal iÅĨu
Ġsai tÄĵm
Ġties iskÄģs
Ġties neÅ¡a
Ġmar ina
Ġstarp Ä«bu
ĠkÄģrt is
pas tus
end a
Ġdev Äĵjam
le y
sar g
ĠstrÄģd nieku
Ġ10 1
ĠmÄģc Ä«jos
Ġizs ekot
Ġvil jams
Ġ6 1
Ġgaid Ä«jÄģm
ĠtÄģlÄģk Äģ
Ġpac iÅĨas
Ġpubl isku
Ġslim nÄ«ca
pras mes
Ġpart y
Ġoper Äģcija
Ġtav Äģm
Ġatcer oties
Ġmilz um
Ġmier Ä«gu
Ġnegrib ot
Ġlog oti
Ġsaul r
nev ienam
ĠjÄģat zÄ«mÄĵ
marat ona
Ġnoskat Ä«Å¡anÄģs
Ġseg ums
daudz as
Ġaizl iedz
Ġiec iet
Ġroz e
bo y
Ġzir gi
Ġret ums
Ġieteik ums
Ġpur vÄģ
Ġkategor iju
Ġkategor iski
ĠadministratÄ«v i
ĠkrÄģj umi
Ġdes u
Ġindividu Äģlo
Ġdzelten Äģ
ĠskÄģb ekÄ¼a
ĠÄ«r ijÄģ
Ġsem iot
Ġsastop ama
ĠlÄģ Äįa
Ġgriez t
Ġge oslÄĵp
oktob ris
Ġkombin Äģciju
ĠaktivitÄģ tÄĵs
Ġneno vÄĵrt
ĠpielÄģg ot
Ġpateik ts
ĠiznÄ«c inÄģt
Ġuzlik u
Ġco ol
Ġpension Äģri
Ġfotoapar Äģta
ĠvÄ«z ija
aa aa
Ġnojau st
Ð¾Ð ²
ĠuzÅĨÄĵmÄĵj darbÄ«bu
vajadz Äĵja
Ġnebeidz as
gais mas
sun s
Ġvislab ÄģkÄģ
ĠvecmÄģm iÅĨa
nen ol
Ġbaltic s
Ġpajau tÄģt
ĠpiekÄ¼u vi
ĠbezjÄĵdz Ä«gi
ĠÄĵdienkar tÄĵ
Ġalber ta
Ġnelikum Ä«gu
amerikÄģ ÅĨu
ĠizlÅ«k s
Ġpiedurk nes
ĠsÄĵkl iÅĨas
ĠatÄ¼Äģv os
Ġspogu Ä¼a
kapitÄģ la
ĠbiÄ·er nieku
d ek
f ol
g en
g ast
h um
h ei
k Äģs
s eriÄģl
Äģ Å¡os
Ġs eni
Å¡ okol
Ġl oÅ¾
Ġm ers
Ġd ac
st em
st ul
Ġno c
Ġr s
dz i
Ġiz grieÅ¾
ĠÅ¡ op
Ġpie plÅ«d
Ġie rÄģd
Ä· Ä«m
Ġf isk
ti pa
od or
az Ä«m
ok omp
Ġst an
Ġdarb iÅĨu
âĢĿ :
oti fy
aid ot
pa Å¡u
Ġjaun gada
ĠdzÄ«v Ä«ba
Ä«n ieÅ¡u
Ġgar uma
ied v
Ġveid oties
Ġstr aut
Ġkar eiv
Ä«z iju
Ġan est
Ġpiem aks
kÄģrt Ä«gi
Å«r Äĵt
akt ora
Ġsak ul
Ġinform atÄ«v
Ġizmant oto
Ġnevar ot
ĠÄ£ itÄģru
priekÅ¡ Äģ
Ġpamat otas
Ġad atu
liel Äģko
istÄĵm as
Ġneiz r
Ġdienas grÄģmatas
Ġmal iÅĨu
Ġizveid ojas
if t
Ġpadom s
Ġsoc ializ
veid o
Ġpievien ota
vid Äĵji
ĠreÄ£istr Äĵt
Å«l es
ĠnÄģkam ajiem
Ġtren iÅĨÄģ
Ġpietiek amu
Ġpab rauk
Ġuzz ini
Ġdraudz Ä«bas
Ġtap usi
tuv i
dar i
Ġkan ÄģlÄģ
Ġsaul aina
jaun Äģs
ĠzaÄ¼ ie
Ġanal Ä«zÄĵ
bez maksas
Ġapliec Ä«bas
Ġtrauc Äĵt
Ġcent ieni
Ġnogal e
iÄ· e
'' ,
ĠmaksÄģ Å¡anas
Ġzvaigz ni
Ġdol Äģriem
Ġos lo
Ġspie sta
Ġpieliet ojums
Ġiecer i
ĠpilsÄĵt iÅĨÄģ
Ġakme ÅĨus
Ġarhitekt Å«ru
Ġhum an
Ġkarj erÄģ
rim i
Ġps eid
Ġriek sti
Ġis o
ĠbruÅĨ rupu
ĠatÄ¼au Å¡os
ĠnezinÄģm u
Ġzar iem
Ġgun ta
Ġpateik s
ĠglÄģz Äĵ
Ġneliet o
Ġasins rit
saj Å«tas
Ġdzej o
ĠnovÄĵl u
Ġdizainpar augu
ĠpÄ«p Äĵt
elektr on
ĠlasÄģm viela
Ġtroks ni
Ġsaik ni
Ġsuven Ä«ru
vieg li
ĠdÄ«d Å¾
tit le
ĠnepiedÄģv Äģ
Ġrab arb
Ġekv ival
b uli
c itr
f estiv
g Äģzes
g lÄģb
n agl
t emp
Ġp Ä«kst
as kolds
Ġv anÅ¡u
Ġv iew
Ġn ir
in ese
Ġg az
Ġr af
ak Å¡Ä·
ak ciju
Ġiz nes
Ġuz lika
Ġz omb
Ġlai ne
Ġf ox
tr ak
dr av
Ġre prez
Ġsp uldz
ĠlÄ«dz Ä«gus
Ġjo z
Ġmaz ajai
skat ies
ĠsÄģk ta
Ġsas m
Ġizv ai
Ġcit kÄģrt
Ġpam ain
Ġrakst Ä«tu
mas u
Ġsm aka
Ġstr ess
Ġpus Äĵs
Ġveik usi
Ġan ita
ĠbÅ«t nes
Ġredz at
eg vielas
ĠÄį al
Äģtr Äģk
ĠvienkÄģr Å¡o
Ġnor o
Ġpad od
Ġpak istÄģ
Ġskat us
Ġw p
Ġsek otÄģjiem
Ġcik l
Ġcik tÄģl
ĠnozÄ«m Äĵtu
pie pras
Ġdal Ä«ba
Ġvieg lÄģ
ĠiekÅ¡ Äĵji
Ġnev ilt
ĠvÄĵrt Äĵju
Ġizdev Ä«ba
Ġveikal iÅĨÄģ
prÄģt a
Ġpievien ojam
eks a
star t
Ġdzim usi
mar Å¡ru
Ġkonkur sam
Ġatm iÅĨÄģm
Ġspr aug
gar Å¡u
ĠsaÅĨem ti
Ġatkl ÄģÅ¡ana
Ġgul ta
ĠapmÄĵr s
Ġsarakst i
ĠmateriÄģl Äģ
nis ma
ĠpÄģrd aug
dar is
Ġeksper ta
Ġkust Ä«bÄģ
Ġklus Äģ
Ġanal oÄ£
ĠvÄģc iÅĨu
Ġzil i
Ġpild ot
ĠtrÅ«k umi
Ġtrauc Äĵja
vec mÄģmiÅĨa
pret ÄĵjÄģ
Ġiztur Ä«bas
Ġsmal ku
Ġkait ina
Ġtor nÄ«
Ġeg Ä¼u
ĠcÄĵl Äģs
Ġpabeig Å¡anas
ĠviÄ¼ ÅĨu
Ġizn Äģks
Ġatsauc Äģs
Ġton nu
Ġparad umiem
ĠvÄģj i
Ġpulc ÄĵjÄģs
Ġsteidz ami
Ġbiks Äĵs
ĠpasaÅ¾ ieriem
ĠatvaÄ¼ inÄģjums
Ġfunkcion alitÄģte
mÄ«l estÄ«ba
Ġelp oÅ¡anas
Ġsertifik Äģts
ÑĢ Ð°
Ġlem t
Ġiebild umi
izmant oju
ĠÄįu p
Ġsint Äĵt
ĠuzdÄģv inÄģja
Ġlaur e
Ġsemin Äģru
ĠuzkÄģp t
Ġiegriez ties
problÄĵm as
Ġlepn ums
Ġpieskar ties
Ġbund Å¾
Ġpusaud Å¾u
ĠdeviÅĨdesmit o
Ġrih ards
Ġlejupiel Äģdes
g Å«st
j Äģt
j ana
k ina
m ez
r ent
Ġs ut
is mam
st ru
ik iem
Ġno likumu
us b
Ġpar od
ab le
ais s
ĠpÄģr tik
az ina
Ġdarb ad
ic sson
ain us
ĠsÄģk sim
Ġneb a
Ġneb rauk
pat ika
sm ejas
Ġpam etu
Ġnos us
ĠstÄģ ties
Ġsm akas
Ġvec am
Ġbal vÄģm
eÅ¡ as
Ġsam aÄ¼
Ġpap Ä«rs
Ġilg iem
[...]
