{"<s>":0,"<pad>":1,"</s>":2,"<unk>":3,"<mask>":4,"!":5,"\"":6,"#":7,"$":8,"%":9,"&":10,"'":11,"(":12,")":13,"*":14,"+":15,",":16,"-":17,".":18,"/":19,"0":20,"1":21,"2":22,"3":23,"4":24,"5":25,"6":26,"7":27,"8":28,"9":29,":":30,";":31,"<":32,"=":33,">":34,"?":35,"@":36,"A":37,"B":38,"C":39,"D":40,"E":41,"F":42,"G":43,"H":44,"I":45,"J":46,"K":47,"L":48,"M":49,"N":50,"O":51,"P":52,"Q":53,"R":54,"S":55,"T":56,"U":57,"V":58,"W":59,"X":60,"Y":61,"Z":62,"[":63,"\\":64,"]":65,"^":66,"_":67,"`":68,"a":69,"b":70,"c":71,"d":72,"e":73,"f":74,"g":75,"h":76,"i":77,"j":78,"k":79,"l":80,"m":81,"n":82,"o":83,"p":84,"q":85,"r":86,"s":87,"t":88,"u":89,"v":90,"w":91,"x":92,"y":93,"z":94,"{":95,"|":96,"}":97,"~":98,"¡":99,"¢":100,"£":101,"¤":102,"¥":103,"¦":104,"§":105,"¨":106,"©":107,"ª":108,"«":109,"¬":110,"®":111,"¯":112,"°":113,"±":114,"²":115,"³":116,"´":117,"µ":118,"¶":119,"·":120,"¸":121,"¹":122,"º":123,"»":124,"¼":125,"½":126,"¾":127,"¿":128,"À":129,"Á":130,"Â":131,"Ã":132,"Ä":133,"Å":134,"Æ":135,"Ç":136,"È":137,"É":138,"Ê":139,"Ë":140,"Ì":141,"Í":142,"Î":143,"Ï":144,"Ð":145,"Ñ":146,"Ò":147,"Ó":148,"Ô":149,"Õ":150,"Ö":151,"×":152,"Ø":153,"Ù":154,"Ú":155,"Û":156,"Ü":157,"Ý":158,"Þ":159,"ß":160,"à":161,"á":162,"â":163,"ã":164,"ä":165,"å":166,"æ":167,"ç":168,"è":169,"é":170,"ê":171,"ë":172,"ì":173,"í":174,"î":175,"ï":176,"ð":177,"ñ":178,"ò":179,"ó":180,"ô":181,"õ":182,"ö":183,"÷":184,"ø":185,"ù":186,"ú":187,"û":188,"ü":189,"ý":190,"þ":191,"ÿ":192,"Ā":193,"ā":194,"Ă":195,"ă":196,"Ą":197,"ą":198,"Ć":199,"ć":200,"Ĉ":201,"ĉ":202,"Ċ":203,"ċ":204,"Č":205,"č":206,"Ď":207,"ď":208,"Đ":209,"đ":210,"Ē":211,"ē":212,"Ĕ":213,"ĕ":214,"Ė":215,"ė":216,"Ę":217,"ę":218,"Ě":219,"ě":220,"Ĝ":221,"ĝ":222,"Ğ":223,"ğ":224,"Ġ":225,"ġ":226,"Ģ":227,"ģ":228,"Ĥ":229,"ĥ":230,"Ħ":231,"ħ":232,"Ĩ":233,"ĩ":234,"Ī":235,"ī":236,"Ĭ":237,"ĭ":238,"Į":239,"į":240,"İ":241,"ı":242,"Ĳ":243,"ĳ":244,"Ĵ":245,"ĵ":246,"Ķ":247,"ķ":248,"ĸ":249,"Ĺ":250,"ĺ":251,"Ļ":252,"ļ":253,"Ľ":254,"ľ":255,"Ŀ":256,"ŀ":257,"Ł":258,"ł":259,"Ń":260,"Äģ":261,"ie":262,"Ä«":263,"Äĵ":264,"Ġp":265,"as":266,"čĊ":267,"ĠčĊ":268,"Ġk":269,"ar":270,"Ġv":271,"Ġs":272,"Ġt":273,"Å¡":274,"Ġn":275,"ai":276,"at":277,"Ġu":278,"Ġi":279,"an":280,"au":281,"Ġl":282,"Ġm":283,"is":284,"Ġd":285,"Ġb":286,"es":287,"am":288,"Ġun":289,"ot":290,"st":291,"um":292,"ij":293,"ÅĨ":294,"Å«":295,"al":296,"in":297,"ik":298,"Ġg":299,"iem":300,"Ġne":301,"ad":302,"Ġj":303,"Äģs":304,"Ġno":305,"Ġar":306,"Äģk":307,"Ġr":308,"ies":309,"tu":310,"ien":311,"Äģr":312,"Ä¼":313,"dz":314,"er":315,"Ġir":316,"Äĵj":317,"us":318,"tÄģ":319,"Äģd":320,"en":321,"il":322,"ur":323,"âĢ":324,"Äģm":325,"ak":326,"ap":327,"av":328,"Ä«b":329,"iÅĨ":330,"Ġiz":331,"os":332,"ei":333,"Ġuz":334,"Ġc":335,"Ġat":336,"et":337,"Äĵr":338,"Ä«g":339,"on":340,"Äģj":341,"Ä«t":342,"iek":343,"Ġpar":344,"or":345,"ĠÅ¡":346,"ir":347,"Äģt":348,"om":349,"aj":350,"iet":351,"Å¡an":352,"Äĵt":353,"Ġka":354,"Å¾":355,"Ġpr":356,"ek":357,"ĠâĢ":358,"oj":359,"ab":360,"Ġpie":361,"Ġap":362,"el":363,"Ġie":364,"ija":365,"Äĵl":366,"Ġz":367,"Ġvai":368,"Äģl":369,"ol":370,"Ġlai":371,"ĠkÄģ":372,"Ä·":373,"ĠarÄ«":374,"Ġpa":375,"Ġjau":376,"Ä«j":377,"it":378,"Ġvis":379,"em":380,"isk":381,"ijas":382,"Ġkur":383,"Ġf":384,"un":385,"Ä«v":386,"Ġvien":387,"ti":388,"ais":389,"Ġkas":390,"Ġtik":391,"od":392,"ĠpÄģr":393,"Äĵm":394,"Äģc":395,"Ġvar":396,"Ġsk":397,"ums":398,"Ġ(":399,"Å¡i":400,"Ġes":401,"tr":402,"im":403,"Ġman":404,"ĠviÅĨ":405,"Ä«bas":406,"Ġto":407,"Ä£":408,"Äĵc":409,"ĠâĢĵ":410,"ta":411,"umu":412,"ul":413,"Ä«dz":414,"pr":415,"Ġko":416,"Ġbet":417,"az":418,"dr":419,"ev":420,"ĠtÄģ":421,"Ġsav":422,"ts":423,"Å«t":424,"Ġin":425,"sk":426,"iz":427,"eik":428,"Ġpat":429,"arb":430,"ok":431,"iel":432,"ag":433,"Ġgr":434,"Ġdz":435,"Ġre":436,"Å«s":437,"aut":438,"kÄģ":439,"iju":440,"Å¡u":441,"Ġbija":442,"Ġsp":443,"og":444,"iec":445,"audz":446,"aiz":447,"ĠvÄĵl":448,"ej":449,"Ġnav":450,"rÄ«":451,"Äį":452,"Ġ1":453,"ajÄģ":454,"Äĵs":455,"Ä«bu":456,"oÅ¡":457,"Ġkr":458,"Ä«gi":459,"tÄģj":460,"aÄ¼":461,"Äĵk":462,"Ġies":463,"id":464,"Ġgan":465,"ec":466,"ĠkÄģd":467,"Å¡anas":468,"Âł":469,"Ġtas":470,"ob":471,"Ä«m":472,"Ġpas":473,"ĠlÄ«dz":474,"Ġgad":475,"irm":476,"aug":477,"uma":478,"atv":479,"akst":480,"pÄĵj":481,"inÄģt":482,"eiz":483,"Ġaiz":484,"Ġlab":485,"Ġst":486,"Ġdarb":487,"âĢĿ":488,"man":489,"ams":490,"Ġjo":491,"Ġ2":492,"Äģn":493,"Ġtr":494,"ter":495,"mu":496,"op":497,"ru":498,"oti":499,"Ġliel":500,"auk":501,"Äĵd":502,"Äģrt":503,"Ġval":504,"ic":505,"ez":506,"eÄ¼":507,"Ġnot":508,"umÄģ":509,"ac":510,"ed":511,"inÄģj":512,"ild":513,"Ġvair":514,"ĠpÄĵc":515,"Ä«s":516,"Ġpl":517,"var":518,"aÅ¾":519,"Ġtad":520,"Äģv":521,"aid":522,"ĠĠ":523,"Ġtikai":524,"Ä«k":525,"eid":526,"Ġlatv":527,"Ġ-":528,"iv":529,"aud":530,"nu":531,"ĠÄ¼":532,"ÅĨem":533,"ep":534,"Ġkon":535,"Äĵja":536,"ilv":537,"Ġkl":538,"Ġpirm":539,"Ġlaik":540,"Äĵtu":541,"vien":542,"pa":543,"iekÅ¡":544,"Ġbr":545,"lÄĵ":546,"Ġtur":547,"00":548,"Ä«st":549,"ĠtÄģd":550,"Ġnep":551,"oc":552,"ijÄģ":553,"ain":554,"Ġmaz":555,"ilvÄĵk":556,"gr":557,"Ġdaudz":558,"pÄĵc":559,"usi":560,"ĠâĢľ":561,"uk":562,"Ġpal":563,"ieg":564,"ers":565,"uÅ¡":566,"ras":567,"lik":568,"ib":569,"oties":570,"ĠjÄģ":571,"rÄģd":572,"skat":573,"ĠcilvÄĵk":574,"Ä«ba":575,"Ġja":576,"Ġgal":577,"niek":578,"Ġdien":579,"itÄģ":580,"vÄĵr":581,"Å¡anu":582,"ist":583,"Ġjaun":584,"Ġnek":585,"ĠdzÄ«v":586,"gad":587,"vis":588,"Ä«n":589,"ina":590,"auc":591,"Ġkom":592,"ĠiespÄĵj":593,"lai":594,"Ġtie":595,"Ġh":596,"Ġpil":597,"tas":598,"ĠvairÄģk":599,"Ġinter":600,"Ġkad":601,"Ġdr":602,"Ġatt":603,"Å¡Ä·":604,"kl":605,"dien":606,"aks":607,"ra":608,"Ġliet":609,"sts":610,"Äįu":611,"ĠsÄģk":612,"Ġ\"":613,"Å«tu":614,"Ġnes":615,"ĠÄ¼oti":616,"Ġgar":617,"Ä«bÄģ":618,"Äĵju":619,"iÄģl":620,"inÄģ":621,"Ä¼u":622,"Äģju":623,"oz":624,"orm":625,"ied":626,"nes":627,"ĠÅ¡o":628,"ĠpaÅ¡":629,"umi":630,"Å¡ana":631,"iev":632,"eic":633,"val":634,"Ġsas":635,"ent":636,"Ġskai":637,"ne":638,"Ġizv":639,"tur":640,"ja":641,"sp":642,"ĠdaÅ¾":643,"Ġmin":644,"Ġatb":645,"Ġkaut":646,"Ġneb":647,"Ġak":648,"pat":649,"Å«k":650,"eb":651,"ÅĨÄĵm":652,"sm":653,"lu":654,"Ġdom":655,"Ġtu":656,"iÅĨu":657,"ĠbÅ«s":658,"ni":659,"Ġaug":660,"ens":661,"ajiem":662,"ion":663,"ip":664,"Ġveid":665,"Ġcit":666,"umiem":667,"iski":668,"Ġsavu":669,"ĠbÄĵr":670,"Ġpam":671,"edz":672,"kr":673,"Å«d":674,"itu":675,"Äģcijas":676,"Ġkop":677,"Ġtiek":678,"Ġte":679,"li":680,"iez":681,"Ġrakst":682,").":683,"to":684,"Ä«r":685,"vai":686,"ÅĨu":687,"ma":688,"Ġned":689,"Ġnos":690,"umus":691,"atu":692,"gan":693,"Ġaut":694,"omÄĵr":695,"Ġpu":696,"Ġizd":697,"ĠstÄģ":698,"),":699,"Ġek":700,"mas":701,"Ä«gs":702,"and":703,"Ä«c":704,"Äģks":705,"Ġpav":706,"ieÅ¡":707,"Ġsm":708,"Ġpied":709,"ÄĵÄ¼":710,"Ä«ja":711,"Ġvid":712,"Ġstr":713,"Ġnod":714,"ekl":715,"uz":716,"ef":717,"Ġbez":718,"bet":719,"Ġvec":720,"ĠâĢĶ":721,"Ġnu":722,"Ġlik":723,"stu":724,"Ġkat":725,"Ġdiv":726,"Ä«pa":727,"Ġkar":728,"ĠmÅ«s":729,"ĠvÄĵr":730,"Ġbal":731,"iÅĨa":732,"ĠtÄģs":733,"of":734,"adz":735,"akar":736,"Ä«z":737,"rakst":738,"Ġ3":739,"br":740,"Ġpus":741,"Ġfil":742,"pl":743,"eÅ¾":744,"Å¡anÄģs":745,"ĠlaikÄģ":746,"Ä«ga":747,"ĠmÄģj":748,"ĠviÅĨa":749,"Ġsal":750,"Ġnoteik":751,"Ä«tÄģj":752,"otÄģj":753,"Ġtel":754,"Ġsap":755,"Ġot":756,"ties":757,"las":758,"Ġcen":759,"Ġiet":760,"Ġveik":761,"tus":762,"mÄĵr":763,"form":764,"Ġan":765,"ĠÅ¡Ä·":766,"iedr":767,"Ġtam":768,"Ġsar":769,"lab":770,"Ġizman":771,"ĠviÅĨÅ¡":772,"uÅ¡i":773,"Ġskr":774,"istr":775,"atav":776,"ika":777,"Ġal":778,"ĠÄ«pa":779,"ier":780,"ĠmÄĵ":781,"ogr":782,"Äģrd":783,"rÄ«d":784,"ĠbÅ«t":785,"Ġsv":786,"niec":787,"no":788,"Ġzem":789,"Ä«ties":790,"Ġvisu":791,"Ġbl":792,"ĠbÅ«tu":793,"kÄģr":794,"te":795,"maz":796,"par":797,"Ġpiem":798,"ĠÄģr":799,"Ġpret":800,"Ġredz":801,"Ġsl":802,"Ġlatvijas":803,"ami":804,"ĠceÄ¼":805,"auj":806,"iÅĨÅ¡":807,"kur":808,"Ġieg":809,"zÄ«m":810,"Ġreiz":811,"eg":812,"ven":813,"Ġsa":814,"Ġstar":815,"iÅĨas":816,"Ġvir":817,"Ä«ti":818,"Ä«d":819,"Ġrad":820,"up":821,"Ġas":822,"evi":823,"eig":824,"Å¡anai":825,"aul":826,"sta":827,"ieÅ¾":828,"ĠmÄĵs":829,"Ä«gas":830,"ig":831,"ĠÅ¡Äģd":832,"ĠdaÄ¼":833,"Ġta":834,"ĠpriekÅ¡":835,"eit":836,"erson":837,"ĠnÄģk":838,"Ġkam":839,"kÄģrt":840,"Ġsai":841,"Ġviet":842,"aus":843,"reiz":844,"ekt":845,"nieg":846,"Ä«gu":847,"est":848,"Ġatr":849,"Ä«ts":850,"ĠtaÄįu":851,"Ġvaj":852,"ator":853,"ka":854,"dzÄ«v":855,"ĠgrÄģm":856,"ĠÄį":857,"Ġpag":858,"Å«r":859,"Ġsag":860,"Ġgrib":861,"ikas":862,"akt":863,"ku":864,"Ġor":865,"Äģtr":866,"pÄģr":867,"ĠÄ·":868,"ĠĠĠĠ":869,"ajÄģm":870,"ov":871,"ĠtomÄĵr":872,"Ġsak":873,"ietu":874,"Ġvalsts":875,"Äģciju":876,"Ġinteres":877,"ĠvarÄĵtu":878,"iedz":879,"Ġstu":880,"atÄ«v":881,"kar":882,"Ġpiln":883,"ĠvienkÄģr":884,"Ġinform":885,"Ġviss":886,"ju":887,"oÄ£":888,"ama":889,"Ġel":890,"lÄĵm":891,"Ġdar":892,"Ġesmu":893,"Ġnor":894,"Äĵts":895,"ots":896,"isko":897,"la":898,"tes":899,"Ġpad":900,"Ġmums":901,"ĠdaÅ¾Äģd":902,"Ġpak":903,"jau":904,"Ġskat":905,"Ġties":906,"vÄĵl":907,"ud":908,"ĠÅ¡Ä«":909,"eidz":910,"lÄģ":911,"Ġ5":912,"Ġmar":913,"ĠkÄģdu":914,"Ġizmant":915,"ietÄģ":916,"Ġnevar":917,"lv":918,"ieÅ¡u":919,"sti":920,"irk":921,"Äģja":922,"cer":923,"Ġil":924,"ing":925,"Ġtika":926,"Ġlabi":927,"Äģli":928,"Â«":929,"na":930,"Ġperson":931,"ust":932,"ub":933,"kal":934,"ĠmÄĵr":935,"Ġ4":936,"Ġw":937,"Ġvad":938,"odas":939,"Äĵst":940,"oÅ¡i":941,"otams":942,"ĠviÅĨu":943,"Ġstarp":944,"Ä«gÄģ":945,"ona":946,"Ġmani":947,"Ġmil":948,"eta":949,"Ġpirms":950,"iks":951,"kat":952,"aur":953,"Ġsek":954,"ĠkÄģrt":955,"oja":956,"Ġrok":957,"ĠÄ«st":958,"eÅ¡":959,"ko":960,"Ġsat":961,"ird":962,"ĠÄģtr":963,"Äģcija":964,"Ġpils":965,"Ġlas":966,"ÅĨa":967,"Ġier":968,"Ġsab":969,"ultÄģ":970,"ÄĵdÄĵj":971,"Ġsam":972,"ĠmÅ«su":973,"inu":974,"Ġtag":975,"Â»":976,"ver":977,"Ġiek":978,"Ä«ta":979,"oÅ¡anas":980,"bÅ«t":981,"Ġkuru":982,"Ġtagad":983,"gal":984,"ĠpiemÄĵr":985,"kas":986,"ĠlabÄģk":987,"Äĵta":988,"unk":989,"Ġviens":990,"ÄĵtÄģj":991,"ĠtÄģl":992,"otu":993,"ĠvÄģrd":994,"ĠÄ£":995,"Ġpaz":996,"Ġpap":997,"Å«ras":998,"Ġskol":999,"liet":1000,"aÅ¡":1001,"ĠnekÄģ":1002,"ĠgadÄ«j":1003,"ĠÅ¾":1004,"Äĵtas":1005,"ĠtÄģpÄĵc":1006,"Ġlap":1007,"Ġapm":1008,"Ġiem":1009,"Ġcik":1010,"Ġotr":1011,"Ġdarba":1012,"Ġizm":1013,"Ġvajadz":1014,"Ġats":1015,"Ġpol":1016,"Ġilg":1017,"pas":1018,"etr":1019,"ogram":1020,"priekÅ¡":1021,"Ġvienu":1022,"lÄ«dz":1023,"pirm":1024,"oloÄ£":1025,"ons":1026,"enc":1027,"Å¡Ä·ir":1028,"Ġcitu":1029,"Ġattiec":1030,"Äģp":1031,"ĠkÄģds":1032,"Ġsiev":1033,"Ä«jÄģs":1034,"Ġik":1035,"Ġlaiku":1036,"ĠtieÅ¡i":1037,"Ġrez":1038,"Ġpies":1039,"ijÄģm":1040,"Ġneat":1041,"ojas":1042,"eir":1043,"ĠplÄģn":1044,"Å«z":1045,"end":1046,"ĠpÄģrst":1047,"redz":1048,"cijas":1049,"ĠkurÅ¡":1050,"Ġ20":1051,"tiem":1052,"Ġpamat":1053,"Ġnop":1054,"ojot":1055,"Ġjeb":1056,"Ä¼a":1057,"eju":1058,"ienu":1059,"gl":1060,"ĠÄ«paÅ¡":1061,"Ġmaks":1062,"ionÄģl":1063,"Ä«l":1064,"nÄ«c":1065,"Ġac":1066,"tÄģl":1067,"iecieÅ¡":1068,"Å¾u":1069,"ÄĵjÄģs":1070,"iskÄģs":1071,"ĠlielÄģk":1072,"ĠjautÄģj":1073,"Ġ200":1074,"ĠbÄĵrn":1075,"Ġkal":1076,"hn":1077,"âĢĵ":1078,"Ġpiet":1079,"vald":1080,"Ġab":1081,"ĠâĢŀ":1082,"ojumu":1083,"ĠuzÅĨÄĵm":1084,"ĠÅ«d":1085,"gada":1086,"iÅĨÄģ":1087,"Ġad":1088,"Ġturp":1089,"ĠizvÄĵl":1090,"Ġtir":1091,"Ġnebija":1092,"ĠnepiecieÅ¡":1093,"liel":1094,"nÄģk":1095,"onu":1096,"Ä«ju":1097,"ĠpiedÄģv":1098,"strÄģd":1099,"ÄĵÄ£":1100,"dom":1101,"ans":1102,"inÄģm":1103,"iniek":1104,"oju":1105,"ĠgrÄģmat":1106,"droÅ¡":1107,"stÄģd":1108,"Ä«tu":1109,"ĠÂ«":1110,"Ä«bÄģm":1111,"me":1112,"ĠparÄģd":1113,"Ġvairs":1114,"tÄĵ":1115,"Ġbiju":1116,"Ġrun":1117,"ĠnozÄ«m":1118,"iskÄģ":1119,"Äģz":1120,"ĠlatvijÄģ":1121,"Ġpats":1122,"ĠspÄĵl":1123,"ĠÅ¡is":1124,"ĠpalÄ«dz":1125,"iÄ¼":1126,"tad":1127,"ĠkopÄģ":1128,"gu":1129,"Ġproc":1130,"niedz":1131,"Ġgatav":1132,"Ġid":1133,"Ġsaj":1134,"ÅĨi":1135,"Äĵties":1136,"ĠiespÄĵjams":1137,"inÄģja":1138,"ĠÅ¡ajÄģ":1139,"Ġvakar":1140,"Ä«gÄģk":1141,"inÄģs":1142,"dev":1143,"ĠviÅĨi":1144,"ĠvienkÄģrÅ¡i":1145,"ĠkurÄģ":1146,"eikt":1147,"Ġliek":1148,"eni":1149,"ĠpÄĵdÄĵj":1150,"ĠvÄ«r":1151,"tik":1152,"Ġsapr":1153,"ejas":1154,"Ġsad":1155,"Ġtelef":1156,"ind":1157,"Ġa":1158,"Ġmed":1159,"Ġblog":1160,"stÄģk":1161,"Ġatp":1162,"Äĵji":1163,"istÄĵm":1164,"Ġprogram":1165,"bl":1166,"lÄĵg":1167,"Ġser":1168,"ĠiepriekÅ¡":1169,"ĠjÅ«s":1170,"Ġiev":1171,"stÄģ":1172,"Ġgadu":1173,"iens":1174,"Äģts":1175,"ĠbrÄ«d":1176,"Ġter":1177,"Ġdab":1178,"Ġkuras":1179,"Ġsabiedr":1180,"Å«st":1181,"Ġatbild":1182,"Äĵn":1183,"pu":1184,"âĢ¦":1185,"Ġam":1186,"ĠattÄ«st":1187,"ant":1188,"Äģdi":1189,"min":1190,"Ġeir":1191,"Ġizp":1192,"Ġtuv":1193,"pie":1194,"asar":1195,"Å¡a":1196,"ĠkÄ¼":1197,"ĠvietÄģ":1198,"Ġvisi":1199,"Ġe":1200,"Äģtu":1201,"ĠpatÄ«k":1202,"tÄģv":1203,"Ġkura":1204,"Ġtehn":1205,"nd":1206,"Ġviena":1207,"esel":1208,"Ġorgan":1209,"enes":1210,"Ġskaidr":1211,"Ġproj":1212,"ĠrezultÄģ":1213,"Ġmat":1214,"ota":1215,"esm":1216,"odien":1217,"amo":1218,"Ġlaika":1219,"Ġprob":1220,"Ġnaud":1221,"Ġizskat":1222,"Ġneiz":1223,"ĠstÄģv":1224,"Ġfin":1225,"Ġnosk":1226,"usies":1227,"ÄĵÅ¡anas":1228,"Ġdal":1229,"umos":1230,"Ġbeig":1231,"ast":1232,"Äĵti":1233,"Ġnevien":1234,"Ġdev":1235,"Ġpiek":1236,"darb":1237,"aliz":1238,"iku":1239,"le":1240,"nÄĵ":1241,"Ġtiem":1242,"sar":1243,"Ġsevi":1244,"liec":1245,"Ġgalven":1246,"aka":1247,"Ġuzskat":1248,"ors":1249,"Ġsev":1250,"ult":1251,"ilst":1252,"str":1253,"ajos":1254,"ÄĵtÄģ":1255,"oduk":1256,"Å¡anos":1257,"eri":1258,"Ġcentr":1259,"Ġdienas":1260,"jÄģ":1261,"vÄĵrt":1262,"elt":1263,"Ġstund":1264,"oreiz":1265,"Ġnedaudz":1266,"ĠstrÄģd":1267,"ijai":1268,"ĠÄĵd":1269,"umam":1270,"iÅĨi":1271,"Ġpras":1272,"Ġmod":1273,"pus":1274,"Ġ10":1275,"Ġtev":1276,"Äĵjo":1277,"Ġcaur":1278,"ĠproblÄĵm":1279,"rast":1280,"âĢĶ":1281,"ĠbrÄ«v":1282,"ĠpasÄģk":1283,"amies":1284,"ĠkrÄģs":1285,"ĠmÄģc":1286,"Ġatkal":1287,"run":1288,"ĠreÄ£":1289,"ants":1290,"Ġ:":1291,"ÄĵjÄģ":1292,"Ġnov":1293,"pil":1294,"ĠÅ¡Ä«s":1295,"ajam":1296,"Ġsvar":1297,"Ġgada":1298,"Ġbij":1299,"Ġ19":1300,"ĠcilvÄĵki":1301,"obeÅ¾":1302,"Ġizs":1303,"Å«v":1304,"Äģjas":1305,"da":1306,"nieku":1307,"Ġvieg":1308,"Å«p":1309,"Ä«go":1310,"Ġop":1311,"ĠsistÄĵm":1312,"Ġvesel":1313,"ĠvÄĵst":1314,"entu":1315,"arÄ«":1316,"Ġnez":1317,"urs":1318,"he":1319,"ĠtrÄ«":1320,"Ġmal":1321,"Ġizveid":1322,"kop":1323,"Ġvil":1324,"ener":1325,"Ġpieej":1326,"oto":1327,"aules":1328,"ĠcitÄģ":1329,"Ġ6":1330,"ĠiekÅ¡":1331,"drÄ«z":1332,"ĠkÄģda":1333,"Ġmu":1334,"if":1335,"Äģku":1336,"aig":1337,"Ġproduk":1338,"ĠtieÅ¡":1339,"Ġsan":1340,"ÅĨemt":1341,"Ġsac":1342,"Ġministr":1343,"esmu":1344,"inot":1345,"Ġvismaz":1346,"Ġsavas":1347,"Ġgaid":1348,"Ä¼i":1349,"Ġkuri":1350,"ĠpÄĵt":1351,"âĢĿ,":1352,"otÄģju":1353,"Ġdiez":1354,"ĠnorÄģd":1355,"Ġnev":1356,"Ġpan":1357,"Ġgais":1358,"ost":1359,"Ġspec":1360,"ĉĉ":1361,"Äĵjis":1362,"Ġsaist":1363,"liek":1364,"niecÄ«bas":1365,"klÄģt":1366,"Ġpien":1367,"ĠsavÄģ":1368,"Ġvisiem":1369,"ĠpÄģris":1370,"Ġiep":1371,"aim":1372,"uÅ¡ies":1373,"ĠvispÄģr":1374,"aukt":1375,"isam":1376,"abal":1377,"Äĵjot":1378,"Äģca":1379,"mÄģ":1380,"Ġnet":1381,"Ġatz":1382,"va":1383,"ĠdÄģr":1384,"ĠcilvÄĵku":1385,"Ġintern":1386,"Å¡anÄģ":1387,"Ä«jumu":1388,"ĠvÄĵrt":1389,"tic":1390,"Ġfr":1391,"Ġbrauc":1392,"ĠtrÄ«s":1393,"kad":1394,"ĠmÄģjas":1395,"ciju":1396,"eru":1397,"Ġpadom":1398,"ieÅ¡i":1399,"Ġcep":1400,"Ġkomp":1401,"dienas":1402,"Ä«bai":1403,"eklÄĵ":1404,"esmit":1405,"Ġatbal":1406,"latv":1407,"ĠvienmÄĵr":1408,"ks":1409,"gadÄģ":1410,"ojÄģm":1411,"ĠmazÄģk":1412,"Ġziem":1413,"Ġreizi":1414,"cep":1415,"Ġkol":1416,"Ġpriek":1417,"ĠtajÄģ":1418,"Ġizdev":1419,"Ä·i":1420,"ga":1421,"Ġnevis":1422,"Ġdraug":1423,"Ġkatr":1424,"era":1425,"Ġsoc":1426,"Ġlauk":1427,"Ġparedz":1428,"nas":1429,"Ġ7":1430,"Ġkval":1431,"Ġnotiek":1432,"griez":1433,"Ġorganiz":1434,"Ġaps":1435,"ut":1436,"ĠdÄĵÄ¼":1437,"Ġeirop":1438,"ÅĨas":1439,"ita":1440,"ĠviÅĨam":1441,"Ġproces":1442,"Ġizt":1443,"kai":1444,"Ġsieviet":1445,"Ġveikal":1446,"ajÄģs":1447,"Äģb":1448,"ojam":1449,"ojums":1450,"ukÄģrt":1451,"Ġprotams":1452,"ĠmeÅ¾":1453,"prÄģt":1454,"ĠraÅ¾":1455,"ĠbrÄ«":1456,"Ġneko":1457,"lÄĵp":1458,"ĠÅ¡eit":1459,"Ġprojek":1460,"ĠpiemÄĵram":1461,"Ġtirg":1462,"ents":1463,"ĠmÅ«z":1464,"Ġnen":1465,"âĢľ":1466,"Ġ8":1467,"Ġit":1468,"ls":1469,"ns":1470,"Ġol":1471,"Ä·is":1472,"ĠnedÄĵÄ¼":1473,"tomÄĵr":1474,"Ġai":1475,"ĠdÅ¾":1476,"uÅ¡as":1477,"obrÄ«d":1478,"Ġbild":1479,"anc":1480,"Ġuzs":1481,"Ġlaiks":1482,"lÅ«k":1483,"mi":1484,"alp":1485,"kÄģd":1486,"aist":1487,"Å¡as":1488,"Ä«jis":1489,"Äģko":1490,"ĠĠĠĠĠĠĠĠ":1491,"Ġvisas":1492,"Å«ti":1493,"ĠÄ£im":1494,"Ġveic":1495,"Ġnom":1496,"di":1497,"sav":1498,"glÄ«t":1499,"ĠnekÄģd":1500,"ĠÄ«paÅ¡i":1501,"Ġsol":1502,"Ġakt":1503,"itor":1504,"Ġdienu":1505,"ĠzinÄģt":1506,"Ġesam":1507,"veid":1508,"Ġbur":1509,"eja":1510,"Äĵto":1511,"Ġpievien":1512,"isku":1513,"ĠdzÄ«ves":1514,"Ġvalst":1515,"ww":1516,"ĠnodroÅ¡":1517,"oÅ¡anu":1518,"Ġmel":1519,"Ġnoteikti":1520,"ceÄ¼":1521,"Ġizdar":1522,"ĠtÄģds":1523,"oÅ¡o":1524,"Äģta":1525,"iska":1526,"Ġbeidz":1527,"ajai":1528,"nieks":1529,"Ġprof":1530,"itÄģtes":1531,"ia":1532,"Å«dz":1533,"Ġsitu":1534,"ĠsociÄģl":1535,"Ġpavisam":1536,"agr":1537,"vu":1538,"Äģls":1539,"eks":1540,"Ġpaties":1541,"Ġvald":1542,"ĠvarbÅ«t":1543,"mai":1544,"Ġdiezgan":1545,"tt":1546,"brauc":1547,"ĠbieÅ¾":1548,"Ä«tes":1549,"Ġvirs":1550,"Ġvel":1551,"ĠmÄģks":1552,"emp":1553,"ĠtÄģdu":1554,"odu":1555,"Ġtos":1556,"ĠgadÄ«jumÄģ":1557,"Ġmain":1558,"Äģties":1559,"Ġkriev":1560,"Ġdator":1561,"avas":1562,"kam":1563,"ĠizrÄģd":1564,"Äĵjiem":1565,"ds":1566,"ĠmÄĵÄ£":1567,"Äģmies":1568,"Ġsnieg":1569,"Ġsil":1570,"star":1571,"ÄĵÄ·":1572,"bal":1573,"Ġgrup":1574,"aÄ¼as":1575,"Ġspor":1576,"ĠtÄģda":1577,"baud":1578,"amÄģ":1579,"Ġteic":1580,"tÄģm":1581,"ĠtÄģlÄģk":1582,"nieki":1583,"ektÄ«v":1584,"otas":1585,"ogu":1586,"zem":1587,"ĠlÄ«m":1588,"ĠzÄ«m":1589,"ĠviÅĨiem":1590,"Ġnotik":1591,"Äĵjas":1592,"Äģjot":1593,"Ġmas":1594,"Ġmet":1595,"oÅ¡u":1596,"eti":1597,"ĠbÄĵrnu":1598,"Ġjums":1599,"Ġpakalp":1600,"ĠvadÄ«tÄģj":1601,"Ġinteresan":1602,"Ä¼iem":1603,"Ġvied":1604,"tÄģs":1605,"Ġapskat":1606,"Ġpasau":1607,"tam":1608,"Ġdzim":1609,"mar":1610,"ĠtÄ«k":1611,"ĠrÄ«gas":1612,"Ġpapild":1613,"onom":1614,"Ġparas":1615,"ĠÅ¡Ä·iet":1616,"Äģra":1617,"oÅ¡ana":1618,"âĢĿ.":1619,"Ġpor":1620,"ĠgandrÄ«z":1621,"Ġob":1622,"lo":1623,"Äģf":1624,"Ġdarbu":1625,"vid":1626,"gÄģd":1627,"lis":1628,"onÄģ":1629,"ÅĨiem":1630,"Ġpiec":1631,"taÄįu":1632,"ektr":1633,"enti":1634,"ĠviÅĨas":1635,"grib":1636,"Ġlaikam":1637,"Ġmeit":1638,"skol":1639,"Ġ15":1640,"Ġkonkur":1641,"Ġsim":1642,"Ġform":1643,"ĠiedzÄ«v":1644,"Å¾Äĵl":1645,"Ġpiedal":1646,"bild":1647,"ĠjÄģs":1648,"tiv":1649,"ĠsvÄĵt":1650,"Ġnem":1651,"iep":1652,"Ġtiks":1653,"ĠmÄĵne":1654,"omÄģ":1655,"Ġpel":1656,"mes":1657,"Ġpac":1658,"iena":1659,"Äģkais":1660,"ĠizstrÄģd":1661,"Ġzv":1662,"ĠdaÄ¼a":1663,"ÄĵÅ¡anu":1664,"Äģka":1665,"gur":1666,"ĠizglÄ«t":1667,"Ġlietas":1668,"Å«ta":1669,"Ġpubl":1670,"Ġgadiem":1671,"ĠÅ¡odien":1672,"ĠklÄģt":1673,"akaÄ¼":1674,"Ġav":1675,"viÅĨÅ¡":1676,"ĠmÄģjÄģs":1677,"viet":1678,"amas":1679,"Ġlat":1680,"cija":1681,"gs":1682,"ĠpaÅ¡u":1683,"inÄģtu":1684,"Ġpirmo":1685,"isks":1686,"Ġeksp":1687,"ĠskrÄĵj":1688,"Ġban":1689,"iÅĨiem":1690,"ĠtieÅ¡Äģm":1691,"ÄģkÄģ":1692,"Ġvari":1693,"Ġlid":1694,"ves":1695,"ĠminÅ«t":1696,"Ġnorm":1697,"inÄģÅ¡anas":1698,"ojuma":1699,"Ġatm":1700,"Ä«Å¡u":1701,"ĠdalÄ«b":1702,"rÄ«z":1703,"ĠÅ«dens":1704,"Ġ9":1705,"kst":1706,"Ġsen":1707,"gul":1708,"ĠspeciÄģl":1709,"Ġgai":1710,"ĠzinÄģm":1711,"Å«ra":1712,"ĠtÄģpat":1713,"Ġmanu":1714,"ĠÅ¡im":1715,"si":1716,"Ġgu":1717,"inÄģts":1718,"Ä«gais":1719,"ĠspÄĵk":1720,"sv":1721,"ĠiespÄĵjas":1722,"vas":1723,"ĠpÄģrstÄģv":1724,"Ġierakst":1725,"jo":1726,"Ġpirk":1727,"Äģti":1728,"inter":1729,"Ġatrad":1730,"Ä«gÄģs":1731,"sim":1732,"Ġ201":1733,"Ġpul":1734,"Ä«te":1735,"skai":1736,"Ġkatru":1737,"Ġfor":1738,"Ġpolit":1739,"Ġmekl":1740,"ĠcilvÄĵkiem":1741,"ĠrÄ«k":1742,"eriÄģl":1743,"Ġspr":1744,"Ä¼auj":1745,"inc":1746,"ki":1747,"Ä¼us":1748,"Ġof":1749,"Ġmazliet":1750,"Äģri":1751,"ĠÄĵr":1752,"ÄĵkÄģ":1753,"Å«kst":1754,"ĠÄ«s":1755,"Äģla":1756,"ept":1757,"ĠpaÅ¡vald":1758,"Ġpieredz":1759,"Ġbar":1760,"ĠreÄ£istr":1761,"ĠatÅ¡Ä·ir":1762,"piem":1763,"Ġkor":1764,"ĠmÄ«":1765,"ĠierÄ«":1766,"apr":1767,"Ġapr":1768,"Ä«na":1769,"Ġkomand":1770,"ber":1771,"Ġgadus":1772,"ĠiespÄĵju":1773,"Ġme":1774,"pal":1775,"protams":1776,"Ġiel":1777,"ĠkÄģpÄĵc":1778,"ĠiespÄĵja":1779,"pirms":1780,"Ġnemaz":1781,"ĠgarÅ¡":1782,"Ġizmanto":1783,"ĠatpakaÄ¼":1784,"gar":1785,"brÄ«":1786,"Ġpunk":1787,"Ġind":1788,"Ġnekas":1789,"inÄģjums":1790,"ĠsaÅĨem":1791,"Å«l":1792,"Ġ0":1793,"Ġatkl":1794,"re":1795,"Ġatbilst":1796,"Ġesot":1797,"ĠpÄģrs":1798,"Ġris":1799,"Äĵjam":1800,"ijs":1801,"Ġelektr":1802,"Ġcitiem":1803,"ĠrÄģd":1804,"ĠdroÅ¡":1805,"Äĵjos":1806,"Ġneliel":1807,"Ġstud":1808,"und":1809,"ĠkÄģdÄģ":1810,"Ġnoz":1811,"ĠtehnoloÄ£":1812,"Ġpasaules":1813,"Ġkult":1814,"Ġaugst":1815,"Ġizmantot":1816,"tel":1817,"Ġeiropas":1818,"Ġslim":1819,"Ġauto":1820,"odÄģ":1821,"Ä«Å¡anas":1822,"Äĵjs":1823,"ĠtreÅ¡":1824,"Ä«nu":1825,"Ġvietu":1826,"Å¡os":1827,"pils":1828,"otÄģji":1829,"obil":1830,"ÄģjÄģm":1831,"not":1832,"ogrÄģf":1833,"Ġprec":1834,"eo":1835,"uru":1836,"Ġvietas":1837,"Ġtais":1838,"Ġ:)":1839,"Äĵjumu":1840,"Ä«tas":1841,"Å¾i":1842,"projÄģm":1843,"pras":1844,"ĠpÄģrÄģk":1845,"sa":1846,"Å¾a":1847,"Ġmarat":1848,"Ġmilj":1849,"ĠlÄ«dzek":1850,"ĠÅ¡obrÄ«d":1851,"Ġgabal":1852,"Ġdzies":1853,"Ġnosauk":1854,"ĠpieÅĨem":1855,"Ġprez":1856,"Ġinterneta":1857,"ĠvienÄģ":1858,"Ġdok":1859,"Ġem":1860,"Ġien":1861,"Ġdod":1862,"ow":1863,"Ġautor":1864,"Ġlietu":1865,"aku":1866,"auz":1867,"iest":1868,"Ġmir":1869,"Ġslik":1870,"Ġvies":1871,"su":1872,"ienÄģ":1873,"tuven":1874,"Ġkonkr":1875,"ĠlÄĵm":1876,"Ä«jums":1877,"Ġpop":1878,"ÄĵjÄģm":1879,"Ġkab":1880,"ĠdienÄģ":1881,"akts":1882,"one":1883,"Ġfilmas":1884,"ÄģtÄģ":1885,"ĠnovÄĵr":1886,"ĠiestÄģd":1887,"ÄģlÄģ":1888,"mÄĵs":1889,"Å«ru":1890,"Ġdivas":1891,"vaig":1892,"ĠÄģtri":1893,"ĠkÄ¼u":1894,"Ġgul":1895,"Ġpart":1896,"ikÄģ":1897,"kan":1898,"Ġsamaz":1899,"les":1900,"kÄģp":1901,"cen":1902,"ĠnÄģkam":1903,"Ä«juma":1904,"ĠcilvÄĵks":1905,"ĠapkÄģrt":1906,"Ġfot":1907,"Ġizr":1908,"Ġteikt":1909,"ĠjÄģn":1910,"Ġvasar":1911,"ss":1912,"Äģru":1913,"Ġinst":1914,"ĠÄ«sti":1915,"Ġprofes":1916,"Ġplat":1917,"vad":1918,"Ġietek":1919,"ĠkÄģr":1920,"itÄģti":1921,"Ġnekad":1922,"Ġbijis":1923,"vil":1924,"Ä«sies":1925,"enÄ«":1926,"Ġklas":1927,"Ġdat":1928,"Ġsird":1929,"Ġpareiz":1930,"Ġres":1931,"Ġpoz":1932,"com":1933,"\",":1934,"ene":1935,"Ġnodarb":1936,"stipr":1937,"ĠsalÄ«dz":1938,"eli":1939,"Ġagr":1940,"ĠbieÅ¾i":1941,"nÄģ":1942,"\".":1943,"aidÄģm":1944,"ros":1945,"ĠdarÄ«t":1946,"Ġvirz":1947,"Ġuzman":1948,"Ġesi":1949,"Ġaizsar":1950,"Ġatrast":1951,"tuveni":1952,"Äģlu":1953,"Ġaplik":1954,"viel":1955,"Ġsti":1956,"Ġvers":1957,"ĠpÄģrliec":1958,"Ġpieaug":1959,"dies":1960,"ijÄģs":1961,"Ġdzird":1962,"Ġsu":1963,"Ġkuriem":1964,"Ġvaru":1965,"otÄģjiem":1966,"Äĵv":1967,"af":1968,"Ġsald":1969,"stÄģj":1970,"Ġied":1971,"ĠvÄĵlÄģk":1972,"Ä«kst":1973,"inÄģju":1974,"Ġsaim":1975,"Å¡Äģ":1976,"ogad":1977,"Ġekonom":1978,"rÄģn":1979,"Ġjaunu":1980,"mal":1981,"ĠapmÄĵr":1982,"Ġkontr":1983,"Ġoper":1984,"Ġteik":1985,"ĠmÄ«l":1986,"Ġizc":1987,"ojÄģs":1988,"ĠkÄģdas":1989,"Ġandr":1990,"ikt":1991,"rad":1992,"Ġmobil":1993,"eviÅ¡Ä·":1994,"amu":1995,"ÄĵÅ¡ana":1996,",\"":1997,"Ġtren":1998,"ets":1999,"ĠpasaulÄĵ":2000,"ĠtÄģm":2001,"Ġpati":2002,"tais":2003,"Ġpietiek":2004,"inÄģjumu":2005,"ĠkamÄĵr":2006,"ĠjoprojÄģm":2007,"ĠiegÄģd":2008,"Ġtav":2009,"viÅĨa":2010,"gas":2011,"tagad":2012,"Ġreizes":2013,"urn":2014,"Ġcer":2015,"Ġ100":2016,"ĠlÄ«dzi":2017,"iÅĨÄģm":2018,"ÄģjuÅ¡":2019,"laik":2020,"Ġatcer":2021,"skr":2022,"Ä«nas":2023,"ĠÅĨem":2024,"Ġautom":2025,"mir":2026,"ĠgrÄģmatu":2027,"iÅĨus":2028,"Ġtai":2029,"Äĵjums":2030,"vair":2031,"Ġsaka":2032,"ĠdÄģrz":2033,"Ġneesmu":2034,"Ġsava":2035,"piemÄĵr":2036,"dienu":2037,"ara":2038,"tos":2039,"Ġdi":2040,"Ġnok":2041,"tÄģpÄĵc":2042,"uld":2043,"Ġizlas":2044,"Å«tas":2045,"smes":2046,"ĠlatvieÅ¡u":2047,"enta":2048,"Ġsarakst":2049,"ĠmateriÄģl":2050,"Ġgl":2051,"Å¾as":2052,"ond":2053,"ÄĵÄ¼u":2054,"niekiem":2055,"tÄģd":2056,"aÄ¼u":2057,"Ġzaud":2058,"Ġpavad":2059,"Ġdokum":2060,"stat":2061,"ura":2062,"Ġzemes":2063,"Ġ12":2064,"ĠlÄ«g":2065,"pants":2066,"Ġmana":2067,"ĠsastÄģv":2068,"Ġsacens":2069,"Ġsarun":2070,"Ġrekl":2071,"aÄ¼a":2072,"ĠgrÄģmatas":2073,"Ġsakar":2074,"ĠbÅ«v":2075,"ĠpilnÄ«gi":2076,"Ä«to":2077,"ĠvÄĵstur":2078,"ora":2079,"Ġteritor":2080,"Ġjebkur":2081,"olu":2082,"Ġmilz":2083,"ĠjÄģbÅ«t":2084,"io":2085,"ĠmaÅ¡":2086,"aÄ¼Äģ":2087,"ĠstÄģst":2088,"enerÄ£":2089,"Ġvisai":2090,"Ġmans":2091,"ĠreÅ¾":2092,"ini":2093,"Ġaud":2094,"Ġkap":2095,"Ġdarbiniek":2096,"Ġaptuveni":2097,"Ġpopul":2098,"lÄĵdz":2099,"Ġput":2100,"Ġiemes":2101,"Ġ30":2102,"Ġkil":2103,"Ġparasti":2104,"Äĵtos":2105,"Ġsavien":2106,"ĠpaziÅĨ":2107,"Ġklien":2108,"eris":2109,"ĠievÄĵr":2110,"ĠpilsÄĵtas":2111,"ĠaktÄ«v":2112,"ĠpaÅ¡i":2113,"Ġbalt":2114,"Ġuzdev":2115,"Ġnoskr":2116,"Ġmier":2117,"ĠinformÄģcijas":2118,"inÄģti":2119,"Ġfunk":2120,"ĠspÄĵkÄģ":2121,"iskas":2122,"Ġsaviem":2123,"Ġizpild":2124,"Ġsavus":2125,"Ġvajag":2126,"ĠizskatÄģs":2127,"oni":2128,"ĠierÄ«c":2129,"Ġpab":2130,"ĠnozÄ«mÄĵ":2131,"ĠsÄĵd":2132,"ins":2133,"gun":2134,"lÄ«":2135,"enis":2136,"oÅ¡Äģ":2137,"ÅĨÄģ":2138,"ĠrobeÅ¾":2139,"Ġner":2140,"ruk":2141,"oda":2142,"kom":2143,"Ġlabu":2144,"ĠekrÄģn":2145,"aksas":2146,"ms":2147,"ĠbeigÄģs":2148,"Ġfilmu":2149,"ĠtÄĵm":2150,"aust":2151,"km":2152,"Ġtek":2153,"ord":2154,"taut":2155,"Ġiesp":2156,"Ġviegli":2157,"ĠgrÅ«ti":2158,"aun":2159,"Äģki":2160,"ata":2161,"ĠnebÅ«s":2162,"tajÄģ":2163,"oÅ¡a":2164,"ĠredzÄĵt":2165,"ĠÅ¡Äģ":2166,"ĠÅ¡Äģdu":2167,"Äģmas":2168,"ojis":2169,"pad":2170,"Ġsec":2171,"Ġuzz":2172,"ĠpÄģrbaud":2173,"ĠplaÅ¡":2174,"ved":2175,"ĠapstÄģk":2176,"ĠpÄģri":2177,"Äģrs":2178,"omu":2179,"piemÄĵram":2180,"Ġneviens":2181,"icis":2182,"Ġdraudz":2183,"ĠatseviÅ¡Ä·":2184,"kaut":2185,"ĠvarÄĵja":2186,"Ġpaliel":2187,"Ġtv":2188,"Ġneg":2189,"ĠgalÄģ":2190,"Ġkoment":2191,"ĠkÄģp":2192,"itÄ«v":2193,"Ġsagatav":2194,"sÄģk":2195,"Ġku":2196,"ĠvÄĵrÄģ":2197,"Äģlo":2198,"ĠviÅĨai":2199,"Ä·u":2200,"Ġliela":2201,"nav":2202,"itÄģte":2203,"ĠnespÄĵj":2204,"nis":2205,"Ġnepat":2206,"Ġuzreiz":2207,"ĠbÄĵrniem":2208,"Ġdep":2209,"ĠaugstÄģk":2210,"ĠinformÄģciju":2211,"ĠvarÄĵs":2212,"mÄĵ":2213,"Ġvisus":2214,"ĠÄģrÄģ":2215,"inÄģta":2216,"Ġneap":2217,"ĠziÅĨÄģ":2218,"ĠspÄĵj":2219,"ĠÄģd":2220,"latvijas":2221,"Ġnegrib":2222,"ola":2223,"acionÄģl":2224,"Ġkons":2225,"Ġnopiet":2226,"Ġilgi":2227,"Ġsauc":2228,"etes":2229,"Ä«tÄģ":2230,"Ġizl":2231,"ĠzÄģl":2232,"ĠÄ·er":2233,"ĠnebÅ«tu":2234,"oÅ¡anÄģs":2235,"Ġgroz":2236,"Ġlielu":2237,"iÅ¡":2238,"ĠdrÄ«z":2239,"ĠsÄģkumÄģ":2240,"Ġup":2241,"pag":2242,"ana":2243,"ch":2244,"Ġatrodas":2245,"Ġkontrol":2246,"Ġpuses":2247,"oÅ¡s":2248,"Ġstat":2249,"ĠveidÄģ":2250,"oog":2251,"Ġizpl":2252,"Äģjis":2253,"ĠziÅĨ":2254,"Ġveiksm":2255,"Ä«p":2256,"Ġmam":2257,"Å«n":2258,"ĠÅ¡oreiz":2259,"ÄĵtÄģs":2260,"Å¡Ä«":2261,"Ġpaliek":2262,"Ġnevaj":2263,"Ġsasnieg":2264,"Ġglu":2265,"Ġciet":2266,"Ġapj":2267,"Ġregul":2268,"Ġciti":2269,"Ġtap":2270,"oru":2271,"pan":2272,"ÅĨus":2273,"Ġaprakst":2274,"spor":2275,"varb":2276,"Ġzied":2277,"ĠattÄĵl":2278,"Ġcitas":2279,"varbÅ«t":2280,"Ġraj":2281,"Ġkomis":2282,"ĠpÄģrd":2283,"Ġvideo":2284,"oÅ¡anai":2285,"Ġfiz":2286,"20":2287,"ĠpienÄģk":2288,"ĠbrÄ«dÄ«":2289,"Ġdesmit":2290,"Äĵjusi":2291,"Ġprinc":2292,"Ġaktu":2293,"otÄģjs":2294,"mÄģm":2295,"otr":2296,"000":2297,"interes":2298,"nek":2299,"ĠpirmÄģ":2300,"Ġbeidzot":2301,"Ä«bÄģs":2302,"Ġnol":2303,"ÄĵjuÅ¡i":2304,"ĠnepiecieÅ¡ams":2305,"Ġliec":2306,"erat":2307,"ÄģcijÄģ":2308,"eÄ¼u":2309,"iskais":2310,"ĠpÄģrvald":2311,"Ġaic":2312,"vakar":2313,"Ġbiedr":2314,"Ġdur":2315,"savukÄģrt":2316,"ĠdaÄ¼u":2317,"Äģcis":2318,"ĠdarbÄ«bas":2319,"ĠsaÅĨÄĵm":2320,"fil":2321,"viss":2322,"Ġiepaz":2323,"ministr":2324,"Å¡o":2325,"Ġpriec":2326,"udÅ¾":2327,"Å«g":2328,"Ä«jumiem":2329,"ĠmÄĵnes":2330,"Ġdiev":2331,"Ġlabs":2332,"isti":2333,"tuv":2334,"iemÅ¾Äĵl":2335,"Ä«tos":2336,"Ġviedok":2337,"Ġobj":2338,"res":2339,"Ġlog":2340,"Äĵz":2341,"tÄģpat":2342,"istu":2343,"Ġuzvar":2344,"Ġuzlab":2345,"Ġkai":2346,"ĠizglÄ«tÄ«bas":2347,"ĠnedÄĵÄ¼as":2348,"pild":2349,"ipar":2350,"ĠÄįetr":2351,"ĠdÄģv":2352,"ĠmÅ«":2353,"stÄģv":2354,"vÄģrd":2355,"Ġapg":2356,"Ä¼au":2357,"Ġfan":2358,"Ġpos":2359,"eÅĨu":2360,"Ä«jusi":2361,"Ä¼aut":2362,"eles":2363,"aina":2364,"Ġmai":2365,"Ġaudz":2366,"10":2367,"Å¡is":2368,"stab":2369,"akus":2370,"Ġapt":2371,"Ġgod":2372,"dar":2373,"sÄĵd":2374,"ĠminÅ«tes":2375,"Ġkrit":2376,"Ġvisa":2377,"obus":2378,"Ġsmag":2379,"Ġsaglab":2380,"Ġklaus":2381,"ĠslÄĵp":2382,"nÄ«cas":2383,"Ġvaram":2384,"entÄģ":2385,"Ġthe":2386,"ĠsÄĵ":2387,"Äĵjais":2388,"Ġcuk":2389,"ĠÅ¾urn":2390,"Ġapz":2391,"ĠsÄģka":2392,"Ġsporta":2393,"Ġ25":2394,"desmit":2395,"aÅĨ":2396,"ĠdomÄģju":2397,"Ġizkl":2398,"//":2399,"starp":2400,"Ġeksper":2401,"ĠpÄĵr":2402,"Ġdisk":2403,"iespÄĵj":2404,"Ġliels":2405,"ĠÄ¼auj":2406,"gÄģ":2407,"ĠsavukÄģrt":2408,"Ġdivi":2409,"oogle":2410,"ĠrÄ«ta":2411,"Ä«Å¡anu":2412,"Ġ18":2413,"Ġkust":2414,"Ġuzrakst":2415,"vairÄģk":2416,"ieru":2417,"ttp":2418,"Ä«jos":2419,"Ġsagr":2420,"Ä«ra":2421,"ĠceÄ¼u":2422,"Ġiegu":2423,"Ġnaudas":2424,"Ġkan":2425,"tie":2426,"ejÄģ":2427,"Ġlau":2428,"Ġfilma":2429,"Ġef":2430,"Ġnees":2431,"Ġjur":2432,"ÄĵtÄģjs":2433,"noz":2434,"ĠpriekÅ¡Äģ":2435,"Ġvieta":2436,"entiem":2437,"nos":2438,"ino":2439,"Ġsadarb":2440,"ÄģjÄģs":2441,"Ġtevi":2442,"Ġtran":2443,"Ġstundas":2444,"ĠdzÄ«vi":2445,"ĠnÄĵ":2446,"Ġpirmais":2447,"jas":2448,"Ġdiena":2449,"ieni":2450,"itr":2451,"Ġrakstur":2452,"Ġlatu":2453,"Ä«ru":2454,"ĠtiesÄ«bas":2455,"oks":2456,"Ġinterne":2457,"ietis":2458,"Ġugun":2459,"Ġig":2460,"Ġstipr":2461,"ĠpaÅ¡Äģ":2462,"Ġziemas":2463,"://":2464,"Ġklus":2465,"ĠtÄģdÄĵÄ¼":2466,"Ġpaman":2467,"ĠmÄ«Ä¼":2468,"Ġsaul":2469,"Ġistab":2470,"ieÅ¡Äģm":2471,"Ġapmekl":2472,"Ġbag":2473,"kon":2474,"Ġpusi":2475,"daÅ¾":2476,"ĠnolÄĵm":2477,"ĠpiedzÄ«v":2478,"dienÄģ":2479,"Ġatrod":2480,"ÄĵÅ¡anÄģs":2481,"aida":2482,"ĠsÄ«k":2483,"ĠtÄģdas":2484,"inÄģÅ¡anu":2485,"Ġ50":2486,"Ġnaudu":2487,"Ġma":2488,"Ġtikt":2489,"ektu":2490,"ĠrÅ«p":2491,"Ġkonf":2492,"ÄģtÄģj":2493,"ĠkÄ¼Å«st":2494,"etur":2495,"ĠglÄģ":2496,"Ġstil":2497,"uÅ¡Äģs":2498,"jaun":2499,"Ġlikuma":2500,"Ġlapas":2501,"Ġteica":2502,"Ġkont":2503,"Ä«juÅ¡i":2504,"aisa":2505,"nieka":2506,"Äĵjuma":2507,"Ġdarbs":2508,"ĠnÄģkot":2509,"ĠproblÄĵmas":2510,"ĠkultÅ«ras":2511,"Ġdatu":2512,"Ġdir":2513,"Ä«tis":2514,"Ġasv":2515,"nev":2516,"ĠpastÄģv":2517,"Ġiespaid":2518,"bÅ«v":2519,"sl":2520,"otÄģ":2521,"ĠstÄģsta":2522,"emon":2523,"Ġpir":2524,"Ġtaut":2525,"Ġkilom":2526,"Ġtrad":2527,"andar":2528,"Ä«jumi":2529,"Ġeks":2530,"Ġrokas":2531,"ĠkompÄģn":2532,"Ġnoder":2533,"Ġ.":2534,"ĠÅ¡os":2535,"Äĵjie":2536,"Ä·er":2537,"ĠdroÅ¡i":2538,"Ġstarptaut":2539,"ĠrÄ«gÄģ":2540,"Ġgalvenais":2541,"Ġdeb":2542,"Äģkt":2543,"grieÅ¾":2544,"Ġaizsardz":2545,"ĠstÄģj":2546,"grÄģm":2547,"Ä«Å¡ana":2548,"laic":2549,":)":2550,"Ġpolic":2551,"Ġfinans":2552,"ÄģkÄģs":2553,"ĠbÄĵrni":2554,"Ġskrie":2555,"Ġnum":2556,"Ġsta":2557,"ĠpÄĵdÄĵjÄģ":2558,"Ġmuz":2559,"Ġkm":2560,"ĠjÅ«su":2561,"isma":2562,"Ġsarkan":2563,"Ä«tÄģju":2564,"Ġamat":2565,"ĠmÄģksl":2566,"bilst":2567,"svÄĵt":2568,"Äģkas":2569,"ĠÅ¡ogad":2570,"Ġizg":2571,"ĠvidÅ«":2572,"Ġjauno":2573,"Ġx":2574,"ĠsÄģp":2575,"bÄĵr":2576,"Ġbir":2577,"ojumus":2578,"Ġtic":2579,"âĢĻ":2580,"ĠbudÅ¾":2581,"mat":2582,"Ġauk":2583,"Ä«Å¡anÄģs":2584,"ĠsabiedrÄ«bas":2585,"ĠjÄģiz":2586,"ess":2587,"Å¡odien":2588,"Ġnodok":2589,"Ġbiez":2590,"Ġuztur":2591,"ĠmÄ«k":2592,"Ġkaf":2593,"Ġblakus":2594,"ĠĠĠĠĠĠĠĠĠĠĠĠĠĠĠĠ":2595,"Ġsept":2596,"ĠÅ¡au":2597,"oÅ¡Äģs":2598,"ÄĵjÄģdi":2599,"Ġ11":2600,"dienÄģs":2601,"ĠvÄģr":2602,"Ġok":2603,"Å«c":2604,"onas":2605,"Ġpakalpojumu":2606,"ĠkÄģdam":2607,"likt":2608,"Ġuzskata":2609,"ĠpirmajÄģ":2610,"Ġskaits":2611,"Ġizteik":2612,"ĠdzÄ«vok":2613,"bu":2614,"lap":2615,"ĠaÄ£":2616,"Ġcits":2617,"ĠkopÅ¡":2618,"ps":2619,"tÄģtad":2620,"Ġsmar":2621,"ĠattÄ«stÄ«bas":2622,"Ä«jies":2623,"Ġpriv":2624,"ĠpatÄĵr":2625,"ĠiekÅ¡Äģ":2626,"Ġau":2627,"ÅĨemot":2628,"Ġsniedz":2629,"Ġmon":2630,"ĠnacionÄģl":2631,"Ġatv":2632,"tikai":2633,"ĠÄ«sten":2634,"ĠjÄĵ":2635,"Ġskaidrs":2636,"ung":2637,"Ġmais":2638,"anti":2639,"Ġled":2640,"ĠmeklÄĵ":2641,"ĠÅ¡Äģda":2642,"ĠtÅ«kst":2643,"Ġatbr":2644,"mÅ«s":2645,"Å¡ajÄģ":2646,"Ġatgriez":2647,"Ġfakt":2648,"Ġrind":2649,"iÄ£":2650,"ail":2651,"Ġinf":2652,"ieties":2653,"ĠenerÄ£":2654,"ĠcilvÄĵka":2655,"Ġim":2656,"Å¡iem":2657,"ĠÅ¡ie":2658,"Ġatkar":2659,"person":2660,"ĠmÄģcÄ«bu":2661,"Ġprom":2662,"ĠtÄ«r":2663,"inÄģties":2664,"ĠlietÄģ":2665,"Ġdeg":2666,"Ġapstipr":2667,"ĠÄĵk":2668,"Ġdiz":2669,"sal":2670,"Ġskriet":2671,"Ġrit":2672,"Ġatst":2673,"viens":2674,"ĠvÄģrdu":2675,"ĠjÅ«t":2676,"ĠgarÄģm":2677,"ĠvalodÄģ":2678,"Ġprezid":2679,"els":2680,"Äģnu":2681,"ĠdomÄģ":2682,"Ġmetod":2683,"ĠpozitÄ«v":2684,"ĠacÄ«m":2685,"ĠierobeÅ¾":2686,"ĠpÄģrsteig":2687,"Ġaizmir":2688,"ĠgluÅ¾i":2689,"amÄģs":2690,"ĠmÅ«zikas":2691,"Ġliekas":2692,"Ä¼os":2693,"Ġpast":2694,"ook":2695,"ĠdzÄĵr":2696,"ars":2697,"ukt":2698,"ĠizmÄĵr":2699,"Ġapvien":2700,"Ġ16":2701,"ĠpalÄ«dzÄ«bu":2702,"ĠsÄĵr":2703,"Ġls":2704,"utÄģ":2705,"Ġielas":2706,"Ġstandar":2707,"the":2708,"inÄģtÄģj":2709,"eis":2710,"ĠdzÄ«vÄĵ":2711,"ĠpieÅ¡Ä·ir":2712,"embrÄ«":2713,"ji":2714,"ĠjÄģat":2715,"__":2716,"diena":2717,"met":2718,"ĠnepÄģr":2719,"Äĵnu":2720,"cijÄģ":2721,"Ġkabin":2722,"ĠjÄģm":2723,"ĠpiedÄģvÄģ":2724,"oid":2725,"onis":2726,"iÅĨos":2727,"Ġsirds":2728,"Ġdist":2729,"Ġneuz":2730,"erv":2731,"Ġarvien":2732,"Ġinstit":2733,"ojumi":2734,"iznes":2735,"ĠsÄģkot":2736,"wit":2737,"Ġsaska":2738,"Ä«giem":2739,"Ġpateic":2740,"Ġtirdz":2741,"30":2742,"Ġiedom":2743,"Ġtranspor":2744,"ĠgadÄģ":2745,"Ġpiepras":2746,"ieÅ¡iem":2747,"ĠpiedÄģvÄģj":2748,"Ġotru":2749,"ĠapmÄĵram":2750,"ĠtÅ«r":2751,"ĠzaÄ¼":2752,"ĠmanÄģ":2753,"Ġlaba":2754,"Äģna":2755,"ĠvakarÄģ":2756,"Ġperi":2757,"ojumiem":2758,"Ġgados":2759,"sih":2760,"kt":2761,"mÄģk":2762,"Ġtum":2763,"Ġbi":2764,"Ġkurus":2765,"Ġservis":2766,"ĠdaÅ¾Äģdu":2767,"ĠlasÄ«t":2768,"Ġtelefonu":2769,"Ġnotika":2770,"Ġviegl":2771,"Ġtemp":2772,"Ġkoncer":2773,"ĠpagaidÄģm":2774,"Ġroku":2775,"Äģma":2776,"Ġraksta":2777,"Ġsatik":2778,"Ġtal":2779,"ĠkÄģrtÄ«bÄģ":2780,"ĠgrÅ«t":2781,"Ġdzied":2782,"ows":2783,"Ġrud":2784,"otÄģja":2785,"otos":2786,"Ġskaist":2787,"Ġsilt":2788,"ĠspÄĵc":2789,"Ġaktiv":2790,"Ġprakt":2791,"Ġautobus":2792,"ĠiegÅ«t":2793,"Ġiesnieg":2794,"ĠpaÅ¡am":2795,"Ġuzt":2796,"ĠatvÄĵr":2797,"ĠÄģtrÄģk":2798,"ĠÄ£imenes":2799,"akÅ¡":2800,"ĠstrÄģdÄģ":2801,"Ġgoogle":2802,"ĠiedzÄ«votÄģju":2803,"avu":2804,"vÄģr":2805,"Ġtuk":2806,"ĠsistÄĵmas":2807,"Ġdraugiem":2808,"Ġkatrs":2809,"Ġatbalst":2810,"Å¡us":2811,"ĠpatieÅ¡Äģm":2812,"uÅ¡o":2813,"ĠpagÄģjuÅ¡":2814,"Ġpersonas":2815,"ĠotrÄģ":2816,"Ġprincip":2817,"ĠpastÄģ":2818,"ĠjautÄģjumu":2819,"mÄĵt":2820,"ena":2821,"Ġministru":2822,"eras":2823,"Ġiesaist":2824,"Ġnosaka":2825,"Ġvienas":2826,"Ġtirgus":2827,"ĠmÄģt":2828,"ĠvisÄģm":2829,"ĠkÄ¼Å«d":2830,"ĠmÄģr":2831,"aic":2832,"iÅĨam":2833,"Ġpublic":2834,"irz":2835,"Ġaizr":2836,"Ġprot":2837,"Ġpapildus":2838,"ÄĵÅ¡anai":2839,"Ġpiemin":2840,"ĠsanÄģk":2841,"50":2842,"Ġtil":2843,"ÄģlÄģs":2844,"Ġ14":2845,"Ġadministr":2846,"ĠsajÅ«ta":2847,"ĠstÄģjas":2848,"Ġbaud":2849,"iskajÄģ":2850,"Ġrecep":2851,"Ġskrien":2852,"for":2853,"Ġnesapr":2854,"ĠinformÄģcija":2855,"Ġviz":2856,"ĠlielÄģ":2857,"ĠmÄĵrÄ·":2858,"witter":2859,"Ġemoc":2860,"Ġ[":2861,"Ġdabas":2862,"ĠienÄģk":2863,"omas":2864,"ĠdziÄ¼":2865,"ĠvajadzÄĵtu":2866,"ilg":2867,"ĠvairÄģkas":2868,"ĠpatiesÄ«bÄģ":2869,"Ġy":2870,"Ġizplat":2871,"Ġdienes":2872,"Ġcita":2873,"elg":2874,"Ġsez":2875,"Ġtelev":2876,"ou":2877,"Ġnost":2878,"Ġciem":2879,"Ġdistanc":2880,"Äģto":2881,"Ġnepar":2882,"Ġanal":2883,"ingr":2884,"ĠvÄĵlas":2885,"sies":2886,"ĠatgÄģd":2887,"elis":2888,"iciÄģl":2889,"aini":2890,"veik":2891,"Ġutt":2892,"Å¡s":2893,"Ġarh":2894,"ĠstÄģvok":2895,"Ġlietot":2896,"marat":2897,"Ġcetur":2898,"Ġpieteik":2899,"indows":2900,"Ġĉĉ":2901,"ĠnorÄģda":2902,"oÅ¡anÄģ":2903,"Ġmanas":2904,"ĠbrÄ«di":2905,"Ġresurs":2906,"ada":2907,"Ġsaprot":2908,"Ġterm":2909,"ĠtÄĵr":2910,"tup":2911,"Ġkriet":2912,"pied":2913,"ĠkurÄģm":2914,"Ġpavasar":2915,"ket":2916,"Ġnozar":2917,"Ä«jumÄģ":2918,"Å«Å¡u":2919,"ĠpirmÄģs":2920,"ĠtÄģdi":2921,"ĠpazÄ«st":2922,"ĠfotogrÄģf":2923,"ĠÅ¡iem":2924,"abil":2925,"iera":2926,"Ġskatu":2927,"Ġpieder":2928,"Ġbildes":2929,"Ġnakt":2930,"pap":2931,"Ġdarbojas":2932,"Ġsievietes":2933,"Ġrep":2934,"Ġmanis":2935,"Ġnakts":2936,"cis":2937,"Ġtau":2938,"Ġlieta":2939,"enu":2940,"Ġmot":2941,"ivers":2942,"ĠrezultÄģtÄģ":2943,"Ġkompl":2944,"eÅ¾Ä£":2945,"du":2946,"Ġsvie":2947,"Ġnoskat":2948,"ĠcitÄģm":2949,"Ġnedr":2950,"ÄĵtÄģju":2951,"ĠjautÄģjums":2952,"osies":2953,"Ġbijusi":2954,"trauc":2955,"Ġcauri":2956,"cik":2957,"lud":2958,"likumu":2959,"inÄģl":2960,"akti":2961,"gÄģj":2962,"ences":2963,"Ġmugur":2964,"ence":2965,"sol":2966,"Ġatl":2967,"Ġtop":2968,"ĠdzÄ«vo":2969,"Ġseg":2970,"erc":2971,"ipl":2972,"pÄĵdÄĵj":2973,"ĠtÄĵl":2974,"svar":2975,"ĠvisÄģ":2976,"ĠaÄ£ent":2977,"ĠjÄģd":2978,"ĠveselÄ«bas":2979,"Ġ17":2980,"Äģns":2981,"Ġprogrammas":2982,"skolas":2983,"turklÄģt":2984,"oku":2985,"oÅ¡as":2986,"Ġcenu":2987,"Ġizdom":2988,"ĠvadÄ«tÄģjs":2989,"bez":2990,"entus":2991,"Ġdaudzi":2992,"ĠpusÄĵ":2993,",âĢĿ":2994,"Ġloc":2995,"Ġbiznes":2996,"Ġamer":2997,"Ġinteresanti":2998,"Ġveikt":2999,"www":3000,"galv":3001,"Ġpsih":3002,"Ġkomun":3003,"Ġsast":3004,"ĠnepiecieÅ¡am":3005,"ÄĵkÅ¡":3006,"Ä«tÄģjiem":3007,"ĠmÄĵrÄ·is":3008,"bol":3009,"etu":3010,"Ġgalvas":3011,"att":3012,"ĠpaÅ¡a":3013,"ÄģcÄģs":3014,"Ġ13":3015,"Ġpaskat":3016,"nÄ«":3017,"idr":3018,"ĠdÄ«v":3019,"inoÅ¡i":3020,"ava":3021,"Ġnopirk":3022,"ĠtuvÄģk":3023,"ĠvÄģc":3024,"ĠkopÄĵj":3025,"Ġapliec":3026,"Ġdara":3027,"Ġandroid":3028,"ĠdeputÄģ":3029,"fr":3030,"Ġbaz":3031,"Ġbals":3032,"ejs":3033,"Ġ199":3034,"Ġmaiz":3035,"inÄģÅ¡ana":3036,"paldies":3037,"Ġsul":3038,"Äĵrb":3039,"Ġskolas":3040,"Ġzil":3041,"Ġpild":3042,"Ġadres":3043,"kÄģpÄĵc":3044,"trauk":3045,"ĠtrÅ«k":3046,"Ġnezinu":3047,"anÅ¡u":3048,"ojoties":3049,"Ä«sim":3050,"Ġdoties":3051,"eÅĨ":3052,"Ġsaei":3053,"cilvÄĵk":3054,"ojusi":3055,"Ġjauna":3056,"ekts":3057,"ĠdaÄ¼Äģ":3058,"Ġsaz":3059,"Ġred":3060,"Ġnetiek":3061,"Ġlit":3062,"ĠgrÄģmata":3063,"ri":3064,"ÄĵÅ¡u":3065,"Ġacis":3066,"ĠnonÄģk":3067,"Ä¼oti":3068,"ĠpaÅ¡as":3069,"ĠbrÄ«n":3070,"tis":3071,"uper":3072,"ph":3073,"âĢŀ":3074,"Äģms":3075,"Ġrakstu":3076,"ĠÅ¡ai":3077,"Ä«jÄģm":3078,"Ä«cijas":3079,"daudz":3080,"viÅĨi":3081,"Ä«tÄģjs":3082,"katr":3083,"ĠrÅ«":3084,"ĠtÄģdÄģ":3085,"Äģmi":3086,"Ġrealiz":3087,"ojuÅ¡i":3088,"Ġkred":3089,"ĠmÄģju":3090,"Ġneredz":3091,"tim":3092,"Ġpens":3093,"ĠÅ¡Äģdi":3094,"Ġpietiekami":3095,"bor":3096,"ejot":3097,"eÄ£":3098,"Äįa":3099,"Ġvidus":3100,"anu":3101,"ĠdaÅ¾as":3102,"ĠziÅĨu":3103,"Äģdes":3104,"Ġvalodas":3105,"odz":3106,"bija":3107,"eÅ¡u":3108,"Ġkuram":3109,"Ä«gie":3110,"itatÄ«v":3111,"Ġpatika":3112,"ĠinternetÄģ":3113,"Ġ,":3114,"Äģzes":3115,"maÅ¡":3116,"Äģjam":3117,"ore":3118,"beidz":3119,"vÄģ":3120,"ĠdÄĵl":3121,"ĠprofesionÄģl":3122,"Ġliecina":3123,"Ġder":3124,"ĠÅ«deni":3125,"Ġgrupas":3126,"Ġide":3127,"ĠrÄ«c":3128,"Ġlaim":3129,"sas":3130,"ĠmÄ«lest":3131,"Äĵrs":3132,"Ġpipar":3133,"Ġaizl":3134,"Ġnoskai":3135,"ĠlikÄģs":3136,"ĠmÄģkslas":3137,"ĠuzmanÄ«bu":3138,"Ġnr":3139,"Ġiec":3140,"kot":3141,"krÄģs":3142,"Ġizmai":3143,"onus":3144,"ĠdomÄģt":3145,"Ä«tÄģji":3146,"Ġsaprast":3147,"ĠÄģrpus":3148,"Ġsadal":3149,"ĠlietÄģm":3150,"Ġskait":3151,"ĠpilnÄ«bÄģ":3152,"oniem":3153,"oma":3154,"Ġizpr":3155,"ĠturklÄģt":3156,"Ġsum":3157,"Ġizmantojot":3158,"ĠsvarÄ«gi":3159,"ned":3160,"Å«rÄģ":3161,"Äĵg":3162,"ĠkÄģdi":3163,"Ġtrauc":3164,"ĠdroÅ¡Ä«bas":3165,"Ġpalik":3166,"ĠdaÅ¾Äģdas":3167,"ĠjÅ«ras":3168,"izrÄģd":3169,"ĠsareÅ¾Ä£":3170,"ĠÄģrst":3171,"ĠsavÄģm":3172,"Ġuzr":3173,"Ġkrist":3174,"Ġvilc":3175,"Ġtikpat":3176,"Ġdv":3177,"Ġunivers":3178,"ĠpievÄĵr":3179,"air":3180,"Å¡Äģd":3181,"ĠdaÅ¾i":3182,"iespÄĵjams":3183,"ĠcitÄģdi":3184,"Ġwindows":3185,"vielas":3186,"Ġep":3187,"Ġindiv":3188,"vec":3189,"Äĵni":3190,"Ġalb":3191,"Ġsh":3192,"ĠprecÄ«z":3193,"ii":3194,"por":3195,"Ġkino":3196,"Ġpadar":3197,"ojumÄģ":3198,"amat":3199,"ĠreÅ¾Ä«m":3200,"rÄģt":3201,"ÄģjuÅ¡i":3202,"Ġproduktu":3203,"inÄģjuma":3204,"ĠÄ¼au":3205,"Ġnoskaidr":3206,"Ġjauns":3207,"ĠkolÄĵÄ£":3208,"Ġklub":3209,"ains":3210,"net":3211,"Ġper":3212,"Ġsmu":3213,"int":3214,"oÅ¡ais":3215,"ĠvÄĵrts":3216,"Ġmei":3217,"Äģva":3218,"Ġteor":3219,"Ġjaunas":3220,"Ġkun":3221,"Ä«jumus":3222,"Ġez":3223,"Ġmetr":3224,"Ġveida":3225,"ĠÅ¡Ä·ir":3226,"Ġzinu":3227,"ĠtehnoloÄ£iju":3228,"Ġprojektu":3229,"ĠbiÄ¼":3230,"kaidr":3231,"Ġo":3232,"amp":3233,"dab":3234,"ĠpastÄģst":3235,"ĠkopumÄģ":3236,"Äĵjies":3237,"aceb":3238,"ĠÄģb":3239,"Ġtem":3240,"Ġcent":3241,"Ġneatkar":3242,"Ġgana":3243,"Ġstundu":3244,"qu":3245,"Ġkonstat":3246,"ĠpaÅ¡valdÄ«bas":3247,"ieniem":3248,"eh":3249,"avÄģ":3250,"Ġziv":3251,"Ġnogal":3252,"ĠpierÄģd":3253,"saim":3254,"Ġso":3255,"ĠsÄģku":3256,"lig":3257,"Ġgribu":3258,"Ġlapu":3259,"oga":3260,"Ġdiviem":3261,"tÄģlu":3262,"andr":3263,"Ġfoto":3264,"ĠdaÄ¼as":3265,"Ġsig":3266,"Ġbrauk":3267,"Ġkatram":3268,"amais":3269,"ĠjaunÄģ":3270,"ĠmÅ«Å¾":3271,"iÄ·":3272,"spÄĵl":3273,"ĠnepatÄ«k":3274,"ink":3275,"ĠuzÅĨem":3276,"ĠdarbÄģ":3277,"Ġkatra":3278,"ĠlÄĵmumu":3279,"Ġdzer":3280,"Ġveidot":3281,"ĠpÄĵdÄĵjo":3282,"go":3283,"ple":3284,"pÄĵt":3285,"Ġveido":3286,"ĠceÄ¼a":3287,"Ġprieks":3288,"oÅ¡iem":3289,"ikÄģcijas":3290,"Ġplan":3291,"tÄĵm":3292,"ĠkuÄ£":3293,"ĠziÅĨas":3294,"Ġaustr":3295,"ĠkÄģjÄģm":3296,"ĠnÄģv":3297,"tieÅ¡i":3298,"Ġrom":3299,"Äĵtais":3300,"ĠlÅ«k":3301,"ĠapdroÅ¡":3302,"Ä«ne":3303,"Ġtelp":3304,"ĠvietÄģs":3305,"Ġmor":3306,"ojos":3307,"smi":3308,"Äģjos":3309,"ĠpÄģrt":3310,"enÄĵm":3311,"ĠjÄģp":3312,"ĠizdarÄ«t":3313,"Ġmic":3314,"ÄģrÄģ":3315,"ay":3316,"ĠuzstÄģd":3317,"brauk":3318,"beig":3319,"Ġcien":3320,"acebook":3321,"turp":3322,"Ġkras":3323,"Ġdomas":3324,"inga":3325,"Ġrot":3326,"ÅĨÄĵma":3327,"oli":3328,"ĠdarbÄ«bu":3329,"ÄĵkÅ¡ÅĨi":3330,"ĠattÄģl":3331,"ĠvirzienÄģ":3332,"aksÄģ":3333,"Ġelektron":3334,"Ġnotiks":3335,"inÄģÅ¡anai":3336,"Ġlikt":3337,"Ġieraudz":3338,"Ġpievieno":3339,"ĠzinÄģms":3340,"ĠlapÄģ":3341,"Ġpot":3342,"Ġdef":3343,"ĠrÄ«t":3344,"umb":3345,"Ġnedz":3346,"ojies":3347,"Ġneaiz":3348,"Ġroz":3349,"ĠbÄĵrna":3350,"Å¡ot":3351,"ĠaizsardzÄ«bas":3352,"ĠnovÄĵrt":3353,"oft":3354,"ĠpriekÅ¡sÄĵd":3355,"ĠeÄ¼":3356,"Ġjelg":3357,"Äģkiem":3358,"Ġ40":3359,"Ġtelefona":3360,"van":3361,"Ġskan":3362,"ĠstÄģsts":3363,"ĠreklÄģmas":3364,"Ġledus":3365,"cion":3366,"eil":3367,"Ä«gÄģm":3368,"tiesa":3369,"Ä«gus":3370,"ĠsaÅĨemt":3371,"ĠpasÄģkumu":3372,"inÄģjÄģs":3373,"Ġietvar":3374,"Ġkrietni":3375,"Ġlu":3376,"Ġuztic":3377,"ĠfinanÅ¡u":3378,"lim":3379,"Ġstrauj":3380,"Ġcenas":3381,"ĠtiesÄ«bu":3382,"ĠcÄ«":3383,"Ġpacien":3384,"bi":3385,"Ġsvaig":3386,"ĠvienÄ«gi":3387,"ĠsistÄĵmu":3388,"Ġliep":3389,"koh":3390,"ĠapmeklÄĵ":3391,"ipa":3392,"Ġpaldies":3393,"''":3394,"Ġver":3395,"Ġvelt":3396,"Äģcijai":3397,"Ġkilometr":3398,"ĠmaksÄģ":3399,"ĠstrÄģdÄģt":3400,"Ġpateikt":3401,"ĠspÄĵles":3402,"akas":3403,"ĠrakstÄ«t":3404,"Ġsmaid":3405,"ĠoficiÄģl":3406,"Ġrek":3407,"Ġaizdom":3408,"ĠlielÄģkÄģ":3409,"ĠgÄģj":3410,"Ġsmil":3411,"ĠnedrÄ«kst":3412,"ĠlÄĵn":3413,"Ġkrievu":3414,"ĠdzÄ«ve":3415,"skaidr":3416,"vi":3417,"Ġtwitter":3418,"Ġ21":3419,"ulis":3420,"Ġdzel":3421,"istiem":3422,"paties":3423,"Ä«Å¡anai":3424,"ĠpilsÄĵtÄģ":3425,"ĠrunÄģ":3426,"Ġzvaig":3427,"bo":3428,"ĠatkÄģrt":3429,"oka":3430,"Ġtras":3431,"ml":3432,"Ġdet":3433,"Ġkok":3434,"ĠnedÄĵÄ¼u":3435,"Ġnevaru":3436,"Ġcel":3437,"Ġang":3438,"ĠpriekÅ¡u":3439,"Ġmus":3440,"ner":3441,"ori":3442,"Ġvides":3443,"Ġuguns":3444,"ovs":3445,"Å«dzu":3446,"Ġsaules":3447,"pret":3448,"nÄ«cÄģ":3449,"ĠatzÄ«st":3450,"Ġkod":3451,"ĠkÄģdreiz":3452,"labÄģk":3453,"etru":3454,"ĠdÄģrg":3455,"ha":3456,"ĠkÄģjas":3457,"ĠsavÄģd":3458,"ht":3459,"Ġ000":3460,"ĠbÄĵrns":3461,"ĠpÄģrkÄģp":3462,"ĠkÄ¼uva":3463,"iskie":3464,"augu":3465,"eln":3466,"Ġelem":3467,"ĠizrÄģdÄģs":3468,"del":3469,"Ġatlik":3470,"ĠnormatÄ«v":3471,"ĠjÄģr":3472,"Ġgala":3473,"Ä«tÄĵm":3474,"Ġtautas":3475,"ĠatklÄģt":3476,"Ġdoma":3477,"ĠnoslÄĵg":3478,"Ġpusmarat":3479,"bur":3480,"Ġbas":3481,"Ä«ns":3482,"Å¡Ä·i":3483,"Ġand":3484,"Ġsakot":3485,"inÄģjumi":3486,"ekÄ¼a":3487,"uli":3488,"iekl":3489,"dzim":3490,"ĠÅ¡Äģdas":3491,"ĠseÅ¡":3492,"ĠmÄģs":3493,"sme":3494,"Ġierad":3495,"Ġmeln":3496,"Ġpres":3497,"Ġcitus":3498,"Ä«da":3499,"noteik":3500,"ĠbijÄģm":3501,"Ġkrust":3502,"ĠskatÄ«ties":3503,"lietu":3504,"ats":3505,"Ġfl":3506,"Ġprogrammu":3507,"Ġviel":3508,"Ä«nÄģ":3509,"atÄģ":3510,"Ġsapratu":3511,"diemÅ¾Äĵl":3512,"ists":3513,"Ġnesen":3514,"ietus":3515,"ĠcilvÄĵkus":3516,"empion":3517,"Ġiztur":3518,"maksas":3519,"Ġsaus":3520,"Ġpiekr":3521,"Ġizveidot":3522,"antu":3523,"Ġdis":3524,"Ġtom":3525,"ĠagrÄģk":3526,"Ġnevajadz":3527,"Ġdzelt":3528,"ack":3529,"Ġbraukt":3530,"Ġmaksas":3531,"fit":3532,"ĠatzÄ«m":3533,"ĠsanÄģca":3534,"ols":3535,"oÅ¡os":3536,"Ġdivus":3537,"Ġed":3538,"Ġinterv":3539,"valsts":3540,"ĠproblÄĵmu":3541,"ĠaprÄ«":3542,"oci":3543,"Ġgribas":3544,"ĠmÄĵrc":3545,"Ġgalvu":3546,"Ġinv":3547,"Äĵna":3548,"inis":3549,"ĠviedtÄģl":3550,"raf":3551,"ĠÅ¡Ä·ita":3552,"jan":3553,"ĠvadÄ«tÄģja":3554,"Ġfran":3555,"Ġatd":3556,"ĠvÄĵlreiz":3557,"Ġatbalsta":3558,"ĠsaskaÅĨÄģ":3559,"Ġsieviete":3560,"eÅĨa":3561,"Å¡oreiz":3562,"Ġmik":3563,"ĠuzÅĨÄĵmuma":3564,"ĠrunÄģt":3565,"ĠielÄģ":3566,"Ġradio":3567,"ĠpakÄģp":3568,"ĠizvÄĵlÄĵties":3569,"Ġgudr":3570,"ĠprÄģtÄģ":3571,"Ġkrim":3572,"Ġkartup":3573,"Ġvasaras":3574,"ĠjomÄģ":3575,"Ġuzd":3576,"Ġbru":3577,"Ġrodas":3578,"ĠpanÄģk":3579,"ejam":3580,"Ġuztver":3581,"Ġsmal":3582,"Ġpulkst":3583,"Ġparakst":3584,"Ġzir":3585,"Ġietvaros":3586,"Ġ24":3587,"lam":3588,"Ġlikum":3589,"ĠmeklÄĵt":3590,"Ġvirtu":3591,"pav":3592,"ĠlietotÄģju":3593,"laus":3594,"vel":3595,"Ġtul":3596,"valst":3597,"ibli":3598,"smit":3599,"ine":3600,"tif":3601,"likums":3602,"Ġalus":3603,"ross":3604,"proj":3605,"Äĵsim":3606,"emd":3607,"niece":3608,"ienus":3609,"Ġcena":3610,"Ġdib":3611,"ĠpasÅ«t":3612,"Ġnebiju":3613,"nep":3614,"Äģnis":3615,"ĠturpmÄģk":3616,"Ġuzl":3617,"Ġalkoh":3618,"ators":3619,"Ġde":3620,"ĠtÄģdÄĵjÄģdi":3621,"Ġieguld":3622,"ĠreÄ£ion":3623,"Ġboj":3624,"irs":3625,"Å«m":3626,"Ġnosac":3627,"ĠÄįempion":3628,"ienas":3629,"Ġsuper":3630,"Ġlej":3631,"ublik":3632,"Ġsagaid":3633,"Ġdirekt":3634,"Ġtip":3635,",Â»":3636,"Ġpeld":3637,"Ġrest":3638,"iÅ¾":3639,"niecÄ«bu":3640,"ĠpÄĵkÅ¡ÅĨi":3641,"aik":3642,"ald":3643,"ienes":3644,"ĠkurÄģs":3645,"Ġslav":3646,"fÄĵr":3647,"Ġnon":3648,"paÅ¡":3649,"Ġizj":3650,"Å¾iem":3651,"Ġapgalv":3652,"elta":3653,"Ġlauku":3654,"Ġcentra":3655,"ĠtÄĵv":3656,"ogas":3657,"Ġrada":3658,"nÄ«cu":3659,"punk":3660,"atas":3661,"Ġzina":3662,"Ġsevis":3663,"ĠziemassvÄĵt":3664,"Ġber":3665,"ĠvalstÄ«":3666,"Ġapmier":3667,"Ġkait":3668,"ils":3669,"ĠkvalitatÄ«v":3670,"kait":3671,"mÅ«su":3672,"Ġdurv":3673,"Ġpasaul":3674,"panta":3675,"Ġfak":3676,"nÄĵm":3677,"Ä«tÄģs":3678,"Ġpagas":3679,"Ġpareizi":3680,"niem":3681,"Ġvan":3682,"ĠvairÄģki":3683,"enciÄģl":3684,"ĠtirgÅ«":3685,"ard":3686,"ĠpiedalÄ«ties":3687,"ĠÄģrzem":3688,"ĠtÄģlu":3689,"Ġstrukt":3690,"ĠvajadzÄĵja":3691,"upa":3692,"ĠcilvÄĵkam":3693,"19":3694,"Ġotro":3695,"uss":3696,"ipÄĵd":3697,"oÅ¡ie":3698,"ĠpopulÄģr":3699,"Ġmazu":3700,"bieÅ¾":3701,"Äģtiem":3702,"ĠskaÄ¼":3703,"Ġaizg":3704,"amsung":3705,"ĠmÄĵdz":3706,"embr":3707,"ĠsveÅ¡":3708,"ĠsistÄĵma":3709,"ĠatbrÄ«v":3710,"ÂłÂł":3711,"enci":3712,"Ġattiek":3713,"Ġzviedr":3714,"ÄģcijÄģm":3715,"egor":3716,"ĠbeigÄģm":3717,"12":3718,"Ġkaim":3719,"Â»,":3720,"Ġkrievijas":3721,"mums":3722,"Å¡ru":3723,"ĠceÄ¼Å¡":3724,"iÅĨai":3725,"ĠvÄģrds":3726,"ĠotrajÄģ":3727,"ĠpieslÄĵg":3728,"ĠpiedÄģvÄģt":3729,"ĠzinÄģtn":3730,"ĠsituÄģciju":3731,"tob":3732,"Ġdel":3733,"Ġdub":3734,"ĠmeÅ¾a":3735,"ĠbudÅ¾eta":3736,"ĠvienÄ«gais":3737,"ĠpaÅ¡iem":3738,"Ġizviet":3739,"ĠlÄ«n":3740,"okol":3741,"ea":3742,"ĠiekÄģrt":3743,"Ġska":3744,"laicÄ«gi":3745,"Ä£Äĵrb":3746,"Ġkreis":3747,"eica":3748,"ĠproblÄĵma":3749,"ĠattiecÄ«bas":3750,"Ġprojekta":3751,"ĠatbilstoÅ¡i":3752,"Ä«ciju":3753,"ieri":3754,"ikl":3755,"ele":3756,"rosoft":3757,"ĠvisÄģd":3758,"ĠpÄģrvaldes":3759,"ojami":3760,"idu":3761,"Ġieguv":3762,"fi":3763,"Ġnoris":3764,"Ġsejas":3765,"imp":3766,"nez":3767,"Ġ+":3768,"ĠparÄģdÄģs":3769,"ere":3770,"ilp":3771,"ĠpÄģrskat":3772,"Ä«zes":3773,"Ġdiskus":3774,"atoru":3775,"ĠgadÄ«jumos":3776,"ĠnodroÅ¡ina":3777,"Ġvain":3778,"ĠdienÄģm":3779,"ĠdaÅ¾Äģdi":3780,"Ġnevajag":3781,"Ġvienam":3782,"ĠcentrÄģ":3783,"rossfit":3784,"onam":3785,"Ġkurai":3786,"Ġapar":3787,"ĠdzÄ«vot":3788,"Ġkomandas":3789,"Ġmirkl":3790,"Ä·a":3791,"ograf":3792,"Ġpersonu":3793,"ĠÐ":3794,"Ġoblig":3795,"all":3796,"Äģkajiem":3797,"ĠrokÄģs":3798,"Ġlatvija":3799,"stas":3800,"Ġiepirk":3801,"mam":3802,"Ġtor":3803,"klaus":3804,"ÄĵtÄģji":3805,"Ġtend":3806,"galven":3807,"Ġdebes":3808,"Ġkos":3809,"ogs":3810,"visi":3811,"Ġret":3812,"Ġbalst":3813,"http":3814,"Ġgalda":3815,"kamÄĵr":3816,"Ġaus":3817,"Ġtelefons":3818,"dÄģr":3819,"inÄģtas":3820,"Ġeiro":3821,"Ġon":3822,"Äģkie":3823,"Ġch":3824,"Ġkomisijas":3825,"aki":3826,"ĠÅ¡Ä«m":3827,"tast":3828,"Ġsasniedz":3829,"rez":3830,"Ġbibli":3831,"ekcijas":3832,"ĠuzÅĨÄĵmumu":3833,"otÄģs":3834,"Ġgadi":3835,"ĠizmÄĵÄ£":3836,"Ġmaksim":3837,"ĠnekÄģdu":3838,"ĠautomaÅ¡":3839,"Ġzob":3840,"ĠrezultÄģtu":3841,"ĠsÄ«p":3842,"ĠÅ¾urnÄģl":3843,"Ġplauk":3844,"Ġtikko":3845,"Ġrepublik":3846,"eÄ¼a":3847,"Ġdivu":3848,"ĠikdienÄģ":3849,"ĠreÅ¾is":3850,"Äĵb":3851,"ĠkomentÄģr":3852,"ĠcÄ«n":3853,"ĠapakÅ¡":3854,"nov":3855,"ĠinstitÅ«":3856,"Ġieteik":3857,"Ġtauk":3858,"Ġnosaukumu":3859,"ĠceÄ¼Äģ":3860,"Ġdomu":3861,"ĠpÄ¼":3862,"Ġag":3863,"ĠiegÄģdÄģties":3864,"Ġraid":3865,"ĠkÄģrtÄ«bu":3866,"Ġizklaid":3867,"emj":3868,"Ġmoder":3869,"ĠveikalÄģ":3870,"fer":3871,"Äģtad":3872,"Ġvalstu":3873,"Ġveids":3874,"div":3875,"etÄģ":3876,"Ġsatr":3877,"laikus":3878,"ĠtÄģtad":3879,"ienam":3880,"Ġlielas":3881,"ÄĵtÄģja":3882,"Ġpadomes":3883,"Ġpur":3884,"Å¡obrÄ«d":3885,"emb":3886,"ĠiestÄģdes":3887,"Ġapl":3888,"Ġminim":3889,"Ġnoteikt":3890,"15":3891,"Ġkak":3892,"Ġht":3893,"ĠnoslÄĵp":3894,"ĠmanuprÄģt":3895,"Ġnekur":3896,"ĠtÄĵmu":3897,"Ġpieejams":3898,"inÄģjis":3899,"sties":3900,"Ġpiena":3901,"Ġnepie":3902,"Ġev":3903,"aujas":3904,"ĠveiksmÄ«gi":3905,"ĠpÄģrlÅ«k":3906,"ĠlikumÄģ":3907,"Ġblogu":3908,"ĠsastÄģvd":3909,"Ġbul":3910,"Ġjurid":3911,"aru":3912,"likuma":3913,"ainu":3914,"Ġeg":3915,"inam":3916,"Ġaizs":3917,"ĠmÄģjÄģm":3918,"Ġsatur":3919,"ĠvaÄ¼Äģ":3920,"Ġsun":3921,"Ġdaug":3922,"Ġ22":3923,"Ġsamaks":3924,"ĠlÄ«menÄ«":3925,"Ġbit":3926,"ĠpasÄģkums":3927,"nod":3928,"Ġbrok":3929,"ĠsÄģkÄģs":3930,"vaj":3931,"Ġdig":3932,"ĠiznÄģk":3933,"ĠmÅ«sdienu":3934,"ekti":3935,"ĠprivÄģt":3936,"Ġaizvien":3937,"Ġizmaks":3938,"ĠtirdzniecÄ«bas":3939,"Äģmu":3940,"ognoz":3941,"Ġbe":3942,"Ġvienal":3943,"Ġigaun":3944,"Ä«si":3945,"ĠpÄģrdom":3946,"Ġaiziet":3947,"ĠceÄ¼am":3948,"Ġved":3949,"aÄ£":3950,"Å¡eit":3951,"ĠsituÄģcija":3952,"ĠcÄĵl":3953,"ĠblogÄģ":3954,"Ġkategor":3955,"kus":3956,"Ä·es":3957,"ainÄģ":3958,"labi":3959,"Ġbaltijas":3960,"Ġvizu":3961,"ska":3962,"katoties":3963,"ĠnekÄģdas":3964,"ĠbagÄģt":3965,"otiv":3966,"Ġsport":3967,"be":3968,"ĠreizÄĵm":3969,"Ġdem":3970,"Ġuzb":3971,"ĠsÄģkt":3972,"ĠvietÄģm":3973,"bilde":3974,"Ġzvaigz":3975,"cel":3976,"Ġros":3977,"ĠviÅĨus":3978,"beidzot":3979,"ĠguÄ¼":3980,"Ġotra":3981,"Ġmeitenes":3982,"ĠmarÅ¡ru":3983,"Ġtaisn":3984,"Ġlietus":3985,"Ġdai":3986,"Ġnel":3987,"Ġatras":3988,"Ġkonst":3989,"ĠnedÄĵÄ¼Äģ":3990,"Ġnoti":3991,"Ġapple":3992,"ĠsÄģkas":3993,"ĠgrÄģd":3994,"ĠrÄĵÄ·":3995,"Ġhttp":3996,"Â».":3997,"ĠvÄ«rietis":3998,"oÅ¡anos":3999,"ĠdiemÅ¾Äĵl":4000,"ĠnevÄĵl":4001,"iskajÄģm":4002,"augst":4003,"lodz":4004,"tÄģla":4005,"Ġpagatav":4006,"ĠsievieÅ¡u":4007,"Ġidejas":4008,"ĠskrieÅ¡anas":4009,"ila":4010,"Ġabi":4011,"ĠnaktÄ«":4012,"ĠpÄĵd":4013,"centr":4014,"ÄģnÄģ":4015,"Ġkau":4016,"ĠjautÄģjumiem":4017,"ĠkrÄģsu":4018,"ete":4019,"Ä«gos":4020,"Ġwww":4021,"iskos":4022,"Ġint":4023,"Ġprojekt":4024,"ĠspÄĵku":4025,"ĠradÄ«t":4026,"Ġmedic":4027,"Ġstatist":4028,"priec":4029,"Ġatbalstu":4030,"oÅ¡ajiem":4031,"ĠangÄ¼u":4032,"Ġpieredze":4033,"ĠadministratÄ«v":4034,"ĠkriminÄģl":4035,"po":4036,"ĠÄ·ir":4037,"gatav":4038,"otÄĵk":4039,"ĠmÅ«ziku":4040,"Ġrajona":4041,"amÄģk":4042,"Ġlok":4043,"Ġikdienas":4044,"Ġpieredzi":4045,"Ġtar":4046,"Äĵli":4047,"ĠpaÅ¡valdÄ«bu":4048,"Ġtemperat":4049,"patiesÄ«bÄģ":4050,"ba":4051,"cit":4052,"tÄĵt":4053,"krit":4054,"Ġnoskriet":4055,"Ġciv":4056,"sept":4057,"ĠkÄ¼uv":4058,"Ġsom":4059,"Ġapgr":4060,"ods":4061,"inieku":4062,"Ġzvan":4063,"ĠÄģdas":4064,"ĠizstÄģd":4065,"Ġpiesaist":4066,"Ġped":4067,"Ġfai":4068,"Ġex":4069,"Ġtoreiz":4070,"Ġasto":4071,"ĠrokÄģm":4072,"Ġprieku":4073,"ĠlÅ«g":4074,"enÄĵ":4075,"ĠvienkÄģrÅ¡":4076,"Ġjautr":4077,"ĠkrÄĵm":4078,"Ġsadz":4079,"ekta":4080,"ĠaktÄ«vi":4081,"Ġdziesmas":4082,"rs":4083,"ĠpÄģrr":4084,"ĠvairÄģkus":4085,"Ġrob":4086,"Ġlikums":4087,"eÄįu":4088,"ĠjÄģv":4089,"ĠlaukÄģ":4090,"ĠapmeklÄĵtÄģj":4091,"ÂłĠ":4092,"ĠvajadzÄ«gs":4093,"Ġtrau":4094,"kiem":4095,"ĠaplikÄģciju":4096,"Ġbezmaksas":4097,"ĠpotenciÄģl":4098,"Ġabsol":4099,"Ġbloga":4100,"ĠsÄģkuma":4101,"Ġfilm":4102,"ĠiespÄĵjÄģm":4103,"Ġdol":4104,"eklis":4105,"Ä«Å¡os":4106,"ojams":4107,"Ġstabil":4108,"Ġpalika":4109,"iÅ¡Ä·":4110,"Ġkoka":4111,"mans":4112,"ainas":4113,"braukt":4114,"Ġtab":4115,"ĠpilsÄĵtu":4116,"Ġapjom":4117,"viena":4118,"ĠkvalitÄģtes":4119,"kos":4120,"Ġapkop":4121,"Äģjies":4122,"ĠkrÄģsas":4123,"ĠsÅ«t":4124,"Ġjum":4125,"Ä«jusies":4126,"ĠkatrÄģ":4127,"Ġolas":4128,"ĠÅ¾Äĵl":4129,"ĠjÄģnis":4130,"Ġatsp":4131,"Ġvalodu":4132,"ebru":4133,"ova":4134,"ĠnepiecieÅ¡ama":4135,"zi":4136,"Ġkv":4137,"Ġnag":4138,"Ä«gajÄģ":4139,"Ġgatavs":4140,"ĠsajÅ«s":4141,"Ġsertif":4142,"ific":4143,"Ġlaic":4144,"Ġlielo":4145,"Ġtiesas":4146,"ĠmÄĵrÄ·i":4147,"ĠizrÄģdÄ«jÄģs":4148,"ĠtÅ«l":4149,"Ġzin":4150,"ĠjÄģuz":4151,"maiz":4152,"osipÄĵd":4153,"mant":4154,"Ġsvin":4155,"Ġpasauli":4156,"Ġsin":4157,"Ġuztais":4158,"ĠgrozÄ«jumiem":4159,"pÄĵju":4160,"Ġnekust":4161,"mier":4162,"veic":4163,"ĠizdevÄģs":4164,"Ġdatora":4165,"Ġamatperson":4166,"Ġkand":4167,"Ġfon":4168,"iniec":4169,"Ġtiktu":4170,"ĠvecumÄģ":4171,"ĠlÄ«d":4172,"ĠdivÄģm":4173,"Ġdziesmu":4174,"ĠÄĵst":4175,"ÄģÄ¼u":4176,"ĠgarumÄģ":4177,"Ġprocess":4178,"ĠnÄģcÄģs":4179,"ĠkrÄģj":4180,"11":4181,"pol":4182,"Ġrel":4183,"ĠstÅ«r":4184,"Ġsaprat":4185,"Ġgaisa":4186,"Ġpraktiski":4187,"ĠapskatÄ«t":4188,"iÅĨÄģs":4189,"Ä£istr":4190,"laikam":4191,"ĠÅ¡Äģds":4192,"Ġnogur":4193,"Ġideja":4194,"ĠatklÄģj":4195,"usu":4196,"ĠpaÅĨÄĵm":4197,"ĠgaÄ¼as":4198,"ĠlÄ«dzÄ«gi":4199,"Ġmobilo":4200,"Ġbat":4201,"eÄ¼i":4202,"Ġredzams":4203,"Ġdes":4204,"Ġcelt":4205,"Äĵtie":4206,"Ġskaitu":4207,"auÅ¾":4208,"Ġapst":4209,"Ġtrim":4210,"Ġotras":4211,"phone":4212,"Ġlieliski":4213,"Ġtradic":4214,"Ġmotiv":4215,"ban":4216,"inÄģjumus":4217,"papild":4218,"Ġos":4219,"ĠlÄ«k":4220,"Ġnopirkt":4221,"ĠvÄĵd":4222,"Ġsest":4223,"Ġnoteikumi":4224,"ĠrÄģda":4225,"Ġmicrosoft":4226,"Ġfacebook":4227,"Ġliterat":4228,"Ġglab":4229,"Ġpadomju":4230,"pÄĵjas":4231,"Ġhol":4232,"Ġvecuma":4233,"ĠslÄĵg":4234,"gadu":4235,"ĠsÄģls":4236,"Ġdot":4237,"Ġbai":4238,"Ġindividu":4239,"Ġatjau":4240,"azÄ«st":4241,"Ġvirtuv":4242,"ĠzinÄģtnes":4243,"Ġgalam":4244,"Ġizrais":4245,"Ġsia":4246,"ĠatÄ¼auj":4247,"ĠskaitÄģ":4248,"ĠamerikÄģ":4249,"Ä¼Å«t":4250,"Ġprognoz":4251,"ĠvisvairÄģk":4252,"ĠuzsÄģk":4253,"Ġdzelten":4254,"vismaz":4255,"ĠbijuÅ¡i":4256,"ĠizpÄĵt":4257,"atr":4258,"ĠkÅ«k":4259,"Ġlep":4260,"ĠsociÄģlo":4261,"Ġfantast":4262,"Ġnepil":4263,"ĠaugÅ¡u":4264,"Ġpieejama":4265,"ĠÄ«":4266,"ilk":4267,"ari":4268,"visu":4269,"ĠnebÅ«t":4270,"runÄģ":4271,"Ġse":4272,"ĠnosÅ«t":4273,"Äģlas":4274,"aism":4275,"Ġ23":4276,"Ġdraud":4277,"ĠdevÄģmies":4278,"veikal":4279,"embra":4280,"Ġpraks":4281,"Ġsmiekl":4282,"eirop":4283,"ĠlielÄģku":4284,"Ġ2008":4285,"Ġeksperim":4286,"iesm":4287,"Ä«du":4288,"Ġasoci":4289,"Ġarhit":4290,"ĠkrÄ«z":4291,"ĠÄĵrti":4292,"Äģlais":4293,"Ġpolicijas":4294,"200":4295,"aps":4296,"ĠglÄģb":4297,"40":4298,"Ġmak":4299,"Ä¼Ä·":4300,"iskÄģm":4301,"ĠskÄģb":4302,"niekam":4303,"Ġneskai":4304,"atcer":4305,"apar":4306,"okÄģrt":4307,"ings":4308,"ĠlÄ«dzekÄ¼u":4309,"ĠÄ«r":4310,"Ġpabal":4311,"Ġvaro":4312,"ĠkÄģdus":4313,"Ġprojekts":4314,"za":4315,"Å¡au":4316,"padsmit":4317,"uc":4318,"Ġmieg":4319,"Ġaizlieg":4320,"Ð°":4321,"ÅĨos":4322,"ĠpatÄ«kami":4323,"organ":4324,"azÄģm":4325,"Ġstaig":4326,"ĠbÄ«st":4327,"Ä«gajiem":4328,"ĠdaÅ¾Äģdiem":4329,"Ġserver":4330,"Ġprocesu":4331,"Ġveikalu":4332,"ĠnÄģkamajÄģ":4333,"Ð¾":4334,"ĠiemÄģc":4335,"tiek":4336,"Ġatsk":4337,"ĠpÄģrviet":4338,"Ġdaudziem":4339,"Ġorien":4340,"ĠaprÄĵÄ·":4341,"ĠautomÄģt":4342,"Ġsaeimas":4343,"sam":4344,"mani":4345,"Ġautors":4346,"Ġnauda":4347,"kÄģds":4348,"bin":4349,"Ġpersona":4350,"Ġsaturu":4351,"Ġprogramm":4352,"Ġversija":4353,"mm":4354,"klÄģj":4355,"aup":4356,"izÄģcijas":4357,"Ġveidu":4358,"ĠparedzÄĵts":4359,"ĠvelosipÄĵd":4360,"Ġjan":4361,"ĠdienÄģs":4362,"ĠoriÄ£":4363,"ĠpalÄ«dzÄĵt":4364,"âĢ¢":4365,"Ġredak":4366,"ĠaugÅ¡Äģ":4367,"Ġdek":4368,"dzes":4369,"ĠaplÅ«k":4370,"pÄĵja":4371,"Ġpazud":4372,"Ġkarst":4373,"Ġpasniedz":4374,"ĠpriekÅ¡r":4375,"Ġpabeig":4376,"Ġpo":4377,"Ġbau":4378,"ojama":4379,"ĠkÄģrtas":4380,"ĠvÄĵ":4381,"ĠsiÅ¾":4382,"estiv":4383,"Ġbankas":4384,"Ġkuros":4385,"mana":4386,"Ġdomes":4387,"ĠiekÄģr":4388,"Ġacu":4389,"Ġdzelz":4390,"gi":4391,"Ġturpina":4392,"ĠsÄģkotn":4393,"ĠlietotÄģjiem":4394,"ĠvÄģrdiem":4395,"jÅ«s":4396,"ro":4397,"ĠmalÄģ":4398,"eliÄ£":4399,"ĠvÄĵj":4400,"Ġkartes":4401,"Ġnenot":4402,"ĠvalstÄ«s":4403,");":4404,"Ġreal":4405,"Ġiphone":4406,"abiedr":4407,"Ä«va":4408,"ĠnÄģkotnÄĵ":4409,"Ġizprat":4410,"der":4411,"Ġkomerc":4412,"ĠviÄ¼":4413,"Ġsamsung":4414,"Ġpuse":4415,"ĠtelevÄ«z":4416,"Ġkul":4417,"ĠaugÅ¡":4418,"inieki":4419,"Ġatzin":4420,"ĠizmaiÅĨas":4421,"rÄ«t":4422,"ĠvÄĵlme":4423,"ĠkÄ¼Å«t":4424,"ĠsavienÄ«bas":4425,"Ġkandid":4426,"Ġceru":4427,"ĠnekÄģda":4428,"ĠapstÄģkÄ¼os":4429,"ĠgaitÄģ":4430,"ĠlÄĵt":4431,"ill":4432,"ĠkrÄĵs":4433,"Ġtreil":4434,"iskajiem":4435,"ĠpÄģrsteidz":4436,"strum":4437,"ĠĠĠĠĠĠĠĠĠĠĠĠĠĠĠĠĠĠĠĠĠĠĠĠĠĠĠĠĠĠĠĠ":4438,"Ġnejau":4439,"niÅ¡Ä·":4440,"Ġideju":4441,"Ġph":4442,"eriem":4443,"Ġvisam":4444,"Ġkabineta":4445,"Ġsub":4446,"ĠbÄģr":4447,"prot":4448,"ĠspÄ«d":4449,"ĠreizÄĵ":4450,"Ä«tÄĵ":4451,"ĠpaÅ¡laik":4452,"Ġpagal":4453,"ÄĵtÄģjiem":4454,"ĠmierÄ«gi":4455,"ĠÄ·erm":4456,"Å«ts":4457,"ÄĵtajÄģ":4458,"Ġnelai":4459,"klas":4460,"ĠÅĨemot":4461,"ĠteritorijÄģ":4462,"asti":4463,"ĠbÅ«tiski":4464,"Ġglez":4465,"Ġdurvis":4466,"Äģtas":4467,"ĠsamÄĵr":4468,"Ġslikti":4469,"Ġrai":4470,"ĠÅ¡Ä·Äĵrs":4471,"ĠbrÄ«Å¾a":4472,"ĠierÄ«ces":4473,"program":4474,"skis":4475,"Ġdodamies":4476,"ĠpÅ«":4477,"ĠzinÄģÅ¡anas":4478,"Ġstik":4479,"Ġlikumu":4480,"Ġinteresant":4481,"ĠprocesÄģ":4482,"ĠnodroÅ¡inÄģt":4483,"ĠekrÄģna":4484,"iÄį":4485,"Ġpastaig":4486,"Ġinvest":4487,"ĠpÄģrdev":4488,"pres":4489,"Ġdienvid":4490,"plÄģn":4491,"ĠtÄ«kl":4492,"ĠmÄĵneÅ¡a":4493,"ĠvieglÄģk":4494,"ĠtÄ«ri":4495,"ĠizÅ¡Ä·ir":4496,"ĠstundÄģm":4497,"koment":4498,"ĠÄ«pat":4499,"atÄĵÄ£":4500,"Ġgalu":4501,"Ġizdz":4502,"ell":4503,"Ä·Äĵr":4504,"Ġsmadz":4505,"Ġielu":4506,"ĠrezultÄģts":4507,"Ġnosaukums":4508,"dec":4509,"nor":4510,"ĠÅ¡okol":4511,"Ġspie":4512,"Ġmeitene":4513,"Ġsaimniec":4514,"Ġievad":4515,"Äĵsies":4516,"ron":4517,"ĠiepriekÅ¡ÄĵjÄģ":4518,"Ġras":4519,"Ġriet":4520,"Ġsem":4521,"Ä«tais":4522,"ĠmÄĵnesÄ«":4523,"Ġtipa":4524,"Ġpiel":4525,"iskiem":4526,"ĠlabÄģ":4527,"ĠsajÅ«tu":4528,"Ġministrijas":4529,"isms":4530,"Äĵjoties":4531,"Äĵjumi":4532,"Ġkalend":4533,"ĠpÄģrtikas":4534,"Ġizaug":4535,"Ġtums":4536,"ĠloÄ£":4537,"Å¡anÄģm":4538,"Ġdienesta":4539,"ieti":4540,"ĠsakarÄģ":4541,"tÄģlÄģk":4542,"ĠlejÄģ":4543,"Ġmant":4544,"Ġnoviet":4545,"Ġcivil":4546,"mens":4547,"ÅĨÄģm":4548,"epat":4549,"nÄ«ca":4550,"Ġnomain":4551,"ĠgÄģja":4552,"Ġesat":4553,"Ġsau":4554,"Ġizn":4555,"ĠpieÅĨemt":4556,"ĠteÄģt":4557,"Ġrestor":4558,"Ġlabas":4559,"ĠattiecÄ«bÄģ":4560,"domÄģju":4561,"Ġvide":4562,"Ġsekund":4563,"ĠvalstÄ«m":4564,"ĠregulÄģri":4565,"mt":4566,"ze":4567,"Ġul":4568,"ĠdrÄĵb":4569,"ismu":4570,"ĠbÄģz":4571,"Ġdarbi":4572,"ĠvÄģrda":4573,"ĠvÄ«rs":4574,"ĠsÄĵÅ¾":4575,"ĠiestÄģ":4576,"Ġangl":4577,"ĠsvarÄ«gÄģk":4578,"Ġmasu":4579,"Ġtuvu":4580,"Ġpieliet":4581,"pirmais":4582,"stiem":4583,"ice":4584,"Ġietver":4585,"Ġuzskatu":4586,"Ġinternet":4587,"Ġfirm":4588,"valstu":4589,"ĠturpinÄģs":4590,"ĠgulÄĵt":4591,"Ġiedv":4592,"trÄģd":4593,"Ġidenti":4594,"ĠtehnoloÄ£ijas":4595,"Ġmamma":4596,"Ġteju":4597,"ici":4598,"ĠgribÄĵtu":4599,"Ġmaratona":4600,"Äģles":4601,"Ġnevienu":4602,"Ġprasa":4603,"ektÄ«vi":4604,"ĠaprÅ«p":4605,"Ġmeist":4606,"Ġ&":4607,"Ġ2007":4608,"ĠminÅ«tÄĵm":4609,"Ġmur":4610,"Ä«vi":4611,"Ġ60":4612,"Ġvienlaikus":4613,"Ġneveik":4614,"veida":4615,"Ġth":4616,"Ä«juÅ¡ies":4617,"ĠvecÄģki":4618,"Ġasp":4619,"ĠnevarÄĵja":4620,"ieb":4621,"Ġsavam":4622,"Ġer":4623,"ĠizvÄĵrt":4624,"Ġ2009":4625,"Ġaz":4626,"Ġlieto":4627,"ĠvidÄĵji":4628,"oloÄ£ijas":4629,"ĠziemeÄ¼":4630,"Ġbumb":4631,"ĠĠĠ":4632,"cijÄģm":4633,"aprÄ«":4634,"Ġpieejam":4635,"Ġnopietni":4636,"osim":4637,"ĠfilmÄģ":4638,"Ġatsauc":4639,"ĠlidmaÅ¡":4640,"Ġbiznesa":4641,"Ġnetic":4642,"Äĵrk":4643,"mugur":4644,"Ġlatviju":4645,"biju":4646,"ikti":4647,"Ġnosp":4648,"Ġrev":4649,"Ġgaida":4650,"ĠnÄģca":4651,"Ġcilv":4652,"ĠmainÄ«t":4653,"Ġlejup":4654,"ĠstratÄĵÄ£":4655,"ĠzÄģles":4656,"inÄģjumÄģ":4657,"Ġsagriez":4658,"ĠrÄ«tÄģ":4659,"ĠreliÄ£":4660,"enz":4661,"Ġgrupa":4662,"Ġgald":4663,"ĠdaÅ¾ÄģdÄģm":4664,"Ġuzraudz":4665,"jÅ«l":4666,"zÄ«st":4667,"Ġmac":4668,"okrÄģt":4669,"Ġstarta":4670,"Ġnar":4671,"Äĵtiem":4672,"Ġpiepild":4673,"ĠvÄĵlos":4674,"tern":4675,"Ġolimp":4676,"ĠlietoÅ¡anas":4677,"laÅ¡":4678,"skas":4679,"ĠvecÄģkiem":4680,"ĠacÄ«s":4681,"Ġieviet":4682,"ĠtÅ«lÄ«t":4683,"Ġizbaud":4684,"ĠiezÄ«m":4685,"Ġaugu":4686,"Ġpiekt":4687,"ĠmÄģjaslap":4688,"ÄģÅ¡anas":4689,"proc":4690,"ĠÄ·Ä«m":4691,"skait":4692,"13":4693,"ĠseriÄģl":4694,"Ġnotur":4695,"Ġplec":4696,"kriev":4697,"ĠbieÅ¾Äģk":4698,"ĠnegatÄ«v":4699,"Ġiemeslu":4700,"Ġgraf":4701,"vars":4702,"Ġatris":4703,"ĠÅ¾an":4704,"inÄģjumiem":4705,"ĠdabÅ«":4706,"ÄģÅ¾":4707,"ĠdaÅ¾iem":4708,"Ġmaza":4709,"Ġskaisti":4710,"Ġievie":4711,"Ġneviena":4712,"ĠpÄģrstÄģvji":4713,"Ġhtc":4714,"ation":4715,"Äģjusi":4716,"ĠapstrÄģd":4717,"ĠizdarÄ«ti":4718,"Ġpuis":4719,"rit":4720,"Ġstingr":4721,"ĠattÄ«stÄ«bu":4722,"Ġburv":4723,"ĠnÄģks":4724,"ĠiekÄ¼au":4725,"Äĵns":4726,"Ġpirc":4727,"Ġuzm":4728,"Ġpub":4729,"Ä«Å¡anos":4730,"itÄģr":4731,"vienkÄģr":4732,"latvijÄģ":4733,"ĠÄĵrt":4734,"ĠjÄĵdz":4735,"Ġieras":4736,"Ġtrauk":4737,"ĠdzimÅ¡anas":4738,"Ġnelielu":4739,"tv":4740,"Ġsauk":4741,"dra":4742,"Ġsaprotu":4743,"ĠlabprÄģt":4744,"Ġvidu":4745,"ĠskolÄģ":4746,"ĠsociÄģlÄģs":4747,"pe":4748,"Ġpatiesi":4749,"Ġizz":4750,"ĠÄģrkÄģrt":4751,"ĠvirsÅ«":4752,"ĠizvÄĵle":4753,"ĠsacÄ«ja":4754,"ĠsvÄĵtku":4755,"Äĵtajiem":4756,"lika":4757,"ĠturpinÄģt":4758,"vÄ«r":4759,"Ġlogu":4760,"Äįi":4761,"ĠlielÄģks":4762,"ieris":4763,"Ġtes":4764,"ĠjaunÄģs":4765,"ĠpretÄ«":4766,"ĠfiniÅ¡":4767,"ĠprasÄ«bas":4768,"Ġkn":4769,"ĠtÄ«m":4770,"Ġweb":4771,"meÅĨa":4772,"Ġpla":4773,"Ġeur":4774,"ĠietekmÄĵ":4775,"ox":4776,"ĠjÅ«r":4777,"Ġjust":4778,"Ä«gai":4779,"tegr":4780,"Ġlapa":4781,"ostas":4782,"Ġcukuru":4783,"Ġatjaun":4784,"Ġ26":4785,"Ġsimbol":4786,"Ġyou":4787,"ĠlÅ«":4788,"Ġmalas":4789,"skap":4790,"pam":4791,"Ðµ":4792,"Ġinteresants":4793,"ĠpeÄ¼":4794,"ĠpiegÄģd":4795,"pats":4796,"ĠnÄģkamo":4797,"Ġizmantoju":4798,"ĠgaisÄģ":4799,"ticamÄģk":4800,"ĠenerÄ£ijas":4801,"ĠdvÄĵs":4802,"Äĵjus":4803,"enei":4804,"Ġcrossfit":4805,"ietiek":4806,"Ġkaln":4807,"ĠrezultÄģti":4808,"Ġvisur":4809,"kalp":4810,"rezultÄģ":4811,"manu":4812,"Ġseko":4813,"ĠlielÄģka":4814,"Ġni":4815,"Ġiesaku":4816,"Ġpasnieg":4817,"Ġizvair":4818,"Ġtiesa":4819,"ĠsabiedrÄ«bÄģ":4820,"Ġresp":4821,"Ġiecer":4822,"Ġslep":4823,"ĠiegÅ«st":4824,"jÅ«n":4825,"Äĵdz":4826,"eld":4827,"Ġiedz":4828,"otÄģjam":4829,"Ġpartijas":4830,"Ġkonfer":4831,"Ġnakti":4832,"Ġdarbus":4833,"emonstr":4834,"ert":4835,"tra":4836,"Ġversiju":4837,"ĠatstÄģj":4838,"izÄĵt":4839,"Ġizmaksas":4840,"irg":4841,"Ġmazo":4842,"Ġfini":4843,"Ġizdevies":4844,"adÄĵm":4845,"prec":4846,"ĠkvalitÄģti":4847,"Ġdaudzas":4848,"ĠvÄģrdus":4849,"Ġabas":4850,"ÄģÅĨu":4851,"Ġinstrum":4852,"ieÅ¡a":4853,"Ä«ze":4854,"th":4855,"ĠsavÄģs":4856,"ĠreÄģli":4857,"Ġdodas":4858,"emÄģt":4859,"jeb":4860,"Å¡ie":4861,"Ġplkst":4862,"Ġton":4863,"Å¡ogad":4864,"Ġlv":4865,"ĠbÄ¼":4866,"Ġci":4867,"Äģtos":4868,"itas":4869,"ĠattiecÄ«bu":4870,"ĠcenÅ¡as":4871,"Ġmedij":4872,"Ġdarbinieku":4873,"oÅ¾":4874,"____":4875,"Ġlic":4876,"Ġgau":4877,"ĠpreÄįu":4878,"Ġspilg":4879,"ĠspÄĵlÄĵ":4880,"ĠatmiÅĨas":4881,"Ġnumur":4882,"Ġsaskar":4883,"ĠpusÄĵm":4884,"ĠsakÄģrt":4885,"Ġklientu":4886,"ĠÄĵdienu":4887,"kopumÄģ":4888,"Ġpaaugst":4889,"niekus":4890,"Ġhip":4891,"Ġcepur":4892,"Ġtak":4893,"aties":4894,"ĠÅ¡Å«":4895,"Ġdraugu":4896,"Ä«Å¡a":4897,"arm":4898,"Ġmaig":4899,"ĠseviÅ¡Ä·i":4900,"zemes":4901,"Ġuzdevums":4902,"biedr":4903,"iepriekÅ¡":4904,"Ġnik":4905,"Ä«Å¡i":4906,"ĠsÄģli":4907,"Ġjut":4908,"ĠpalÄ«dzÄ«bas":4909,"kol":4910,"pul":4911,"viÅĨas":4912,"Ġbu":4913,"Ġatbildes":4914,"jauk":4915,"ĠdÄĵv":4916,"ĠradÄģs":4917,"ĠvaldÄ«bas":4918,"Ġ2010":4919,"Ġpunktu":4920,"ĠdurvÄ«m":4921,"dal":4922,"Ġnog":4923,"Ġsavstar":4924,"oÅ¡us":4925,"Ġizvirz":4926,"Ġmedus":4927,"Ġnovada":4928,"siev":4929,"ĠpÄģrsvar":4930,"iÄ·i":4931,"ĠpaplaÅ¡":4932,"ĠtradicionÄģl":4933,"Å¡Ä«s":4934,"ĠpÄģrmai":4935,"treÅ¡":4936,"Ġplast":4937,"Ġprogramma":4938,"Ä«tÄģja":4939,"Ġskolu":4940,"ĠpaÅĨem":4941,"ĠdaÅ¾Äģdus":4942,"Ġdraugi":4943,"Ġdizain":4944,"Ä«gumu":4945,"Ġpaaudz":4946,"ĠvislabÄģk":4947,"Ġdzemd":4948,"ĠbrÄ«niÅ¡Ä·":4949,"interesanti":4950,"Ġpic":4951,"Ġnoskrien":4952,"Ġstrauji":4953,"80":4954,"ĠpamatÄģ":4955,"ĠdabÅ«t":4956,"Ġoptim":4957,"ĠvasarÄģ":4958,"ĠplanÅ¡":4959,"ĠbibliotÄĵk":4960,"ĠmaksÄģj":4961,"Ġklases":4962,"nol":4963,"Ġnegaid":4964,"Ġsastop":4965,"zu":4966,"ĠvÄĵs":4967,"anta":4968,"Ġuzved":4969,"Ġnest":4970,"ĠpilsÄĵt":4971,"ĠdalÄ«bnieku":4972,"Ä¼auties":4973,"mus":4974,"Ġatteik":4975,"ĠpersonÄģm":4976,"Ġrudens":4977,";)":4978,"ĠpamazÄģm":4979,"ĠviedtÄģlru":4980,"Ġkompet":4981,"ĠsievietÄĵm":4982,"Ġ80":4983,"ĠaplikÄģcijas":4984,"otais":4985,"Ġiepak":4986,"ĠsacensÄ«bas":4987,"Ġteritorijas":4988,"ĠuzzinÄģt":4989,"oo":4990,"Ġpaskaidr":4991,"Ġsatiksmes":4992,"Ġzelta":4993,"Ġsavs":4994,"Ġturpat":4995,"Ġekonomikas":4996,"ĠbÄĵrnam":4997,"ĠgalvenokÄģrt":4998,"ĠÄĵkas":4999,"apz":5000,"ĠpamÄĵÄ£":5001,"atori":5002,"Ġteleviz":5003,"ex":5004,"atora":5005,"ĠproblÄĵmÄģm":5006,"Ġneie":5007,"auga":5008,"uÅ¡os":5009,"Ġlido":5010,"bieÅ¾Äģk":5011,"Ġparad":5012,"Ġkru":5013,"nesis":5014,"ips":5015,"simta":5016,"bas":5017,"ciem":5018,"niecÄ«ba":5019,"ĠsagÄģd":5020,"ĠnolÄĵmu":5021,"lauk":5022,"Ġain":5023,"Ġdrus":5024,"ĠdaÅ¾us":5025,"Ġsatura":5026,"ĠilgÄģk":5027,"vÄģra":5028,"Ġ=":5029,"Ä«vu":5030,"Ġkoncep":5031,"ĠbrÅ«":5032,"ĠgalÄ«gi":5033,"ionÄģli":5034,"Ġdatoru":5035,"Ġslikt":5036,"Ġzemi":5037,"ĠgodÄ«gi":5038,"ĠnozÄ«me":5039,"dÅ¾":5040,"mul":5041,"erijas":5042,"ĠcÅ«k":5043,"brÄ«n":5044,"ĠmaÅ¡Ä«nas":5045,"vs":5046,"Ġoz":5047,"ĠtÄĵj":5048,"avi":5049,"Ġfakts":5050,"Ġsaskat":5051,"ĠÅ¡ÄģdÄģ":5052,"ĠsevÄ«":5053,"Ġnovad":5054,"Ġpievienot":5055,"ĠpapÄ«ra":5056,"ĠparÄģdÄ«jÄģs":5057,"Ġskaidro":5058,"ĠjebkurÄģ":5059,"Ġaptauj":5060,"ace":5061,"Ġseksu":5062,"Ġmaratonu":5063,"ĠtÄĵ":5064,"Ġremon":5065,"Ġiesniedz":5066,"Ġ27":5067,"ĠkapitÄģ":5068,"Ġnepareiz":5069,"inas":5070,"usa":5071,"ÄģkajÄģm":5072,"Ġze":5073,"Ġskand":5074,"inÄģjusi":5075,"ĠmÅ«sdienÄģs":5076,"ĠnÄģkas":5077,"ĠlÄ«meÅĨa":5078,"Ġdati":5079,"pagaidÄģm":5080,"Ġpadz":5081,"Ä¼Äģv":5082,"eva":5083,"ĠstÄģstu":5084,"ĠuzÅĨÄĵmums":5085,"Ġnevienam":5086,"ĠsÅ«dz":5087,"ang":5088,"iskus":5089,"Ġieslodz":5090,"ĠrokÄģ":5091,"ĠgrÄģmatÄģ":5092,"Ġlatgal":5093,"Ġpopular":5094,"Ġnab":5095,"ĠzvÄĵr":5096,"Ġdarbiem":5097,"ĠvidÄĵ":5098,"Ġredzam":5099,"Ġskaidri":5100,"Ġdokumentu":5101,"ĠvÄģrdÄģ":5102,"Ġatliek":5103,"Ġintel":5104,"ĠÄ¼aud":5105,"Ġjaunais":5106,"ĠgribÄĵju":5107,"Ġkalnu":5108,"ĠprezentÄģ":5109,"ĠmÄĵnesi":5110,"Ð¸":5111,"ÄĵÅ¡anos":5112,"ĠrÄ«ga":5113,"ĠizlasÄ«t":5114,"Ä«Ä¼":5115,"Ġnesan":5116,"Ġierakstu":5117,"Ġkomanda":5118,"Ġvienalga":5119,"Ġraksts":5120,"ĠportÄģl":5121,"jÅ«t":5122,"Ġur":5123,"Ġvents":5124,"Äĵjumiem":5125,"Ġ28":5126,"skatÄģs":5127,"ĠÅ«denÄ«":5128,"Ġbrokast":5129,"sÄĵ":5130,"ĠlÄģ":5131,"esa":5132,"sÄģkumÄģ":5133,"ĠtÄĵvs":5134,"ce":5135,"Ġmom":5136,"ĠgrupÄģ":5137,"ĠdrÄ«zÄģk":5138,"Ġbil":5139,"ĠpaÅ¡ai":5140,"Ġ90":5141,"Ġĉĉĉĉ":5142,"bul":5143,"ĠvÄģj":5144,"Äĵjumus":5145,"Ä·iem":5146,"aino":5147,"Ġpalikt":5148,"ĠakadÄĵm":5149,"vÄģrÄ«":5150,"Ġpievil":5151,"ĠpÄģrvÄĵr":5152,"ĠcitÄģs":5153,"Ġ70":5154,"Ġatceros":5155,"ĠacÄ«mredz":5156,"ry":5157,"Ġmig":5158,"Ġfestiv":5159,"eÄ¼iem":5160,"ĠlielÄģko":5161,"ĠpÄĵdÄĵjos":5162,"ĠnoskaÅĨ":5163,"Ġuzsver":5164,"Ġinteresanta":5165,"erÄģ":5166,"mos":5167,"Ġpost":5168,"Ġgarant":5169,"Ġbalss":5170,"ĠbrÄ«dim":5171,"Ġlauksaim":5172,"kÄģda":5173,"ÄĵjuÅ¡ies":5174,"Ġpud":5175,"Ġnoteikumus":5176,"otÄģjus":5177,"Ġmeh":5178,"Ä¼as":5179,"Ġsekoj":5180,"ĠformÄģ":5181,"Ġpasaule":5182,"Ġjok":5183,"Ä«gÄģks":5184,"smas":5185,"Ġnokia":5186,"jiem":5187,"Ġsienas":5188,"aidu":5189,"ĠpÄģrl":5190,"ĠÅ¡Ä·idr":5191,"ĠgalvenÄģ":5192,"ĠmÄĵneÅ¡us":5193,"Ġiemesls":5194,"Ġtambor":5195,"ĠsmarÅ¾":5196,"14":5197,"Ġuzkr":5198,"Ġotrs":5199,"Ġreti":5200,"Äģni":5201,"ĠmÄģjÄģ":5202,"ĠÄ«paÅ¡u":5203,"Äĵnas":5204,"Ġizpau":5205,"ĠpagÄģjuÅ¡Äģ":5206,"tai":5207,"are":5208,"ĠpaÅ¡reiz":5209,"enim":5210,"ĠsavÄģdÄģk":5211,"brÄ«d":5212,"aba":5213,"ĠnoteiktajÄģ":5214,"nezinu":5215,"ĠsamÄĵrÄģ":5216,"Ġmitr":5217,"ĠdrÄ«":5218,"Ġslaven":5219,"esu":5220,"ĠesoÅ¡o":5221,"ĠlabÄģko":5222,"darbÄ«bas":5223,"ĠkÄģrtÄģ":5224,"lic":5225,"itÄģtÄĵ":5226,"ĠkÄģrtÄ«gi":5227,"ĠatslÄĵg":5228,"ĠpÄĵdÄĵjais":5229,"Ġcentru":5230,"ĠtÄ«kla":5231,"ĠnormÄģli":5232,"Ġlaul":5233,"ikÄģciju":5234,"Ġrei":5235,"Ä«tie":5236,"Ġakme":5237,"ĠmÄĵrÄģ":5238,"gudr":5239,"ĠtÄ«klu":5240,"ĠatgÄģdina":5241,"Ġrepublikas":5242,"ĠsÄĵk":5243,"Ġizskaidr":5244,"Ä«tiem":5245,"Ġskum":5246,"ĠgalvÄģ":5247,"Ġgatavi":5248,"ĠÄĵdam":5249,"ĠrobeÅ¾as":5250,"ĠcilvÄĵc":5251,"Ġcitur":5252,"ĠspÄĵju":5253,"Å¡Ä·iet":5254,"ĠinteresÄĵ":5255,"ĠdalÄ«bnieki":5256,"ior":5257,"Ġapspr":5258,"ĠtreÅ¡o":5259,"ĠkÄ¼uvis":5260,"nei":5261,"ĠaizÅĨem":5262,"Ġ2011":5263,"Ġpulc":5264,"Ġaugstskol":5265,"Ġdegun":5266,"tul":5267,"ĠiespÄĵjam":5268,"Ġattiecas":5269,"kÄģdu":5270,"ĠnespÄĵju":5271,"hol":5272,"Ġtrak":5273,"Ġanaliz":5274,"ĠdaÅ¾ÄģdÄģs":5275,"Ġgaismas":5276,"Ġsarunas":5277,"ĠizvÄĵr":5278,"Äĵtiski":5279,"ĠjÄģpie":5280,"ĠizskatÄ«jÄģs":5281,"ĠprecÄ«zi":5282,"ziem":5283,"ĠlÄ«dzekÄ¼us":5284,"Ġpateicoties":5285,"kap":5286,"Ġelektro":5287,"ĠlÄ«gumu":5288,"ĠsacensÄ«bÄģs":5289,"Ġintegr":5290,"Ġgriez":5291,"ĠvÄĵrtÄ«bu":5292,"Ġizcel":5293,"Ġputnu":5294,"xx":5295,"Ġarm":5296,"Ġvaldes":5297,"Ġintens":5298,"Ġarhitekt":5299,"komentÄģri":5300,"darba":5301,"idz":5302,"Ġnob":5303,"ĠredakcijÄģ":5304,"Ġsatv":5305,"Äģnas":5306,"Ġ2012":5307,"jam":5308,"irst":5309,"Ġsku":5310,"krien":5311,"ĠmuÄ¼Ä·":5312,"Ġpedag":5313,"Ġet":5314,"Ġstad":5315,"vispÄģr":5316,"Ġtelpas":5317,"lat":5318,"ĠmÄģrt":5319,"Ġpieejami":5320,"tÄģdÄĵjÄģdi":5321,"Ġstipri":5322,"ĠmÄģte":5323,"sapr":5324,"stus":5325,"ĠvienÄ«gÄģ":5326,"ĠmaksÄģt":5327,"inieks":5328,"ĠsalÄ«dzinoÅ¡i":5329,"ternatÄ«v":5330,"rÄ«gas":5331,"astr":5332,"Ġvispirms":5333,"Ġspecif":5334,"Ġlocek":5335,"kÅ«k":5336,"ĠmateriÄģlu":5337,"lau":5338,"ump":5339,"Ġju":5340,"Ġizst":5341,"omÄģju":5342,"ĠspÄĵÄ¼u":5343,"pagÄģjuÅ¡":5344,"ĠlÅ«dzu":5345,"Ġfut":5346,"ĠdevÄģs":5347,"ÄĵtÄģm":5348,"ĠsacensÄ«bu":5349,"Ġkurp":5350,"ĠkÄģrtÄĵjo":5351,"Ġcentrs":5352,"bals":5353,"Ġneesot":5354,"nel":5355,"inÄģÅ¡u":5356,"Ġkarti":5357,"ĠvÄĵstul":5358,"vielu":5359,"ĠpriekÅ¡roc":5360,"Äģrst":5361,"ĠprasÄ«bÄģm":5362,"ĠsituÄģcijÄģ":5363,"ĠÄ«paÅ¡uma":5364,"otiem":5365,"ĠredzÄĵjis":5366,"ĠgaidÄ«t":5367,"ĠeiropÄģ":5368,"Ġjos":5369,"ektÄģ":5370,"kav":5371,"Ġmul":5372,"uks":5373,"Ġlikvid":5374,"ve":5375,"Ġtan":5376,"arts":5377,"Ġnec":5378,"Ġcukura":5379,"rauc":5380,"ĠvisÄģs":5381,"ĠmÄĵneÅ¡u":5382,"Ġtulk":5383,"pÄĵl":5384,"ĠmazÄģ":5385,"ĠpasÄģkuma":5386,"Ġietekm":5387,"pak":5388,"Ġdru":5389,"Ġdarboties":5390,"Ġaizmirst":5391,"ĠdigitÄģ":5392,"Ġskaita":5393,"Ġnodar":5394,"ah":5395,"ĠpÄģrÄĵjie":5396,"ĠlÄ«menis":5397,"Ġpartn":5398,"ĠistabÄģ":5399,"ili":5400,"Ġinsp":5401,"Ġlaikos":5402,"ĠapmÄģc":5403,"Ġnetika":5404,"esam":5405,"Ä«cija":5406,"Ġlika":5407,"ĠbÄĵd":5408,"Äģkos":5409,"Ġhum":5410,"Ġieros":5411,"Ġikvien":5412,"Ġstudiju":5413,"Ġkontek":5414,"ĠaprÄ«k":5415,"princ":5416,"Ġkara":5417,"Ġfunkcijas":5418,"ĠapmeklÄĵt":5419,"Ġpiebilst":5420,"odr":5421,"Ġgalveno":5422,"Ġsniegt":5423,"Ġdatus":5424,"Ġjap":5425,"ĠlÄ«dzÄ«gu":5426,"pirmÄģ":5427,"Ġperf":5428,"ĠÅĨemt":5429,"ĠdÅ«":5430,"Ġarg":5431,"Ġaiztur":5432,"Ġveikalos":5433,"oguÄ¼":5434,"ĠiedzÄ«votÄģji":5435,"Ġpeln":5436,"ĠatseviÅ¡Ä·i":5437,"ĠsavstarpÄĵj":5438,"reÄ£istr":5439,"Ġpreses":5440,"ĠpÄģrsvarÄģ":5441,"Ġkaus":5442,"Ġtepat":5443,"Ġuzg":5444,"inÄģr":5445,"Ġslap":5446,"Ġatsauk":5447,"Ġpieredzes":5448,"ĠrotaÄ¼":5449,"ĠizÅĨemot":5450,"ome":5451,"varu":5452,"Ġpamata":5453,"Ġge":5454,"Ä«gam":5455,"Ġvarat":5456,"Ġtransporta":5457,"Ġskatuves":5458,"Ġmuguras":5459,"vÄĵÄ£":5460,"Ġvaloda":5461,"Ġmazs":5462,"Ġatradu":5463,"anas":5464,"Ġatra":5465,"ieÅ¾ot":5466,"Ġilgst":5467,"Ġsaule":5468,"Å¡aub":5469,"lÄģj":5470,"Ġtim":5471,"Ġ~":5472,"Ġzup":5473,"ĠparÄģda":5474,"ĠorganizÄģcijas":5475,"ĠforÅ¡i":5476,"vasar":5477,"ĠitÄģl":5478,"Ġdus":5479,"eram":5480,"oriem":5481,"Ġlaimi":5482,"Ġcitr":5483,"Ġpietr":5484,"Ġizsnieg":5485,"Ġnoticis":5486,"ĠlÄĵnÄģm":5487,"Ġmeg":5488,"Ġraud":5489,"ĠprÄģt":5490,"ecom":5491,"iegl":5492,"ĠvairÄģkiem":5493,"ĠÄģtrumu":5494,"ceÄ¼a":5495,"ĠÄ·ermeÅĨa":5496,"ĠmÄģtes":5497,"izrÄģdÄģs":5498,"ĠbÄĵrnus":5499,"ĠmÅ«zika":5500,"ÄģÅ¾u":5501,"Ġseju":5502,"ĠvecÄģku":5503,"ĠplÄģns":5504,"Ġnopeln":5505,"Ġklientiem":5506,"Ġkaudz":5507,"Ġburt":5508,"Ġprezidents":5509,"Ġaizrauj":5510,"ret":5511,"Ġtest":5512,"atl":5513,"stund":5514,"Ġkurs":5515,"ĠkÄģdiem":5516,"Ġpalas":5517,"Ġpalicis":5518,"ĠrakstÄ«ts":5519,"Ġkarj":5520,"piln":5521,"bar":5522,"Ġsant":5523,"atved":5524,"ĠÄ·ipl":5525,"ĠjautÄģjumi":5526,"Ġgatava":5527,"Ġdarbinieki":5528,"Ġkvad":5529,"Ġmi":5530,"Ġsalas":5531,"ĠsajÅ«tas":5532,"ĠposmÄģ":5533,"rim":5534,"Ġvisos":5535,"ĠnekÄģdi":5536,"Ġ500":5537,"Ġuzdevumu":5538,"sak":5539,"manis":5540,"fa":5541,"med":5542,"Ġfiks":5543,"Ġaugstu":5544,"fin":5545,"Ġball":5546,"Ġinteresantu":5547,"Ġsteidz":5548,"ĠnorÄģdÄ«ja":5549,"ĠapmÄĵrÄģ":5550,"ĠÅ¡u":5551,"Ä«vs":5552,"Ġdefin":5553,"mil":5554,"xy":5555,"ĠmÄģko":5556,"ĠatgrieÅ¾":5557,"ĠdzÄ«vnieku":5558,"ĠreÄ£ionÄģl":5559,"Ġnemain":5560,"16":5561,"fs":5562,"draud":5563,"ejÄģm":5564,"Ġhel":5565,"kopÅ¡":5566,"Ġplatform":5567,"ĠmaÅ¡Ä«nu":5568,"ony":5569,"Ġzib":5570,"ĠÄ£ener":5571,"Ġprogrammat":5572,"Ġps":5573,"ieks":5574,"eicÄģs":5575,"ĠlabÄģkais":5576,"stÄģst":5577,"Ġmiljoni":5578,"apt":5579,"Ġgads":5580,"ĠlietotÄģji":5581,"Ġsaku":5582,"Ġsaturs":5583,"ĠnÄģkamÄģ":5584,"ĠtÅ«risma":5585,"ĠapdroÅ¡inÄģÅ¡anas":5586,"ĠnetÄģlu":5587,"Ġnepal":5588,"Ġjaunus":5589,"ĠnolÅ«k":5590,"eÄ¼us":5591,"lÄģb":5592,"Ġen":5593,"ÄģÅ¾as":5594,"Ġtoties":5595,"Ġmag":5596,"uÅ¡ie":5597,"uzÅĨÄĵm":5598,"ĠvÄĵrtÄ«bas":5599,"Ġmammas":5600,"ĠshÄĵm":5601,"ĠtelpÄģ":5602,"ĠjÅ«tas":5603,"Ġatkrit":5604,"ojusies":5605,"ters":5606,"Ġizdodas":5607,"ĠdaÅ¾Äģdos":5608,"ĠplÄģnu":5609,"ĠkonkurÄĵts":5610,"Ġpublik":5611,"eÅĨi":5612,"Ġbaig":5613,"etd":5614,"ĠapÄ£Äĵrb":5615,"Ġvariants":5616,"Ġlomu":5617,"Ġpamatu":5618,"ĠmÄĵÄ£ina":5619,"oktob":5620,"lÄģg":5621,"gru":5622,"Ġparast":5623,"Ä«gÄģkais":5624,"Ġsimp":5625,"Ġpagr":5626,"ĠalternatÄ«v":5627,"blog":5628,"ĠkolektÄ«v":5629,"Ġsvai":5630,"Ġatver":5631,"ĠnodaÄ¼as":5632,"Ġauditor":5633,"vietu":5634,"osfÄĵr":5635,"ĠvÄģrdi":5636,"ĠvajadzÄ«bÄģm":5637,"Ġglob":5638,"tÄģdÄĵÄ¼":5639,"Ġeksist":5640,"Ġsign":5641,"%,":5642,"Ġrag":5643,"Ġaizmugur":5644,"Ġpirmie":5645,"Ġatlaid":5646,"nus":5647,"Ġdemonstr":5648,"Ġbaid":5649,"Ġunik":5650,"Ġcm":5651,"Ġpierakst":5652,"inÄģto":5653,"put":5654,"ĠparedzÄĵta":5655,"Ġolu":5656,"Ġfotograf":5657,"pÄĵdÄĵjÄģ":5658,"ĠautomÄģtiski":5659,"ĠjÄģt":5660,"ĠvienÄģd":5661,"vÄĵra":5662,"ĠrezultÄģtus":5663,"ĠiedzÄ«votÄģjiem":5664,"ĠkompÄģnijas":5665,"ebruÄģr":5666,"Ġpazem":5667,"Ġautobusu":5668,"25":5669,"Ġmad":5670,"Ġcie":5671,"Ġkoncentr":5672,"rÄģdi":5673,"ĠdzÄ«vojam":5674,"laiks":5675,"niecÄ«bÄģ":5676,"Ġkampa":5677,"Ġnozares":5678,"Ġparlam":5679,"Ġkuk":5680,"Ġtajos":5681,"Å¡Äģs":5682,"Ġveco":5683,"ĠpelÄĵk":5684,"Ġnereti":5685,"sÄģkot":5686,"Ġog":5687,"Ġbiks":5688,"inst":5689,"ĠpÄģrÄĵjiem":5690,"ulaik":5691,"tiesas":5692,"Ġprofil":5693,"ote":5694,"iete":5695,"ĠzemÄĵ":5696,"ĠpÄĵtÄ«juma":5697,"Ġfond":5698,"Ġmask":5699,"Ġpakalpojumus":5700,"telecom":5701,"ĠsarakstÄģ":5702,"Ġkomisija":5703,"art":5704,"Ġvienreiz":5705,"Ġplak":5706,"ĠtÄģdus":5707,"Ġgribi":5708,"Ġviedokli":5709,"das":5710,"tev":5711,"ull":5712,"ĠpÄĵdÄĵjÄģs":5713,"ĠbrÄ«vÄ«bas":5714,"Ġ2013":5715,"Ġcil":5716,"Ġpierad":5717,"ĠlielÄģs":5718,"Ġiedvesm":5719,"%.":5720,"iss":5721,"inÄģjÄģm":5722,"Ä«ni":5723,"Ġskaista":5724,"ĠvÄ«rieÅ¡u":5725,"ĠjÄģk":5726,"omÄģt":5727,"ĠtÄģdiem":5728,"ĠcepeÅ¡":5729,"ĠgaÄ¼u":5730,"Ġriek":5731,"ĠÅ¡aur":5732,"bÄģz":5733,"cionÄģl":5734,"Ġvingr":5735,"Ġis":5736,"Ġall":5737,"ĠiedomÄģties":5738,"Ġpagriez":5739,"Ġaleks":5740,"ĠÄ£en":5741,"Ġdrusku":5742,"ojiet":5743,"ĠvisticamÄģk":5744,"oÅ¡ajÄģ":5745,"Ġkombin":5746,"Ä«paÅ¡i":5747,"ĠsalÄ«dzinot":5748,"ĠnodokÄ¼u":5749,"ĠvÄģcu":5750,"ĠbruÅĨ":5751,"tei":5752,"Ġkub":5753,"ĠieÅĨÄĵm":5754,"Ġsavai":5755,"Ġtavu":5756,"ĠaÄ£entÅ«ras":5757,"ĠkÄģju":5758,"Ġlond":5759,"Ġneiet":5760,"etras":5761,"ÄģlajÄģ":5762,"Äģcies":5763,"ĠvÄĵlÄĵÅ¡anu":5764,"ĠpanÄģkt":5765,"ĠlÄ«dzekÄ¼iem":5766,"cenÄģr":5767,"nozÄ«m":5768,"Ġkabinets":5769,"ĠuniversitÄģtes":5770,"Ġjelgavas":5771,"ÑĤ":5772,"Äģdz":5773,"Ġpilns":5774,"Ġceturt":5775,"Ġplastmas":5776,"ĠdrÄ«kst":5777,"18":5778,"ĠaizstÄģv":5779,"Ġinteresi":5780,"land":5781,"vain":5782,"Ġtiesu":5783,"ĠstarpÄģ":5784,"ĠpieÅĨemts":5785,"ĠziemassvÄĵtku":5786,"fot":5787,"inform":5788,"Ġatn":5789,"Ġsavos":5790,"ÂłčĊ":5791,"ĠsituÄģcijas":5792,"Ġneliela":5793,"Ġgabalu":5794,"Ġkilometru":5795,"Ġ150":5796,"Ġiecien":5797,"irsn":5798,"ĠĠčĊ":5799,"arg":5800,"Ġleg":5801,"ĠgarÅ¡as":5802,"darbu":5803,"ĠiepazÄ«st":5804,"ĠperiodÄģ":5805,"Ġledusskap":5806,"meit":5807,"ate":5808,"Äģde":5809,"Ġmaniem":5810,"Ġneskatoties":5811,"ingu":5812,"ĠpilsÄĵta":5813,"Ġgrupu":5814,"ÄģkajÄģ":5815,"Ġparal":5816,"old":5817,"Ġstul":5818,"ĠsagrieÅ¾":5819,"Ġkoku":5820,"Ġkrekl":5821,"itÄģn":5822,"inÄģÅ¡anÄģs":5823,"Ġnopir":5824,"Ġ2006":5825,"filma":5826,"we":5827,"Ġ;)":5828,"inos":5829,"Ä«zi":5830,"ĠmÄģja":5831,"ĠÅ¡Ä·Äĵl":5832,"ĠgadÄ«jumu":5833,"ĠpiedalÄ«jÄģs":5834,"Ġspried":5835,"bÅ«s":5836,"mÄ«ne":5837,"tÄģda":5838,"ĠatÄ¼au":5839,"Ġpietur":5840,"Ġlaip":5841,"ĠjÄģl":5842,"ĠdarbÄ«ba":5843,"ĠdaÄ¼ai":5844,"Ġpagasta":5845,"ĠatstÄģt":5846,"ĠÅ¡it":5847,"Ġplud":5848,"Äĵzek":5849,"ĠbiÄ¼etes":5850,"fal":5851,"Ġsaukt":5852,"Ġbo":5853,"ÄģcijÄģs":5854,"ĠlÄ«dzÄ«gs":5855,"Ġnepam":5856,"parasti":5857,"Ġstikla":5858,"pÄĵr":5859,"ĠÅĨÄĵm":5860,"ĠvairÄģku":5861,"ĠlÄ«meni":5862,"vieta":5863,"Ġ01":5864,"toties":5865,"Äĵtus":5866,"ĠdomÄģm":5867,"Ġprocesa":5868,"kul":5869,"Ġvit":5870,"Ġrup":5871,"ollo":5872,"eklar":5873,"iniekiem":5874,"ĠsÄĵrijas":5875,"ĠpriekÅ¡sÄĵdÄĵtÄģjs":5876,"Ġ29":5877,"atÄ«vi":5878,"Ġsekot":5879,"ĠiekÄ¼aut":5880,"Ġatzina":5881,"ĠspÄĵka":5882,"ĠsadzÄ«v":5883,"eÅĨiem":5884,"Ġsens":5885,"Ġjauni":5886,"ĠvÄĵstures":5887,"ĠtapÄĵc":5888,"ÄģÅ¡":5889,"Ġipad":5890,"ĠizdzÄ«v":5891,"ĠpieÅĨÄĵm":5892,"ĠjautÄģjumus":5893,"ijam":5894,"ĠnezinÄģm":5895,"ĠÅĨ":5896,"Ġnetrauc":5897,"gadam":5898,"ustÄģ":5899,"ĠgrÄģmatÄģm":5900,"ĠtelefonÄģ":5901,"sÄĵdes":5902,"ikai":5903,"Äģriem":5904,"Ġkontroles":5905,"60":5906,"Äģlis":5907,"oles":5908,"ĠvienkÄģrÅ¡a":5909,"kopÄģ":5910,"bola":5911,"Ġaizbrauc":5912,"ĠjÄģiet":5913,"ĠnekÄģds":5914,"Ġsniega":5915,"ĠizmantoÅ¡anu":5916,"ojuÅ¡ies":5917,"ÂłĠĠ":5918,"Ġprodukts":5919,"log":5920,"ala":5921,"ĠrÄ«gu":5922,"Ġzar":5923,"inÄģjuÅ¡i":5924,"ĠnorvÄĵÄ£":5925,"Ġnotikumiem":5926,"Ġkomandu":5927,"ĠvÄĵrtÄĵ":5928,"ĠnepiecieÅ¡amo":5929,"Ġministrs":5930,"ĠliepÄģjas":5931,"auca":5932,"Ġfranc":5933,"ood":5934,"Ġone":5935,"Ġgun":5936,"ojamo":5937,"ĠfilmÄģm":5938,"Ġkompens":5939,"Ġpunkts":5940,"ĠsadarbÄ«bas":5941,"ĠrÅ«pÄ«gi":5942,"ĠaktivitÄģ":5943,"ĠnevajadzÄĵtu":5944,"Ġcitos":5945,"Ġ31":5946,"ĠgribÄĵja":5947,"nÄģkam":5948,"Ġsviestu":5949,"Ġargum":5950,"cm":5951,"fl":5952,"Ġ/":5953,"oÅ¡Äģm":5954,"cijai":5955,"tiec":5956,"ĠâĢĺ":5957,"Ġtram":5958,"Ġ35":5959,"Ġproduktiem":5960,"Ġatjauno":5961,"abi":5962,"ĠvadÄ«bas":5963,"ĠplÄģnots":5964,"Ġpolitikas":5965,"ĠiepazÄ«ties":5966,"Ġinternetu":5967,"ĠbaznÄ«cas":5968,"eiropas":5969,"ci":5970,"ces":5971,"ĠlÅ«dz":5972,"ĠbÅ«d":5973,"auda":5974,"ĠjaunieÅ¡u":5975,"ĠatradÄģs":5976,"ĠteÄģtra":5977,"ĠvÄĵlÄĵÅ¡anÄģs":5978,"ĠdaÄ¼Äĵji":5979,"runÄģjot":5980,"ĠburkÄģ":5981,"Ġnesaprot":5982,"mod":5983,"nop":5984,"Ġlaikrakst":5985,"igar":5986,"ĠgrÄģmatved":5987,"Ġmikr":5988,"Ġnelik":5989,"ĠspÄĵja":5990,"Ġstrau":5991,"Ġneatcer":5992,"Ġdraugs":5993,"ĠkritÄĵr":5994,"kor":5995,"ĠizÅĨem":5996,"Ġiest":5997,"Ġkafej":5998,"Ġro":5999,"Ġalu":6000,"ĠattiecÄ«gi":6001,"tiku":6002,"Ġtava":6003,"ĠsaglabÄģt":6004,"manuprÄģt":6005,"ienos":6006,"Äĵjusies":6007,"Ġgrie":6008,"Ġredzu":6009,"ĠoriÄ£in":6010,"per":6011,"ĠmÄģm":6012,"Ġart":6013,"Ä«mÄĵ":6014,"Ġlaikiem":6015,"Ġmini":6016,"Å«rai":6017,"ĠvÄ«rieÅ¡i":6018,"galvenais":6019,"Ġnoform":6020,"ojumam":6021,"Ġradi":6022,"ĠsaistÄ«ts":6023,"ĠmÄĵneÅ¡iem":6024,"ĠdalÄ«bniekiem":6025,"ĠuzrakstÄ«t":6026,"Ġkompleks":6027,"ĠjÄģdara":6028,"ĠvÄĵjÅ¡":6029,"foto":6030,"Ġkaul":6031,"encÄĵ":6032,"vÄģrdu":6033,"Ġlmt":6034,"Ġmatu":6035,"Ġapkalp":6036,"Ġieskat":6037,"Ġformas":6038,"ĠmÄģrket":6039,"mÄģc":6040,"Ġmiz":6041,"Ġdej":6042,"emz":6043,"ĠpasaÅ¾":6044,"Ġlielisks":6045,"ĠparÄģdÄ«t":6046,"Ġruna":6047,"pilsÄĵtas":6048,"Ġloga":6049,"ĠefektÄ«v":6050,"jÄģs":6051,"Ġneno":6052,"Ġeksk":6053,"Ġproduktus":6054,"Ġpapildu":6055,"Ġsasniegt":6056,"ĠviedokÄ¼a":6057,"Ġprop":6058,"Ġapak":6059,"Ä·Ä«":6060,"Ġdomin":6061,"ĠnoskatÄ«ties":6062,"ĠbojÄģ":6063,"Ġkav":6064,"Ġsod":6065,"Ġvaras":6066,"Ġvalsti":6067,"Ġsakr":6068,"ĠÄģtrums":6069,"ĠÄ£e":6070,"Ġvienai":6071,"ĠpÄģrÄĵjo":6072,"Ġbriesm":6073,"ĠpagÄģt":6074,"ĠspÄĵle":6075,"liekas":6076,"Ġ''":6077,"Äĵra":6078,"ĠnozÄ«mes":6079,"Ġnotikumu":6080,"ĠaplikÄģcija":6081,"ĠsastÄģvÄģ":6082,"ĠzÄģlÄĵ":6083,"ĠÄ«patn":6084,"astu":6085,"ĠmÄģk":6086,"Äĵla":6087,"Ġpasm":6088,"Ġblogs":6089,"ĠrisinÄģjums":6090,"Ġsit":6091,"ĠscenÄģr":6092,"ĠplanÅ¡etd":6093,"co":6094,"Ġapgu":6095,"metu":6096,"ĠizstrÄģdÄģtÄģj":6097,"ĠtajÄģs":6098,"Ġdu":6099,"Ġdikti":6100,"Ġneman":6101,"Äĵkab":6102,"Ä«nes":6103,"zas":6104,"Ñģ":6105,"Ġpers":6106,"ĠatvÄĵrt":6107,"istab":6108,"ĠdaÅ¾Äģm":6109,"aktÄ«v":6110,"lÄ«dzÄ«gi":6111,"ĠbÄģzes":6112,"tÄģlÄģ":6113,"ielÄģd":6114,"ĠkvalitÄģte":6115,"ĠspeciÄģli":6116,"Ġvol":6117,"Ġsiera":6118,"inoties":6119,"ĠgÅ«t":6120,"Ġmaratons":6121,"Ġsakaru":6122,"ĠatvaÄ¼":6123,"Ġmis":6124,"ĠnodaÄ¼a":6125,"Ġneesam":6126,"Ġmetodes":6127,"ietes":6128,"Ġatbalsts":6129,"Ġproti":6130,"ĠpaÅĨemt":6131,"Ġha":6132,"britÄģn":6133,"Ä«das":6134,"Ġpilna":6135,"Ġrezerv":6136,"Ġbilde":6137,"alg":6138,"Ġcipar":6139,"jautÄģj":6140,"Ġtermin":6141,"ĠlÄĵmums":6142,"Ġtekstu":6143,"noteikumi":6144,"Äģtus":6145,"ĠpieÄ¼auj":6146,"Ä«jumos":6147,"kurÅ¡":6148,"Ġmilzu":6149,"ĠfotogrÄģfijas":6150,"ĠnejauÅ¡i":6151,"Ġlak":6152,"ĠzemÄģk":6153,"Ġkameras":6154,"Ġministrija":6155,"ĠmeÅ¾Äģ":6156,"ĠvaldÄ«ba":6157,"telef":6158,"ĠÄĵku":6159,"Ġtarif":6160,"olog":6161,"ĠotrÄģdi":6162,"Äĵniem":6163,"ĠatmiÅĨÄģ":6164,"Ġkonstruk":6165,"ĠatskaÅĨ":6166,"Ġnepas":6167,"Ġ300":6168,"ĠizmeklÄĵ":6169,"Ġaukst":6170,"ĠkomentÄģros":6171,"ĠÄ¼audis":6172,"Ä«tus":6173,"ĠpielÄģg":6174,"Äģliem":6175,"ĠpÄģrstÄģvis":6176,"ĠpÄĵrn":6177,"inÄģjies":6178,"ieÅ¡us":6179,"laban":6180,"ĠÅ¾el":6181,"pirmkÄģrt":6182,"inÄģsies":6183,"enerÄ£ijas":6184,"Ġpadara":6185,"ĠpamatÄ«gi":6186,"lieku":6187,"Ġfunkciju":6188,"ĠnespÄĵja":6189,"ĠfinansiÄģl":6190,"Ġsatvers":6191,"princip":6192,"ĠlielÄģkoties":6193,"maijÄģ":6194,"zinÄģt":6195,"erÄ«":6196,"ĠuzbÅ«v":6197,"Ġfol":6198,"cilvÄĵki":6199,"Ġizaic":6200,"Ġieinteres":6201,"Ġfe":6202,"Ġdaudzumu":6203,"iga":6204,"ĠbrÄ«Å¾iem":6205,"ĠdemokrÄģt":6206,"ĠmÄ«n":6207,"ustr":6208,"Ġgalaxy":6209,"45":6210,"ĠmÄ«kst":6211,"amie":6212,"ĠgÄģz":6213,"ĠvÄĵrtÄ«ba":6214,"Ġvelti":6215,"stÄģjÄģs":6216,"Ġdievs":6217,"ĠpsiholoÄ£":6218,"ris":6219,"Ġmieru":6220,"Ġbail":6221,"Ġizliet":6222,"tipr":6223,"Ġpateik":6224,"ĠklÄģ":6225,"Ġskatoties":6226,"ĠÄ«paÅ¡umu":6227,"ĠÄ£imene":6228,"ĠizmÄĵra":6229,"ĠjÄģmaksÄģ":6230,"Ġservisu":6231,"Ġfaktu":6232,"ĠleÄ£":6233,"Ä«jÄģmies":6234,"Ġlabo":6235,"Ġnesp":6236,"ĠplÄģna":6237,"ĠmainÄģs":6238,"Ġteicu":6239,"notaÄ¼":6240,"Ġautori":6241,"Ġfaktiski":6242,"ĠfranÄįu":6243,"enÄģ":6244,"Ġkalna":6245,"ĠklausÄ«ties":6246,"Ġsezonas":6247,"Ġpludmal":6248,"jÄĵdz":6249,"Ġpienu":6250,"Ġsapl":6251,"ĠgribÄĵtos":6252,"ĠplÄģno":6253,"ĠkolÄĵÄ£i":6254,"dod":6255,"mÄĵÄ£":6256,"otes":6257,"ĠplÅ«s":6258,"Ġpilnu":6259,"Ġakc":6260,"Ġpamod":6261,"Ġnumuru":6262,"Ġizgatav":6263,"de":6264,"piek":6265,"Ġru":6266,"ieÅ¾u":6267,"ĠskatÄģs":6268,"ĠskolÄĵnu":6269,"Ġdob":6270,"Ġpiedzim":6271,"Ä«tÄģjus":6272,"jasmÄ«ne":6273,"ĠtÄ«mekÄ¼a":6274,"Ġeti":6275,"ĠatkarÄ«gs":6276,"kaitot":6277,"ĠjÅ«rmal":6278,"Ġdec":6279,"Äģsim":6280,"ĠuzrÄģd":6281,"ĠpazÄ«m":6282,"ock":6283,"Ġasin":6284,"ĠjÄģsaka":6285,"ĠvisÄģdi":6286,"Ġlieli":6287,"vÄĵlÄģk":6288,"Ġcom":6289,"ĠatnÄģk":6290,"press":6291,"Ġdivdesmit":6292,"ĠnevarÄĵtu":6293,"Ġsabiedrisko":6294,"ĠizslÄĵg":6295,"atkal":6296,"Ġlieliska":6297,"Ġpalai":6298,"iste":6299,"ĠsÄģkums":6300,"ĠziemÄģ":6301,"Ġbildi":6302,"ĠpiedalÄģs":6303,"ĠdaiÄ¼":6304,"ĠsantÄ«m":6305,"oÅĨu":6306,"Ġizsk":6307,"Ġpirkt":6308,"Ġformu":6309,"Ġfunkcion":6310,"Ġvakara":6311,"ĠspÄĵks":6312,"ĠaktivitÄģtes":6313,"mÄ«l":6314,"tom":6315,"ĠlÄĵni":6316,"Ġdeklar":6317,"ĠÄįetras":6318,"Ġiekr":6319,"Ġtavs":6320,"Ġlim":6321,"Ġnetr":6322,"Ġapdraud":6323,"Ġza":6324,"ics":6325,"uÅ¡Äģ":6326,"ĠnevarÄĵju":6327,"ĠrajonÄģ":6328,"mÄģt":6329,"Ġej":6330,"Ġnokr":6331,"turas":6332,"tube":6333,"Ġreak":6334,"Ġneliels":6335,"ĠpaziÅĨoja":6336,"Ġkonserv":6337,"Ġkin":6338,"Ġlien":6339,"ametr":6340,"Ġraim":6341,"eter":6342,"ÄģjÄģ":6343,"ĠmanÄģm":6344,"dienÄģm":6345,"Ġnoteikumiem":6346,"ĠiegÅ«":6347,"Ġsirsn":6348,"stud":6349,"Ġpanta":6350,"Ġdarbiniekiem":6351,"ĠiestÄģÅ¾u":6352,"ÄĵÅ¡anÄģ":6353,"ĠkrÅ«t":6354,"Ġmazas":6355,"strÄģdÄģ":6356,"Ġaizsarg":6357,"amer":6358,"ĠspÄ«ti":6359,"Ġtrans":6360,"Ġelp":6361,"Ġneizdev":6362,"ĠraÅ¾oÅ¡anas":6363,"Ġpulver":6364,"Ġneesi":6365,"viÅĨu":6366,"ÅĹ":6367,"Äģsies":6368,"Ġnostipr":6369,"Ġkameru":6370,"ĠspÄĵlÄĵt":6371,"Ġizteikt":6372,"ĠmeÅ¾u":6373,"Ġuzbruk":6374,"ĠpÄģrraid":6375,"ĠmÄ«t":6376,"iniet":6377,"Ġnepietiek":6378,"Ġhot":6379,"ĠpakaÄ¼":6380,"Ġatbildi":6381,"Ġadresi":6382,"ĠnÄģves":6383,"Ġsertifik":6384,"Ġpaj":6385,"olus":6386,"ĠvienlaicÄ«gi":6387,"Ġprodukti":6388,"Ġviedoklis":6389,"vietÄģ":6390,"ĠvÄĵt":6391,"pasta":6392,"ĠpÄĵtÄ«jumu":6393,"Ġveikala":6394,"Ġkafijas":6395,"Ġdekor":6396,"pp":6397,"Ä±":6398,"Ġsieru":6399,"ĠizlÄĵm":6400,"visas":6401,"ĠgarÅ¡u":6402,"brÄ«v":6403,"ĠglÄģz":6404,"Ġstab":6405,"ĠvajadzÄ«bas":6406,"Ġnenoz":6407,"ĠsamazinÄģt":6408,"Ġsarakstu":6409,"ĠkopÄĵjÄģ":6410,"Ġkungs":6411,"ĠsabiedrÄ«ba":6412,"ĠtuvumÄģ":6413,"ĠsaistÄ«bÄģ":6414,"ciet":6415,"jot":6416,"ĠsÄģn":6417,"Ġizk":6418,"Ġzini":6419,"ĠinformÄĵja":6420,"ĠbrÄ«vi":6421,"Ġversijas":6422,"ĠÅ¡ausm":6423,"Ġparaug":6424,"ide":6425,"pusÄĵ":6426,"Ġapgaism":6427,"god":6428,"jor":6429,"ĠiznÄ«c":6430,"Ġatg":6431,"Ġaptur":6432,"Ġkart":6433,"ĠÅ¡Äģdiem":6434,"Ġmediju":6435,"ĠiepriekÅ¡Äĵjo":6436,"runi":6437,"Ġresursu":6438,"lÄ«d":6439,"Ð½":6440,"Ġener":6441,"Ġfir":6442,"Ġnepied":6443,"Ġpagar":6444,"Ġmuzik":6445,"ĠnepÄģrtrauk":6446,"ge":6447,"ĠtÄĵjas":6448,"Ġuzlik":6449,"Ġfail":6450,"ĠpÄģrtrauk":6451,"spÄ«d":6452,"Ġietilp":6453,"Ä«gÄģka":6454,"ĠsistÄĵmÄģ":6455,"ĠbeidzÄģs":6456,"ĠkompÄģnija":6457,"liem":6458,"apkÄģrt":6459,"trÄ«s":6460,"Ġdaudzums":6461,"Ġjebkuru":6462,"Ġaicina":6463,"ĠmÄ«lestÄ«bu":6464,"ĠtÄĵju":6465,"ijiem":6466,"klus":6467,"Ġveidojas":6468,"Ġvidi":6469,"Ġkaral":6470,"Ġmusku":6471,"ĠsÄģkotnÄĵji":6472,"iÄ·u":6473,"ĠÄ¼aun":6474,"ĠnoslÄĵdz":6475,"Ġabiem":6476,"Ġformul":6477,"ĠierÄ«cÄĵm":6478,"ĠtÅ«kstoÅ¡iem":6479,"vÄĵst":6480,"Ġle":6481,"Ġatlas":6482,"Ġprior":6483,"Ġaizm":6484,"Ġotram":6485,"Ġsieva":6486,"ĠtreniÅĨu":6487,"Ġatgriezties":6488,"Ġalkohola":6489,"ĠuzÅĨemt":6490,"Ä«guma":6491,"entam":6492,"Ġdatiem":6493,"ĠsaÅĨÄĵma":6494,"ĠpÄģrsteigums":6495,"ĠemocionÄģl":6496,"ista":6497,"ĠvisbieÅ¾Äģk":6498,"pried":6499,"ĠgrÄģv":6500,"Äĵsi":6501,"oÅ¡ajÄģm":6502,"Ġtrener":6503,"Ġdeju":6504,"rastu":6505,"Ġhok":6506,"Ġinterese":6507,"ĠuzÅĨÄĵmumi":6508,"balt":6509,"lus":6510,"lÅ«dzu":6511,"ĠtÄ«":6512,"ĠbÅ«":6513,"ĠvietÄĵjo":6514,"ĠbijuÅ¡as":6515,"Ġproced":6516,"ĠatcerÄĵties":6517,"ĠkÄ¼uvusi":6518,"pi":6519,"zvan":6520,"Ġcim":6521,"Ġiedarb":6522,"Ġpaliks":6523,"Ġ2004":6524,"ĠkosmÄĵt":6525,"teik":6526,"Ġneliet":6527,"orÄ«t":6528,"Å¾os":6529,"ĠvÄĵlmi":6530,"Ġlietoju":6531,"Ġtelpu":6532,"ĠzÄ«mes":6533,"ĠobjektÄ«v":6534,"Ġprezidenta":6535,"Ġmit":6536,"Ġapcep":6537,"tion":6538,"Ġklei":6539,"ĠredzÄĵju":6540,"Ġmirkli":6541,"Ġazarts":6542,"Ġus":6543,"Ä«tajÄģ":6544,"ĠapzÄ«m":6545,"Äģnijas":6546,"Ġlatvijai":6547,"lid":6548,"Ġleju":6549,"Ġrip":6550,"ern":6551,"ive":6552,"ĠÄ£imenÄĵ":6553,"ĠpiedÄģvÄģjumu":6554,"100":6555,"ekli":6556,"grie":6557,"Ġ2000":6558,"ĠabÄģm":6559,"ĠveselÄ«bu":6560,"mo":6561,"Ġla":6562,"odes":6563,"Ġdarbam":6564,"Ġnosaukt":6565,"Ġpiespied":6566,"ĠpagÄģjuÅ¡ajÄģ":6567,"ĠtrÅ«kums":6568,"nedaudz":6569,"Ġlielais":6570,"ozof":6571,"patÄ«k":6572,"ĠdomÄģj":6573,"Ġputek":6574,"Ġistabas":6575,"ĠskaÄ¼i":6576,"Ġ(âĢľ":6577,"Ġfailu":6578,"ĠbÅ«Å¡u":6579,"ÄĵjumÄģ":6580,"âĢ³":6581,"ĠvarÄĵju":6582,"ĠdaÅ¾u":6583,"Ġasfal":6584,"âĢĵâĢĵ":6585,"vÄģrdi":6586,"ĠeksÄģm":6587,"ĠmeklÄĵtÄģj":6588,"Ġdaugav":6589,"17":6590,"Ġtaust":6591,"onos":6592,"grÄģmatas":6593,"mÄ«gi":6594,"Ġrim":6595,"entÄģl":6596,"ĠzÄģÄ¼u":6597,"Ġplus":6598,"laist":6599,"ĠvecÄģ":6600,"atoriem":6601,"Ġpirkstu":6602,"ĠskaÅĨas":6603,"ikam":6604,"ĠiesÄģk":6605,"iedom":6606,"galu":6607,"Ġaci":6608,"tikt":6609,"Ġpieejamas":6610,"Ġvalstij":6611,"ÅĨÄ£":6612,"ĠizÅĨÄĵm":6613,"ĠkÄģdai":6614,"Ġpastipr":6615,"uÅ¡a":6616,"ĠkÄ¼Å«s":6617,"Ġkonkurs":6618,"Ġatviegl":6619,"mÅ«z":6620,"pos":6621,"ĠpÄģrdzÄ«v":6622,"Ġskap":6623,"prom":6624,"uÅ¡ais":6625,"tehn":6626,"ĠkomunikÄģcijas":6627,"Ġcigar":6628,"ĠÅ¡ÅĨ":6629,"Ġprov":6630,"Ġpudel":6631,"ĠvienkÄģrÅ¡s":6632,"Ġvirtuves":6633,"ilt":6634,"uÅ¡ajiem":6635,"neÅ¡a":6636,"Ġneatbilst":6637,"Ġinternets":6638,"ĠsvÄĵtki":6639,"ĠgarÅ¡o":6640,"attÄĵl":6641,"ĠpaskatÄ«ties":6642,"Ġom":6643,"ĠvisnotaÄ¼":6644,"prat":6645,"aga":6646,"ect":6647,"Ġvalm":6648,"Ġdienai":6649,"Ġasins":6650,"ektiem":6651,"ĠreÅ¾Ä«mÄģ":6652,"sen":6653,"Ġvin":6654,"Ġlinu":6655,"ekciju":6656,"Ġnodev":6657,"Ä«tÄģjam":6658,"Ġsvec":6659,"ĠsabiedrÄ«bu":6660,"ĠbÄĵrnudÄģr":6661,"Ġejot":6662,"Ġgur":6663,"Ġneies":6664,"Ġjub":6665,"Äģkus":6666,"emi":6667,"iskajai":6668,"ĠsmÄĵÄ·":6669,"ĠsacensÄ«bÄģm":6670,"organiz":6671,"35":6672,"Å«tÄģm":6673,"Ġco":6674,"Ġspilv":6675,"ĠpavÄĵr":6676,"Ġskrienot":6677,"ĠpadarÄ«t":6678,"Ġkilometrus":6679,"ÄģÅ¡anu":6680,"atÅ«ras":6681,"tÄģds":6682,"ĠâĢ¦":6683,"ĠbrÄģ":6684,"ĠsociÄģlÄģ":6685,"Ġsniegs":6686,"ÑĢ":6687,"Ġnolik":6688,"dzis":6689,"Ġprim":6690,"Ġnesas":6691,"Å«dens":6692,"ĠizvÄĵles":6693,"ĠmÄģcÄ«ties":6694,"ĠtÄ«klÄģ":6695,"maks":6696,"Ä¼Å«st":6697,"ekcija":6698,"Ġpiedz":6699,"Ġielik":6700,"Ġslodz":6701,"ĠrisinÄģjumu":6702,"papildus":6703,"pÄĵÄ¼u":6704,"Ġkoord":6705,"rakstur":6706,"ĠÄ·Ä«n":6707,"Ġsola":6708,"ĠrÄĵzek":6709,"ĠrakstÄ«ju":6710,"ĠplÄģnoÅ¡anas":6711,"ĠatmosfÄĵr":6712,"Ġdziesma":6713,"Ġsiltum":6714,"ass":6715,"Å«Å¾":6716,"Ġcir":6717,"Ġcietu":6718,"Ġlaimes":6719,"ĠgarÄģ":6720,"tiesÄ«bu":6721,"ĠceÄ¼iem":6722,"Ġ2005":6723,"ĠbrÄ«dis":6724,"Ġtransport":6725,"ĠatlÄ«dz":6726,"elk":6727,"Ġsavulaik":6728,"ĠlielÄģkais":6729,"vietas":6730,"Ġietekmi":6731,"ĠlÄ«guma":6732,"daÄ¼as":6733,"Ġtaks":6734,"Ġuzaic":6735,"ĠpÄģrÅĨem":6736,"Ġekspor":6737,"ĠprincipÄģ":6738,"oÄ¼":6739,"ĠgultÄģ":6740,"eniski":6741,"ĠdivÄģs":6742,"Ġpersonai":6743,"ĠcitÄģd":6744,"nam":6745,"Ġlin":6746,"ĠapgÅ«t":6747,"Ġkluba":6748,"red":6749,"Ġra":6750,"ĠcieÅ¡":6751,"Ä«tei":6752,"Ġnoteiktu":6753,"Ġasar":6754,"Ġnomet":6755,"pavisam":6756,"ĠkvadrÄģt":6757,"gai":6758,"ho":6759,"riek":6760,"ĠvÄ«ru":6761,"Ġuzrun":6762,"Ġinici":6763,"ainis":6764,"Ġskats":6765,"pilÄ«":6766,"saist":6767,"Ġparun":6768,"Ġaizvad":6769,"Ġhor":6770,"ĠminÄĵt":6771,"ĠpasÄģkumi":6772,"Ġaizpild":6773,"ĠgribÄĵjÄģs":6774,"Ġmodelis":6775,"ĠsÄĵnes":6776,"salÄ«dz":6777,"mÄģjas":6778,"ietim":6779,"eÄ¼as":6780,"pirmo":6781,"ĠÄ«paÅ¡s":6782,"ĠbÄĵrnÄ«bas":6783,"Ġdeva":6784,"ĠkrÄģsa":6785,"ĠspeciÄģlisti":6786,"Ġtapa":6787,"Ġtilta":6788,"ĠfiniÅ¡a":6789,"nÄģm":6790,"Ġkuld":6791,"ĠslÄĵdz":6792,"ĠjaunieÅ¡i":6793,"Ġvecais":6794,"ĠotrÄģs":6795,"ceÄ¼Äģ":6796,"Ġlatiem":6797,"Ġnoziedz":6798,"vienkÄģrÅ¡i":6799,"Ġplastmasas":6800,"70":6801,"atbild":6802,"avs":6803,"aÄ¼Äģm":6804,"Ġgara":6805,"ĠminÄĵto":6806,"ĠslimÄ«bas":6807,"Ġpreces":6808,"Ġmirk":6809,"ÅĨot":6810,"ĠatkÄģp":6811,"okur":6812,"ĠlabÄģks":6813,"aidÄ«t":6814,"audu":6815,"Ġattais":6816,"ĠtÄģlru":6817,"ĠÄĵdiens":6818,"ĠmÄĵÄ£inÄģt":6819,"Ġprezent":6820,"Ġpartner":6821,"Ġemocijas":6822,"saj":6823,"viÅĨam":6824,"ĠspÄĵjas":6825,"ĠizcÄ«n":6826,"ee":6827,"her":6828,"Ġses":6829,"avots":6830,"its":6831,"tris":6832,"Ä«rs":6833,"Ġsoli":6834,"ĠlÄ«dzekÄ¼i":6835,"ĠatkarÄ«bÄģ":6836,"ĠÄģrkÄģrtÄ«gi":6837,"Ġjubil":6838,"fic":6839,"ĠspÄģr":6840,"Ä«rÄģ":6841,"Ġkamera":6842,"ĠamerikÄģÅĨu":6843,"Ä«tajiem":6844,"Ġgard":6845,"ĠÅ¡Ä·Äĵr":6846,"Ġintereses":6847,"ĠinformÄĵ":6848,"ĠspÄĵli":6849,"ĠabsolÅ«ti":6850,"ĠnÄģksies":6851,"ati":6852,"ĠuzÅĨÄĵmumiem":6853,"ĠrunÄģjot":6854,"Ġmetru":6855,"Ġapjomu":6856,"ĠnacionÄģlÄģs":6857,"Ġpavasara":6858,"Ġpension":6859,"ĠpaspÄĵj":6860,"ĠjÄģpÄģr":6861,"Ġ198":6862,"inote":6863,"Ġpieciem":6864,"Ġlietuvas":6865,"ĠnoÅ¾Äĵl":6866,"ite":6867,"audzis":6868,"Ġbezdarb":6869,"ĠpÄģrliecinÄģts":6870,"ĠziÅĨo":6871,"Ġpensiju":6872,"sek":6873,"Ġmk":6874,"ĠbaÅ¾":6875,"ĠnoÅĨem":6876,"izglÄ«t":6877,"ĠieslÄĵg":6878,"Ġpui":6879,"Ġnoteikumu":6880,"Ġatbilde":6881,"Ġdirektors":6882,"nÄĵs":6883,"Ä«gums":6884,"ĠkrÄĵjumu":6885,"ĠceÄ¼ojuma":6886,"katru":6887,"Ġmiljonus":6888,"ĠnodarbinÄģt":6889,"ĠdeputÄģti":6890,"mju":6891,"nem":6892,"ĠspÄĵtu":6893,"ĠlielbritÄģn":6894,"Ġveselu":6895,"bergs":6896,"ĠtreÅ¡ajÄģ":6897,"daÅ¾Äģd":6898,"ĠtÅ«kstoÅ¡i":6899,"db":6900,"Ġ@":6901,"ĠkÅ«":6902,"Ġnat":6903,"als":6904,"Ġlielveikal":6905,"Ġbrend":6906,"ainÄģs":6907,"Ġdienn":6908,"ogres":6909,"Ġ400":6910,"ĠizvÄĵli":6911,"Ġlati":6912,"Ġizcil":6913,"Ġkundz":6914,"ĠnogalÄĵ":6915,"ÄģÄ£":6916,"ĠjÅ«l":6917,"ĠdaÅ¾kÄģrt":6918,"ĠÄģrvalstu":6919,"Ġ45":6920,"ĠvÄ«rieÅ¡iem":6921,"Ġbraucot":6922,"ĠtreÅ¡Äģ":6923,"Ġpulksten":6924,"Äĵstu":6925,"Ġdzej":6926,"Ġpasta":6927,"pirmajÄģ":6928,"ĠorganizÄģciju":6929,"ĠnÄģkotnes":6930,"Ġkast":6931,"ĠkrÄģÅ¡":6932,"ĠkÄģdÄĵÄ¼":6933,"ĠtrÅ«kst":6934,"Ġsolis":6935,"rr":6936,"Ġieteic":6937,"ĠstÄģstÄ«ja":6938,"ĠdÄĵls":6939,"ĠpriekÅ¡sÄĵdÄĵtÄģja":6940,"diez":6941,"ĠtikÅ¡anÄģs":6942,"Ġgandar":6943,"ozes":6944,"ĠmatemÄģt":6945,"Ġkvalif":6946,"Ġkonsult":6947,"Ġuzlabot":6948,"ĠmÄģksliniec":6949,"Ġmaizes":6950,"nedÄĵÄ¼":6951,"ĠÅ¡okolÄģdes":6952,"erts":6953,"Ġcol":6954,"Ġaizved":6955,"ĠlietotÄģjs":6956,"eklÄĵt":6957,"Ġabu":6958,"Ġserviss":6959,"vÄģrds":6960,"ĠrudenÄ«":6961,"oÄ·":6962,"otie":6963,"Ġjauki":6964,"ĠvÄĵlu":6965,"Ġant":6966,"skrien":6967,"ĠstÄģvokli":6968,"Ġsulu":6969,"ĠvÄĵsta":6970,"24":6971,"Ġarom":6972,"irdz":6973,"ceru":6974,"ĠrezultÄģtiem":6975,"jÄģat":6976,"ĠvÄĵstnesis":6977,"ĠizstrÄģdÄģj":6978,"ĠievÄĵrojami":6979,"miÅĨa":6980,"Å¡ais":6981,"alk":6982,"uri":6983,"Ġtiku":6984,"Ġlatviski":6985,"pievien":6986,"ĠpasÄģkumÄģ":6987,"Ġbeidzas":6988,"ĠatseviÅ¡Ä·u":6989,"Ġieguva":6990,"Ġnepiln":6991,"):":6992,"sabiedr":6993,"Ġmies":6994,"aktu":6995,"Äģcu":6996,"ĠvajadzÄ«ga":6997,"ĠatspoguÄ¼":6998,"ĠaprÅ«pes":6999,"org":7000,"plÅ«d":7001,"ĠizvÄĵlas":7002,"ĠstÄģvÄĵja":7003,"Ġmodes":7004,"Ġair":7005,"kÄģdas":7006,"ĠmeklÄĵj":7007,"ĠapstÄģkÄ¼i":7008,"ĠpastÄģstÄ«t":7009,"Ġsiguld":7010,"delfi":7011,"iklÄģv":7012,"Ġnians":7013,"nok":7014,"amiem":7015,"Ġgps":7016,"ĠtikmÄĵr":7017,"Ġnerv":7018,"box":7019,"ĠplaÅ¡i":7020,"vok":7021,"ieras":7022,"alitÄģti":7023,"ĠÅ¡ur":7024,"Ġtual":7025,"Ġmiljoniem":7026,"ĠlÄ«gums":7027,"Ġlem":7028,"inoÅ¡s":7029,"Ġizsm":7030,"ĠsavÄģk":7031,"Ġakmens":7032,"Ġkatras":7033,"Ġfilozof":7034,"drÄ«zÄģk":7035,"Ġlattelecom":7036,"ĠreÄ£istrÄģcijas":7037,"nekas":7038,"ÄģÅ¡ana":7039,"Ġsc":7040,"Ġdipl":7041,"oduc":7042,"Ġsirdi":7043,"Ġsviesta":7044,"ĠmÅ«Å¾Äģ":7045,"Ġneveiksm":7046,"ĠcepeÅ¡krÄģs":7047,"bes":7048,"Ġpogu":7049,"iji":7050,"ĠgaÄ¼a":7051,"ilkt":7052,"odi":7053,"ĠminÅ«Å¡u":7054,"ieriem":7055,"Ġnenos":7056,"Ġdzimumu":7057,"ĠkonkrÄĵtu":7058,"ĠtÄĵma":7059,"ĠsÄģpes":7060,"atceros":7061,"sat":7062,"Ġcitam":7063,"Ġizmantots":7064,"Ġotrais":7065,"Ġsievieti":7066,"Ġbanku":7067,"ĠprofesionÄģlÄģs":7068,"ĠneatkarÄ«gi":7069,"ĠtaisnÄ«ba":7070,"Ġpievilc":7071,"ĠsÅ«d":7072,"ĠlÄģd":7073,"Å¾en":7074,"Ġpiep":7075,"ĠsaistÄ«ti":7076,"rezultÄģtÄģ":7077,"Ġapd":7078,"ogur":7079,"Ġekstr":7080,"aimniek":7081,"ĠÄįetri":7082,"embrim":7083,"Ġigaunijas":7084,"ĠidentitÄģ":7085,"ÄĵjoÅ¡o":7086,"Ä«gajÄģm":7087,"ektus":7088,"ĠkrÄ«t":7089,"raksta":7090,"Ġindustr":7091,"janvÄģrÄ«":7092,"ĠobligÄģti":7093,"ieÅ¡anas":7094,"ĠgÄģzes":7095,"ometr":7096,"Ġpier":7097,"ĠmanÄ«":7098,"Ä«ri":7099,"Ġkonkursa":7100,"Ġsarunu":7101,"Ġupes":7102,"ards":7103,"ĠcieÅ¡i":7104,"ektiv":7105,"vienÄ«gais":7106,"mazliet":7107,"ĠmetÄģla":7108,"ĠdÄģvanu":7109,"turpmÄģk":7110,"90":7111,"ĠatÅĨem":7112,"abr":7113,"igur":7114,"atÄ«vu":7115,"ĠatbildÄ«bu":7116,"Ġgaisu":7117,"ĠnodokÄ¼a":7118,"ĠmÄĵrci":7119,"otra":7120,"Ġbezgal":7121,"kurÄģ":7122,"ĠtiesÄģ":7123,"ĠÅ«den":7124,"ĠpieklÄģj":7125,"ĠatÅ¡Ä·iras":7126,"ĠuzraudzÄ«bas":7127,"ester":7128,"ieku":7129,"Ġgaru":7130,"Ġapmai":7131,"ĠsvarÄ«gs":7132,"Ġnegribu":7133,"katrÄģ":7134,"Ġsatrauk":7135,"sap":7136,"Ġkinote":7137,"iktu":7138,"ity":7139,"ĠpÄģrvad":7140,"tras":7141,"ĠolÄ«v":7142,"ĠklÄģtbÅ«t":7143,"ĠgabaliÅĨos":7144,"Ġagres":7145,"ĠmÅ«Å¾u":7146,"Ġbulj":7147,"Ġlam":7148,"Ġapn":7149,"izs":7150,"ĠjÄģÅĨem":7151,"egul":7152,"ĠpilnÄģ":7153,"Ġpadal":7154,"pastu":7155,"ojamas":7156,"filmas":7157,"grÄģmatu":7158,"umt":7159,"Ġnekav":7160,"ĠÅ¡Äģdus":7161,"ĠÄ«paÅ¡a":7162,"ĠatpÅ«tas":7163,"ĠstrÄģdÄģj":7164,"ĠnovÄĵrtÄĵ":7165,"Ġstacijas":7166,"Ġkafiju":7167,"ĠpavasarÄ«":7168,"Ġsmuki":7169,"Ġbailes":7170,"Ġmeistar":7171,"Ġsaut":7172,"ĠziÅĨa":7173,"oper":7174,"lietas":7175,"ĠÄ£imeni":7176,"ÄĵtÄģjsistÄĵm":7177,"ĠatraÅ¡anÄģs":7178,"Ġticis":7179,"ese":7180,"inÄģv":7181,"ÄģtÄģs":7182,"Ġvisliel":7183,"Ġdaudzveid":7184,"atÄ«vo":7185,"ĠkustÄ«bas":7186,"Ġstandarta":7187,"ĠvirtuvÄĵ":7188,"snes":7189,"Ġizgudr":7190,"omÄģs":7191,"Ġapav":7192,"Äįiem":7193,"Ġvakaru":7194,"ĠlaukumÄģ":7195,"ĠmaÅ¡Ä«n":7196,"ĠaudzÄĵk":7197,"Ġkonflik":7198,"proti":7199,"ejai":7200,"ivud":7201,"ĠmazÄģs":7202,"ĠÄ«paÅ¡nieks":7203,"Ġdistanci":7204,"Ġfotoapar":7205,"ĠkrastÄģ":7206,"bÄĵg":7207,"ĠgaidÄģm":7208,"Ġdokumentus":7209,"ĠizmÄĵÄ£inÄģt":7210,"ÄĵjuÅ¡as":7211,"Ġvainas":7212,"droÅ¡i":7213,"Ġher":7214,"inÄģÅ¡anÄģ":7215,"ĠpamÄģc":7216,"Ġapsaimniek":7217,"21":7218,"diev":7219,"Ġmazais":7220,"ĠjÄģap":7221,"Ġsaslim":7222,"ĠstrÄ«d":7223,"Ġnoteikts":7224,"Ġizmis":7225,"ĠtÄĵmas":7226,"ser":7227,"Ġsel":7228,"izvÄĵl":7229,"ĠrakstÄģ":7230,"ĠpalÄ«dzÄĵs":7231,"Å«sties":7232,"Ġnezina":7233,"Ġteksta":7234,"ĠkrÄ«zes":7235,"99":7236,"Ġkais":7237,"Ġizbrauc":7238,"Ġuzp":7239,"Ġmantas":7240,"Ġrefer":7241,"ĠpuÄ·":7242,"Ġzeme":7243,"Ġilgu":7244,"Ġvalstis":7245,"ĠsalÄ«dzinÄģt":7246,"Ġobjektu":7247,"Ġposms":7248,"paÅ¡laik":7249,"ĠtelevÄ«zijas":7250,"Ġizsp":7251,"ĠkrÅ«m":7252,"Ġvalod":7253,"eder":7254,"Ġpieci":7255,"Ġ2014":7256,"Ġaugstskolas":7257,"Ġpolicija":7258,"attiec":7259,"ĠpastÄģstÄ«ja":7260,"Ġfonda":7261,"dir":7262,"mÄģjÄģs":7263,"Ġaust":7264,"Ġsekt":7265,"Äģjoties":7266,"Ä·us":7267,"ĠpÄģrsp":7268,"Ġkond":7269,"Ġbritu":7270,"Ġdevos":7271,"ceÄ¼Å¡":7272,"ĠmeitenÄĵm":7273,"ĠdolÄģru":7274,"Ġslud":7275,"Ġskarb":7276,"ĠlietotÄģja":7277,"ĠbÄĵrnÄ«bÄģ":7278,"ĠnozÄ«mi":7279,"Ġpiecas":7280,"ĠÅ¡aub":7281,"ebruÄģrÄ«":7282,"Ġhal":7283,"kars":7284,"ĠpasÄģkumus":7285,"ĠpÄģrbaudÄ«t":7286,"ĠrindÄģ":7287,"ĠkÄ¼Å«das":7288,"ĠattÄģlumÄģ":7289,"ĠneizdevÄģs":7290,"ĠvÄ«z":7291,"Ġsomu":7292,"ekom":7293,"trukt":7294,"tsaim":7295,"ĠpÄĵcpus":7296,"Ġhar":7297,"zv":7298,"Ġrat":7299,"ĠreÄģl":7300,"Ġgaras":7301,"ĠpiemÄĵrs":7302,"ĠekrÄģns":7303,"ĠuzzinÄģju":7304,"ĠpamanÄ«ju":7305,"pamat":7306,"Ġiebild":7307,"skÄģb":7308,"pÄģris":7309,"Ġitin":7310,"Ġmiljonu":7311,"ĠpÄģrdot":7312,"Ġorient":7313,"dis":7314,"vÄģm":7315,"ĠpersonÄ«gi":7316,"Ġsekret":7317,"Ġkorpus":7318,"ĠstÄģvoklÄ«":7319,"aa":7320,"caur":7321,"laid":7322,"ojamies":7323,"Ġsaspr":7324,"ĠpÄģrstrÄģd":7325,"ĠreklÄģm":7326,"ĠbioloÄ£":7327,"ĠtransportlÄ«dz":7328,"iÄ·is":7329,"mel":7330,"orÄģ":7331,"izskatÄģs":7332,"vispirms":7333,"pateic":7334,"Äģfr":7335,"ĠÅ¡odienas":7336,"Ġlatus":7337,"ĠviesnÄ«cas":7338,"Ġteiktu":7339,"ĠdziÄ¼i":7340,"ĠaugÅ¡up":7341,"bis":7342,"Ġ*":7343,"alitÄģtes":7344,"Ġiela":7345,"Ġgalva":7346,"Ġskaists":7347,"Ġcukurs":7348,"Ġnarkot":7349,"ĠmÄģrketinga":7350,"sird":7351,"Ġ%":7352,"ĠgÅ«":7353,"Ġgodu":7354,"ĠjÄĵkab":7355,"Ġnojau":7356,"gadsimta":7357,"Ġveidos":7358,"ĠmÄĵb":7359,"âĢ¦.":7360,"Ġizklaus":7361,"Ġoktob":7362,"Ġedgar":7363,"ĠreÅ¾isors":7364,"meÅ¾":7365,"pÄģ":7366,"ĠvÄģcijas":7367,"ÄĵlÄģs":7368,"Ġjauk":7369,"Ġfo":7370,"undr":7371,"ĠkrÅ«z":7372,"uktur":7373,"ĠnedÄĵÄ¼Äģm":7374,"ĠdÅ¾ek":7375,"ĠdzirdÄĵjis":7376,"ĠdÄģrzÄģ":7377,"beigÄģs":7378,"ment":7379,"ĠskrÄĵjiens":7380,"ĠdroÅ¡Ä«bu":7381,"ĠdzirdÄĵt":7382,"daÅ¾i":7383,"inÄģtÄģjs":7384,"noteikti":7385,"aprÄ«lÄ«":7386,"ĠleÄ£end":7387,"mw":7388,"sag":7389,"Ġgum":7390,"Ġjoc":7391,"vienu":7392,"Ġakcijas":7393,"ĠÄ·Äĵr":7394,"ĠkustÄ«bu":7395,"Ġdizaina":7396,"ĠrÄ«cÄ«bÄģ":7397,"septembrÄ«":7398,"enas":7399,"Ä«tÄĵs":7400,"ĠtÄģdÄģm":7401,"Ġservisa":7402,"ĠvizuÄģli":7403,"Ð¾Ð":7404,"Ġventspils":7405,"ÅĨujor":7406,"Ġ2003":7407,"ĠuzskatÄ«t":7408,"ĠapsÅ«dz":7409,"ĠbÅ«vniecÄ«bas":7410,"ĠattÄĵlu":7411,"ĠtuvÄģkajÄģ":7412,"ĠpÄĵdas":7413,"etÄĵm":7414,"Ġkliedz":7415,"Ġgatavo":7416,"ĠÄ«sz":7417,"ĠkultÅ«r":7418,"ĠsaÅĨÄĵmu":7419,"google":7420,"hu":7421,"Ġtec":7422,"Ġloma":7423,"alitÄģte":7424,"ĠjaunajÄģ":7425,"Ġpilnvar":7426,"Ġpilnveid":7427,"ĠpiemÄĵrot":7428,"inÄģsim":7429,"Ġvarian":7430,"ĠatÅ¡Ä·irÄ«bas":7431,"ĠoperÄĵtÄģjsistÄĵm":7432,"ĠpÄģrbaudes":7433,"Ġsagatavot":7434,"ĠaugstÄģkÄģs":7435,"Ġoke":7436,"Ġlikumproj":7437,"mÄģr":7438,"ĠneÄ¼auj":7439,"Ġiziet":7440,"ont":7441,"Ġzud":7442,"izmant":7443,"Äĵks":7444,"manto":7445,"Ġjaunie":7446,"ĠdaÅ¾reiz":7447,"efox":7448,"Ġnoteikta":7449,"ĠlÄĵmuma":7450,"Ġnesaprotu":7451,"katram":7452,"ĠnovÄĵrtÄĵt":7453,"mÄģs":7454,"oned":7455,"ĠgrÄ«das":7456,"Ġhost":7457,"inÄģtÄģ":7458,"ĠnepiecieÅ¡amas":7459,"Ġvakars":7460,"ĠatbildÄĵja":7461,"ĠpiedÄģvÄģjums":7462,"Ġnoskaidrot":7463,"Ġsuns":7464,"ĠmedicÄ«n":7465,"Ġsubj":7466,"Ġlinux":7467,"ializ":7468,"artam":7469,"ĠprÄģta":7470,"ionÄģ":7471,"gandrÄ«z":7472,"ĠuzÅĨÄĵmÄĵj":7473,"Ä«gÄģku":7474,"ĠattÄ«stÄ«ba":7475,"skolÄģ":7476,"Ġgultas":7477,"eÅĨus":7478,"Ġnaf":7479,"amos":7480,"rÄ«tu":7481,"Ġlaikus":7482,"ĠsastÄģd":7483,"ĠÅ¾Äģv":7484,"ĠpÄģrsniedz":7485,"Ġautoru":7486,"Ġbiroja":7487,"Ġozol":7488,"ĠallaÅ¾":7489,"mei":7490,"mÄĵm":7491,"ĠkÄģjÄģs":7492,"ĠievÄĵl":7493,"Ä£im":7494,"inÄģjumam":7495,"vienÄģ":7496,"Ġvecs":7497,"ĠpriekÅ¡stat":7498,"Ġsekas":7499,"Ġpannas":7500,"ĠiestÄģde":7501,"Ġpieaugums":7502,"ĠierÄ«ci":7503,"Ġsummu":7504,"Ġvielas":7505,"))":7506,"Ġgb":7507,"oss":7508,"ĠpÄģrÄĵjÄģs":7509,"okas":7510,"nieces":7511,"Ġinfras":7512,"embris":7513,"ĠÅ¡ajÄģs":7514,"ĠgadÄģs":7515,"Äĵdu":7516,"Ġskaistu":7517,"Ġneder":7518,"ĠiegÅ«tu":7519,"Ġapmaks":7520,"Ġpolicis":7521,"ĠnepiecieÅ¡ami":7522,"Ġaizmirs":7523,"Ġvielu":7524,"ĠacÄ«mredzot":7525,"fu":7526,"aip":7527,"indra":7528,"Ġblack":7529,"Ġsaprotams":7530,"grÄģmata":7531,"Ġattieksmi":7532,"Ġapjoms":7533,"Ġ#":7534,"ÄĵjÄģmies":7535,"ĠpÄģrc":7536,"ibr":7537,"Ġlasa":7538,"ĠportÄģlÄģ":7539,"ĠdiÅ¾":7540,"Ġjuris":7541,"Ġapstiprina":7542,"Ġapgalvo":7543,"ĠiekÄģrtas":7544,"ĠpriekÅ¡rocÄ«bas":7545,"Ġnama":7546,"ano":7547,"Äĵrt":7548,"ĠpÄģrk":7549,"opu":7550,"ach":7551,"ĠkÄģrtÄ«ba":7552,"ĠattÄ«stÄ«t":7553,"Ġzivju":7554,"illes":7555,"ĠekrÄģnu":7556,"principÄģ":7557,"metr":7558,"Äģtie":7559,"Ġiebrauc":7560,"Ġmatus":7561,"Ġbeigas":7562,"Ġreceptes":7563,"ĠoficiÄģli":7564,"ws":7565,"oram":7566,"oms":7567,"Ġnord":7568,"Ġieviest":7569,"Ġbraucam":7570,"ĠdziedÄģtÄģj":7571,"Ġtemat":7572,"Å¡oties":7573,"akÄģs":7574,"Ġzag":7575,"Ġkalp":7576,"Ġizslud":7577,"Ġpieeja":7578,"Ġpaciet":7579,"ĠspÄĵkiem":7580,"ĠdrÄĵbes":7581,"Ġdieg":7582,"akter":7583,"ira":7584,"ima":7585,"Ġdaudzus":7586,"ĠdomÄģts":7587,"Ġizdal":7588,"konkur":7589,"ĠjÅ«tos":7590,"Ġapliecina":7591,"ĠmÄ«lestÄ«ba":7592,"ĠÄģrzemju":7593,"Äĵp":7594,"Ġmanai":7595,"produk":7596,"ĠlÄ«dzÄ«ga":7597,"Ġpirmajiem":7598,"ĠpirmizrÄģd":7599,"rakstu":7600,"ĠsvarÄ«ga":7601,"Ġieraksts":7602,"22":7603,"nÄģv":7604,"ĠitÄģ":7605,"oter":7606,"Ġsveic":7607,"ĠpriekÅ¡likums":7608,"ĠvietÄĵjÄģ":7609,"ĠlasÄ«tÄģju":7610,"ĠvÄ«rieti":7611,"Ġlaukos":7612,"ilgi":7613,"Ġjumta":7614,"Ġholivud":7615,"ĠskandinÄģv":7616,"ĠgrÄģmatvedÄ«bas":7617,"dd":7618,"Ġend":7619,"Ä«Å¡iem":7620,"otnes":7621,"Äģdas":7622,"Ġvirk":7623,"Ġieraksta":7624,"Ġtautsaim":7625,"Ġvitam":7626,"cetur":7627,"uÅ¡u":7628,"Ġpiens":7629,"tura":7630,"tiesÄ«bas":7631,"ĠvÄĵsturÄĵ":7632,"neviens":7633,"Ġmetro":7634,"Ġelektronisko":7635,"ly":7636,"erus":7637,"ĠatÄ¼auties":7638,"Ġakciju":7639,"andas":7640,"Ġpaveik":7641,"Ä«zÄĵ":7642,"ĠkonkrÄĵti":7643,"ĠnokÄ¼u":7644,"ĠmaÅ¡Ä«nÄģ":7645,"ĠmÄĵrÄ·iem":7646,"zs":7647,"Ġkodu":7648,"Ġpusstund":7649,"Äģtri":7650,"ance":7651,"Ġport":7652,"Ġstila":7653,"ĠieraudzÄ«ju":7654,"bau":7655,"Ġrakstura":7656,"ublic":7657,"ĠkalnÄģ":7658,"ĠsaistÄ«ta":7659,"berga":7660,"ĠapstÄģkÄ¼iem":7661,"Ġbedr":7662,"onedÄĵÄ¼":7663,"daÄ¼a":7664,"Ġpogas":7665,"Ġmoc":7666,"Äĵjiet":7667,"Äģda":7668,"Ġaizst":7669,"Ġslink":7670,"pasÄģk":7671,"ĠatbildÄĵt":7672,"Ġinstruk":7673,"ĠuzmanÄ«gi":7674,"ĠmedicÄ«nas":7675,"ĠlaicÄ«gi":7676,"isa":7677,"ĠÅ¡ajos":7678,"Ġveikta":7679,"ĠlasÄ«tÄģjiem":7680,"Ġmati":7681,"Ġandris":7682,"Ġsmagi":7683,"ĠmaÄ£":7684,"ĠdzÄ«voklÄ«":7685,"Ä«simies":7686,"ĠmehÄģnis":7687,"Ġneatceros":7688,"san":7689,"Ä«Å¡anÄģ":7690,"Ġvas":7691,"Ġiegr":7692,"draug":7693,"Ġjauniem":7694,"ĠskolotÄģju":7695,"ĠÄ«si":7696,"Ġagri":7697,"Ġdepartam":7698,"novembrÄ«":7699,"ĠlauksaimniecÄ«bas":7700,"fe":7701,"Ġsier":7702,"Ġtol":7703,"istus":7704,"ests":7705,"Ä«jumam":7706,"ĠmazÄģks":7707,"Ġsalik":7708,"Ġvilt":7709,"ĠvÄĵsturi":7710,"ĠkontekstÄģ":7711,"cin":7712,"glu":7713,"Ġuzk":7714,"pareiz":7715,"ĠattiecÄ«gÄģs":7716,"ĠpasÄģkumiem":7717,"saei":7718,"Ġsaraksts":7719,"Ġbiroj":7720,"Ġromant":7721,"ĠiekÄģrtu":7722,"ĠÂł":7723,"Ġejam":7724,"Ġren":7725,"ĠjautÄģ":7726,"ĠkÄģdÄģm":7727,"ĠiespÄĵjamo":7728,"Ġkarav":7729,"Ġmodern":7730,"sur":7731,"Äģg":7732,"ĠnovÄĵl":7733,"Ġizbeig":7734,"uka":7735,"Ġsekoja":7736,"Ġpapr":7737,"Ġikviens":7738,"Ġsajauc":7739,"Ġneizd":7740,"Ġmodeli":7741,"ĠavÄģr":7742,"ĠizmantoÅ¡anas":7743,"ĠiestÄģdÄĵm":7744,"saska":7745,"Ġdetaliz":7746,"oÅĨa":7747,"ĠÄģt":7748,"ĠlÅ«p":7749,"Ġneinteres":7750,"ĠpÄģrveid":7751,"evs":7752,"Äįs":7753,"Ġklim":7754,"ĠpiemÄ«t":7755,"ovi":7756,"Ġnetiks":7757,"ĠpienÄģkumu":7758,"Ġblu":7759,"ĠatvÄĵl":7760,"Ġapkur":7761,"ĠiebÅ«v":7762,"Ġvalda":7763,"jut":7764,"ĠdaÅ¾Äģda":7765,"Ġizmantota":7766,"ĠlabÄģku":7767,"Ġpiecus":7768,"ĠmilzÄ«gs":7769,"ĠjÄģveic":7770,"ĠnÄĵs":7771,"auts":7772,"tÄģz":7773,"Ġatnes":7774,"Ġneatrad":7775,"ĠskrÄĵjiena":7776,"ĠstÄģstÄ«t":7777,"Ġiemesla":7778,"ĠsadarbÄ«bÄģ":7779,"ĠrozÄģ":7780,"Ġsatversmes":7781,"ix":7782,"zina":7783,"amus":7784,"ĠriÅĨ":7785,"iskajÄģs":7786,"Ġfas":7787,"âĢĿ)":7788,"Ġturn":7789,"Ġdros":7790,"ĠturpinÄģja":7791,"Ä«gÄģkÄģ":7792,"Ġmald":7793,"ĠdzelzceÄ¼a":7794,"stos":7795,"Ġnelab":7796,"ĠjÄģc":7797,"ĠjÅ«n":7798,"elÄ«":7799,"Ġing":7800,"izÄĵ":7801,"Ġpretend":7802,"Ġbeigu":7803,"ĠnodroÅ¡inÄģtu":7804,"Ġciemos":7805,"Ġsony":7806,"Ġapdz":7807,"ela":7808,"Ġiepriec":7809,"ĠÅ¡Ä·Ä«r":7810,"Ġskatos":7811,"ĠlabÄģkÄģ":7812,"iÄ¼as":7813,"ĠmobilÄģ":7814,"Ġpipari":7815,"facebook":7816,"Ġsapul":7817,"ĠpriekÅ¡m":7818,"ĠpienÄģkums":7819,"otrÄģ":7820,"Ġsumma":7821,"oÅĨi":7822,"Ġbalvu":7823,"Ġfilmai":7824,"Ġalg":7825,"Ġpretim":7826,"ĠskolÄĵni":7827,"ĠatpÅ«sties":7828,"Ġinteresantas":7829,"ĠierÄ«Äįu":7830,"garÅ¡":7831,"ĠstilÄģ":7832,"Ġdistances":7833,"Ġapgroz":7834,"ĠbÄģriÅĨ":7835,"ĠtÄĵva":7836,"pies":7837,"toreiz":7838,"istÄģ":7839,"Ġnegad":7840,"ĠpiezÄ«m":7841,"augustÄģ":7842,"ĠtehnoloÄ£ijÄģm":7843,"Ġattieksme":7844,"Ġ'":7845,"Ġsild":7846,"Ġpieliek":7847,"ĠvÄĵlies":7848,"ĠpaslÄĵp":7849,"ocijas":7850,"ĠvÄĵrot":7851,"ĠiekÄ¼auj":7852,"ĠlabÄģka":7853,"vidus":7854,"ĠizglÄ«tÄ«bu":7855,"ĠslimÄ«bu":7856,"ĠmÄ«klu":7857,"ĠdzÄĵrienu":7858,"ĠaÄ£entÅ«ra":7859,"Ġuzglab":7860,"vesel":7861,"Ġstok":7862,"ĠkrÄģsÄģ":7863,"Ġavots":7864,"Ġsudr":7865,"ĠÄįetriem":7866,"ĠtumÅ¡":7867,"ĠrÄ«cÄ«bu":7868,"ĠinstitÅ«ciju":7869,"Ġatkritumu":7870,"estu":7871,"ĠÅ¡t":7872,"Ġvistas":7873,"Ġmanam":7874,"pars":7875,"Ġtevis":7876,"ĠrÄ«koties":7877,"berry":7878,"Ġiespaidu":7879,"ĠlejupielÄģd":7880,"ĠpÄģrmaiÅĨas":7881,"vir":7882,"Ġmen":7883,"Ġizlik":7884,"eim":7885,"ĠapÅĨÄĵm":7886,"izdev":7887,"ĠspÄĵs":7888,"Ġraksti":7889,"ĠÄ«stais":7890,"Ġdators":7891,"Ġpubliski":7892,"Ġziedu":7893,"ĠmÄ«klas":7894,"katrs":7895,"Ġbasket":7896,"ĠpamÄĵÄ£inÄģt":7897,"jÄģp":7898,"ĠvÄĵja":7899,"esta":7900,"inoÅ¡a":7901,"elÄĵ":7902,"Ġklin":7903,"maÅĨa":7904,"ĠlapÄģm":7905,"Ġsievu":7906,"ĠÄĵdien":7907,"Ġizraisa":7908,"bÅ«tu":7909,"ĠÄįu":7910,"ĠdÄ«":7911,"Ġrss":7912,"Äģlus":7913,"Äģlos":7914,"Ġiesaka":7915,"edÅ¾":7916,"Ġveidojot":7917,"Ġefektu":7918,"Ġigau":7919,"ĠmÄ«lestÄ«bas":7920,"ĠtÄ«klos":7921,"Ġrespond":7922,"wor":7923,"ane":7924,"Å«rÄ«":7925,"ĠzÄģb":7926,"Ġgredz":7927,"Ġklik":7928,"ĠcenÅ¡os":7929,"pasaules":7930,"Ġauduma":7931,"ĠnolÄĵma":7932,"ĠeÄ¼Ä¼u":7933,"Ġtrases":7934,"55":7935,"Ġsodu":7936,"Ġdinam":7937,"turu":7938,"ĠÅ¡al":7939,"Äģtam":7940,"iskai":7941,"izÄģcija":7942,"Ġmiltus":7943,"ĠÄ«paÅ¡umÄģ":7944,"balst":7945,"ĠuzmanÄ«ba":7946,"Ġmeita":7947,"Ġdzert":7948,"ĠtelpÄģs":7949,"Ġburtiski":7950,"ievÄĵr":7951,"otajÄģ":7952,"ĠieplÄģn":7953,"Ġsky":7954,"Äĵka":7955,"Ġsaprastu":7956,"iedru":7957,"ĠpriekÅ¡lik":7958,"ĠspeciÄģlistu":7959,"ĠgaiÅ¡":7960,"Ġml":7961,"eksp":7962,"Ġpatlaban":7963,"ĠreaÄ£":7964,"ĠlÄ«dzsvar":7965,"ĠvidÄĵjÄģ":7966,"ĠpiedÄģvÄģja":7967,"Ġtelefoniem":7968,"Ġpartiju":7969,"Ġnodarbojas":7970,"ĠdzÄ«vokÄ¼a":7971,"ĠnepiecieÅ¡amÄ«bu":7972,"ĠbrÄ«nums":7973,"Ġmetrus":7974,"ĠizbaudÄ«t":7975,"ĠÅĨujor":7976,"Ġlig":7977,"ĠviÅĨÄģm":7978,"Ġdzin":7979,"ĠstundÄģs":7980,"Ġaktos":7981,"ĠgarÅ¡vielas":7982,"ĠÄģdu":7983,"ĠkonsultÄģ":7984,"otrs":7985,"Ġbaigi":7986,"ĠvÄ«n":7987,"Ġmud":7988,"otus":7989,"Ġpaskr":7990,"Ġdivreiz":7991,"Ġalgas":7992,"ĠbÅ«tÄ«bÄģ":7993,"Ġstart":7994,"Ġizmantoti":7995,"Ġprodukta":7996,"Ġbraucu":7997,"Ġbrauciens":7998,"Ġpakalpojumiem":7999,"Ġteikts":8000,"ĠcerÄ«bas":8001,"ĠpavadÄ«t":8002,"daudzi":8003,"tek":8004,"tika":8005,"Ġpod":8006,"Ġsien":8007,"atkar":8008,"Äĵjai":8009,"over":8010,"Ġnezin":8011,"ĠielÄģm":8012,"ĠnokÄ¼Å«t":8013,"ĠsÄĵdÄĵja":8014,"materiÄģl":8015,"Ġdispl":8016,"ĠstruktÅ«r":8017,"ĠvÄ«na":8018,"Ġmist":8019,"ĠrÅ«g":8020,"ĠskÄģr":8021,"ĠvecÄģs":8022,"ĠportÄģlu":8023,"Ġvariantu":8024,"Ġzvaigznes":8025,"Ġfirefox":8026,"mÄģks":8027,"ĠlÄĵ":8028,"ĠzinÄģÅ¡anu":8029,"Ġtrakt":8030,"inÄģÅ¡anos":8031,"Ġele":8032,"ĠpazÅ«d":8033,"ĠprogrammÄģ":8034,"Ġamata":8035,"Ġmuti":8036,"ĠmÄĵÄ£inÄģja":8037,"Ġpiecu":8038,"ĠsvÄĵtkiem":8039,"Ġatceras":8040,"ĠdzÄ«vokli":8041,"ĠsaskaÅĨ":8042,"ĠbaudÄ«t":8043,"bolu":8044,"Ä¼Äģva":8045,"Ġietur":8046,"ĠvÄĵlmes":8047,"Ġkatrai":8048,"Ġraksturo":8049,"Ġezera":8050,"ĠaizgÄģja":8051,"ĠĠĠĠĠĠĠĠĠĠĠĠĠĠĠĠĠĠĠĠĠĠĠĠĠĠĠĠĠĠĠĠĠĠĠĠĠĠĠĠĠĠĠĠĠĠĠĠĠĠĠĠĠĠĠĠĠĠĠĠĠĠĠĠ":8052,"ĠtumsÄģ":8053,"ĠlÅ«pu":8054,"ĠarhitektÅ«ras":8055,"ĠnenozÄ«mÄĵ":8056,"nr":8057,"ys":8058,"Ġsoda":8059,"ĠrÄ«v":8060,"ĠtraÄ£":8061,"ĠjÄģbrauc":8062,"Ġnesag":8063,"Å«ka":8064,"Ġdaru":8065,"Ġrunas":8066,"ceÄ¼u":8067,"sac":8068,"atÅ¡Ä·ir":8069,"Ġuzskai":8070,"ĠlÄ«dzÄģs":8071,"Ġhe":8072,"ĠlielÄģkas":8073,"ĠiepriekÅ¡ÄĵjÄģs":8074,"Ġstudijas":8075,"Ġmirdz":8076,"Ġpuisis":8077,"Ġikvienam":8078,"ĠnostrÄģd":8079,"Ġnolikt":8080,"Ġjauka":8081,"Ä«cijÄģm":8082,"ĠattÄ«stÄ«bai":8083,"Ġpadome":8084,"Ġautora":8085,"Ġsviests":8086,"Ġinfrastrukt":8087,"atp":8088,"api":8089,"prez":8090,"Ġgruz":8091,"Ä«gÄģko":8092,"Ġgaismu":8093,"ĠatÅ¡Ä·irÄ«bÄģ":8094,"anÅ¾":8095,"ole":8096,"olÅ«":8097,"Ġnavig":8098,"Ġaizdev":8099,"ĠvairÄģkkÄģrt":8100,"ĠÄ«paÅ¡Ä«bas":8101,"ĠzinÄģmu":8102,"ĠdeputÄģtu":8103,"Ġneaizmir":8104,"ĠeÄ¼Ä¼as":8105,"vajadz":8106,"ĠsejÄģ":8107,"ĠtÄĵt":8108,"Ġkurienes":8109,"kust":8110,"ĠattiecÄ«gÄģ":8111,"ĠvÄ«rieÅ¡a":8112,"ĠraÅ¾otÄģji":8113,"Ġnenorm":8114,"nevar":8115,"ĠjÄģdomÄģ":8116,"ĠmirklÄ«":8117,"ĠelektroenerÄ£ijas":8118,"vÄĵstur":8119,"ĠvÄģrt":8120,"age":8121,"ick":8122,"Ġnebeidz":8123,"atÄ«vÄģs":8124,"Ġpamats":8125,"Ġnemit":8126,"Ġnozieg":8127,"ĠslimnÄ«cas":8128,"ĠmarÅ¡rutu":8129,"jÅ«lijÄģ":8130,"arh":8131,"Å¡in":8132,"Ġrul":8133,"ĠrÄ«s":8134,"ĠcÄĵs":8135,"Ġpatentu":8136,"Ġsteig":8137,"Ä«siet":8138,"ĠjÄģg":8139,"Ġbank":8140,"ĠnÄģkamais":8141,"ĠjebkurÅ¡":8142,"Ġnolem":8143,"Ġtall":8144,"ĠsagaidÄ«t":8145,"ĠsastÄģvdaÄ¼as":8146,"Ġĉĉĉĉĉ":8147,"rec":8148,"asv":8149,"ĠparkÄģ":8150,"ĠpÄģriet":8151,"tren":8152,"Äįas":8153,"ica":8154,"Ġjaunat":8155,"Ġnotikumi":8156,"ĠielÄģd":8157,"vilk":8158,"Ġneapmier":8159,"ĠgrÅ«tÄģk":8160,"Ġkreisi":8161,"Ġstatistikas":8162,"ĠsajÅ«smÄģ":8163,"mekl":8164,"ĠneÅ¾Äĵl":8165,"ienÄĵ":8166,"ĠizstÄģst":8167,"ĠÅ¡Å«p":8168,"Ġkoks":8169,"opa":8170,"ĠjautÄģjumos":8171,"ĠpaÅ¡valdÄ«ba":8172,"Ġpunkti":8173,"ĠjÄģatzÄ«st":8174,"Ġfirmas":8175,"jÅ«nijÄģ":8176,"mÄģju":8177,"Ġtun":8178,"Ġiv":8179,"ĠrÄ«ts":8180,"Ġparametr":8181,"Ġfer":8182,"Ġdivos":8183,"ĠnoteiktÄģ":8184,"ĠdabÄģ":8185,"ĠdÄģrza":8186,"ĠkompÄģniju":8187,"Ġstarptautisko":8188,"ÂłÂłÂłÂł":8189,"Ġpsrs":8190,"pac":8191,"Ġvsk":8192,"ĠlÄ«":8193,"Å¾am":8194,"Ġpatur":8195,"ĠpatstÄģv":8196,"Ġdarbos":8197,"Ġtrij":8198,"ĠbÄĵrz":8199,"Ġmaksu":8200,"ĠformÄģtÄģ":8201,"ĠskrÄĵjienu":8202,"ordpress":8203,"Ġvilcienu":8204,"Ġnabadz":8205,"bit":8206,"Ġkg":8207,"Ġatdzes":8208,"okus":8209,"ĠlabvÄĵl":8210,"ozi":8211,"Ġpiedev":8212,"lasÄ«t":8213,"ceÄ¼as":8214,"vadu":8215,"Ġ1000":8216,"ĠtrasÄĵ":8217,"ĠkvieÅ¡u":8218,"ĠizÅ¡Ä·irts":8219,"ĠizvairÄ«ties":8220,"ĠbilÅ¾u":8221,"ster":8222,"ode":8223,"Ġplaukt":8224,"Ġmaksa":8225,"Ġ2002":8226,"Ġorganis":8227,"ĠielÄģs":8228,"Ġdiag":8229,"ĠplaÅ¡Äģk":8230,"ĠpalielinÄģt":8231,"Ġmuzeja":8232,"ĠsareÅ¾Ä£Ä«t":8233,"Ġsmilt":8234,"ger":8235,"Äģro":8236,"ukst":8237,"Ġjaunajiem":8238,"ĠattiecÄ«bÄģm":8239,"ĠbrÄ«vu":8240,"ĠbildÄĵm":8241,"ĠpÄģrdoÅ¡anas":8242,"ĠskaÅĨu":8243,"Ġtendence":8244,"jÄģnis":8245,"ierÄ«":8246,"asts":8247,"Ġsomas":8248,"ĠrÄģm":8249,"Ġapk":8250,"ĠpÄģrvar":8251,"ociÄģl":8252,"Ġdaudzu":8253,"Ġkarte":8254,"Ġ32":8255,"Ġprocentu":8256,"Ġautore":8257,"ĠkomentÄģru":8258,"Ġignor":8259,"ĠkriminÄģlproc":8260,"Ġnopirku":8261,"icion":8262,"ĠsÄģks":8263,"ektors":8264,"ĠmaÅ¡Ä«na":8265,"ĠierÄ«ce":8266,"nekad":8267,"ĠjÄĵga":8268,"ĠmÄģris":8269,"Ġangliski":8270,"ĠazartspÄĵÄ¼u":8271,"ĠvÄģra":8272,"Ġsint":8273,"Ġut":8274,"ĠnestrÄģd":8275,"Ä«ds":8276,"Ġizveidota":8277,"malc":8278,"Ġnedzird":8279,"ĠlÄ«nijas":8280,"ĠmaksimÄģli":8281,"ĠpÄģv":8282,"Ġizkr":8283,"Ġkaz":8284,"Ġapsar":8285,"agu":8286,"Ġaizbraukt":8287,"ĠlietotÄģjam":8288,"Ġnesa":8289,"ĠpÄĵters":8290,"Ġstudentu":8291,"ĠrobeÅ¾u":8292,"oh":8293,"Ġveidiem":8294,"lash":8295,"Ġprasmes":8296,"Ġnepatika":8297,"formu":8298,"Ġaizdomas":8299,"ÂłĠĠÂł":8300,"Ġnordea":8301,"spr":8302,"vÄĵ":8303,"Ġzelt":8304,"Ġrakstus":8305,"Ġpusdienas":8306,"katÄģs":8307,"ĠgadÄ«jums":8308,"runis":8309,"ĠmateriÄģli":8310,"neko":8311,"ĠenerÄ£iju":8312,"Ġalbums":8313,"ĠuztaisÄ«t":8314,"polit":8315,"fiks":8316,"Ġsn":8317,"ĠsÄģ":8318,"Ġieb":8319,"ĠiestrÄģd":8320,"Ġgarlaic":8321,"ĠÄ·Äĵd":8322,"ĠvienkÄģrÅ¡u":8323,"Ġabon":8324,"Ġmalu":8325,"Ġpunktus":8326,"Ġteritoriju":8327,"Ġnegribas":8328,"ĠnacionÄģlÄģ":8329,"Ġkoncertu":8330,"ĠvelosipÄĵdu":8331,"75":8332,"jos":8333,"kult":8334,"sec":8335,"Ġaks":8336,"Äĵjams":8337,"ories":8338,"ipt":8339,"ĠnorÄģdÄ«t":8340,"ĠiztÄĵl":8341,"video":8342,"Ġimpor":8343,"ĠÄģrstniecÄ«bas":8344,"ĠtomÄģtu":8345,"ĠtemperatÅ«ra":8346,"ĠpalasÄ«t":8347,"ĠnekavÄĵjoties":8348,"wh":8349,"Ġisl":8350,"estr":8351,"ĠjÅ«tu":8352,"Ä«gajai":8353,"Ġveicot":8354,"Ġstimul":8355,"ĠpienÄģkumus":8356,"ĠsÄģcis":8357,"Ġmer":8358,"Ġaizv":8359,"ĠaugÄ¼u":8360,"Ġveikts":8361,"Ġlieku":8362,"ĠtrÅ«kumu":8363,"Ġtramvaj":8364,"bs":8365,"oÄ¼u":8366,"ĠjÅ«rÄģ":8367,"erim":8368,"entos":8369,"Ġsagaida":8370,"ĠvajadzÄĵs":8371,"ĠsabiedrÄ«bai":8372,"Ġmatiem":8373,"puses":8374,"ĠbrÄ«vprÄģt":8375,"ĠmÄĵneÅ¡os":8376,"ĠpozitÄ«vi":8377,"Ġstandartu":8378,"Ġdisc":8379,"Ġcitrona":8380,"dams":8381,"oÅ¾u":8382,"Ġnepras":8383,"Ġielikt":8384,"Ġtraki":8385,"ĠlatvieÅ¡i":8386,"Ġnedar":8387,"ĠbÅ«tisk":8388,"teÅĨu":8389,"ĠÄ«stÄģ":8390,"ĠÄ£Äĵrb":8391,"ĠcentÄģs":8392,"punktÄģ":8393,"ĠliteratÅ«ras":8394,"Ġsekundes":8395,"Äģrus":8396,"ones":8397,"Ġpieeju":8398,"prof":8399,"ĠturÄĵt":8400,"Ġdramat":8401,"ĠattiecÄ«bÄģs":8402,"kÄģdÄģ":8403,"Ġvirsu":8404,"Ġmirst":8405,"ĠÄĵt":8406,"Ġeju":8407,"ĠpÄ«":8408,"inoÅ¡u":8409,"Ġziep":8410,"ĠesoÅ¡Äģs":8411,"uÅ¡iem":8412,"Ġvada":8413,"ĠvÄĵstuli":8414,"Ġbrauciena":8415,"eksu":8416,"Ġmammu":8417,"otrkÄģrt":8418,"Ġbase":8419,"Ġdiskusijas":8420,"Ġstokhol":8421,"asp":8422,"Ġseja":8423,"ĠsfÄĵr":8424,"isu":8425,"Ġattur":8426,"Ġspog":8427,"Ġstiep":8428,"ĠÄ¼aus":8429,"groz":8430,"Ġnodot":8431,"ĠpilnvÄĵrt":8432,"ĠpalÄ«dzÄĵja":8433,"ĠkonkrÄĵtÄģ":8434,"Ġdieva":8435,"ĠkartupeÄ¼u":8436,"ĠieguldÄ«jumu":8437,"________":8438,"ĠpietrÅ«kst":8439,"ey":8440,"Ġmiera":8441,"ÄĵtajÄģm":8442,"dru":8443,"Ġnepiem":8444,"smÄĵ":8445,"Ġizdosies":8446,"Ġwh":8447,"ĠdÅ¾emp":8448,"Ġnomier":8449,"martÄģ":8450,"ĠmaratonÄģ":8451,"ĠizmaiÅĨÄģm":8452,"ĠaplÅ«kot":8453,"ĠnepÄģrtraukti":8454,"Ġii":8455,"Ġlind":8456,"usÄ«":8457,"itÄģcijas":8458,"ente":8459,"ĠsaistÄ«tas":8460,"ĠfantÄģz":8461,"iÄ·iem":8462,"ĠmorÄģles":8463,"ĠnormatÄ«vajos":8464,"Ġveter":8465,"ikÄģcija":8466,"ĠnogÄģd":8467,"Ġsievas":8468,"ĠprojektÄģ":8469,"ĠÄ«su":8470,"Ä·ert":8471,"Ġizteikti":8472,"Ġlikumd":8473,"Ġpagatavot":8474,"ates":8475,"ojumos":8476,"vienÄ«gi":8477,"ĠintereÅ¡u":8478,"Ġsulas":8479,"Ġpacientu":8480,"nozÄ«mÄ«gi":8481,"ĠledusskapÄ«":8482,"Ġlauz":8483,"ĠlabklÄģj":8484,"Ġmazi":8485,"Ġietaup":8486,"ĠÄģrsta":8487,"atÄ«vÄģ":8488,"Ä«gÄģki":8489,"ĠgalvenÄģs":8490,"ĠsanÄģcis":8491,"Ġ75":8492,"ĠizlasÄ«ju":8493,"ĠmilzÄ«gu":8494,"ĠrobeÅ¾Äģs":8495,"Ġbiedru":8496,"ĠsadarbÄ«bu":8497,"ĠmÄģjaslapÄģ":8498,"Ġkup":8499,"Ġip":8500,"Ġproduc":8501,"ĠieÅĨem":8502,"Ġinov":8503,"ĠinÅ¾en":8504,"ĠÄ¼Äģva":8505,"ĠjaunÄģko":8506,"Ġkomit":8507,"Å¡Ä·er":8508,"Ġiekar":8509,"ĠskolotÄģja":8510,"Ġneizmant":8511,"ĠuzsvÄĵra":8512,"mail":8513,"Ġmasa":8514,"Ġmeiteni":8515,"Ġvasara":8516,"Ġfiziski":8517,"Ġrindas":8518,"ĠreÅ¾Ä«mu":8519,"ĠapgrÅ«t":8520,"Ġvalmieras":8521,"giem":8522,"gais":8523,"sest":8524,"Ġuzliek":8525,"Ġpremj":8526,"ulu":8527,"manÄģ":8528,"Ġkomfor":8529,"Ġnetais":8530,"padom":8531,"ĠjÄĵgas":8532,"Ġtot":8533,"Ä«gajam":8534,"Ġinval":8535,"rÄ«n":8536,"inÄģtos":8537,"ĠvairÄģkÄģm":8538,"Ġnoteikto":8539,"ĠradÄ«ja":8540,"Ġpadev":8541,"ĠnotiekoÅ¡o":8542,"Ġnepaman":8543,"Ġiesk":8544,"ĠdzÄ«voj":8545,"ĠpretÄĵji":8546,"Ġelast":8547,"Ġrezer":8548,"ĠnopÄĵr":8549,"Ġveicina":8550,"ĠvadÄ«tÄģju":8551,"bÄĵrni":8552,"Ġgo":8553,"ĠapaÄ¼":8554,"Ġiepat":8555,"ĠsapÅĨ":8556,"Ġsaboj":8557,"Ġturpm":8558,"ĠgrupÄģs":8559,"ĠnacionÄģlo":8560,"ĠautomaÅ¡Ä«nas":8561,"Ġegl":8562,"Ġlvl":8563,"ĠsimpÄģt":8564,"ld":8565,"rÄ«gÄģ":8566,"viÅĨiem":8567,"Ġniek":8568,"ores":8569,"Ġvientu":8570,"ĠÄ¼aut":8571,"ĠnedÄĵÄ¼a":8572,"joprojÄģm":8573,"Ġ250":8574,"ĠsmarÅ¾a":8575,"Å¡Äģda":8576,"Ġalbumu":8577,"Ġmeitas":8578,"Ġsmaidu":8579,"Ġglezn":8580,"ĠtÄĵjk":8581,"Ġeb":8582,"Ġsienu":8583,"Ġukr":8584,"Å«Å¡":8585,"ĠnepazÄ«st":8586,"ĠtiesÄ«bÄģm":8587,"ĠmÄ«lu":8588,"Ġepiz":8589,"ĠatÄ¼auju":8590,"28":8591,"tab":8592,"otajiem":8593,"ĠneiespÄĵj":8594,"Ġrisk":8595,"iesmas":8596,"akl":8597,"Ä·im":8598,"Ġfona":8599,"iegt":8600,"ĠgadÄ«jumi":8601,"Ġkalniem":8602,"Äģzijas":8603,"alizÄģcijas":8604,"Ġvelo":8605,"bieÅ¾i":8606,"Ġpabalstu":8607,"oktobrÄ«":8608,"39":8609,"gÄģja":8610,"twitter":8611,"esi":8612,"Ä«tim":8613,"ĠÅ¡Ä¼":8614,"Ġskar":8615,"uls":8616,"ovad":8617,"Ġtuvojas":8618,"ifi":8619,"Ġnenol":8620,"Ġpakalpojuma":8621,"Ġdial":8622,"Ġkontakt":8623,"bÄĵrnu":8624,"ĠdistancÄĵ":8625,"quot":8626,"ĠnekustamÄģ":8627,"ĠasociÄģcijas":8628,"Ġpaaudzes":8629,"ĠpÄĵtersÄ«":8630,"Ġpik":8631,"ĠvÄģcijÄģ":8632,"Ġdedz":8633,"esti":8634,"ĠgÄģju":8635,"Ġatalg":8636,"Ä«tÄ«":8637,"Ġlatvia":8638,"ĠvietÄĵjie":8639,"dzÄ«vo":8640,"ĠkÄģrtÄ«bas":8641,"pilsÄĵtÄģ":8642,"Ġrecepti":8643,"Ġĉĉĉ":8644,"ĠkredÄ«t":8645,"Ġbrokastis":8646,"Ġbikses":8647,"Ġvag":8648,"otÄģm":8649,"alas":8650,"Ġneier":8651,"ong":8652,"onst":8653,"ĠklajÄģ":8654,"iber":8655,"ĠkartÄĵ":8656,"Ġgaisma":8657,"ĠjÄģmeklÄĵ":8658,"ĠatgÄģdinÄģja":8659,"ĠatÄ¼aujas":8660,"Ġuzmundr":8661,"ĠolÄ«veÄ¼":8662,"celt":8663,"nom":8664,"sh":8665,"Ġnaz":8666,"Ġbel":8667,"ekÄ¼u":8668,"ĠzÄģli":8669,"ĠzinÄģju":8670,"ĠÅ¡of":8671,"Ġwor":8672,"Ġmalt":8673,"Ġnosaukuma":8674,"ĠklasÄĵ":8675,"inÄģtÄģju":8676,"Ġsvaigi":8677,"Ġizklaides":8678,"Ġbauskas":8679,"Ġpiespiedu":8680,"jÄģm":8681,"ĠvÄ«l":8682,"alis":8683,"Ä«tÄ«gi":8684,"Ġpaiet":8685,"ĠpiemÄĵrots":8686,"Ġaf":8687,"Ġministra":8688,"ĠnorÄģdot":8689,"ĠinstitÅ«c":8690,"ĠdÄ«vaini":8691,"ĠÄģbolu":8692,"ĠmÄģsa":8693,"ĠpedagoÄ£":8694,"raksturvÄģrdi":8695,"Ð»":8696,"ait":8697,"oll":8698,"Ġieskr":8699,"ĠÅ¡Ä·Ä«v":8700,"ovskis":8701,"Ġpilnas":8702,"Ġzvanu":8703,"skriet":8704,"Ġkilogram":8705,"ĠsmarÅ¾u":8706,"weet":8707,"vin":8708,"vers":8709,"Ġtavas":8710,"ĠlÄĵk":8711,"ilka":8712,"ĠatrÄģd":8713,"Ġlielisku":8714,"varÄĵtu":8715,"laika":8716,"Å¡Ä·Ä«r":8717,"ĠceÄ¼ojumu":8718,"Ġierind":8719,"ĠjÄģsÄģk":8720,"Ġavi":8721,"ĠreÄ£istrÄģ":8722,"ĠkredÄ«tu":8723,"ĠinstitÅ«cijas":8724,"Ġekskurs":8725,"viÅĨai":8726,"Ġpauz":8727,"ĠprÄģtu":8728,"Ġvaic":8729,"Ġmazie":8730,"Ġkamer":8731,"lielÄģkÄģ":8732,"Ġsievietei":8733,"Ġbeidzies":8734,"Ġpunktiem":8735,"ĠautomaÅ¡Ä«nu":8736,"iklÄģvs":8737,"sun":8738,"Ġvi":8739,"atÅ«ra":8740,"dzÄĵs":8741,"iÅĨdesmit":8742,"ĠÅ¡itÄģ":8743,"ĠiestÄģj":8744,"Ġzel":8745,"Å«tÄ«ja":8746,"ĠskaistÄģk":8747,"Ġalgu":8748,"ĠattiecÄ«go":8749,"Ġfrak":8750,"ĠgrupÄģm":8751,"ĠapskatÄ«ties":8752,"ĠizstrÄģdÄģt":8753,"Ġnelielas":8754,"ĠtavÄģ":8755,"jus":8756,"Ġtus":8757,"Ġgrand":8758,"raksts":8759,"Ġpaklaus":8760,"ĠplÄģni":8761,"Ġserg":8762,"entuzi":8763,"Ġbanka":8764,"ĠsaimniecÄ«bas":8765,"ĠrealizÄĵt":8766,"ĠÄĵdamkar":8767,"neliel":8768,"ĠapakÅ¡Äģ":8769,"pektÄ«v":8770,"Ġnoklaus":8771,"dzied":8772,"ĠklÄ«n":8773,"Ġvecumu":8774,"ĠÄģda":8775,"Ġaleksandr":8776,"mÄ«t":8777,"tor":8778,"Ä«tÄģm":8779,"Ġniec":8780,"ikÄģm":8781,"ĠnenÄģk":8782,"Ġapv":8783,"Ġgraud":8784,"entes":8785,"ĠÄ«sto":8786,"Ġilgter":8787,"ĠpienÄģcis":8788,"ĠgrÅ«tÄ«bas":8789,"Ġrekom":8790,"ĠuzdÄģv":8791,"ĠreÄ£iona":8792,"Ġdizainpar":8793,"ertu":8794,"ĠizkÄģrt":8795,"Ġfeder":8796,"ogÄģ":8797,"visa":8798,"Ġnodib":8799,"Ġsapnis":8800,"Ġpiekras":8801,"ĠmÄģcÄģs":8802,"Ġsugas":8803,"ĠreklÄģmu":8804,"Ġpusmaratonu":8805,"music":8806,"ĠparalÄĵli":8807,"ĠlomÄģ":8808,"ĠjÅ«ru":8809,"Ġpiezvan":8810,"ĠceÄ¼i":8811,"ĠÄįeh":8812,"Ġpieteic":8813,"Ġpolitiku":8814,"ĠtaisÄ«t":8815,"ĠskrieÅ¡ana":8816,"Ġatvain":8817,"ĠnormatÄ«vo":8818,"ĠigaunijÄģ":8819,"ĠÄĵstu":8820,"ĠrÄ«tu":8821,"Ġizbrauk":8822,"ĠzÄ«d":8823,"Ġieteikt":8824,"atÄ«va":8825,"ĠstrÄģdÄģja":8826,"ojamu":8827,"Ġveica":8828,"Ġaugstas":8829,"ĠpÄģrsteigumu":8830,"Ġkilometri":8831,"23":8832,"Ġnam":8833,"Ġnogul":8834,"ÄģrÄģs":8835,"Ġatved":8836,"ĠvÄĵlÄĵtos":8837,"gads":8838,"Ġredzes":8839,"Ġelpu":8840,"ĠkrievijÄģ":8841,"Ġsimtiem":8842,"palÄ«dz":8843,"ĠapzinÄģti":8844,"ĠskrieÅ¡anu":8845,"Ġnagu":8846,"Ġtreileris":8847,"ĠsmadzeÅĨu":8848,"pakalp":8849,"citÄģ":8850,"pt":8851,"Ðº":8852,"use":8853,"Ġvislab":8854,"Ġstend":8855,"Ġlietder":8856,"ĠkopÄ«gi":8857,"ĠmÄģjok":8858,"ĠpatÄ«kams":8859,"Ġsvaru":8860,"Ġnevain":8861,"Ġnotikums":8862,"ĠmateriÄģlus":8863,"Ġjebkura":8864,"Ġrekomend":8865,"rÄģ":8866,"saul":8867,"mands":8868,"Ġmarin":8869,"ĠietekmÄĵt":8870,"ĠmeklÄĵÅ¡anas":8871,"saskaÅĨÄģ":8872,"fo":8873,"ih":8874,"acis":8875,"aidÄ«ja":8876,"Ġjaunumiem":8877,"Ġasinis":8878,"Ġlasot":8879,"Ġatpaz":8880,"ĠstÄģvÄģ":8881,"ĠvÄĵrtÄĵjums":8882,"Ġnumurs":8883,"ĠtukÅ¡":8884,"ĠguÄ¼am":8885,"ĠpÄģrsteidza":8886,"fotograf":8887,"Ä«juÅ¡as":8888,"okÅ¡":8889,"Ġneatliek":8890,"Ġdabu":8891,"Ġietekme":8892,"Ġinfl":8893,"ĠteorÄĵt":8894,"valstÄ«s":8895,"pÄģrd":8896,"Ġven":8897,"eres":8898,"ĠizlÄ«dz":8899,"Ġpielik":8900,"Ä£Äĵr":8901,"Ġpasak":8902,"laiku":8903,"ĠvecmÄģm":8904,"Ġpazaud":8905,"sarkan":8906,"latvieÅ¡u":8907,"ĠmierÄģ":8908,"ĠnoderÄĵs":8909,"ĠÄ·ermeni":8910,"decembrÄ«":8911,"Ġizb":8912,"Ġiestat":8913,"Ġfav":8914,"unt":8915,"Ä«vas":8916,"Äĵdams":8917,"Ġmazajiem":8918,"Ġsasmalc":8919,"ĠnorÄĵÄ·":8920,"griezt":8921,"ĠpaziÅĨojumu":8922,"Ġmaizi":8923,"Ġpalikusi":8924,"ĠsaskatÄ«t":8925,"ĠvÄĵstules":8926,"nen":8927,"raÅ¾":8928,"atÅ«ru":8929,"illa":8930,"eda":8931,"Ġsatikt":8932,"Ġnoska":8933,"Ġkompon":8934,"Ġneskaita":8935,"astrof":8936,"izslÄĵg":8937,"ĠÅ¡Ä·Ä«rÄĵj":8938,"29":8939,"piet":8940,"ĠizÅ¡":8941,"Ġierast":8942,"ĠlÄ«dzÄ«gas":8943,"Ġlieliem":8944,"ĠstÄģsti":8945,"Ä«paÅ¡":8946,"ĠpilsÄĵtÄģs":8947,"ĠpÄĵtÄ«jumÄģ":8948,"ĠdÄģvan":8949,"ĠnÄģkotni":8950,"Ġiesniegt":8951,"ĠrÅ«Ä·is":8952,"ĠjelgavÄģ":8953,"Ġietilpst":8954,"rÄ«ga":8955,"sad":8956,"zaÄ¼":8957,"Ġsor":8958,"ilj":8959,"Ä«vÄģ":8960,"ĠpÄģrlieku":8961,"Ġiespr":8962,"Ġmazos":8963,"Ġautob":8964,"Ġreize":8965,"ĠskatÄ«tÄģju":8966,"ĠbrÄ«Å¾os":8967,"ĠmateriÄģls":8968,"Ġsakars":8969,"ĠtÅ«ristu":8970,"Ġpiekrit":8971,"ĠgrÄģdiem":8972,"oÅĨiem":8973,"ran":8974,"zinu":8975,"Ġbor":8976,"Ġapels":8977,"elp":8978,"Ġspar":8979,"Ġmaziem":8980,"Ä«zijas":8981,"ĠdatorÄģ":8982,"ĠtÄ«kls":8983,"ĠsaÅĨems":8984,"ĠmÄĵness":8985,"ĠanalÄ«zes":8986,"ĠsmieklÄ«gi":8987,"26":8988,"Ġlaur":8989,"Ġgam":8990,"tiz":8991,"Ġdzint":8992,"Ġtrek":8993,"mÄĵram":8994,"Ġizmantotas":8995,"ĠpÄģrdod":8996,"ĠizdomÄģt":8997,"Ġadreses":8998,"ĠbojÄģj":8999,"Ġprojektiem":9000,"Ġbater":9001,"Ġlaipni":9002,"ĠÄģ":9003,"ĠvÄ«ra":9004,"iki":9005,"Ġrieb":9006,"Ġuzklaus":9007,"ĠpÄģrgÄģj":9008,"ĠjaunÄģm":9009,"ĠÅ¡ÄģdÄģm":9010,"ĠÄ«sts":9011,"ĠprasÄ«bu":9012,"ĠvÄĵsture":9013,"Ġstatusu":9014,"ĠpÄĵrk":9015,"Ġsestdien":9016,"33":9017,"daÄ¼u":9018,"gam":9019,"gabal":9020,"nÄģc":9021,"nob":9022,"poz":9023,"ĠpÅ«d":9024,"ĠpÄ«p":9025,"Ġizej":9026,"irt":9027,"ĠapÅĨem":9028,"Ġgreiz":9029,"Ġreform":9030,"Ġvairums":9031,"plan":9032,"ĠsaÅ¡":9033,"inieka":9034,"Ġmodific":9035,"ĠatmiÅĨu":9036,"Ġpirkstiem":9037,"Ġpieaugumu":9038,"Ġmotor":9039,"Ġredakt":9040,"ĠkonkursÄģ":9041,"ĠjÄģgaida":9042,"ca":9043,"Ġentuzi":9044,"Ġvikt":9045,"Ġnetik":9046,"apskat":9047,"Ġatlai":9048,"oliem":9049,"Ġsavi":9050,"Äĵku":9051,"ĠminÄĵju":9052,"ĠrakstÄ«ja":9053,"ĠfiliÄģl":9054,"Ġsaites":9055,"ĠsabiedriskÄģ":9056,"ĠizstrÄģdes":9057,"Ġizlases":9058,"Ġatteikties":9059,"Ġizcelsmes":9060,"27":9061,"Å¡Äģdi":9062,"ikÄģs":9063,"Ġkrast":9064,"ĠrunÄģja":9065,"ĠsadaÄ¼Äģ":9066,"Ġmedikam":9067,"ĠgaismÄģ":9068,"Ġsastap":9069,"ĠlÄ«niju":9070,"Ġkoordin":9071,"pateicoties":9072,"gÄģt":9073,"piec":9074,"piena":9075,"ĠpÅ«l":9076,"Ġpiest":9077,"ĠĠĉĉ":9078,"Ġnosl":9079,"Ġ36":9080,"Ġsaiti":9081,"ĠskolÄģs":9082,"Ġgaidu":9083,"ĠjÄģnos":9084,"ĠzaÄ¼o":9085,"Ġtempu":9086,"ĠoriÄ£inÄģl":9087,"**":9088,"sociÄģl":9089,"tÄģli":9090,"orator":9091,"Ġvieni":9092,"Ġskul":9093,"okÄģ":9094,"Ġinterpr":9095,"oficiÄģl":9096,"ĠÄģtruma":9097,"Ä«ls":9098,"Ġveikals":9099,"Ġsimt":9100,"ĠspÄĵkus":9101,"Ġgabals":9102,"ĠviesnÄ«cu":9103,"ĠversijÄģ":9104,"ĠbiedrÄ«bas":9105,"sÄģkotn":9106,"Ġtaur":9107,"dzan":9108,"ÄģmÄģ":9109,"emes":9110,"Ġvalmier":9111,"Ġhron":9112,"neskatoties":9113,"Ġveidots":9114,"ĠcenÄģm":9115,"Ġskola":9116,"Ġizskata":9117,"ĠnÄģkamgad":9118,"Ġinstal":9119,"mÄĵneÅ¡a":9120,"ĠkÄ¼Å«du":9121,"ĠnozarÄĵ":9122,"ĠdebesÄ«s":9123,"ĠpÄ¼av":9124,"iÄįs":9125,"Ġmantu":9126,"Ġnormas":9127,"Ġnovirz":9128,"ĠatÅ¡Ä·irÄ«ba":9129,"Ġekonomisko":9130,"ĠapstÄģkÄ¼u":9131,"Ġbiedri":9132,"jaunais":9133,"ĠÅ¡osejas":9134,"ĠzeÄ·":9135,"mer":9136,"ren":9137,"you":9138,"onika":9139,"Ġlaist":9140,"ĠarÄ«dzan":9141,"ĠvÄĵlams":9142,"ĠlÄ«dzeklis":9143,"ĠjÄģÅĨa":9144,"Ġpiedod":9145,"ĠvidÄĵjo":9146,"ÄĵtÄģjam":9147,"tÄĵvs":9148,"Ġsvara":9149,"ĠzÄ«me":9150,"Ġtekst":9151,"Ġapgabal":9152,"Ġistabu":9153,"Ġamatpersonas":9154,"ĠiznÄģca":9155,"Ġaig":9156,"otru":9157,"iene":9158,"onÄ«m":9159,"Ġgran":9160,"augstÄģk":9161,"ĠdzÄ«vÄ«bas":9162,"visiem":9163,"ĠbÅ«sim":9164,"anda":9165,"Ġskrienu":9166,"jautr":9167,"Ġiemaks":9168,"ĠdÄģrzeÅĨu":9169,"ĠzÄģle":9170,"ĠanalÄ«ze":9171,"ĠkopÄĵjo":9172,"ĠsaeimÄģ":9173,"ĠfilmÄģs":9174,"ĠpraksÄĵ":9175,"Ġphone":9176,"Ġkaisl":9177,"atch":9178,"etam":9179,"Ġapsk":9180,"Ġielai":9181,"rÄ«na":9182,"Ġpastu":9183,"Ġpasaka":9184,"ĠlÄ«dzdal":9185,"ĠjÄģaiz":9186,"ĠiespÄĵjama":9187,"ĠpretÄĵjÄģ":9188,"ingt":9189,"Ġpilson":9190,"ĠskolÄĵniem":9191,"Ġbaltkriev":9192,"Ġpiparus":9193,"ĠkuÄ£a":9194,"Ġrekord":9195,"polic":9196,"Ġpazuda":9197,"lÄ«n":9198,"ÄģÄģ":9199,"Ġvest":9200,"Ġbenz":9201,"Ġraug":9202,"urk":9203,"ĠzonÄģ":9204,"iskajos":9205,"iskajam":9206,"mane":9207,"uku":9208,"Ġlietojot":9209,"Ġskrop":9210,"ĠiemÄ«Ä¼":9211,"Ġpietiks":9212,"ĠvÄ«ri":9213,"Ġdaba":9214,"latvija":9215,"ĠskrÄĵjÄĵju":9216,"Ġlietuv":9217,"Ġnodokli":9218,"Ġtauta":9219,"Ġaustrumu":9220,"ĠÅ¡ito":9221,"jÄģatzÄ«st":9222,"ĠlÄĵc":9223,"Ġneir":9224,"adu":9225,"Ġuzlikt":9226,"Ġcan":9227,"eto":9228,"ĠdarbÄ«bÄģ":9229,"Äģniem":9230,"ĠplÅ«d":9231,"Ġmiltu":9232,"Ġsilts":9233,"ĠmeklÄĵjot":9234,"Ġslikts":9235,"ĠtÄĵmÄģm":9236,"ĠdirektÄ«v":9237,"Ġsummas":9238,"Ġbites":9239,"ĠcepeÅ¡krÄģsnÄ«":9240,"%)":9241,"48":9242,"eur":9243,"ish":9244,"Äģmo":9245,"apmÄĵram":9246,"ĠieslÄĵdz":9247,"Ġaizd":9248,"ĠgarÅ¡a":9249,"nesen":9250,"oloÄ£isko":9251,"Ġ2001":9252,"Ġtirgu":9253,"ĠpÄĵtÄ«jumi":9254,"Ġvirsot":9255,"ĠreÄ£istra":9256,"vilkt":9257,"ĠmateriÄģla":9258,"ĠÄįetrus":9259,"Ġaustrum":9260,"Ġsmalk":9261,"ĠtraukÄģ":9262,"Ġyoutube":9263,"ĠreÄ£ionÄģlÄģs":9264,"instal":9265,"ĠpuiÅ¡i":9266,"ĠvÄ«nu":9267,"Ġpasarg":9268,"ops":9269,"Ġaktris":9270,"ĠtamlÄ«dz":9271,"reizÄĵm":9272,"Ġsaju":9273,"ĠatklÄģja":9274,"Ġviesu":9275,"Ġaudio":9276,"Ġfizisko":9277,"ĠaktuÄģl":9278,"Ġautobuss":9279,"Ġpensijas":9280,"ĠkaimiÅĨ":9281,"ĠvisÄģdas":9282,"36":9283,"miem":9284,"ĠlÄ«st":9285,"stories":9286,"oras":9287,"ĠzinÄģja":9288,"Äģne":9289,"Ġpirmos":9290,"ĠminÄĵts":9291,"Ġautovad":9292,"ĠvadÄ«ba":9293,"ĠpÄģrstÄģvjiem":9294,"ĠizmantoÅ¡ana":9295,"ĠsaÅĨÄĵmis":9296,"ĠmÄģrtiÅĨÅ¡":9297,"kÅ«kas":9298,"gÄģju":9299,"Ġnerad":9300,"Ġcon":9301,"ĠpÄģrmet":9302,"Ġtostarp":9303,"autors":9304,"vienmÄĵr":9305,"ĠmazgÄģ":9306,"Ġtele":9307,"Ġslid":9308,"Ġastr":9309,"Ġieraug":9310,"ĠierÄĵd":9311,"gales":9312,"ĠtuvÄģko":9313,"ĠiztÄĵr":9314,"gribu":9315,"Ġizlem":9316,"Ġresursi":9317,"ĠpalikuÅ¡i":9318,"ĠpagastÄģ":9319,"gluÅ¾i":9320,"cr":9321,"se":9322,"Ġauz":9323,"Ġatgrie":9324,"Ġdzijas":9325,"ĠtrÄģp":9326,"Ġklusi":9327,"Ġdome":9328,"Ġveikti":9329,"ĠpalÄ«dzÄ«ba":9330,"darbs":9331,"Ġizdevumus":9332,"ĠÄ£imenei":9333,"ĠtradÄ«cijas":9334,"ĠrÅ«Ä·i":9335,"ĠnonÄģca":9336,"gÄģr":9337,"tÄ«":9338,"Ã¸":9339,"Ä£is":9340,"neesmu":9341,"ĠvadÄ«t":9342,"pieÅĨem":9343,"ĠpaziÅĨo":9344,"ĠpievÄĵrs":9345,"ĠbraukÅ¡anas":9346,"Ġvienaldz":9347,"ĠstÅ«res":9348,"Ġatjaunot":9349,"Ġlatgales":9350,"don":9351,"Ġmp":9352,"Ġdan":9353,"ĠnokÄģrt":9354,"Ġrie":9355,"Ġatskai":9356,"etra":9357,"âĢĿ),":9358,"ĠbrÄģlis":9359,"Ġkatastrof":9360,"aktiski":9361,"Ġvakaros":9362,"intern":9363,"ĠtreÅ¡ais":9364,"Ġdokumenti":9365,"pantÄģ":9366,"ĠieradÄģs":9367,"Ġdaugavas":9368,"Ġbite":9369,"Ġizskan":9370,"Ġieteicams":9371,"ĠlÅ«pÄģm":9372,"habil":9373,"zd":9374,"zin":9375,"ads":9376,"Ġritu":9377,"Äĵtai":9378,"ekonom":9379,"empl":9380,"Ġfig":9381,"tru":9382,"ĠdarÄ«ts":9383,"ĠvadÄ«bÄģ":9384,"ĠÄ«stam":9385,"Ġidi":9386,"ĠsaÅĨemÅ¡anas":9387,"ĠsirdÄ«":9388,"ĠekonomiskÄģs":9389,"Ġpabeidz":9390,"ĠÅ¾urnÄģla":9391,"Ġskaistas":9392,"ĠkolÄĵÄ£iem":9393,"ĠsmilÅ¡u":9394,"mor":9395,"Ġparka":9396,"umul":9397,"okam":9398,"ĠbrÅ«n":9399,"ĠpadomÄģt":9400,"Ġaktieri":9401,"Ġmonitor":9402,"Ġizmaksu":9403,"kulis":9404,"Ġnobals":9405,"ule":9406,"Ġgadsimta":9407,"Äģvu":9408,"Ġkomers":9409,"Ġaugs":9410,"Ġredzi":9411,"ĠprogrammÄģm":9412,"ĠsanÄģks":9413,"ĠiestÄģdÄĵs":9414,"Ġteiksim":9415,"Ġupur":9416,"Ġfrancijas":9417,"Ġatdal":9418,"Ġdurvju":9419,"Ġnenotiek":9420,"ĠieslodzÄ«juma":9421,"ĠaktivitÄģtÄĵm":9422,"ĠinterpretÄģ":9423,"mÄ«k":9424,"Ä«Å¡us":9425,"Ġve":9426,"ĠsÄ«ru":9427,"Ġizju":9428,"ĠvienlÄ«dz":9429,"ĠstÄģd":9430,"Ġveca":9431,"Ġredzama":9432,"ĠskatÄ«jÄģs":9433,"Ġprocenti":9434,"ĠattÄ«stÄ«bÄģ":9435,"savu":9436,"ĠsvÄĵtdienas":9437,"ĠienÄģca":9438,"skrÄĵj":9439,"Ġposmu":9440,"Ġmuzeju":9441,"ĠizdomÄģju":9442,"pÄĵtÄ«juma":9443,"ĠatkÄģrtoti":9444,"ĠkrÄĵms":9445,"Ġdzelzs":9446,"ĠkapitÄģla":9447,"ĠdigitÄģl":9448,"ĠprogrammatÅ«ras":9449,"ĠperspektÄ«v":9450,"Ġaizmig":9451,"Ġnai":9452,"Ġraudz":9453,"Ġspied":9454,"ĠlabÄģs":9455,"Ġnepac":9456,"Ġvecu":9457,"Ġgatavot":9458,"Ä«gÄģkie":9459,"ĠcentrÄģl":9460,"ĠraÅ¾otÄģju":9461,"Ġpolitisko":9462,"ĠsÄĵdÄĵt":9463,"ĠmÅ«Å¾a":9464,"ĠatbalstÄ«t":9465,"Ġmotoc":9466,"ĠÄģrzemÄĵs":9467,"Ġmagn":9468,"Ġattaisn":9469,"musicstories":9470,"nim":9471,"steidz":9472,"Ġnepr":9473,"Ġjogur":9474,"inÄģtÄģs":9475,"Ġbrig":9476,"skatu":9477,"inÄģÅ¡anÄģm":9478,"ĠdarÄ«ja":9479,"Ġterap":9480,"ĠdalÄ«ties":9481,"Ġprieka":9482,"ĠmainÄ«jies":9483,"inÄģtÄģja":9484,"Ġaizraut":9485,"ĠizklausÄģs":9486,"rod":9487,"Ġogu":9488,"Ġnamu":9489,"ĠlÄ«b":9490,"Ġnomaz":9491,"aja":9492,"Ġjaud":9493,"eiks":9494,"ĠpaÅ¡nÄģv":9495,"pati":9496,"Ġsaprata":9497,"darbÄ«bu":9498,"ĠmÄĵÄ£inÄģju":9499,"Ġpartija":9500,"ĠplaÅ¡s":9501,"ĠziÅĨots":9502,"Ġrecepte":9503,"Ġtautu":9504,"Ġiecirk":9505,"ĠcÄ«ÅĨa":9506,"Ġkosmos":9507,"Ġtitu":9508,"Ġub":9509,"Ġbmw":9510,"akot":9511,"ĠÅ¡amp":9512,"Ġieliek":9513,"Äģlam":9514,"ĠpÄģrvÄĵrt":9515,"Ġsavdab":9516,"ĠgrieÅ¾":9517,"Ġbalvas":9518,"ĠatpazÄ«st":9519,"Ġforma":9520,"Ġlidostas":9521,"Ġsaimnieks":9522,"ĠsÄĵÅĨu":9523,"Ġiespaids":9524,"Ġdienests":9525,"ĠdetaÄ¼as":9526,"ĠnamÄģ":9527,"oth":9528,"Å«kÄģ":9529,"ĠnoÅ¡":9530,"Ġarod":9531,"ĠvÄĵlamies":9532,"ĠkrÄģp":9533,"istam":9534,"ĠjaunieÅ¡iem":9535,"ĠdzÄ«vÄ«bu":9536,"Ġnevaram":9537,"Ġroka":9538,"tambor":9539,"ĠatradÄģm":9540,"Ġpavada":9541,"ĠdrÄ«zumÄģ":9542,"Ġatbrauc":9543,"ĠstÄģvoklis":9544,"Ġzivis":9545,"ĠnÄģvi":9546,"ĠpakÄģpeniski":9547,"maizes":9548,"jÄģsaka":9549,"jÅ«ras":9550,"riet":9551,"Ġsirm":9552,"Ġbb":9553,"Ġpried":9554,"ĠpÄģrÄĵjos":9555,"ĠlielÄģm":9556,"Ġneskaidr":9557,"Ġanti":9558,"Ġanim":9559,"Ġlieki":9560,"ĠraÅ¾otÄģjs":9561,"ĠvarÄĵsim":9562,"Ġdizains":9563,"armon":9564,"Ġpudeles":9565,"Ġatsauksmes":9566,"Ġrupj":9567,"lÄģm":9568,"sn":9569,"Â°":9570,"ĠapdzÄ«v":9571,"Ġzonas":9572,"Ġintr":9573,"Ġpaveic":9574,"Ġbaltu":9575,"Ġprocentiem":9576,"ĠatpÅ«t":9577,"ĠatbildÄ«bas":9578,"Ġportu":9579,"ĠsalÄ«dzinÄģjumÄģ":9580,"ĠuzmanÄ«bas":9581,"ĠdÄģvanas":9582,"Ġrietumu":9583,"ĠnopelnÄ«t":9584,"nÄģkamajÄģ":9585,"ĠkvalifikÄģcijas":9586,"Ġrezerves":9587,"»¿":9588,"ï»¿":9589,"Ġlip":9590,"ĠgÄ¼":9591,"Ä«tr":9592,"ĠskaÅĨ":9593,"Ġwifi":9594,"vert":9595,"pasniedz":9596,"ĠÄ«paÅ¡as":9597,"ĠÄĵdiena":9598,"cena":9599,"Ġfunkcija":9600,"ĠenerÄ£Äĵt":9601,"Ġflor":9602,"ĠsastÄģvdaÄ¼a":9603,"ĠizvÄĵrtÄĵ":9604,"Ġdiscipl":9605,"Ä£Äĵrbu":9606,"asta":9607,"Ġbied":9608,"Äģras":9609,"osa":9610,"ĠapgÄģd":9611,"Ġnepav":9612,"Ġrokdarb":9613,"ĠmalÄģm":9614,"ĠpÄĵtÄ«jums":9615,"ĠnorÄģdÄ«ts":9616,"ĠslimnÄ«cÄģ":9617,"Ġ180":9618,"Ġzviedru":9619,"ĠnosÅ«tÄ«t":9620,"ĠplaÅ¡u":9621,"Ġlif":9622,"ĠizkÄģp":9623,"Ġapb":9624,"Ġlaborator":9625,"aukst":9626,"acÄ«m":9627,"Ġnepaz":9628,"Ġsasod":9629,"Ġvidei":9630,"Ġbaltic":9631,"ĠskrÄĵju":9632,"tein":9633,"ĠÄģrstu":9634,"ĠpiemÄĵru":9635,"ĠÄ«paÅ¡nieki":9636,"Ġizriet":9637,"Ġdraudzene":9638,"Ġvidusskolas":9639,"ĠlÄĵtÄģk":9640,"jebkurÄģ":9641,"ĠnesanÄģk":9642,"72":9643,"gaid":9644,"mon":9645,"ĠlÄģc":9646,"ĠbÄĵg":9647,"irkst":9648,"ĠmilitÄģr":9649,"Ġsatiek":9650,"ĠiemÄ«l":9651,"ĠattÄ«stÄģs":9652,"Ġnotikt":9653,"ĠzinÄģma":9654,"ĠkultÅ«ru":9655,"pilsÄĵtu":9656,"ĠtermiÅĨÅ¡":9657,"ĠadministratÄ«vÄģ":9658,"ĠastoÅĨ":9659,"Ġnospied":9660,"ĠbibliotÄĵkas":9661,"vies":9662,"ieÅ¡ana":9663,"Ġiztikt":9664,"ĠÅ¡ar":9665,"eku":9666,"ologs":9667,"Ġregl":9668,"Ġspal":9669,"ozÄ«cijas":9670,"niecÄ«bai":9671,"ovas":9672,"ĠrunÄģjam":9673,"Ġvesels":9674,"Ġfrag":9675,"ĠitkÄģ":9676,"ĠzaudÄĵ":9677,"Ġuzdevumi":9678,"ĠsÄĵdÄĵ":9679,"Ġmammai":9680,"Ġugunsk":9681,"Ġmax":9682,"Ġinfo":9683,"ĠmÄĵrÄ·tiec":9684,"Ġpartneri":9685,"Ġsvaigu":9686,"Ġpajau":9687,"baid":9688,"ÄģÅ¡anai":9689,"ĠlÄģp":9690,"ĠsÄģksies":9691,"Ġveidi":9692,"ĠveikÅ¡anai":9693,"jaunÄģ":9694,"ĠplÄģnÄģ":9695,"ĠizvÄĵlÄĵjos":9696,"ĠmazÄģka":9697,"balv":9698,"Ġzvana":9699,"Ġklienti":9700,"ĠaizsardzÄ«bu":9701,"Ġtendences":9702,"Ġsemin":9703,"ĠportÄģls":9704,"diezgan":9705,"ĠtautsaimniecÄ«bas":9706,"des":9707,"line":9708,"Ġkant":9709,"ilu":9710,"ĠapbrÄ«n":9711,"Ġnoties":9712,"entÄĵ":9713,"Ġminer":9714,"savÄģ":9715,"Ġdodos":9716,"Ġreklam":9717,"Ġklients":9718,"Ġdievu":9719,"metru":9720,"Ġperiod":9721,"Ġpasaulei":9722,"ĠfakultÄģ":9723,"Ġzviedrijas":9724,"ĠÄ·ermenis":9725,"februÄģrÄ«":9726,"kÄģdi":9727,"piel":9728,"Ġleta":9729,"Ġrub":9730,"izÄģciju":9731,"Äģnija":9732,"ĠminÄĵtÄģs":9733,"Ġansam":9734,"ĠdaÄ¼Äģs":9735,"Ġievies":9736,"ĠdalÄ«bu":9737,"ĠpiekÄ¼u":9738,"Ġgaiss":9739,"ĠraÅ¾ot":9740,"Ġuzdevumus":9741,"Ġbiedriem":9742,"ĠizklÄģ":9743,"Ġnaftas":9744,"ĠitÄģÄ¼u":9745,"tan":9746,"Ġuzskait":9747,"Ġvaronis":9748,"Ġieskaitot":9749,"Ġgaro":9750,"Ġdari":9751,"inÄģms":9752,"Ġtaup":9753,"Ġpacientiem":9754,"Ġmediji":9755,"nk":9756,"rauk":9757,"aista":9758,"Ġmakar":9759,"ÄģdÄģ":9760,"untu":9761,"Ġrehabil":9762,"Ġspe":9763,"Ġskaties":9764,"ÄĵtÄģjus":9765,"Ġmedu":9766,"ĠcaurspÄ«d":9767,"ĠbrÄ«vdienas":9768,"ĠportÄģla":9769,"Ġsimts":9770,"ĠskrÄĵjienÄģ":9771,"ĠslÄĵpjas":9772,"Ġdepres":9773,"Ġdusm":9774,"Ġblackberry":9775,"omb":9776,"elÄĵm":9777,"elektr":9778,"Ġvaren":9779,"ĠiespÄĵjami":9780,"ĠdomÄģja":9781,"ĠvidÄĵjais":9782,"ĠapsvÄĵr":9783,"ĠuzsÄģkt":9784,"ĠfunkcionÄģl":9785,"vakarÄģ":9786,"ĠÄ·irb":9787,"34":9788,"Ġogas":9789,"Ġvak":9790,"Ġilu":9791,"ĠesoÅ¡Äģ":9792,"prob":9793,"inÄģjos":9794,"Ġvietai":9795,"ĠtiesÄ«b":9796,"ĠnevarÄĵs":9797,"Ġneatbild":9798,"ĠspÄĵlÄĵs":9799,"ĠmelnÄģ":9800,"Ġmasas":9801,"ĠatmiÅĨa":9802,"Ġsliktu":9803,"Ġpusmaratona":9804,"divas":9805,"ĠizpÄĵtes":9806,"aÅ¡u":9807,"lit":9808,"nakt":9809,"vuÅ¡i":9810,"Ġdon":9811,"Äģdu":9812,"orn":9813,"abu":9814,"Ġapli":9815,"ula":9816,"ÄģvÄģs":9817,"nÄģkamais":9818,"Ġsajust":9819,"ĠvakariÅĨas":9820,"Ä«gÄģkajiem":9821,"Ġtehnikas":9822,"sarun":9823,"ĠdzÄ«vesveid":9824,"ĠskrÄĵjÄĵji":9825,"Ġuzvaru":9826,"Ġdegvielas":9827,"ĠtÄĵlu":9828,"Ġsmalki":9829,"ĠkÅ«kas":9830,"Ġnesteidz":9831,"ĠsadzÄ«ves":9832,"Ġpropor":9833,"Ġholivudas":9834,"roz":9835,"Ñĥ":9836,"olid":9837,"Ġpirmoreiz":9838,"ĠlietoÅ¡ana":9839,"ĠbloÄ·":9840,"Ġsamaisa":9841,"Ġ:).":9842,"ĠnekÄģdÄģ":9843,"ÄĵÄ·inÄģs":9844,"ĠjÄģskrien":9845,"ĠgulÄĵja":9846,"Ġnokav":9847,"grÄģmatÄģ":9848,"sald":9849,"Ġpateica":9850,"Ġpieteikuma":9851,"piedÄģv":9852,"ĠieraudzÄ«t":9853,"ĠnevÄĵlas":9854,"Ġtesta":9855,"ĠtÄĵvu":9856,"rimin":9857,"ĠatgrieÅ¾as":9858,"neiz":9859,"rom":9860,"Ġq":9861,"Ġsy":9862,"orus":9863,"ojoÅ¡o":9864,"Ġapp":9865,"Ġmand":9866,"spec":9867,"ĠsarÄ«k":9868,"Ġzemnieku":9869,"Ġtelefonam":9870,"ĠatbilstoÅ¡u":9871,"Ġteksts":9872,"ĠizmÄĵru":9873,"ĠatklÄģti":9874,"Ġnepareizi":9875,"amÄ«bu":9876,"urÄ£":9877,"Ġmanus":9878,"Ġtrep":9879,"ĠdzÄ«voja":9880,"Ġhd":9881,"ĠslÄ«d":9882,"ĠsaÅ¡u":9883,"ĠÄįetru":9884,"ingv":9885,"ĠmÄģcÄ«bas":9886,"kopÄ«bas":9887,"Ġpublisko":9888,"ĠiestÄģdÄĵ":9889,"Ġefekts":9890,"Ġatrodams":9891,"ĠcÄ«nÄ«ties":9892,"Ġpiektdienas":9893,"ĠpÄģrlej":9894,"Ġkoda":9895,"Ġbus":9896,"trol":9897,"ĠlÄ«dzÅ¡in":9898,"Ġnepad":9899,"ĠlietoÅ¡anu":9900,"Ġsms":9901,"ĠbezjÄĵdz":9902,"ĠsvÄģrst":9903,"Ġredzami":9904,"ĠkÄģrtÄĵjÄģ":9905,"ĠuzÅĨÄĵmumam":9906,"ĠparÄģdÄ«ja":9907,"ĠstÄģvu":9908,"ĠstundÄģ":9909,"ĠorganizÄĵ":9910,"ĠpatÄĵriÅĨa":9911,"cilvÄĵks":9912,"ĠlaimÄ«gi":9913,"Ġvannas":9914,"Ġstingri":9915,"ĠrÄĵzeknes":9916,"zied":9917,"ĠÄĵnas":9918,"Å¡ai":9919,"ĠmÄĵl":9920,"umbu":9921,"Ġnex":9922,"Ġnolikums":9923,"Ä¼Äģ":9924,"ĠvarÄĵÅ¡u":9925,"dras":9926,"aksta":9927,"Ġaizbild":9928,"ĠstÅ«rÄ«":9929,"ĠpirmkÄģrt":9930,"vÄĵrÅ¡":9931,"ĠdzÄ«voju":9932,"Ġpup":9933,"Ġ196":9934,"cept":9935,"prÄģtÄ«gi":9936,"Ġkorpor":9937,"Ġpunkta":9938,"ĠnÄģkamÄģs":9939,"ĠmugurÄģ":9940,"html":9941,"ĠveÄ£":9942,"Ġbud":9943,"Ġnere":9944,"ĠapÄ£Äĵrbu":9945,"Ġdziju":9946,"Ġaizviet":9947,"ĠjÄģpas":9948,"Ġsastr":9949,"nost":9950,"Ġ55":9951,"ĠlasÄ«ju":9952,"ÄĵjoÅ¡u":9953,"Ġkvalific":9954,"Ġiedves":9955,"Ġapraksta":9956,"Ġeksempl":9957,"Ġautobusa":9958,"liep":9959,"Ġtonis":9960,"ekven":9961,"Ġpiebild":9962,"Ä«vo":9963,"Ġlielam":9964,"luat":9965,"ĠdomÄģs":9966,"Ġveidota":9967,"Ġskatienu":9968,"ĠlasÄ«tÄģji":9969,"Ġieva":9970,"Ġizsniedz":9971,"Ġdraugus":9972,"Ġapskates":9973,"Ġatrada":9974,"ĠievÄĵrojot":9975,"Ġizlaid":9976,"Ġdesmitiem":9977,"Ġprotok":9978,"ĠsaziÅĨas":9979,"ĠpÄģrskatu":9980,"Ġjusties":9981,"Ġintelektu":9982,"ĠpÄģrspÄ«l":9983,"kg":9984,"Ġdim":9985,"tÄģciju":9986,"Ġpiev":9987,"ĠpÄģrÄĵjais":9988,"ĠmÅ«sdien":9989,"ĠvietÄĵjÄģs":9990,"ĠpieskÄģr":9991,"ĠreklÄģma":9992,"Ġaprakstu":9993,"ĠbalsÄ«":9994,"ĠuzstÄģdÄ«t":9995,"ĠapmeklÄĵtÄģju":9996,"ĠkonkurÄĵtspÄĵj":9997,"dÄģv":9998,"dep":9999,"vusi":10000,"Å«tÄģ":10001,"Ġgrez":10002,"Ġklavi":10003,"Ġbremz":10004,"ĠnodaÄ¼Äģ":10005,"ovska":10006,"Ġkalpo":10007,"ĠprasÄ«ja":10008,"ĠbraucÄģm":10009,"Ġlaukiem":10010,"ĠbildÄĵ":10011,"ĠmeklÄĵju":10012,"ogrÄģfijas":10013,"Ġmaija":10014,"ĠÅ¾urnÄģlu":10015,"Ġpavasaris":10016,"Ġadrese":10017,"ĠÄ¼auÅ¾u":10018,"ĠglÄģbÅ¡anas":10019,"Ġparlamenta":10020,"Ġedgars":10021,"meklÄĵ":10022,"raid":10023,"Ġkemp":10024,"Ġdei":10025,"Ġuzsp":10026,"Å¾s":10027,"Ġjauks":10028,"ĠvisapkÄģrt":10029,"ĠdaudzÄģs":10030,"itÄģtei":10031,"ĠpriekÅ¡metu":10032,"Ġwordpress":10033,"ĠsociÄģlajos":10034,"ĠnolÄĵmÄģm":10035,"ĠsezonÄģ":10036,"ĠkomplektÄģ":10037,"Ġzvaigzne":10038,"Ġusb":10039,"stÄ«t":10040,"Ġnobr":10041,"ÄģdÄĵ":10042,"ojuÅ¡Äģs":10043,"Ġfen":10044,"Ġpatenta":10045,"ÄģnijÄģ":10046,"Ä«cijÄģ":10047,"uzreiz":10048,"oloÄ£iju":10049,"ĠnopÄĵrk":10050,"ĠuzÅĨÄĵmumÄģ":10051,"devu":10052,"ĠbrÄ«vdienÄģs":10053,"ĠveselÄ«bai":10054,"ĠmutÄĵ":10055,"ĠorganizÄģcija":10056,"Ġapsol":10057,"ĠdroÅ¡s":10058,"ĠviesnÄ«cÄģ":10059,"ĠbrÄ«num":10060,"Ġteorijas":10061,"ĠcÄ«ÅĨu":10062,"our":10063,"ĠÄģfr":10064,"Ġatveid":10065,"etas":10066,"Ġieejas":10067,"Ġkoki":10068,"ĠlielajÄģ":10069,"ĠbrÄģl":10070,"Ġnepies":10071,"laim":10072,"iedarb":10073,"ĠbaltÄģ":10074,"ight":10075,"ĠĠĠĠĠ":10076,"ojÄģmies":10077,"braucot":10078,"ĠstÄģvokÄ¼a":10079,"ĠmÄģsas":10080,"ĠpiekrÄ«t":10081,"Ġfondu":10082,"ĠpazÄ«mes":10083,"ĠÄ·Ä«nieÅ¡u":10084,"hel":10085,"Ġmult":10086,"Ġbik":10087,"ĠrÅ«d":10088,"Ġapdar":10089,"Ġvaldz":10090,"Ġnosauc":10091,"Ġmilti":10092,"nÄ«cÄģs":10093,"ĠzinÄģtnieki":10094,"Ġnozag":10095,"ĠpieÅĨemÅ¡anas":10096,"ĠlietuvÄģ":10097,"Ġslikta":10098,"Ġvasaru":10099,"ĠtÅ«kstoÅ¡us":10100,"Ġpieteikumu":10101,"svarÄ«gi":10102,"andris":10103,"ĠcÄ«ÅĨas":10104,"Ġugunsgr":10105,"Ġsir":10106,"Ġuzst":10107,"ogi":10108,"opul":10109,"inÄģjusies":10110,"ĠplÄģks":10111,"Ġaugsta":10112,"Ġsakop":10113,"tikko":10114,"ĠgaidÄ«ja":10115,"Ġdzimt":10116,"ĠsvÄĵtkos":10117,"Ġekspluat":10118,"ĠelektrÄ«bas":10119,"Ġekspertu":10120,"Ġmetode":10121,"ĠugunsdzÄĵs":10122,"ĠsÄ«poli":10123,"ĠprezentÄģcijas":10124,"ĠklikÅ¡Ä·":10125,"rÅ«":10126,"ĠzinÄģÅ¡anÄģm":10127,"Ġnoteic":10128,"acea":10129,"ĠdaudzÄģm":10130,"Ġinterj":10131,"sma":10132,"ĠpavÄĵst":10133,"ĠpagÄģja":10134,"ĠdÅ¾ons":10135,"ĠminÅ«tÄĵs":10136,"Ġsaldo":10137,"Ġtvit":10138,"film":10139,"Ġkoncerts":10140,"ĠtermiÅĨu":10141,"pagÄģjuÅ¡ajÄģ":10142,"jelg":10143,"Ġnul":10144,"Ġlec":10145,"Ġbun":10146,"Ġnerun":10147,"eros":10148,"apollo":10149,"Å¾ÅĨu":10150,"Ġprokur":10151,"âĢĿ).":10152,"Ġturku":10153,"ĠnepÄģrs":10154,"Ġnedom":10155,"ĠbrÄ«vÄģ":10156,"Ġspecializ":10157,"Ġprojekti":10158,"zemÄģk":10159,"Ġnodarboties":10160,"Ġiedal":10161,"Ġaudumu":10162,"ĠsecinÄģt":10163,"ĠapjomÄģ":10164,"ĠdziÄ¼Äģk":10165,"ĠsoÄ¼":10166,"Ġdefic":10167,"Ġagnes":10168,"Ġrietum":10169,"Ġtreneris":10170,"lad":10171,"sÄ«k":10172,"Ġluks":10173,"Ġgadsim":10174,"rasts":10175,"gadsim":10176,"Ġdrav":10177,"ĠstrÄģdÄģju":10178,"ĠpienÄģca":10179,"Ġizdevumu":10180,"Ġdatoriem":10181,"ĠnokÄ¼":10182,"Ġapraksts":10183,"Ġaicinu":10184,"daÅ¾as":10185,"ĠpiedzÄ«vojumu":10186,"ĠpatÄĵrÄĵtÄģju":10187,"Ġstandartiem":10188,"ĠkartupeÄ¼us":10189,"ĠpiesaistÄ«t":10190,"jums":10191,"zÄģ":10192,"analiz":10193,"ĠmÅ«r":10194,"ĠjÅ«ra":10195,"iesaku":10196,"abas":10197,"Å¡im":10198,"sku":10199,"auto":10200,"ĠkrÄĵjuma":10201,"Ġgaler":10202,"Ġjaunumu":10203,"ĠkatlÄģ":10204,"ĠpriekÅ¡likumu":10205,"ĠlasÄ«Å¡anas":10206,"ĠparÄģdÄ«sies":10207,"ÄĵnÄģ":10208,"Ġkorup":10209,"aprot":10210,"ĠrisinÄģt":10211,"vielÄģm":10212,"ĠuzturÄĵt":10213,"ĠnepiecieÅ¡amÄ«ba":10214,"ĠseÅ¡iem":10215,"ĠÄ«res":10216,"ĠsaulÄĵ":10217,"Ġpiektdien":10218,"pulkst":10219,"Ġmigr":10220,"ĠshÄĵmas":10221,"ĠpÄģrraides":10222,"Ġenerg":10223,"Ġki":10224,"Äĵjama":10225,"aÄ¼ai":10226,"Ġlaiki":10227,"Ġhob":10228,"Ġakumul":10229,"ĠbÅ«tÄ«bu":10230,"ĠÄįÅ«":10231,"ĠgribÄģs":10232,"Ġliekot":10233,"Ġpolitika":10234,"ĠtreÅ¡Äģs":10235,"ĠstarptautiskÄģs":10236,"Ġstaf":10237,"Ġdizainu":10238,"ĠieÅĨÄĵmumu":10239,"los":10240,"ÄĵÅ¡anÄģm":10241,"Å¡Äģm":10242,"autu":10243,"ekv":10244,"ĠvarÄĵjÄģm":10245,"ipu":10246,"Ġbalto":10247,"ĠvietÄĵjiem":10248,"ĠÄ·Ä«nas":10249,"ĠlabÄģkajiem":10250,"ĠsaistÄ«bu":10251,"ĠrisinÄģjumus":10252,"ĠkabatÄģ":10253,"Ġpareizo":10254,"Ġiemesliem":10255,"stÄģvu":10256,"Ġrekonst":10257,"ĠlidostÄģ":10258,"Ġfutbola":10259,"cijÄģs":10260,"sÄģku":10261,"Ġvik":10262,"Ġlop":10263,"enÄĵs":10264,"Ġcar":10265,"ĠÅ¡veic":10266,"Ġnebaid":10267,"ĠpuÄ·u":10268,"ĠpavÄĵl":10269,"Ġnoteiktas":10270,"Ġpiesar":10271,"Ġgalvenie":10272,"Ġprojektus":10273,"ĠsituÄģcijÄģs":10274,"ĠkÄģrtu":10275,"Ġkontroli":10276,"eÅĨos":10277,"ĠkÄ¼uvuÅ¡i":10278,"ĠkomerciÄģl":10279,"ĠmaksÄģjumu":10280,"Ġfutbol":10281,"wed":10282,"Ġpe":10283,"Ġlauc":10284,"Ġdisku":10285,"Ġriska":10286,"aptuveni":10287,"ÄģjuÅ¡ies":10288,"Ġpasp":10289,"ĠpersonÄ«bas":10290,"Ġlasu":10291,"ĠvÄģrdos":10292,"redzot":10293,"ĠÄ«paÅ¡nieku":10294,"Ġabus":10295,"ĠpiekÄ¼Å«t":10296,"Ġ600":10297,"Ġziema":10298,"ĠizglÄ«tÄ«ba":10299,"ĠskrÄĵjÄĵjiem":10300,"Ġaprit":10301,"ĠapkÄģrtnÄĵ":10302,"Ġdiskrimin":10303,"ĠamatÄģ":10304,"mÅ«sdienÄģs":10305,"Ġkrasta":10306,"ĠeÄ¼Ä¼a":10307,"pavasar":10308,"ĠrÄĵÄ·ina":10309,"let":10310,"Ġlomas":10311,"Ġrak":10312,"Äģlie":10313,"ĠpÄģrtiku":10314,"ĠtobrÄ«d":10315,"Äģnus":10316,"Ġlielos":10317,"ĠvairÄģkÄģs":10318,"Ġvecumam":10319,"ĠsapÅĨu":10320,"Ġpiespr":10321,"meist":10322,"guÄ¼":10323,"Ġievain":10324,"Ġamatu":10325,"Ġizpal":10326,"Ġpacel":10327,"Ġavotu":10328,"Ġbars":10329,"ĠpÄģrliecinÄģta":10330,"Ġkapte":10331,"komp":10332,"Ġapjoma":10333,"Ġizgaism":10334,"ĠpozitÄ«vu":10335,"ĠcÄ«ÅĨÄģ":10336,"ĠloÄ£iski":10337,"Ġidentific":10338,"ĠizvÄĵrtÄĵt":10339,"37":10340,"tirg":10341,"ĠÄĵÅ¡anas":10342,"Ġpoga":10343,"ÅĨai":10344,"ÄĵjoÅ¡s":10345,"Ġuzkl":10346,"ĠpÄģrklÄģj":10347,"Ġskal":10348,"Ġnoteica":10349,"ĠplÅ«st":10350,"ĠÅ¡ovakar":10351,"ĠredzÄĵja":10352,"ĠorÄ·es":10353,"Äĵsties":10354,"katra":10355,"deva":10356,"ĠvÄ«rietim":10357,"stÄģsts":10358,"ĠdÅ¾eks":10359,"Ġspraud":10360,"ĠsaÅĨemtu":10361,"viela":10362,"ĠaugstÄģkÄģ":10363,"Ġuzvaras":10364,"svÄĵtku":10365,"ĠpievÄĵrst":10366,"bank":10367,"ĠneievÄĵr":10368,"saprot":10369,"Ġreglam":10370,"Ġlav":10371,"Ġatvad":10372,"onds":10373,"ĠmanÄģs":10374,"laikÄģ":10375,"plaÅ¡":10376,"Ġizmantoja":10377,"Ġizmain":10378,"tikmÄĵr":10379,"agrÄģk":10380,"ĠdalÄ«bnieks":10381,"Ġspriest":10382,"Ġmiers":10383,"ĠmaÄ£istr":10384,"ĠatgriezÄģs":10385,"Ġprincips":10386,"ĠpÄģrkÄģpumu":10387,"valstÄ«m":10388,"ĠpagalmÄģ":10389,"Ġsmadzenes":10390,"ioz":10391,"ĠsÄĵn":10392,"Ġiron":10393,"Ġuztrauk":10394,"ĠapÄĵd":10395,"ĠtikuÅ¡i":10396,"ĠdzÄ«vei":10397,"Ġharmon":10398,"Ġsalu":10399,"kura":10400,"Ġradot":10401,"Ġorg":10402,"Ġilze":10403,"ĠtÄģlruni":10404,"Ġtehnisko":10405,"ĠtieÅ¡saist":10406,"Ġdokt":10407,"ĠbudÅ¾etu":10408,"Ġsiltuma":10409,"Ġamerikas":10410,"ĠmÄģjup":10411,"Ġierasts":10412,"piekt":10413,"izglÄ«tÄ«bas":10414,"recep":10415,"profes":10416,"pien":10417,"tec":10418,"Ġsist":10419,"Ġivars":10420,"Ġmm":10421,"ÄģrÅĨ":10422,"Ġatvas":10423,"ĠaplÄ«":10424,"Ġkontu":10425,"Ġnupat":10426,"ĠiekÄģp":10427,"ĠpapÄ«r":10428,"Ġilga":10429,"ĠidejÄģm":10430,"Ġvilk":10431,"savilk":10432,"ĠmÄĵneÅ¡i":10433,"Ġdarbinieks":10434,"Ġauksts":10435,"ĠsÄ«polu":10436,"Ġjautri":10437,"Ġfonds":10438,"ĠÄĵdienkar":10439,"ĠnÅ«":10440,"atÄģm":10441,"Äĵjumam":10442,"ĠuzkÄģp":10443,"ems":10444,"Ġflash":10445,"Ġpasaku":10446,"Ġaizsk":10447,"ĠpirmajÄģm":10448,"ĠorganizÄĵt":10449,"Ġoperas":10450,"Ġstilu":10451,"ĠÄ«stenÄ«bÄģ":10452,"Ġnotic":10453,"Ġbaterijas":10454,"ĠnegaidÄ«ti":10455,"xxxx":10456,"Ġfolkl":10457,"Ġsiguldas":10458,"tweet":10459,"Ġkvar":10460,"ĠnÄģcies":10461,"Ġloku":10462,"Ġden":10463,"ĠbiÅ¡":10464,"ĠviennozÄ«mÄ«gi":10465,"ĠpÄģrtrauc":10466,"ĠesoÅ¡ajiem":10467,"Ġlabdar":10468,"Ġplay":10469,"ĠlatvieÅ¡iem":10470,"Ġhig":10471,"ĠÄģrsts":10472,"Ġvirsp":10473,"ĠÄ«sta":10474,"Ġacs":10475,"ĠziemeÄ¼u":10476,"Ġvelk":10477,"Ġvirzienu":10478,"ĠsarkanÄģ":10479,"Ġkoncerta":10480,"ĠautobusÄģ":10481,"Ġalkohol":10482,"Ġcimd":10483,"vokÄģts":10484,"gb":10485,"Ġios":10486,"Ġgust":10487,"ure":10488,"uldz":10489,"Ġpatri":10490,"Ġtri":10491,"vari":10492,"rÄģda":10493,"Ġpusei":10494,"ĠnÄģkt":10495,"Ġpamatskolas":10496,"Ġabsur":10497,"ĠuzÅĨÄĵmÄĵjiem":10498,"ĠsabiedriskÄģs":10499,"ĠstrÄģdÄģjot":10500,"ĠbrÄ«va":10501,"ĠpadomÄģ":10502,"ĠsvÄĵtdien":10503,"ĠmaÄį":10504,"sastÄģv":10505,"Ġarmijas":10506,"ĠkuldÄ«gas":10507,"Ġfavor":10508,"fan":10509,"Ġqu":10510,"Ġmb":10511,"stÄ«m":10512,"Ġnomin":10513,"Ġrast":10514,"ÄĵjoÅ¡a":10515,"Å¾ot":10516,"Ä«juÅ¡Äģs":10517,"Ġpalaid":10518,"Ġpalaist":10519,"ĠsÄģkÄģm":10520,"Ä«di":10521,"ĠizvÄĵloties":10522,"Ġstunda":10523,"Ġizteic":10524,"ĠsuÅĨu":10525,"ĠÅ¡Ä·irnes":10526,"ĠÄįempionÄģta":10527,"Ġmiegs":10528,"ĠdvÄĵseles":10529,"ĠnesanÄģca":10530,"laura":10531,"sacens":10532,"paz":10533,"umbr":10534,"Ġuzrad":10535,"Ġiegriez":10536,"Ġtikusi":10537,"ĠpÄģrrun":10538,"prieks":10539,"manas":10540,"ĠsvÄģr":10541,"paskat":10542,"ĠÄ«paÅ¡niekiem":10543,"ĠtieÅ¡Äģ":10544,"Ġnotikumus":10545,"ĠspeciÄģlists":10546,"ĠsamazinÄģs":10547,"ĠsaldÄĵjumu":10548,"ĠmateriÄģliem":10549,"Ġ120":10550,"ĠmilzÄ«ga":10551,"ĠnopietnÄģk":10552,"ĠglÄģzi":10553,"Ġokup":10554,"Ġtiltu":10555,"ĠÄĵrtÄģk":10556,"ziemas":10557,"ologi":10558,"mÄģte":10559,"pirk":10560,"viz":10561,"Ġtac":10562,"auta":10563,"Ġmoz":10564,"Ġdotos":10565,"ÄģkÄģm":10566,"ĠtikÅ¡anos":10567,"Ġstore":10568,"Ġlielie":10569,"grÅ«t":10570,"Ġkomiks":10571,"Ġrakstiem":10572,"Ġaktieris":10573,"Ġteicis":10574,"ĠzÄ«mi":10575,"ĠrÄ«ku":10576,"tÄģdÄģ":10577,"Ġputni":10578,"Ġefektiv":10579,"ĠstarptautiskÄģ":10580,"Ġiesniegumu":10581,"ĠpieminÄĵt":10582,"pÄĵdÄĵjo":10583,"ĠmeiteÅĨu":10584,"ĠliepÄģjÄģ":10585,"ĠgrÄģdu":10586,"ĠkÅ«ku":10587,"Ġnepaciet":10588,"mb":10589,"Ġpv":10590,"ÄĵjoÅ¡i":10591,"ÄĵjoÅ¡Äģ":10592,"ĠapstÄģj":10593,"elim":10594,"Äģle":10595,"Ġkursu":10596,"ĠminÄĵtÄģ":10597,"ĠredzÄĵtu":10598,"Ġizmantojam":10599,"Ġilgs":10600,"Ġvirsrakst":10601,"ĠzaudÄĵt":10602,"ĠatstÄģjot":10603,"Ġvilciens":10604,"Ġuztvert":10605,"ereoti":10606,"ĠaptaujÄģto":10607,"ĠÅ¡uj":10608,"kÅ¡":10609,"vied":10610,"amÄģm":10611,"inies":10612,"Äģjamies":10613,"ojuÅ¡as":10614,"ĠlÄ«dzvÄĵrt":10615,"Ġnepiek":10616,"ĠkomÄĵd":10617,"ĠdomÄģjis":10618,"Ġslied":10619,"ĠvajadzÄ«go":10620,"ĠilgÄģku":10621,"Ġpamatojoties":10622,"Ġcepam":10623,"ĠpÄģrstÄģve":10624,"otrajÄģ":10625,"ĠtradÄ«ciju":10626,"Ġprotest":10627,"Ġizprast":10628,"ĠkrÄ«ze":10629,"ĠinvestÄ«ciju":10630,"ĠlidmaÅ¡Ä«nas":10631,"ĠreiÅ¾u":10632,"problÄĵm":10633,"iÄ¼u":10634,"rÅ«p":10635,"Ġ`":10636,"Ġdo":10637,"Ġdil":10638,"ambul":10639,"Äĵrijas":10640,"Äģjusies":10641,"izon":10642,"eiktu":10643,"Ġgras":10644,"ĠbÅ«si":10645,"ĠceÄ¼ojums":10646,"Ġast":10647,"ĠrunÄģju":10648,"ĠievÄģr":10649,"Ġizveidots":10650,"Ġzvej":10651,"ĠrÄģdÄ«ja":10652,"Ġstudenti":10653,"ĠkÄģrtÄģm":10654,"ĠattÄĵla":10655,"ĠjÄĵgu":10656,"Ġalbuma":10657,"Ġsmuk":10658,"ĠÄįempionÄģtÄģ":10659,"ĠsmarÅ¾o":10660,"atÅ¡Ä·irÄ«bÄģ":10661,"led":10662,"pel":10663,"tieÅ¡Äģm":10664,"vÄĵj":10665,"zvaig":10666,"Ġgov":10667,"ort":10668,"Ä·e":10669,"Ġkastes":10670,"prov":10671,"oÅ¡am":10672,"Ġnedod":10673,"Ġalber":10674,"veidÄģ":10675,"braucam":10676,"Ġsiltu":10677,"Ġvarianti":10678,"ĠpÄģrliecÄ«bu":10679,"ĠdokumentÄģ":10680,"ĠaicinÄģja":10681,"ĠsaÅĨÄĵmusi":10682,"Ġobjekts":10683,"Ġlogiem":10684,"Ġaptiek":10685,"grieÅ¾as":10686,"ĠticÄĵt":10687,"Ġsezona":10688,"ĠteorÄĵtiski":10689,"haels":10690,"odroÅ¡":10691,"ĠcieÅĨu":10692,"ĠatnÄģca":10693,"kons":10694,"mÄ«n":10695,"nt":10696,"Ġkung":10697,"Ġmij":10698,"ĠvienoÅ¡anÄģs":10699,"aids":10700,"Ġpaved":10701,"Ġ48":10702,"ĠspÄĵlÄĵm":10703,"ĠsaprÄģt":10704,"ĠizdarÄ«ts":10705,"ĠgaiÅ¡i":10706,"own":10707,"ĠcerÄ«bu":10708,"ĠsavienÄ«bÄģ":10709,"Ġrajonu":10710,"ministru":10711,"ĠideÄģli":10712,"ĠtraucÄĵ":10713,"ĠprecÄ«zÄģk":10714,"ĠnoslÄĵpums":10715,"ĠizstÄģdes":10716,"top":10717,"Ġ!":10718,"Ġod":10719,"iew":10720,"armands":10721,"Ġtakas":10722,"Ġrikt":10723,"Äģtais":10724,"ĠvisdrÄ«zÄģk":10725,"ĠkontÄģ":10726,"iegÄģd":10727,"Ġiero":10728,"ĠjautÄģjumÄģ":10729,"ĠkapÄĵc":10730,"ĠsadarbÄ«ba":10731,"Ġfaktors":10732,"Ġpieteikties":10733,"ĠsareÅ¾Ä£Ä«ti":10734,"Ġkokiem":10735,"ĠreÄ£ionÄģ":10736,"Ġtauku":10737,"Ġrasties":10738,"ĠkrÄģÅ¡ÅĨ":10739,"sÄģkotnÄĵji":10740,"Ġmotocik":10741,"ĠmÄģra":10742,"stÅ«r":10743,"ĠgÄģjÄģm":10744,"Ġgoda":10745,"Ġrisku":10746,"Ġrisks":10747,"tÄģcijas":10748,"ĠizÅ¡Ä·":10749,"ĠprÄģts":10750,"ĠpiereÄ£istr":10751,"Ġapbalv":10752,"druk":10753,"izdab":10754,"ipul":10755,"Ġtelpa":10756,"ĠÅ¡Äģdos":10757,"Ġgribam":10758,"ĠnezinÄģju":10759,"Ġparasto":10760,"ĠnormÄģlu":10761,"ĠdziesmÄģm":10762,"Ġienes":10763,"ĠnovÄĵrst":10764,"Ġsauca":10765,"ĠaicinÄģti":10766,"ĠpriecÄ«gs":10767,"Ġlogo":10768,"Äĵzi":10769,"ĠmÄ«ksti":10770,"Ġresursus":10771,"Ġsuni":10772,"ĠÄ«patsvar":10773,"ĠpopularitÄģti":10774,"Ġdegunu":10775,"66":10776,"antiem":10777,"Ġdakter":10778,"ojoÅ¡u":10779,"ĠviÅĨÄģ":10780,"ideja":10781,"ĠlabajÄģ":10782,"epar":10783,"Ġnesam":10784,"entÄĵt":10785,"ĠpuiÅ¡":10786,"ĠgaidÄ«ju":10787,"Ġkolon":10788,"ĠapsÄĵd":10789,"Ġkabatas":10790,"ĠnodarbÄ«bas":10791,"Ġmetodi":10792,"ĠadministratÄ«vo":10793,"draugiem":10794,"samsung":10795,"âĤ":10796,"Ġmo":10797,"ĠneÄĵr":10798,"enko":10799,"Ġdzir":10800,"Ġspons":10801,"ĠnedomÄģju":10802,"Ġlasi":10803,"oloÄ£ija":10804,"ĠÅ¡Ä·ietami":10805,"ĠÄ«stenot":10806,"ĠbrÄ«numu":10807,"projekta":10808,"ĠausÄ«m":10809,"ĠkomentÄģrus":10810,"ĠkategorijÄģ":10811,"ĠneskaitÄģ":10812,"ĠnomainÄ«t":10813,"Ġtelevizoru":10814,"ĠnodarbinÄģtÄ«bas":10815,"âĤ¬":10816,"32":10817,"daÄ¼Äģ":10818,"ff":10819,"pier":10820,"Ġvok":10821,"Å«Å¡anas":10822,"ĠgÅ«st":10823,"Ġnej":10824,"Ġapkar":10825,"ÄģcÄģm":10826,"traukt":10827,"ĠvÄĵlÄĵÅ¡anÄģm":10828,"ĠmazÄģku":10829,"Ġbalts":10830,"ĠnoteiktÄģs":10831,"Ġveiksmes":10832,"Ġmarta":10833,"ingÄģ":10834,"ĠvajadzÄ«gi":10835,"ĠnepiecieÅ¡amÄģs":10836,"Ġfriz":10837,"ĠtrÄ«sdesmit":10838,"ĠrisinÄģjumi":10839,"ĠlÄĵmumus":10840,"ĠkÄģrta":10841,"Ġkonsolid":10842,"ĠstruktÅ«ru":10843,"ĠretÄģk":10844,"Ġseans":10845,"ĠdabÅ«ju":10846,"Ġskype":10847,"norm":10848,"uÄ¼":10849,"ĠmÄģti":10850,"stot":10851,"Ġpietuv":10852,"Ġapollo":10853,"Ġkautko":10854,"nig":10855,"krist":10856,"ĠpersonÄģla":10857,"Ġvesela":10858,"ĠparedzÄĵti":10859,"Ġmelno":10860,"ĠpacÄĵl":10861,"reinis":10862,"Ġpreciz":10863,"ĠdÄģvana":10864,"Ġtempa":10865,"ĠpierÄģdÄ«t":10866,"ĠaustrÄģl":10867,"Ġolimpi":10868,"Ġfailus":10869,"bir":10870,"ciÅĨu":10871,"lpp":10872,"Ġlitr":10873,"ĠmoÅ¡":10874,"usÄģ":10875,"ĠlietoÅ¡anai":10876,"Ġaktiem":10877,"ĠbÅ«tÄ«bas":10878,"Ġredzot":10879,"ĠredzÄĵjusi":10880,"ĠmarÄ·":10881,"Ġnevari":10882,"Ġ42":10883,"ĠÄ«stu":10884,"ĠÄģtrumÄģ":10885,"ĠlasÄģm":10886,"Ġ197":10887,"Ġmuitas":10888,"Ġatrodama":10889,"ĠmÄģkslinieku":10890,"ĠspÄĵcÄ«gi":10891,"ĠienÄģkumu":10892,"ĠĉĉĠĉĉ":10893,"Ġdvd":10894,"Ġnorises":10895,"ĠmakÅ¡Ä·er":10896,"Ġsiers":10897,"saeimas":10898,"Ġpiesardz":10899,"44":10900,"dok":10901,"dÄĵÄ¼":10902,"pusi":10903,"super":10904,"Å¡ov":10905,"ĠdÅ«m":10906,"eklu":10907,"Ġfarm":10908,"labÄģ":10909,"ĠredzÄĵjuÅ¡i":10910,"zÄ«mÄĵ":10911,"latvi":10912,"ĠraÅ¾otÄģjiem":10913,"ĠveicinÄģt":10914,"ĠspÄĵcÄ«gs":10915,"ĠmÄĵrÄ·a":10916,"ĠrÄ«cÄ«bas":10917,"Ġtrase":10918,"ĠlÄ«deris":10919,"finans":10920,"Ġnelikum":10921,"ĠkinoteÄģtr":10922,"Ġdepartamenta":10923,"ĠmenedÅ¾":10924,"Ġnenoliedz":10925,"kru":10926,"nakts":10927,"vÄĵt":10928,"Ä«ÅĨu":10929,"artis":10930,"Ġvidz":10931,"Ġvibr":10932,"Ġna":10933,"antÄĵ":10934,"ĠnerunÄģjot":10935,"Äģre":10936,"etÄĵ":10937,"Äĵru":10938,"Äĵtam":10939,"ache":10940,"ĠpuÄ·es":10941,"Ġbalsi":10942,"pirmÄģs":10943,"Ġatpal":10944,"Ġtehniku":10945,"Ġvilkt":10946,"Ġbraucienu":10947,"ĠpapildinÄģt":10948,"ĠrÄ«ks":10949,"ĠpaÅ¡valdÄ«bÄģm":10950,"ĠpienÄģkas":10951,"Ġdiskut":10952,"Ġklusums":10953,"ĠjÄģdodas":10954,"iii":10955,"Ġmikro":10956,"Ġatskan":10957,"ĠviedtÄģlruÅĨu":10958,"ĠitÄģlijas":10959,"ĠnetraucÄĵ":10960,"fini":10961,"ÄģÅ¾a":10962,"ÄĵÅ¾":10963,"ĠvÄģk":10964,"Ġsedz":10965,"ĠrÄģp":10966,"ĠspÄĵjÄģm":10967,"Ġlielajiem":10968,"eÄ¼Ä£":10969,"nest":10970,"ega":10971,"ĠpieÅĨemu":10972,"Ġperiods":10973,"Ġlepn":10974,"ĠaizmugurÄĵ":10975,"ĠavÄģrijas":10976,"pend":10977,"vo":10978,"ĠkÅ«p":10979,"ĠveÄ¼as":10980,"alo":10981,"Ġnobeig":10982,"akÄģm":10983,"Äģji":10984,"Å«tÄ«t":10985,"Ġtrol":10986,"krauk":10987,"Ġnedarb":10988,"atÄ«vs":10989,"ĠinformÄģt":10990,"ĠatbildÄ«gÄģs":10991,"Ġamb":10992,"Ġamaz":10993,"Ġviegls":10994,"Ġopen":10995,"ĠatbilstÄ«bu":10996,"ĠcerÄĵt":10997,"ĠpriecÄ«gi":10998,"ĠgÄģjÄĵju":10999,"citi":11000,"maizi":11001,"Ġaizliegts":11002,"ĠkulinÄģr":11003,"Ġenergo":11004,"Ġhokeja":11005,"ĠbaÅ¾as":11006,"Ġslinkums":11007,"ĠskÄģrien":11008,"ĠnenormÄģli":11009,"sia":11010,"ĠpÄ«rÄģ":11011,"ĠzaÄ¼Äģ":11012,"olas":11013,"ĠpÄģrejas":11014,"ĠspoÅ¾":11015,"ĠveidoÅ¡anas":11016,"Ġnodom":11017,"ĠnodomÄģju":11018,"ĠpadarÄ«":11019,"ĠskatÄ«jos":11020,"Äģze":11021,"Ġsvars":11022,"Ġizveido":11023,"Ġpakalpojumi":11024,"ĠpubliskÄģs":11025,"janvÄģra":11026,"Ġdebesis":11027,"ĠkrÄĵmu":11028,"ĠkandidÄģtu":11029,"ĠsavstarpÄĵji":11030,"ĠÅ«denskr":11031,"Ġtolaik":11032,"Ġaksesu":11033,"izdabz":11034,"tp":11035,"atrad":11036,"Ġneitr":11037,"Ġnoliek":11038,"Ġizrun":11039,"Ġparku":11040,"Ġapciem":11041,"ules":11042,"Ġ33":11043,"Ġslov":11044,"ieÅ¾am":11045,"ĠtÄģlumÄģ":11046,"Ġkalnos":11047,"Ġizdevumi":11048,"zemÄĵ":11049,"ĠkultÅ«ra":11050,"Ġgulb":11051,"Ġuzrakstu":11052,"Ġperiodu":11053,"Ġzobu":11054,"ĠsÄ«polus":11055,"ĠkomentÄģriem":11056,"ĠizpratnÄĵ":11057,"ĠnovadÄģ":11058,"ĠzeÄ·es":11059,"pilnÄ«gi":11060,"ĠpÄĵcpusdienÄģ":11061,"Ġisland":11062,"tÅ":11063,"Äģdams":11064,"ĠpaÄĵd":11065,"ĠvÄĵlÄĵjÄģs":11066,"ĠtÄģdam":11067,"ĠvairÄģkos":11068,"Ġzemu":11069,"ĠpiemÄĵrota":11070,"ĠuzskatÄ«ja":11071,"ĠpunktÄģ":11072,"ĠkonkrÄĵto":11073,"Ġplati":11074,"ĠteikÅ¡u":11075,"ĠekrÄģnÄģ":11076,"Ġdievam":11077,"ĠmaiÅĨu":11078,"ĠmÄ«kla":11079,"ĠkomunikÄģciju":11080,"Ġmeitu":11081,"ĠneatkarÄ«bas":11082,"iÄ·a":11083,"ĠpÄģrdomas":11084,"ĠvaroÅĨi":11085,"Ġmiega":11086,"ĠÅ¾anra":11087,"biks":11088,"mÄ«Ä¼":11089,"atbalst":11090,"Å«nu":11091,"apa":11092,"Äģjumu":11093,"Ġkursa":11094,"ĠkrÄĵjums":11095,"ĠvalÅ«tas":11096,"itÄģtÄĵm":11097,"karsÄĵ":11098,"Ġierodas":11099,"Ġapmet":11100,"Ġnovec":11101,"ĠpienÄģc":11102,"Ġkonkursu":11103,"Ġstudentiem":11104,"Ġgabalos":11105,"ĠapstÄģkÄ¼us":11106,"ĠziÅĨojumu":11107,"ĠkÄ¼Å«da":11108,"Ġliter":11109,"quare":11110,"ĠjuridiskÄģs":11111,"ĠlÅ«pas":11112,"ĠmehÄģn":11113,"Ġpusstundu":11114,"ĠtiesÄ«bsar":11115,"tÄĵs":11116,"ķÃ¸":11117,"ĠnÄ±":11118,"ĠmÄĵt":11119,"Ġdos":11120,"ave":11121,"eka":11122,"eko":11123,"vÄĵrtÄĵ":11124,"ĠsÄģkusi":11125,"Ġpakl":11126,"Ġpieskar":11127,"ĠparedzÄĵt":11128,"Ġmaina":11129,"ĠpiedalÄ«sies":11130,"Ġoff":11131,"ĠpalielinÄģs":11132,"Ġneapz":11133,"Ġkontrole":11134,"ĠbudÅ¾etÄģ":11135,"Ġprincipu":11136,"Ġkakla":11137,"Ġatrasts":11138,"papildinÄģts":11139,"Ä±tÅ":11140,"ĠkosmÄĵtikas":11141,"ĠÅ¡Ä·ÄĵrÅ¡":11142,"ĠnemitÄ«gi":11143,"ĠnÄ±Ä±tÅ":11144,"ĠnÄ±Ä±tÅķÃ¸":11145,"mic":11146,"Å¡ies":11147,"Ġdam":11148,"Ġnolai":11149,"Ġpiefiks":11150,"ĠvisdaÅ¾Äģd":11151,"izÅĨemot":11152,"okÄ¼u":11153,"Ġstereoti":11154,"Ġpamet":11155,"Å«da":11156,"kaÅĨ":11157,"Ġiema":11158,"ĠeÅĨÄ£":11159,"ĠtehniskÄģs":11160,"ĠmÄģksla":11161,"vilnis":11162,"ĠnolÄĵmis":11163,"nevis":11164,"ĠizmÄĵrs":11165,"ĠdÄĵlu":11166,"ĠatlikuÅ¡o":11167,"ĠpanÄģkumiem":11168,"ĠnosacÄ«jumiem":11169,"Ġdirektore":11170,"ĠapmeklÄĵtÄģjiem":11171,"ĠseÅ¡i":11172,"ĠiemÄģcÄ«ties":11173,"ĠsÄĵklas":11174,"Ġperfekti":11175,"amerikÄģ":11176,"ĠtÄĵtis":11177,"ĠsastrÄĵg":11178,"Ġmez":11179,"Ġdots":11180,"alt":11181,"Ġreit":11182,"ĠvienÄ«go":11183,"ĠtiklÄ«dz":11184,"Ġ(\"":11185,"ulas":11186,"Ġpatiks":11187,"oÅ¡ajam":11188,"ĠpastrÄģd":11189,"acz":11190,"ĠoranÅ¾":11191,"Ġsekos":11192,"lieta":11193,"Ġblogiem":11194,"ĠpatÄ«kama":11195,"ĠgarÅ¡vielu":11196,"ĠprofesionÄģ":11197,"ĠtreniÅĨos":11198,"Ġnervu":11199,"Ġnopietns":11200,"ĠmaiÅĨas":11201,"ĠmaisÄ«jumu":11202,"ĠpieprasÄ«jums":11203,"ĠtumÅ¡i":11204,"Ġneleg":11205,"ĠkalendÄģru":11206,"ĠkrÅ«tÄ«m":11207,"mÅ«zikas":11208,"sÄģp":11209,"Ġmap":11210,"ĠuzstÄģ":11211,"ieto":11212,"Ġpusotru":11213,"Ġpretrun":11214,"ĠceÄ¼ojumÄģ":11215,"Ġsamier":11216,"ĠgadÄ«jumiem":11217,"pastÄģ":11218,"Ġdzimuma":11219,"ĠsvÄĵtkus":11220,"Ġkonsist":11221,"Ġstils":11222,"ĠmuzejÄģ":11223,"Ġloceklis":11224,"ĠnonÄģkuÅ¡i":11225,"Ġintervijas":11226,"ĠuzlÄ«m":11227,"ĠvaniÄ¼as":11228,"ĠatrisinÄģt":11229,"vÄ«rietis":11230,"ĠtÄĵjkar":11231,"Ġzupu":11232,"ĠpadalÄ«ties":11233,"Ġilustr":11234,"js":11235,"lana":11236,"ĠkÄģj":11237,"atliek":11238,"Ġlen":11239,"ijis":11240,"ade":11241,"ĠrÄ«dz":11242,"Ġatmin":11243,"Äĵmu":11244,"Ġvarot":11245,"autobus":11246,"Äįakar":11247,"Ġtriec":11248,"ĠaugÄ¼us":11249,"otÄģjas":11250,"Ġizskatu":11251,"Ġmeiten":11252,"Ġkorid":11253,"ĠievÄĵrot":11254,"ĠfiziskÄģs":11255,"ĠkustÄ«ba":11256,"Ġtalant":11257,"ĠkonstatÄĵts":11258,"augusts":11259,"Ġhtml":11260,"ĠbÄ¼odÄģ":11261,"Ġkurpes":11262,"Ġkarjeras":11263,"Ġasaras":11264,"Ġreferend":11265,"ial":11266,"Ġmy":11267,"Å«kl":11268,"Ġnogriez":11269,"ĠpÄģrz":11270,"ejb":11271,"Ġplau":11272,"skata":11273,"ĠmodeÄ¼a":11274,"ĠbrÄ«vÄ«bu":11275,"ĠkrÄģsain":11276,"ĠiekÅ¡Äĵjo":11277,"ancrossfit":11278,"Ġdraudzenes":11279,"Ġprincipa":11280,"ĠpazÄ«stams":11281,"ĠizcÄ«nÄ«ja":11282,"Ġapkures":11283,"din":11284,"meta":11285,"pir":11286,"inus":11287,"Ġuztrauc":11288,"ire":11289,"izstrÄģd":11290,"aucas":11291,"ĠsÄģkumu":11292,"Ġpaveikt":11293,"ĠskatÄ«tÄģjiem":11294,"ĠpiedÄģvÄģts":11295,"meÅĨi":11296,"ĠatbildÄ«ba":11297,"ĠnevienÄģ":11298,"Ġdevu":11299,"ĠmÄģkslu":11300,"Ġizpildi":11301,"Ġxp":11302,"ĠiedomÄģjos":11303,"Ġsezonu":11304,"ĠdebesÄ«m":11305,"ĠatslÄĵgas":11306,"ĠÄ£enerÄģl":11307,"ĠpÅ«k":11308,"Ġkind":11309,"Ġsand":11310,"Ġmaj":11311,"Ġbund":11312,"ĠÅ¡v":11313,"Ġapgriez":11314,"tip":11315,"varam":11316,"Ġbezvadu":11317,"Ġbalz":11318,"Ġsaknes":11319,"Ġnorit":11320,"ĠlabÄģkÄģs":11321,"ĠiemÄ«t":11322,"ĠpiesÄģrÅĨ":11323,"nÄ«cai":11324,"ĠizslÄĵdz":11325,"ĠatzÄ«t":11326,"balvis":11327,"ĠgabaliÅĨu":11328,"Ġsaraksta":11329,"ĠzaudÄĵjumus":11330,"ĠteritoriÄģl":11331,"ĠtÄĵls":11332,"ĠstaigÄģt":11333,"ĠÄģrkÄģrtas":11334,"ĠlÄĵnÄģk":11335,"ĠveÄ£et":11336,"bil":11337,"cien":11338,"df":11339,"lin":11340,"ĠsÄģr":11341,"Ġiii":11342,"ĠjomÄģs":11343,"Ġnoj":11344,"ĠÅ¡in":11345,"ĠÅ¡onedÄĵÄ¼":11346,"ĠkaÄ·i":11347,"ital":11348,"Ġkrauk":11349,"Ġtroks":11350,"Ġlieluma":11351,"Ġaugsts":11352,"ĠveidoÅ¡anÄģ":11353,"Ġpusaud":11354,"Ġtelekom":11355,"atÄ«vas":11356,"ĠskolotÄģji":11357,"Ġatmaks":11358,"ĠpolitiskÄģs":11359,"Ġviesi":11360,"ĠiesaistÄ«ties":11361,"ĠbiÄ¼eti":11362,"ĠapmierinÄģts":11363,"Ġsasniedza":11364,"Ġziniet":11365,"Ġpabalsta":11366,"Ġservera":11367,"ĠsiÅ¾eta":11368,"ĠlaulÄ«bas":11369,"ĠbÅ«Å¡ot":11370,"fon":11371,"jur":11372,"oil":11373,"ieÅ¡anu":11374,"ĠvÄ«t":11375,"Ġgult":11376,"Ġrod":11377,"ĠapbÅ«v":11378,"ĠieÅ¡":11379,"unÄģ":11380,"ĠvienÄģdi":11381,"ags":11382,"istes":11383,"Ġnodod":11384,"Ġnoved":11385,"Ġsniegu":11386,"ĠparastÄģ":11387,"Ġaptaujas":11388,"ĠfinansÄĵjumu":11389,"ĠstacijÄģ":11390,"ĠjÅ«tams":11391,"ĠinstitÅ«ta":11392,"Ġbizness":11393,"Ġbiznesu":11394,"ĠdÄģrgi":11395,"ĠkartupeÄ¼i":11396,"ĠzviedrijÄģ":11397,"Ġrosacea":11398,"ebruÄģra":11399,"lav":11400,"Ġlg":11401,"Ġizol":11402,"ĠÅ¡am":11403,"izveid":11404,"oki":11405,"Ġgrim":11406,"tera":11407,"Ġveidus":11408,"part":11409,"ove":11410,"ĠgrÄģmatai":11411,"ĠvÄĵrtÄ«bÄģm":11412,"ĠraÅ¾o":11413,"ĠmetÄģl":11414,"filmu":11415,"ĠsÄģpÄĵm":11416,"ĠtumÅ¡s":11417,"ĠreÅ¾Ä«ms":11418,"spÄĵles":11419,"ĠprivÄģtperson":11420,"Ġpabeigt":11421,"ĠsiÅ¾ets":11422,"Ġsauli":11423,"Ġreib":11424,"meitene":11425,"ĠglÄģzes":11426,"men":11427,"Ġlieg":11428,"Ġmc":11429,"Ġnopr":11430,"Ġrand":11431,"osi":11432,"ĠâĢĿ":11433,"ĠtrokÅ¡":11434,"likÅ¡Ä·":11435,"Ġneskat":11436,"Ġpamost":11437,"Ġvecums":11438,"Ġanna":11439,"ĠredzÄĵsim":11440,"liels":11441,"Ġkonkurss":11442,"ĠatcerÄĵjos":11443,"ĠvarÄĵsi":11444,"Ġprincipiem":11445,"ĠkvalitatÄ«vu":11446,"ĠsajÅ«sm":11447,"Ġievietot":11448,"ĠatÄ¼auts":11449,"Ġrimi":11450,"Ġhorizon":11451,"Ġnoklus":11452,"ĠizbÅ«v":11453,"Ġzinot":11454,"Ġzupa":11455,"ĠpaÅĨÄĵma":11456,"Ġkaspars":11457,"ski":11458,"Äįus":11459,"ĠgadÄ«ties":11460,"Ġlielus":11461,"Ġho":11462,"Ġputu":11463,"ĠizdarÄ«":11464,"efs":11465,"ĠbÅ«tiska":11466,"Ġnormu":11467,"ĠskatÄ«t":11468,"Äģzi":11469,"ĠkrÄģsÄģs":11470,"ĠnormÄģla":11471,"Ġgaitu":11472,"ĠnelielÄģ":11473,"Ġautoriem":11474,"ĠpriecÄģjos":11475,"ĠuzvarÄĵja":11476,"Ġeksperti":11477,"precÄ«z":11478,"Ġplatformas":11479,"ĠneinteresÄĵ":11480,"tum":11481,"iests":11482,"ark":11483,"Ġtiec":11484,"ĠnÄģc":11485,"atis":11486,"ĠizlÅ«k":11487,"ĠklÄĵp":11488,"ĠlietÄģs":11489,"ĠsÄģkuÅ¡i":11490,"luz":11491,"Ġ34":11492,"ĠkÄģrtÄĵjais":11493,"ĠpalÄ«dzÄĵtu":11494,"ĉĉĠĠĉĉ":11495,"Ġpadomi":11496,"Ġsilti":11497,"Ġmaratonam":11498,"Ġandrejs":11499,"Ġapvienot":11500,"ĠpieprasÄ«t":11501,"Ġemociju":11502,"divi":11503,"nodarb":11504,"ĠapÄ£Äĵrba":11505,"ĠÄ£enÄĵtiski":11506,"ĠmÄ«nus":11507,"ĠsienÄģm":11508,")!":11509,"--":11510,"59":11511,"nie":11512,"ieÄ£":11513,"Ġarb":11514,"Äģjiet":11515,"Ġmanipul":11516,"ĠiesÄģc":11517,"Ġhom":11518,"ness":11519,"ĠteÄģtr":11520,"Ġsmej":11521,"Ġ37":11522,"ĠÄģrlietu":11523,"ĠstarpniecÄ«bu":11524,"Ä«gÄģkas":11525,"Ġteror":11526,"Ġsacer":11527,"ĠpÄģrliecÄ«ba":11528,"ĠsÄ«kÄģk":11529,"Ġkontak":11530,"ĠtempÄģ":11531,"Ġneparedz":11532,"ĠaparÄģts":11533,"Ġamatpersonu":11534,"ĠizraisÄ«t":11535,"Ġslepkav":11536,"Ġpagrab":11537,"riekstu":11538,"ĠuzÅĨÄĵmÄĵjdarbÄ«bas":11539,"mobil":11540,"ĠtÄĵja":11541,"ater":11542,"ĠneÅĨem":11543,"apple":11544,"ekrÄģn":11545,"ĠfonÄģ":11546,"Ġkases":11547,"Ġintu":11548,"ĠpirmajÄģs":11549,"Ġpamest":11550,"ĠrakstÄ«jis":11551,"vaidz":11552,"eklÄ«":11553,"ĠskrÄĵja":11554,"Ġmutes":11555,"ĠatziÅĨas":11556,"ĠparedzÄĵtas":11557,"Ġveicas":11558,"Ġsamazina":11559,"ĠapkÄģrtni":11560,"malas":11561,"ĠkanÄģlu":11562,"Ġsarkano":11563,"ĠpieprasÄ«juma":11564,"Ġsiltumu":11565,"Ġbaudu":11566,"ĠfotogrÄģfiju":11567,"Ġpilda":11568,"dabas":11569,"Ġkods":11570,"paÅ¡vald":11571,"mamma":11572,"ĠgrÄģdos":11573,"ĠapstrÄģdes":11574,"Ġslapj":11575,"lijs":11576,"tal":11577,"ijos":11578,"Ġjomas":11579,"ĠnodzÄ«v":11580,"ĠnokrÄģs":11581,"Ġpieaudzis":11582,"ĠapÄ¼a":11583,"Ġapprec":11584,"ĠpÄģrmÄĵr":11585,"Å«tÄģs":11586,"Ġaizbrauk":11587,"Ġbron":11588,"Ġsmiek":11589,"Ġtelts":11590,"ĠplÄģniem":11591,"stÄģsta":11592,"Ġviegla":11593,"Ġatrodam":11594,"ĠsÄĵriju":11595,"Ġpieprasa":11596,"ĠkuÄ£i":11597,"ĠneskaitÄģm":11598,"ĠdÄĵvÄĵ":11599,"pievieno":11600,"Ġelegan":11601,"nÄģca":11602,"rob":11603,"ĠpieÄ·er":11604,"Å«rs":11605,"Å«rÄģm":11606,"Ġpolijas":11607,"ĠuzÅĨÄĵmÄĵju":11608,"Ġ65":11609,"ĠsaistÄ«bas":11610,"Ġpakalpojums":11611,"omÄģtus":11612,"Ġpirkst":11613,"ĠkontrolÄĵt":11614,"ĠÄįetrÄģm":11615,"nevaj":11616,"ĠatstÄģja":11617,"ĠmÄĵrÄ·us":11618,"Ġepid":11619,"Ġkokos":11620,"ĠkaimiÅĨu":11621,"Ġsamaksu":11622,"ĠkÅ«ka":11623,"ĠmomentÄģ":11624,"ĠÄ·iploku":11625,"ĠlondonÄģ":11626,"Ġlondonas":11627,"Ġrespondentu":11628,"Ġubuntu":11629,"Ġmiks":11630,"Ġbuk":11631,"staig":11632,"Å«ns":11633,"ĠÅ¡orÄ«t":11634,"Ġlaivu":11635,"ĠsavÄģkt":11636,"ĠstÄ«v":11637,"Ġdreb":11638,"Ġorganismu":11639,"Ġskaidroja":11640,"ĠspeciÄģlistiem":11641,"ĠoperÄģcijas":11642,"ĠdÄģrzu":11643,"ĠaprakstÄ«t":11644,"ĠpriecÄĵ":11645,"Ġatbrauk":11646,"ĠrÄ«cÄ«ba":11647,"Å¡Äģdu":11648,"Ġdubult":11649,"ĠvienkÄģrÅ¡Äģk":11650,"Ġnelaim":11651,"ĠnoturÄĵt":11652,"ĠdaiÄ¼rad":11653,"88":11654,"daug":11655,"Ġpaust":11656,"Ġbod":11657,"Ġnelas":11658,"eib":11659,"ith":11660,"ĠvienÄ«bas":11661,"skats":11662,"Ġgalv":11663,"ĠpaÅ¡Äģm":11664,"ĠveidotÄģji":11665,"ĠredzÄĵs":11666,"ĠgadÄ«jies":11667,"Ġikdien":11668,"migr":11669,"ĠizstrÄģdÄģ":11670,"ĠnormÄģls":11671,"Ġsuic":11672,"Ġaudi":11673,"Ġbiedrs":11674,"ĠtermiÅĨa":11675,"ĠtrÅ«kuma":11676,"ĠbiÄ¼eÅ¡u":11677,"ĠmÄĵrce":11678,"Ġdiskusiju":11679,"ĠcÄ«nÄģs":11680,"ĠpÄģrlÅ«ks":11681,"Ġnekustamo":11682,"klases":11683,"ĠfestivÄģla":11684,"ĠpasaÅ¾ieru":11685,"ĠizmeklÄĵÅ¡anas":11686,"Ġsudraba":11687,"book":11688,"con":11689,"sakar":11690,"ausm":11691,"Ġbad":11692,"Ġnew":11693,"Ġjas":11694,"Äģram":11695,"Ġprogres":11696,"Ġpieejas":11697,"Ġapdom":11698,"rup":11699,"ĠĠĠčĊ":11700,"paÅĨem":11701,"ainais":11702,"Ġcitreiz":11703,"Ġtiesne":11704,"akao":11705,"Ġvilnas":11706,"ĠiekÅ¡ÄĵjÄģ":11707,"Ġ800":11708,"ances":11709,"ĠvaldÄ«bu":11710,"Ġnotikusi":11711,"skolu":11712,"Ġtaisno":11713,"Ġsugu":11714,"Ġiemesli":11715,"ĠplaÅ¡a":11716,"ĠkÄģpo":11717,"Ġekspert":11718,"Ġkokvil":11719,"Ġmaigi":11720,"Ġstulb":11721,"ĠjÅ«rmalas":11722,"dur":11723,"nai":11724,"situ":11725,"Ñı":11726,"ints":11727,"Ġneiedom":11728,"ĠskÅ«p":11729,"izstÄģd":11730,"ĠaizvÄĵr":11731,"Ġtriju":11732,"Ġkonven":11733,"ĠdzÄ«vojamo":11734,"Ġbalta":11735,"ĠslÄģ":11736,"auju":11737,"ĠpakÄ¼au":11738,"ender":11739,"Ġgaidot":11740,"ĠizrÄģdes":11741,"Ġatradis":11742,"ĠrÄ«kot":11743,"ĠpÄģrsnieg":11744,"Ġtvnet":11745,"ĠfinansÄĵjuma":11746,"ĠpieÅ¡Ä·irt":11747,"Ġsegm":11748,"ĠindivÄ«da":11749,"Ġelementu":11750,"Ġausis":11751,"ĠreÅ¾isora":11752,"Ġprojektam":11753,"ĠvÄĵdera":11754,"Ġdienvidu":11755,"Ġknapi":11756,"Ġjutos":11757,"ĠpirmizrÄģde":11758,"Ġmijiedarb":11759,"Å«pÄĵj":11760,"ĠgÄģd":11761,"Ġram":11762,"enÄįu":11763,"osu":11764,"Ġ(!":11765,"auties":11766,"ĠaizsÄģk":11767,"ÅĨÄĵmu":11768,"Ġvirsmas":11769,"veronika":11770,"ĠpapÄ«ru":11771,"ĠspÄĵlÄĵja":11772,"Ġvilnis":11773,"ĠiekÅ¡lietu":11774,"ostac":11775,"ĠzinÄģtÅĨu":11776,"ĠvadÄ«tÄģji":11777,"Ġierakstus":11778,"Ġoperators":11779,"ĠdÄģrzeÅĨus":11780,"ĠzaudÄĵja":11781,"ĠstÄģstus":11782,"ĠiepazÄ«t":11783,"Ġsmart":11784,"ĠdomÄģÅ¡anas":11785,"Ġkilometriem":11786,"atseviÅ¡Ä·":11787,"Ġalkoholu":11788,"Ġapgalvot":11789,"iniece":11790,"ĠtÄ«kliem":11791,"ĠÅ¡Å«nu":11792,"Ġpudeli":11793,"ĠkonkurÄĵtspÄĵjas":11794,"ĠeksistÄĵ":11795,"ĠjÄĵkabpils":11796,"latviancrossfit":11797,"ĉĉĠĠĉĉĠĉĉĠĉĉ":11798,"mÄ«":11799,"ĠpÄ«l":11800,"ĠsomÄģ":11801,"statu":11802,"ĠcÄ«tÄ«gi":11803,"Ġapvain":11804,"Ä«ji":11805,"aizmir":11806,"Ġsalikt":11807,"ĠpiesÄģt":11808,"ĠjautÄģja":11809,"Ġizdara":11810,"Ġmeitenei":11811,"ĠgarÅ¡Ä«gi":11812,"ĠemÄ«l":11813,"ĠnegribÄĵja":11814,"sporta":11815,"Ġdienestu":11816,"Ġzivs":11817,"Ġkautr":11818,"Ġamatpersona":11819,"Ġlicences":11820,"Ġiepakojuma":11821,"Ġizskaidrot":11822,"kapars":11823,"Ġtransform":11824,"Ġdaugavpils":11825,"eam":11826,"mun":11827,"atiz":11828,"Ġlil":11829,"Ġceh":11830,"ĠvÄĵlaties":11831,"rud":11832,"icÄĵt":11833,"ĠnekÄ¼":11834,"Ä«nÄģm":11835,"Ġcitai":11836,"Ġvakardienas":11837,"Ġsaproti":11838,"ĠprasÄ«t":11839,"Ġburtu":11840,"ĠattÄĵlus":11841,"Ġnolemj":11842,"ĠmÄĵnesis":11843,"ĠmetodÄĵm":11844,"Ġkodol":11845,"ĠstruktÅ«ras":11846,"Ġsasniedzis":11847,"Ġieteiktu":11848,"Ġvirtuvi":11849,"milj":11850,"ĠkampaÅĨas":11851,"ĠbÄģriÅĨtiesas":11852,"etus":11853,"sil":11854,"ĠlÄģs":11855,"Ġbumbu":11856,"amÄ«bas":11857,"elu":11858,"ĠpaÄĵst":11859,"Ġple":11860,"gados":11861,"Ġnesat":11862,"ĠkopÅ¡anas":11863,"ĠstÄģÅ¡anÄģs":11864,"Ġlaukuma":11865,"ĠmeÅ¾s":11866,"ĠzinÄģmas":11867,"ĠpareizÄģ":11868,"ĠsuÅĨi":11869,"ĠpÄģrsteigts":11870,"Ġneredzu":11871,"ĠprofesionÄģlo":11872,"Ġezeru":11873,"ĠieraudzÄ«ja":11874,"Ġkonceptu":11875,"austr":11876,"Ġdez":11877,"alfs":11878,"tuves":11879,"ĠÅ¡Äģv":11880,"Ġvisbeidzot":11881,"Ġvientul":11882,"Ġgals":11883,"Ġekst":11884,"Ġsalv":11885,"Ġsalauz":11886,"ĠradÄ«tu":11887,"Ġmill":11888,"Ġilgts":11889,"Ġabc":11890,"ĠvÄ«ram":11891,"Ġizsauk":11892,"ĠzinÄģmÄģ":11893,"Ġgabalus":11894,"ĠpietiekoÅ¡i":11895,"Ġperioda":11896,"ĠpalikuÅ¡as":11897,"Ġelementi":11898,"Ġinterviju":11899,"ĠbalstÄģs":11900,"ĠpÄģrlÅ«ku":11901,"ĠmotivÄģcija":11902,"vit":11903,"ĠdÄģmas":11904,"Ġiepl":11905,"ĠziÅĨÄģm":11906,"draudz":11907,"Ġiesild":11908,"Ġtraus":11909,"Ġliell":11910,"Ä«sten":11911,"iegu":11912,"plat":11913,"ĠÄģrÄĵjo":11914,"ĠsaÄ«s":11915,"ĠparÄģdÄ«ties":11916,"Ä«gÄģkÄģs":11917,"ĠpÄĵdÄĵjie":11918,"Ġblogos":11919,"Ġpiekri":11920,"darbÄ«ba":11921,"Ġlaukumu":11922,"Ġnomiz":11923,"Ġmobilais":11924,"ĠcietumÄģ":11925,"ĠizgÄģz":11926,"Ġnesapratu":11927,"ĠnepiecieÅ¡amÄ«bas":11928,"Ġsula":11929,"ĠjÄģrÄĵÄ·inÄģs":11930,"ĠizturÄĵt":11931,"ĠaizgÄģju":11932,"ĠliteratÅ«rÄģ":11933,"Ġphp":11934,"Ġspilgt":11935,"01":11936,"49":11937,"hs":11938,"kil":11939,"my":11940,"niklÄģvs":11941,"rus":11942,"sc":11943,"Å¡kapars":11944,"dzer":11945,"elties":11946,"ĠestÄĵt":11947,"ĠdarbojÄģs":11948,"opt":11949,"Ġnospr":11950,"Ġsaliek":11951,"Ġpretenz":11952,"ovu":11953,"Ġsakap":11954,"ĠlielÄģki":11955,"Ġapsveic":11956,"ĠpatiesÄ«ba":11957,"ĠlÄ«dzekli":11958,"Ġceremon":11959,"ĠsarunÄģ":11960,"ĠsÄĵdi":11961,"ĠkomentÄģri":11962,"ĠspÄĵjÄ«gs":11963,"ĠaktuÄģla":11964,"inÄģtÄģji":11965,"Ġskaisto":11966,"Ġdistance":11967,"Ġcentos":11968,"ĠviedtÄģlruni":11969,"Ġexpl":11970,"Ġhipot":11971,"sieviete":11972,"ciema":11973,"Ġaugstskolu":11974,"kÅ«ku":11975,"ian":11976,"Ġsods":11977,"Ġlot":11978,"adic":11979,"onai":11980,"ory":11981,"Ġvistu":11982,"ĠlÄ«dzjut":11983,"Ġekran":11984,"ĠbaltÄģs":11985,"lasot":11986,"parÄģd":11987,"ĠdaÄ¼Äģm":11988,"Ġskaidra":11989,"mihaels":11990,"Ġkomandai":11991,"ĠseptembrÄ«":11992,"ĠpildÄ«t":11993,"cilvÄĵku":11994,"ĠpadziÄ¼":11995,"hron":11996,"nb":11997,"aiÅĨ":11998,"Ġmeta":11999,"Ġatcel":12000,"Ġprogr":12001,"ĠfÄ«":12002,"Ġinc":12003,"Ġgadam":12004,"ĠstÅ«ra":12005,"ĠinteraktÄ«v":12006,"Ġsviest":12007,"kuru":12008,"Ġpagaidu":12009,"Ġkalt":12010,"Äĵnam":12011,"Ġprobl":12012,"ĠnovÄģr":12013,"ĠzÄ«mju":12014,"bildes":12015,"ĠkomandÄģ":12016,"pilsÄĵta":12017,"Ġiedeg":12018,"ĠatseviÅ¡Ä·as":12019,"Ġkonfigur":12020,"Ġstaciju":12021,"Ġpsihi":12022,"ĠnonÄģcis":12023,"ĠÄ·Ä«mijas":12024,"ĠfiniÅ¡am":12025,"Ġinstrumentu":12026,"ĠnetrÅ«kst":12027,"Ġeksporta":12028,"wedbank":12029,"rekl":12030,"so":12031,"Ġkum":12032,"Ġsaudz":12033,"ĠsÄģcies":12034,"Å¡orÄ«t":12035,"ĠgÄģjis":12036,"Ġneil":12037,"Äģkam":12038,"Ġizlai":12039,"iets":12040,"ement":12041,"Ġaizkav":12042,"Ġgari":12043,"Ġikgad":12044,"inÄģmies":12045,"droÅ¡Ä«bas":12046,"Ġvieglu":12047,"braucÄģm":12048,"ĠsprÄģdz":12049,"ĠaplikÄģcijÄģm":12050,"ĠtreniÅĨiem":12051,"ĠgrozÄ«jumi":12052,"Ġsmagu":12053,"ĠdzÄ«vokÄ¼u":12054,"ĠprivÄģto":12055,"Ġmuguru":12056,"ĠaÄ£entÅ«ru":12057,"Ġzirgu":12058,"ĠsamaksÄģt":12059,"ĠrelatÄ«vi":12060,"Ġfantastiski":12061,"Ġpagalam":12062,"Ġceturtdien":12063,"ĠdominÄĵ":12064,"Ġliene":12065,"ĠpriekÅ¡stats":12066,"ĠigauÅĨu":12067,"kultÅ«ras":12068,"youtube":12069,"ĠÄĵnu":12070,"ĠvaÄ¼":12071,"ĠnÄ«d":12072,"Å«Å¡anu":12073,"erÄ£":12074,"Ġuzc":12075,"Ġlaime":12076,"trÅ«kst":12077,"Ġpaslud":12078,"Ġpirmajam":12079,"ĠjaunÄģkÄģs":12080,"ĠlietoÅ¡anÄģ":12081,"Ġnudien":12082,"labs":12083,"sardz":12084,"ĠuzskatÄģmi":12085,"ĠatklÄģju":12086,"ĠrÄģdÄ«tÄģjs":12087,"ĠkÄģrlis":12088,"Ġklienta":12089,"ĠsazinÄģties":12090,"andra":12091,"ĠaparÄģtu":12092,"ĠizstÄģde":12093,"ĠbÄģze":12094,"Ġizstaig":12095,"ĠgÅ«gl":12096,"Ġfragm":12097,"05":12098,"Ġmest":12099,"ĠdÅ«r":12100,"Ġnofotograf":12101,"dzird":12102,"Äģjams":12103,"Ġlaid":12104,"tsar":12105,"opol":12106,"oze":12107,"Ġkaroti":12108,"lass":12109,"Ġmarket":12110,"gala":12111,"ĠotrkÄģrt":12112,"liela":12113,"piest":12114,"maija":12115,"Ġkrievija":12116,"paliek":12117,"ĠizpildÄ«t":12118,"ĠpatÄĵriÅĨÅ¡":12119,"ĠatkarÄ«ga":12120,"php":12121,"Ġpulkstenis":12122,"Ġbibliot":12123,"ĠsÅ«tÄ«t":12124,"ĠceltniecÄ«bas":12125,"Ġsestdienas":12126,"ĠsubjektÄ«v":12127,"lej":12128,"watch":12129,"Ġnopl":12130,"Ġari":12131,"ĠpiegÄģj":12132,"vara":12133,"Ġhim":12134,"ĠsÄģkam":12135,"inÄģtus":12136,"ĠskaistÄģ":12137,"ĠÄģrsti":12138,"iedza":12139,"Ġorganisms":12140,"ursquare":12141,"Ġdzimum":12142,"Ġieraksti":12143,"ĠaugstumÄģ":12144,"ĠzaudÄĵjumu":12145,"ĠattÄĵls":12146,"ĠaprÄ«lÄ«":12147,"Ġsinep":12148,"ĠilgstoÅ¡i":12149,"ĠnestrÄģdÄģ":12150,"deputÄģ":12151,"Ġlodz":12152,"Å«Å¡ana":12153,"app":12154,"Ġcin":12155,"ĠapÅ¡aub":12156,"ĠvisumÄģ":12157,"Ġkoal":12158,"Ġpirmdien":12159,"ĠiegÅ«s":12160,"Ġatrak":12161,"Ġsekm":12162,"ĠlasÄ«jis":12163,"ĠlabÄģkie":12164,"ĠattiecÄ«gajÄģ":12165,"ĠjÄģsaprot":12166,"Ġ06":12167,"Ġdatumu":12168,"Ġglud":12169,"Ġrinda":12170,"ĠlaimÄ«gs":12171,"nepiecieÅ¡":12172,"ĠtÄģlruÅĨa":12173,"ĠÄģtru":12174,"Ġdeivid":12175,"odroÅ¡ina":12176,"47":12177,"].":12178,"deg":12179,"tÄ«k":12180,"Ä«rÄ«":12181,"ĠvÄģku":12182,"tÄģt":12183,"krÄ«t":12184,"ĠlasÄ«tÄģjs":12185,"Ġjebkad":12186,"iniekus":12187,"ĠmazÄģkÄģs":12188,"Ġprofils":12189,"Ġgrupai":12190,"Ġpiecdesmit":12191,"skola":12192,"ĠrÄģdÄ«t":12193,"ĠpozÄ«cijas":12194,"Ġdokuments":12195,"Ġ1999":12196,"Ġskaitlis":12197,"ĠkartupeÄ¼iem":12198,"ĠskaÅĨa":12199,"ĠseriÄģla":12200,"ĠiekÄ¼auts":12201,"ĠakmeÅĨiem":12202,"ĠfrancijÄģ":12203,"ĠkritÄĵrijiem":12204,"ĠÄ£eogrÄģf":12205,"Ġvinn":12206,"Ġsaspring":12207,"daÄ¼":12208,"eet":12209,"igan":12210,"kin":12211,"virs":12212,"Ġvij":12213,"ĠvaÅ¾":12214,"alu":12215,"Ġjoks":12216,"ÄģjÄģmies":12217,"orit":12218,"Ġ--":12219,"ĠpalÅ«k":12220,"Ä«nus":12221,"entil":12222,"Ġpaveras":12223,"Ġpiedurk":12224,"ĠdarÄ«jumu":12225,"galÄģ":12226,"ĠÄ£er":12227,"ĠÄĵdieniem":12228,"Ġministriju":12229,"ĠsolÄ«ja":12230,"ĠÄĵrta":12231,"auze":12232,"ĠsaldÄĵjuma":12233,"malÄģ":12234,"Ġdokumentiem":12235,"ĠÅ¾urnÄģls":12236,"ĠskanÄĵja":12237,"skaidrs":12238,"Ġelementiem":12239,"apziÅĨas":12240,"ĠmatemÄģtikas":12241,"31":12242,"Ġ)":12243,"iestu":12244,"ise":12245,"adi":12246,"erland":12247,"Ġizredz":12248,"eika":12249,"ĠspÄģÅĨu":12250,"Ġdaudzos":12251,"ĠjÄģies":12252,"aucÄģs":12253,"Ġaugt":12254,"Ġ38":12255,"plauk":12256,"Ġass":12257,"cerams":12258,"ĠvajadzÄ«gas":12259,"ĠsieviÅ¡Ä·":12260,"Ġtelefoni":12261,"Ġtehniski":12262,"ĠpÄĵteris":12263,"ĠnodroÅ¡inot":12264,"Ġkrieviju":12265,"Ġindeks":12266,"nekÄģ":12267,"Ġieguvis":12268,"Ġaizmirsu":12269,"Ġelement":12270,"ĠapmeklÄĵtÄģji":12271,"Ġprakse":12272,"ĠiekÄ¼auti":12273,"ĠcÅ«kas":12274,"ĠizpauÅ¾as":12275,"Ġtarifu":12276,"Ġnato":12277,"Ġjaunatnes":12278,"ĠilgtermiÅĨa":12279,"09":12280,"tml":12281,"ĠsÄģrt":12282,"ĠnÄģcis":12283,"anÄįu":12284,"Ġlol":12285,"ĠbeÄ¼Ä£":12286,"ĠuzzÄ«m":12287,"ĠuzvÄģra":12288,"ĠpaÄģtr":12289,"Ġjaunos":12290,"ĠgarlaicÄ«gi":12291,"andu":12292,"ĠsaraÅ¾":12293,"ieres":12294,"ĠpriekÅ¡statu":12295,"ĠskolotÄģjs":12296,"Ġkalns":12297,"nÄģkamÄģ":12298,"ĠneizbÄĵg":12299,"Ġkoled":12300,"ĠsociÄģli":12301,"ĠatÅ¡Ä·irÄ«bu":12302,"ĠatklÄģts":12303,"ĠkonkrÄĵtas":12304,"ĠrobeÅ¾Äģm":12305,"ĠapmeklÄĵjuma":12306,"ĠizglÄģb":12307,"ĠÄĵka":12308,"Ġresursiem":12309,"ĠsertifikÄģcijas":12310,"ĠjanvÄģrÄ«":12311,"ĠpeÄ¼ÅĨas":12312,"Ġkausa":12313,"Ġekskluz":12314,"Ġkundze":12315,"ĠpriekÅ¡likumus":12316,"ĠiepatikÄģs":12317,"bag":12318,"meni":12319,"ĠsÄģc":12320,"atz":12321,"alai":12322,"ĠarÄģb":12323,"ĠizbrÄ«":12324,"ĠzinÄģtu":12325,"ĠpÄģrp":12326,"eiki":12327,"Ġspir":12328,"ĠkrÅ«":12329,"tÄģju":12330,"ĠdarbÄ«bÄģm":12331,"Ġnesap":12332,"ĠaugÄ¼":12333,"Ġieteica":12334,"Ġiekais":12335,"ĠlapÄģs":12336,"ĠjebkÄģd":12337,"Ġvakaram":12338,"Ġbrauca":12339,"ĠbraucienÄģ":12340,"kÄģdreiz":12341,"ĠpatiesÄ«bu":12342,"ĠnotikuÅ¡o":12343,"marta":12344,"ĠtehnoloÄ£ija":12345,"Ġdatums":12346,"ĠpareizÄģk":12347,"ĠÄ·erties":12348,"pagatav":12349,"ĠÅ¡aubas":12350,"ĠsmarÅ¾as":12351,"Ġinvent":12352,"Ġjuridisko":12353,"Ġprakses":12354,"Ġizpratni":12355,"ĠteÄģtrÄ«":12356,"ĠbÄģzi":12357,"ĠsliktÄģk":12358,"300":12359,"46":12360,"gÄģm":12361,"hm":12362,"iÅ¾as":12363,"miÅĨÄģ":12364,"Ġatstar":12365,"Ġaprun":12366,"ogiem":12367,"ido":12368,"Ġlabumu":12369,"Ġstikl":12370,"ilda":12371,"ĠdomÄģjot":12372,"efic":12373,"ĠvÄĵrs":12374,"dzÄ«ves":12375,"ĠmaksÄģtÄģj":12376,"ĠuzÅĨÄĵmÄĵji":12377,"ĠÄ£imenÄĵm":12378,"ĠaktÄ«vu":12379,"ĠaugstÄģko":12380,"konkr":12381,"ĠsÄĵrija":12382,"ĠiedomÄģjies":12383,"ĠkopÄĵjais":12384,"Å¡ÄģdÄģ":12385,"Ġklubu":12386,"ĠsagaidÄ«ja":12387,"ĠsastÄģvdaÄ¼u":12388,"ĠkonferencÄĵ":12389,"Ġmedijos":12390,"ĠstadijÄģ":12391,"pÄĵrn":12392,"Ġpartneriem":12393,"iedzÄ«v":12394,"autr":12395,"auja":12396,"Ġlos":12397,"ali":12398,"Ġroc":12399,"Ġjauku":12400,"ĠgadÅ¾":12401,"ĠpÄĵcÄģk":12402,"Ġjaunums":12403,"ĠsÄģkties":12404,"Å«ks":12405,"Ġpusdien":12406,"ĠbÅ«tisku":12407,"Ġskata":12408,"ĠmÄĵroga":12409,"Ġwe":12410,"ĠÅ¾Å«r":12411,"Ġatsvaidz":12412,"Ġorganizatori":12413,"margar":12414,"ĠtreÅ¡dien":12415,"slim":12416,"ĠnepiecieÅ¡amos":12417,"Ġmaize":12418,"ĠkristÄ«ne":12419,"Å¡Äģds":12420,"ĠgÄģjiens":12421,"Ġserveri":12422,"Ġizpratne":12423,"Ġpielej":12424,"Ġpleciem":12425,"ĠjÄĵdziens":12426,"Ġizstiep":12427,"ĠmeklÄĵjumos":12428,"lmt":12429,"popul":12430,"rat":12431,"Ġei":12432,"Ġpek":12433,"ĠbÄģrd":12434,"Ä£i":12435,"oÅ¡ajai":12436,"ĠkriÅ¡":12437,"Ġaugsti":12438,"Ġkarstu":12439,"ĠinteresÄĵm":12440,"Ġmart":12441,"ĠkÄģrto":12442,"ĠgadÄ«jÄģs":12443,"ĠmaksÄģja":12444,"tÄģvok":12445,"Ġmatr":12446,"ĠuzskatÄ«ts":12447,"ĠmÄĵÄ£inÄģjums":12448,"baltic":12449,"Ġnotikuma":12450,"ĠierakstÄ«t":12451,"ĠkontrolÄĵ":12452,"ĠsÄ«ki":12453,"Ġtilts":12454,"ĠÄ¼autu":12455,"ĠpierÄģda":12456,"Ġpresti":12457,"ĠizjÅ«tu":12458,"ĠzinÄģtniskÄģs":12459,"maize":12460,"jÅ«lija":12461,"ĠsÄĵkl":12462,"Ġplatforma":12463,"Ġmaskavas":12464,"Ġnazi":12465,"pieÅ¾":12466,"Åį":12467,"ĠpuÅ¡":12468,"Ġpaul":12469,"Ġday":12470,"indz":12471,"ĠpieÅĨÄĵma":12472,"Ġgrauz":12473,"rÄ«k":12474,"ĠlÄ«dztiesÄ«bas":12475,"ĠsÄģktu":12476,"ĠminÅ«ti":12477,"ĠpavÄĵrs":12478,"encÄĵm":12479,"Ġsader":12480,"Ġaivars":12481,"ĠkÄģpt":12482,"ĠkuÅĹ":12483,"ĠfiziskÄģ":12484,"ĠapgÅ«st":12485,"ĠfinansÄĵjums":12486,"Ġsegas":12487,"ĠmÄģsu":12488,"ĠapstrÄ«d":12489,"Ġgeoc":12490,"ĠdecembrÄ«":12491,"promocijas":12492,"nedÄĵÄ¼as":12493,"ĠidentitÄģtes":12494,"estere":12495,"ĠmÄĵbeles":12496,"dÄ«v":12497,"Ð¼":12498,"Ġpauda":12499,"aiÅĨu":12500,"ĠmÄģl":12501,"Ġdsl":12502,"omp":12503,"ĠkaÄ·is":12504,"Ġfabr":12505,"tram":12506,"ulÄĵt":12507,"Ġreg":12508,"Ġstambul":12509,"Äģnos":12510,"Ġgarums":12511,"Ġradies":12512,"vÄĵlas":12513,"ĠturpinÄģjums":12514,"ĠnetÄ«r":12515,"ĠpiecÄģm":12516,"ĠÄĵrts":12517,"ĠpozÄ«ciju":12518,"ĠmaiÅĨa":12519,"Ġfaktoru":12520,"ĠnaktÄ«s":12521,"ĠelektroniskÄģ":12522,"Ġatdot":12523,"Ġbalstoties":12524,"Ġkategorijas":12525,"Ġaugusta":12526,"ĠpircÄĵju":12527,"Ġetn":12528,"Ġasinsv":12529,"Ġsapulc":12530,"ievÄĵro":12531,"ĠkinoteÄģtros":12532,"85":12533,"funk":12534,"kun":12535,"Ġost":12536,"Ġdesm":12537,"Ġnomas":12538,"ĠrÅ«t":12539,"ĠatÄ¼Äģv":12540,"Ġiestud":12541,"Ġstie":12542,"ĠpaÅ¡us":12543,"rakstÄ«t":12544,"Ġradusies":12545,"ĠpriekÅ¡nes":12546,"ĠsajÅ«tÄģm":12547,"ĠmedÄ«bu":12548,"ĠpasÄģkumos":12549,"Ġvaldis":12550,"ĠpÄģrslÄĵg":12551,"Å«gt":12552,"ĠkÄ¼Å«dÄģm":12553,"Ġkrastu":12554,"Ġsapratis":12555,"tulk":12556,"Ġnianses":12557,"ĠpÄģrkaisa":12558,"oterap":12559,"],":12560,"lija":12561,"way":12562,"auru":12563,"aulÄĵ":12564,"Ġdota":12565,"Ġben":12566,"ojoÅ¡Äģ":12567,"Ġpierast":12568,"Äģlajiem":12569,"skal":12570,"Ġlabais":12571,"Ġnepl":12572,"uÅ¡Äģm":12573,"istÄĵ":12574,"ture":12575,"Ġkatal":12576,"Ġkarsts":12577,"Ġnoteikumos":12578,"ĠpretrunÄģ":12579,"Ġilgas":12580,"Å¡Ä·iras":12581,"Ġsajauk":12582,"ĠkrÄģsnÄ«":12583,"Ġtaisni":12584,"ĠpieprasÄ«jumu":12585,"ercuk":12586,"ĠziemassvÄĵtkiem":12587,"Ġberl":12588,"ĠorientÄĵ":12589,"ĠbibliotÄĵku":12590,"nemaz":12591,"Ġgumijas":12592,"etooth":12593,"ciÅĨas":12594,"han":12595,"tver":12596,"zil":12597,"asa":12598,"atnÄĵ":12599,"ĠlÅ«z":12600,"Ġmok":12601,"ĠnelÄ«dz":12602,"Ġnogr":12603,"ĠkaÄ·":12604,"Å¾el":12605,"ĠkÄģzu":12606,"Ġjausmas":12607,"trÅ«d":12608,"Ġaizskr":12609,"aidi":12610,"skatoties":12611,"Ġsmird":12612,"ĠplÄģnus":12613,"glez":12614,"ÄĵnÄģm":12615,"ĠsaistÄģs":12616,"ĠmeÅ¾on":12617,"Ä¼aujas":12618,"ĠslimÄ«ba":12619,"Ġtaisa":12620,"ĠoperÄģciju":12621,"ĠgrozÄ«jumus":12622,"bÄĵrniem":12623,"ĠuztvÄĵr":12624,"ĠpublicÄĵt":12625,"Ġ1998":12626,"ĠizjÅ«tas":12627,"punktu":12628,"Ġtauki":12629,"vajag":12630,"ĠpaÅĨÄĵmu":12631,"ĠvaroÅĨu":12632,"Ġmedijiem":12633,"ĠÄ£eniÄģl":12634,"ĠsertifikÄģtu":12635,"Ġneizdodas":12636,"ĠminerÄģl":12637,"Ġrekonstruk":12638,"Ġamazon":12639,"ĠpauÅ¾":12640,"ĠnospÄĵl":12641,"Ġpieturas":12642,"Ġaplis":12643,"Ġpuika":12644,"ĠÅ¡Ä·ist":12645,"ĠpakÄ¼aut":12646,"nÄ«cÄģm":12647,"Ġkalni":12648,"Ġgatavojas":12649,"Ġgalvenajiem":12650,"ĠsistÄĵmai":12651,"ĠmeÅ¾os":12652,"Ġmiljar":12653,"Ġmiljard":12654,"ĠpieauguÅ¡o":12655,"ĠaugstÄģka":12656,"ĠÄģdai":12657,"ĠpriecÄģties":12658,"Ġsmags":12659,"Ġatrodami":12660,"Ġmuzejs":12661,"pÄĵdÄĵjais":12662,"ĠuniversitÄģtÄĵ":12663,"ĠtwitterÄ«":12664,"ĠnosacÄ«jumi":12665,"Ġspilgti":12666,"jautÄģjums":12667,"Ġpulveri":12668,"ĠatdzesÄĵ":12669,"Ġplauktos":12670,"56":12671,"bÄ¼":12672,"kod":12673,"zaud":12674,"ÄĵÅ¾as":12675,"Ġdosies":12676,"Äģrais":12677,"Ġparks":12678,"ĠÅ¡ej":12679,"ĠpaceÄ¼":12680,"iti":12681,"Ġbeta":12682,"ids":12683,"akstu":12684,"Ġbris":12685,"Ġlietojam":12686,"nebija":12687,"smÄĵm":12688,"krÄĵs":12689,"Ġrakstot":12690,"mÄĵra":12691,"ierus":12692,"Ġslin":12693,"ĠradÄ«ts":12694,"ĠpilnÄ«gs":12695,"kopÄĵj":12696,"Ġprodukcijas":12697,"Ġpadomu":12698,"ĠparedzÄĵto":12699,"ĠmeÅ¾i":12700,"Ġbarot":12701,"ĠdzirdÄĵju":12702,"ĠatseviÅ¡Ä·a":12703,"Ġupi":12704,"Ġceturto":12705,"Ġout":12706,"ĠnÄģve":12707,"ĠnormatÄ«vajiem":12708,"ĠstruktÅ«ra":12709,"ĠzinÄģtnisko":12710,"ĠstaigÄģ":12711,"ĠsiÅ¾etu":12712,"oviÄįa":12713,"Ġieraugot":12714,"ĠrehabilitÄģcijas":12715,"ĠÅ¡inÄ«":12716,"Ġexplor":12717,"gus":12718,"inskis":12719,"Ġneju":12720,"Ġnosm":12721,"Ġrais":12722,"tÄģdi":12723,"Ġuzbr":12724,"ĠtroÄ¼":12725,"likumÄģ":12726,"ĠdzÄ«vniekiem":12727,"ĠsaskÄģr":12728,"Ġtiekam":12729,"Äģksim":12730,"ĠvidÄĵjÄģs":12731,"Ġstarts":12732,"ĠpagÄģjis":12733,"ĠÄ·im":12734,"Äĵnus":12735,"Ġ64":12736,"Ġgaisot":12737,"ĠiedzÄ«votÄģjus":12738,"Ġmiris":12739,"daÅ¾reiz":12740,"Ġrindu":12741,"inÄģtÄģjiem":12742,"ĠbiÅ¡u":12743,"ĠgrÅ«tniecÄ«bas":12744,"piedod":12745,"ĠatkÄģrtot":12746,"Ġkreiso":12747,"Ġveda":12748,"ĠrestorÄģnÄģ":12749,"ĠsakÄģrtot":12750,"istabÄģ":12751,"Ġapaviem":12752,"attiecÄ«gi":12753,"bauskas":12754,"ĠinstitÅ«cijÄģm":12755,"Ġsergejs":12756,"ĠvalmierÄģ":12757,"Ġtrolejb":12758,"uto":12759,"Ġvara":12760,"Ġpatr":12761,"grÅ«ti":12762,"ĠjaunajÄģm":12763,"Ġattap":12764,"ĠaugÄ¼i":12765,"ĠaugÅ¡as":12766,"off":12767,"Ġsaik":12768,"dzÄ«ve":12769,"ĠÄ·ieÄ£":12770,"Ġnoraid":12771,"ĠnozÄ«mÄ«gs":12772,"Ġopt":12773,"Ġveikaliem":12774,"Ġmelod":12775,"Ġkrieviski":12776,"ĠierakstÄģ":12777,"ĠpÄģrliecinÄģt":12778,"ĠsÄĵdes":12779,"ĠaktuÄģli":12780,"ĠmaijÄģ":12781,"ĠaukstÄģ":12782,"Ġkafija":12783,"pretÄ«":12784,"ĠpasÅ«tÄ«t":12785,"ĠvisÄģdus":12786,"ĠrepublikÄģ":12787,"ĠrealitÄģtes":12788,"ĠpasniegÅ¡anas":12789,"Ġnemanot":12790,"Ġnieka":12791,"Ġtelekomun":12792,"38":12793,"deb":12794,"atbilst":12795,"Ġdin":12796,"Ġizskr":12797,"ĠÅ¡ad":12798,"ĠÅ¡or":12799,"Ġieiet":12800,"uno":12801,"Ġkrita":12802,"eido":12803,"visvairÄģk":12804,"Ä«niem":12805,"Ġizdod":12806,"pÄģrbaud":12807,"ÄĵÄ£ina":12808,"metÄģ":12809,"Ġblogi":12810,"ĠiepriekÅ¡Äĵjos":12811,"ĠprojÄģm":12812,"ĠmÄĵÄ£inu":12813,"sveic":12814,"ĠapkÄģrtÄĵjo":12815,"ĠpÄģrbauda":12816,"Ġdraudzeni":12817,"ĠÄģdÄģ":12818,"2013":12819,"ĠnaktsmÄ«t":12820,"ĠdeputÄģts":12821,"ĠklubÄģ":12822,"ĠzvaigÅ¾ÅĨu":12823,"Ġatrastu":12824,"sievietes":12825,"Ġzibsp":12826,"ĠjÅ«lija":12827,"nokia":12828,"ĠatgrieÅ¡anÄģs":12829,"Ġbbc":12830,"nat":12831,"Ġainas":12832,"Ġsiena":12833,"Ġlent":12834,"Ġriga":12835,"ords":12836,"Ġproz":12837,"ekÄ¼iem":12838,"Ġgru":12839,"ĠiesÄģkt":12840,"niekÄģ":12841,"spot":12842,"Ġbaltas":12843,"ĠizmaksÄģ":12844,"ĠpatÄ«kamu":12845,"ĠnezinÄģja":12846,"Ġaktieru":12847,"ĠbarÄ«bas":12848,"ĠkÄģpums":12849,"Ġsaucas":12850,"ĠÅ¾urnÄģlÄģ":12851,"Ġpusmaratons":12852,"ĠtemperatÅ«rÄģ":12853,"Ġroberts":12854,"Ġstadion":12855,"ĠlocekÄ¼i":12856,"salÄ«dzinot":12857,"pozitÄ«v":12858,"Ġarodbiedr":12859,"pur":12860,"sai":12861,"zes":12862,"ĠkÄģrd":12863,"ank":12864,"Ä¼aus":12865,"Ġcr":12866,"Ġapjau":12867,"Ġvienot":12868,"Ġ39":12869,"plus":12870,"ĠsekÄģm":12871,"Ġieklaus":12872,"ĠparÄģdÄ«ba":12873,"Ġorganisma":12874,"ĠvienmÄĵrÄ«gi":12875,"Ġparasts":12876,"Ġteiks":12877,"ĠekrÄģniem":12878,"austies":12879,"Ġkomisiju":12880,"ĠpiedzÄ«vojumiem":12881,"ĠspÄĵcÄ«ga":12882,"ĠtukÅ¡a":12883,"Ġsaprotam":12884,"Ġbalsis":12885,"rezum":12886,"programmu":12887,"Ġneticami":12888,"Ġtrauku":12889,"ĠmuskuÄ¼u":12890,"izslÄĵgts":12891,"cir":12892,"rita":12893,"ton":12894,"Ġpin":12895,"Å¡al":12896,"Ġnic":12897,"aukÄģ":12898,"Ġlaz":12899,"isi":12900,"esot":12901,"ĠpieÅ¡":12902,"itÅ«":12903,"Ġgriest":12904,"ĠmÄģjsaim":12905,"kartes":12906,"ĠvadÄ«bu":12907,"Ġiekas":12908,"pastÄģv":12909,"Ġikt":12910,"inÄģmi":12911,"Ġtehnika":12912,"Ġneiztur":12913,"Ġneizprat":12914,"agram":12915,"braucu":12916,"ĠspÄĵki":12917,"ĠmÄ«las":12918,"Ġietekmes":12919,"otrais":12920,"ĠapstiprinÄģja":12921,"ĠapvienÄ«bas":12922,"ĠbaznÄ«cu":12923,"htc":12924,"ĠcÅ«ku":12925,"izmantojot":12926,"Ġbluetooth":12927,"jÄģpie":12928,"snieg":12929,"Ġizbraukt":12930,"ieta":12931,"Ġapet":12932,"Ġzau":12933,"ĠkÄģz":12934,"Ġjaudu":12935,"Ä«nai":12936,"Ġham":12937,"maÅĨu":12938,"upes":12939,"ĠÄ·Ä«":12940,"Ġskati":12941,"ĠkÄ¼Å«tu":12942,"ĠkrÄģsns":12943,"Ġizsaka":12944,"ĠuzsvÄĵr":12945,"ĠnodroÅ¡inÄģÅ¡anai":12946,"ĠzÄ«molu":12947,"Ġpapildina":12948,"ĠiegÄģdei":12949,"Ġcerams":12950,"Ġdokumenta":12951,"Ġsaruna":12952,"Ġaktualiz":12953,"pilda":12954,"ĠÄ¼aujot":12955,"ĠdziedÄģt":12956,"ĠsmilÅ¡":12957,"pretim":12958,"ĠseÅ¡as":12959,"Ġkaklu":12960,"ĠizmaksÄģm":12961,"ĠlaiciÅĨu":12962,"programmas":12963,"ĠĉĉĉĉĠĉĉĉ":12964,"ĠaromÄģts":12965,"ĠnopÄĵrkam":12966,"Ġskulpt":12967,"speciÄģl":12968,"mp":12969,"menis":12970,"Ġtoni":12971,"Ġdruk":12972,"akal":12973,"Ġizlo":12974,"ĠkaÅ¾":12975,"Ġpielikt":12976,"ĠpÄģrÄĵjÄģm":12977,"Ġtast":12978,"Ġdarbav":12979,"news":12980,"Ġveidoja":12981,"uzman":12982,"ĠrunÄģj":12983,"ĠnozÄ«mÄ«gu":12984,"ĠsadaÄ¼a":12985,"Ġteras":12986,"Ġveselas":12987,"Ġmelns":12988,"ĠspeciÄģliste":12989,"Ġgliem":12990,"ĠpaziÅĨojums":12991,"lapas":12992,"ĠanalÄ«zi":12993,"ĠveltÄ«t":12994,"ĠÅ¡okolÄģdi":12995,"ĠcitÄģdÄģk":12996,"har":12997,"lÄ«g":12998,"Ġsilv":12999,"Ġtakt":13000,"Ġda":13001,"ery":13002,"oriÄ£":13003,"Äĵtajam":13004,"ojoÅ¡Äģs":13005,"ĠzÄ«l":13006,"Ä£er":13007,"ĠpasÄĵd":13008,"Äģnam":13009,"vÄĵrs":13010,"Ġhans":13011,"ĠdomÄģta":13012,"krekl":13013,"Ġraksturu":13014,"ĠizdomÄģ":13015,"Ġbalsu":13016,"Ġradik":13017,"ĠlapiÅĨas":13018,"oloÄ£iski":13019,"ĠsaÅĨemot":13020,"tautas":13021,"ĠbirÅ¾as":13022,"ĠvilcienÄģ":13023,"Ġklubs":13024,"Ġizvietot":13025,"Ġkauns":13026,"ĠapstÄģties":13027,"ational":13028,"Ġtestu":13029,"Ġslepen":13030,"telefons":13031,"Ġneaizmirst":13032,"ĠlabklÄģjÄ«bas":13033,"nacionÄģl":13034,"Ġij":13035,"Ġgor":13036,"ĠnoÄ·ert":13037,"ĠizspÄĵl":13038,"etiem":13039,"Ġapavi":13040,"Ġfu":13041,"ulÄ«":13042,"Ġdzen":13043,"Ġkris":13044,"Ġklau":13045,"vienlaikus":13046,"turpat":13047,"uzz":13048,"Ġneattiec":13049,"ĠÄ«paÅ¡o":13050,"Ġtelefonus":13051,"Ġnenop":13052,"ĠrÄģdÄ«tÄģji":13053,"ĠaizsargÄģj":13054,"ĠmobilÄģs":13055,"ĠmÄģkslinieks":13056,"Ġfaktori":13057,"Ġinfic":13058,"Ġkoncert":13059,"ĠmotÄ«v":13060,"ĠÄ¼aunu":13061,"Ġmetri":13062,"ĠuzÅĨemÅ¡anas":13063,"Ġjelgav":13064,"Ġvertik":13065,"ĠvisÄģdiem":13066,"ĠrealitÄģte":13067,"Ġknab":13068,"ĠsÄģniem":13069,"ĠgarastÄģvok":13070,"Ġfoursquare":13071,"atpakaÄ¼":13072,"Ġnolemts":13073,"ipÄĵj":13074,"plÄĵ":13075,"Ġĉ":13076,"Ġkot":13077,"alds":13078,"aju":13079,"Ġkravas":13080,"Ġpluss":13081,"vienÄ«gÄģ":13082,"Ä«sti":13083,"Ġnepamat":13084,"Ġjah":13085,"istiski":13086,"ĠdzÄ«vs":13087,"visus":13088,"Ġnesm":13089,"Ġgarn":13090,"Ġnodal":13091,"Ġkate":13092,"Ġsapni":13093,"ĠtamlÄ«dzÄ«gi":13094,"domÄģ":13095,"ĠsajÅ«t":13096,"ĠkrÄģsÄģm":13097,"ĠielÅ«g":13098,"Ġmiljons":13099,"Ġizcili":13100,"ĠsecÄ«bÄģ":13101,"Ġkupl":13102,"Ġtapis":13103,"ĠriteÅĨ":13104,"Ġservisiem":13105,"ĠspÄĵcÄ«gu":13106,"ĠvainÄ«gs":13107,"Ġstatistiku":13108,"ÂłĠÂłĠ":13109,"ĠsagÄģdÄģ":13110,"Ġdiagnost":13111,"Ġpvn":13112,"dam":13113,"naud":13114,"out":13115,"rodas":13116,"tieÅ¡":13117,"iekÄģrt":13118,"iskam":13119,"ĠsavÄģc":13120,"skan":13121,"Ġrec":13122,"ejÄģdi":13123,"Ġlabad":13124,"Ġhu":13125,"ĠdrÅ«":13126,"Ġpavilj":13127,"Ġsmejas":13128,"lasi":13129,"ĠsagaidÄģm":13130,"ĠÄ·Ä«nÄģ":13131,"Ġprocentus":13132,"Ġkompoz":13133,"ksnÄ«":13134,"ĠlÄ«menim":13135,"ĠatradÄ«sies":13136,"ĠÄ«ss":13137,"ĠnÄģkamajam":13138,"Ġsakara":13139,"ĠtekstÄģ":13140,"Ġnopietna":13141,"Ġlogi":13142,"Ġistaba":13143,"port":13144,"ĠlÄ«nija":13145,"ĠsvarÄ«gÄģkais":13146,"ĠbrokastÄ«m":13147,"ĠakadÄĵmijas":13148,"ĠaprÄ«kots":13149,"teiksim":13150,"Ġdiennakts":13151,"ĠskandinÄģvijas":13152,"ĠvÄģrtiem":13153,"acÄ«mredzot":13154,"Ġvirspus":13155,"ĠÅ¡ujmaÅ¡":13156,"ein":13157,"lÄĵk":13158,"post":13159,"Ð´":13160,"Ġkakao":13161,"Ġloks":13162,"Ġgmail":13163,"Ġuzpild":13164,"Ġpark":13165,"ĠprÄģm":13166,"ĠesoÅ¡ie":13167,"Ġkooper":13168,"eÄ¼Ä¼u":13169,"ĠjÄģstrÄģdÄģ":13170,"ĠjÄģzina":13171,"visÄģ":13172,"Ġneskr":13173,"vaic":13174,"ĠpavÄģr":13175,"Ġlikties":13176,"ĠsalÄģtiem":13177,"ĠbÅ«tÄ«ba":13178,"ĠbÅ«tisks":13179,"Ġpiemekl":13180,"ĠilÅ«z":13181,"Ġotrdien":13182,"Ġkalor":13183,"Ġpadomus":13184,"ĠmÄĵÄ£inot":13185,"ĠpÄģrstÄģvju":13186,"ĠatraduÅ¡i":13187,"ĠpÄģrsÅ«dz":13188,"Ġizpilddir":13189,"Ġstatuss":13190,"resp":13191,"Ġmaikl":13192,"ĠapziÅĨa":13193,"Ġinfekcijas":13194,"ĠpozitÄ«vas":13195,"Ġnoskaidrotu":13196,"ĠsoÄ¼us":13197,"ĠpilsÄĵtÄģm":13198,"Ġuzdot":13199,"velk":13200,"ĠnosacÄ«jumus":13201,"punkts":13202,"ĠkreisajÄģ":13203,"Ġkonferences":13204,"ĠlÅ«dza":13205,"dodamies":13206,"ĠatgÅ«t":13207,"ĠatlÄ«dzÄ«bu":13208,"ĠstruktÅ«rvien":13209,"Ġportug":13210,"58":13211,"dama":13212,"fiz":13213,"kaul":13214,"arez":13215,"Ġtenis":13216,"Ġliber":13217,"Ġbais":13218,"ijus":13219,"Ġizcep":13220,"Ġuztura":13221,"Ġcv":13222,"Å¾urn":13223,"Ġpro":13224,"Ġpierun":13225,"iskumu":13226,"ĠtikÄģm":13227,"Ġtobi":13228,"Ġbetona":13229,"Ġspogu":13230,"Ġlabiem":13231,"Ġpilni":13232,"ĠaugustÄģ":13233,"Ġstresa":13234,"Ġstruktur":13235,"ĠsarÄ«v":13236,"Ġmargar":13237,"ĠskolotÄģjiem":13238,"ĠabÄģs":13239,"ĠpiedÄģvÄģs":13240,"ĠgatavoÅ¡anas":13241,"Ġnezaud":13242,"ĠiekÅ¡ÄĵjÄģs":13243,"Ġziemu":13244,"Ġpiecpadsmit":13245,"Ġsuven":13246,"tÄģdu":13247,"Ġnopietn":13248,"ĠsaglabÄģ":13249,"Ġpolicijai":13250,"Ġtemps":13251,"ĠgrÅ«tÄ«bÄģm":13252,"ĠlokÄģ":13253,"ĠtemperatÅ«ras":13254,"Ġexpo":13255,"ĠdigitÄģlo":13256,"Ġsimptom":13257,"ĠizdzÄ«vot":13258,"ĠlielbritÄģnijÄģ":13259,"ĠneierobeÅ¾":13260,"Ġlamp":13261,"amÄ«ba":13262,"stÄ«ja":13263,"Äĵjamies":13264,"enr":13265,"akoties":13266,"ajs":13267,"abeig":13268,"ĠzÄĵns":13269,"ĠkoÅ¡":13270,"aizdevu":13271,"ĠdarbÄ«bai":13272,"Ġtrik":13273,"Ġhome":13274,"ĠpusdienÄģm":13275,"estÄĵt":13276,"Ġatrun":13277,"atoram":13278,"ĠmÄĵrÄ·u":13279,"ĠsvarÄ«gu":13280,"Ġveikali":13281,"ĠizdarÄ«jis":13282,"ĠizstrÄģdi":13283,"ĠskrÄĵjÄĵjs":13284,"ĠatklÄģÅ¡anas":13285,"ĠtreniÅĨÅ¡":13286,"ĠiegÄģdÄģjos":13287,"ĠdÄģrzeÅĨi":13288,"ĠstÄģstiem":13289,"ĠsecinÄģju":13290,"ĠplaÅ¡as":13291,"ĠnoskatÄ«jos":13292,"ĠnoslÄĵpum":13293,"Ġuzbru":13294,"Ġatrasties":13295,"Ġstatistika":13296,"ĠstratÄĵÄ£ijas":13297,"Ġsvaigs":13298,"ĠplanÅ¡etdatoru":13299,"Ġkonstrukt":13300,"ĠtÄ«rÄ«":13301,"Ġgredzen":13302,"ham":13303,"ĠÄĵÄ£":13304,"Ġpes":13305,"Ġseb":13306,"Ġdoto":13307,"Ġgav":13308,"ÄĵjuÅ¡Äģs":13309,"Ġlaivas":13310,"emÄ«ls":13311,"ĠplÄĵv":13312,"Ġakred":13313,"ĠinformÄĵt":13314,"Ġotrai":13315,"ĠlielÄģkajiem":13316,"ĠrunÄģts":13317,"Ġievilk":13318,"Ġcept":13319,"Ġavotiem":13320,"Ġ99":13321,"ĠÄ«sumÄģ":13322,"ĠreÄ£istrÄģciju":13323,"ĠjÄģni":13324,"Ġnopietnu":13325,"ĠziÅĨkÄģr":13326,"ĠpienÄģkumi":13327,"ĠizdomÄģja":13328,"Ġvilciena":13329,"ĠpanÄģkumus":13330,"ĠkvalitatÄ«vi":13331,"ĠrevolÅ«":13332,"ĠpiegÄģdes":13333,"ĠinteliÄ£":13334,"pagÄģjuÅ¡Äģ":13335,"ĠnavigÄģcijas":13336,"Ġkomitejas":13337,"mot":13338,"Ġpj":13339,"atgÄģd":13340,"Ġimigr":13341,"Ġlies":13342,"amajiem":13343,"ĠnostÄģd":13344,"Ġuzmet":13345,"Ġfit":13346,"ĠpÄģrm":13347,"Ġinese":13348,"inÄģtais":13349,"Ġklip":13350,"Ä«nÄģs":13351,"Ġatbil":13352,"Ġautoc":13353,"ĠnodÄĵv":13354,"Ġveci":13355,"ĠiegÄģdi":13356,"ĠpieslÄĵdz":13357,"Ġgatavas":13358,"ĠmÄģca":13359,"ĠprecÄĵm":13360,"Ġjebkuras":13361,"Ġuzdevumiem":13362,"ĠsÄĵÅ¾u":13363,"ĠnoderÄ«ga":13364,"ĠseptiÅĨi":13365,"Ġtransportu":13366,"ĠdÄ«vain":13367,"Ġsportisti":13368,"eiropÄģ":13369,"rezultÄģts":13370,"dara":13371,"oÅĨ":13372,"reÅ¾":13373,"uta":13374,"Ġpau":13375,"Ġikr":13376,"Ġdotu":13377,"Å«nas":13378,"ĠnerunÄģ":13379,"ekÄ¼i":13380,"Ġiej":13381,"ĠielÅ«k":13382,"Ġvista":13383,"itus":13384,"ĠkarstÄģ":13385,"ĠkartÄĵm":13386,"ĠvÄĵrien":13387,"ĠmÄģjai":13388,"ietÄģm":13389,"Ġ46":13390,"âĢľ.":13391,"ĠÄ«sÄģ":13392,"ĠpieredzÄĵ":13393,"Ġienaid":13394,"ĠtreniÅĨi":13395,"Ġjebkuram":13396,"ĠbiedrÄ«ba":13397,"Ġlogs":13398,"ĠpatÄĵriÅĨu":13399,"ĠpublicÄĵts":13400,"ĠemocionÄģli":13401,"ĠcienÄ«j":13402,"ĠintervijÄģ":13403,"ĠizraisÄ«ja":13404,"Ġnelaimes":13405,"ĠpeÄ¼ÅĨu":13406,"Ġpasniegt":13407,"ĠapmÄģcÄ«bas":13408,"ĠÅĨujorkas":13409,"mais":13410,"sig":13411,"Ġaina":13412,"Ġvul":13413,"Ġba":13414,"dzies":13415,"osp":13416,"Ġuzv":13417,"ÄģlÄĵ":13418,"unts":13419,"ulda":13420,"Ġinga":13421,"Ġkonta":13422,"Ġnepiet":13423,"Ġdaudzuma":13424,"ĠgarÄģs":13425,"Ġnedab":13426,"Ġbalk":13427,"Ġfiltr":13428,"Ġveiktas":13429,"Ġredzamas":13430,"past":13431,"ĠmaksÄģs":13432,"ĠlielÄģkÄģs":13433,"ĠzinÄģmi":13434,"ĠrÄ«ko":13435,"ĠrisinÄģjumiem":13436,"ĠgabaliÅĨus":13437,"ĠsarunÄģs":13438,"Ġteritorija":13439,"Ġkontaktu":13440,"Ġriteni":13441,"ĠmÄĵrÄ·im":13442,"ĠceturtajÄģ":13443,"Ġgudri":13444,"ĠraidÄ«jumu":13445,"Ġplecu":13446,"Ġmuls":13447,"ĠdzÄ«vojamÄģs":13448,"ĠkrÅ«tis":13449,"skrienot":13450,"Ġrekordu":13451,"Ġauzu":13452,"cuk":13453,"Ġ?":13454,"Ġsur":13455,"Ġiman":13456,"Ġjun":13457,"erot":13458,"ÄĵrÄĵ":13459,"Ġkokt":13460,"ogÄģm":13461,"Ġpaslikt":13462,"ĠaizÅĨÄĵm":13463,"Ġtrib":13464,"ĠpaÅ¡saprot":13465,"Ġnodeva":13466,"paredz":13467,"ĠdarÄ«ju":13468,"ĠdarÄ«tu":13469,"Ġierun":13470,"pirmie":13471,"Ġpietika":13472,"Ġaer":13473,"ĠmodeÄ¼i":13474,"ĠpasÄģkumam":13475,"ĠorganizÄģcijÄģm":13476,"ĠdÅ¾o":13477,"ĠvaldÄ«bai":13478,"ĠjÄģsam":13479,"Ġnemald":13480,"ĠklÄģtes":13481,"ĠierÄ«k":13482,"ĠsaldÄģ":13483,"ĠpÄģrvalde":13484,"koncer":13485,"Ġnumura":13486,"ĠizplatÄ«t":13487,"ĠtopÄģ":13488,"ĠveltÄ«ta":13489,"ĠpusmaratonÄģ":13490,"janvÄģr":13491,"ĠiepirkÅ¡anÄģs":13492,"Ġpurva":13493,"ĠpÄģrdomÄģm":13494,"Ġsadzird":13495,"ĠrestorÄģnu":13496,"ĠbÅ«dams":13497,"Ġebr":13498,"gaÄ¼u":13499,"mieg":13500,"nik":13501,"nej":13502,"som":13503,"ziv":13504,"Ã©":13505,"Ġkeb":13506,"arch":13507,"Ġizgriez":13508,"ĠuzstÄģj":13509,"Å¾us":13510,"Ġiera":13511,"Ġvaina":13512,"Ġviendab":13513,"ĠgrÅ«":13514,"Ä«sa":13515,"Ġbried":13516,"Ġhan":13517,"Ġputr":13518,"ĠsalÄģti":13519,"ĠpilnÄ«ga":13520,"ikseÄ¼u":13521,"Ġiemet":13522,"ĠvajadzÄ«bu":13523,"oloÄ£iskÄģ":13524,"Ġblogus":13525,"ĠÄĵdu":13526,"ĠbrÄ«vo":13527,"ĠsistÄĵmÄģm":13528,"ĠraÅ¾otÄģja":13529,"ĠdÅ¾eim":13530,"Ġsilta":13531,"ĠpaÅ¡valdÄ«bai":13532,"Ġautomob":13533,"Ġobjektiem":13534,"ĠlogÄģ":13535,"ĠslÄĵpni":13536,"Ġbauda":13537,"pÄĵdÄĵjos":13538,"Ġsmaids":13539,"ĠizstÄģdi":13540,"ĠdabÅ«j":13541,"ĠjÄĵdzienu":13542,"ĠitÄģlijÄģ":13543,"ĠpagÄģtnÄĵ":13544,"ĠbirojÄģ":13545,"sestdien":13546,"rai":13547,"ĠÄĵkÄģ":13548,"Ġluktur":13549,"Ġmeks":13550,"amajÄģ":13551,"ĠrotÄģj":13552,"Ġiejauk":13553,"ĠvÄĵlÄĵjos":13554,"inÄģjuÅ¡ies":13555,"Ä«stu":13556,"ĠjÄģievÄĵro":13557,"Ġjaunumus":13558,"ĠdaÅ¾Äģs":13559,"Ġakcija":13560,"Ġkatl":13561,"plkst":13562,"Ġsve":13563,"vents":13564,"ĠasiÅĨ":13565,"Ġtieslietu":13566,"ĠlabÄģkas":13567,"ĠjautÄģjuma":13568,"ĠadÄ«t":13569,"inÄģma":13570,"ĠattÄ«stÄ«ties":13571,"ĠdalÄģs":13572,"ĠpÄĵtÄ«t":13573,"ĠdÄģrgs":13574,"Ġburbu":13575,"ĠsiltÄģ":13576,"ĠatklÄģs":13577,"komis":13578,"ĠdraudzÄ«gi":13579,"Ġlaup":13580,"ĠsÄģpju":13581,"Ġprincipus":13582,"Ġ1997":13583,"ĠrotaÄ¼u":13584,"novembra":13585,"ĠlÄ«deri":13586,"Ġpazemes":13587,"Ġmiesas":13588,"ĠÅ¡urp":13589,"ĠokeÄģna":13590,"ĠinfrastruktÅ«ras":13591,"savilkums":13592,"sum":13593,"Å«na":13594,"advokÄģts":13595,"aplik":13596,"ĠizÅĨemt":13597,"ĠizbrÄ«n":13598,"Ġlabus":13599,"aÅ¾u":13600,"Ġbrilles":13601,"Ġjaunajam":13602,"Å¡Ä·Äĵrs":13603,"smar":13604,"ĠnosÄĵd":13605,"ĠpuÅ¡u":13606,"ĠanonÄ«m":13607,"Ġreizei":13608,"Ġsaf":13609,"ĠmÄĵsl":13610,"ĠnekÄģdus":13611,"ĠatÅ¡Ä·irÄ«gi":13612,"ower":13613,"ĠpÄģrliecinÄģti":13614,"tÄģdas":13615,"ĠsavienÄ«ba":13616,"Ġklientus":13617,"Ġsecina":13618,"ĠdatubÄģz":13619,"ĠaÄ£entÅ«rai":13620,"ĠlaimÄ«ga":13621,"Ġtraumas":13622,"ĠkrÄĵslÄģ":13623,"ĠinvestÄ«cijas":13624,"Ġcilts":13625,"ĠparalÄĵl":13626,"ĠeksÄģmenu":13627,"Ġcigaretes":13628,"ĠlielbritÄģnijas":13629,"ĠÄĵdamkarotes":13630,"Ġfenom":13631,"Ġogres":13632,"Ġventil":13633,"ĠtÄ«ra":13634,"ambor":13635,"onda":13636,"Ġiedeva":13637,"Ġstop":13638,"ope":13639,"uki":13640,"valitatÄ«v":13641,"ĠveidoÅ¡anu":13642,"ĠvÄĵrojama":13643,"ĠcenÅ¡oties":13644,"ĠÅ¡Ä·ips":13645,"Ġelpa":13646,"ĠvakariÅĨÄģm":13647,"ĠdeviÅĨdesmit":13648,"darbi":13649,"ĠsvarÄ«gas":13650,"Ġguva":13651,"Ġkaps":13652,"ĠdÄģvis":13653,"Ġposma":13654,"Ġgodam":13655,"Ġklausoties":13656,"omass":13657,"Ġpiekrita":13658,"ĠdeleÄ£":13659,"Ġrelj":13660,"ĠpÄģrvietoties":13661,"ĠuzvedÄ«bas":13662,"Ġzupas":13663,"meitenes":13664,"istabas":13665,"ĠorganismÄģ":13666,"Ġdizainparauga":13667,"ĠÅ¡Ä·Ä«rÄĵjtiesas":13668,"ĠpÅ«dercuk":13669,"faktiski":13670,"igr":13671,"ÃĹ":13672,"ÄģÅ¡u":13673,"Ġkp":13674,"Ġkaujas":13675,"Ġtaku":13676,"Ġlom":13677,"ĠrÄ«m":13678,"urb":13679,"ĠapÄĵst":13680,"ologu":13681,"Ġdarbosies":13682,"ices":13683,"edia":13684,"Ġplos":13685,"Ġklep":13686,"Ġgaldu":13687,"istikas":13688,"Ġinterpret":13689,"ĠvienkÄģrÅ¡Äģ":13690,"kaln":13691,"vÄĵrtÄĵjums":13692,"Ġkolek":13693,"simt":13694,"Ġdarbiniekus":13695,"ĠrobeÅ¾a":13696,"Ġobjektus":13697,"ĠmÄģkslinieki":13698,"ĠierobeÅ¾ot":13699,"Ġbalsot":13700,"ĠmelnÄģs":13701,"ĠizstÄģdÄĵ":13702,"ĠgalamÄĵr":13703,"ĠbÄ«stami":13704,"ĠpÅ«Å¡":13705,"tvnet":13706,"Ġremont":13707,"ĠnolÅ«kos":13708,"ĠiestÄģjas":13709,"ĠpagÄģtnes":13710,"attÄĵls":13711,"ĠneiespÄĵjami":13712,"Ġworld":13713,"Ġdaniel":13714,"atbalstÄ«ts":13715,"biznes":13716,"gurs":13717,"meln":13718,"pietiek":13719,"pauze":13720,"spÄĵc":13721,"vÄ«na":13722,"ĠÅ«":13723,"Ġvamp":13724,"Ġluk":13725,"Ġmem":13726,"iniem":13727,"Ġrih":13728,"ĠpÄģrv":13729,"Ġsark":13730,"ĠÄģrvalstÄ«s":13731,"Ä«dams":13732,"Ġsaits":13733,"ausmu":13734,"ĠÄįak":13735,"kara":13736,"Ġizmekl":13737,"Ġizveidojis":13738,"Ġneveic":13739,"Ġnemier":13740,"Ġspriedz":13741,"ĠpÄģrbaudi":13742,"starptaut":13743,"Ġeksot":13744,
[...]
