[PAD
[UNK]
[CLS]
[SEP]
[MASK]





!
"
#
$
%
&
'
(
)
*
+
,
-
.
/
0
1
2
3
4
5
6
7
8
9
:
;
=
>
?
@
A
B
C
D
E
F
G
H
I
J
K
L
M
N
O
P
Q
R
S
T
U
V
W
X
Y
Z
[
\
]
^
_
`
a
b
c
d
e
f
g
h
i
j
k
l
m
n
o
p
q
r
s
t
u
v
w
x
y
z
{
|
}
~


£
¤
§
¨
©
«
¬
­
®
°
±
²
³
´
µ
·
¸
¹
º
»
¼
½
¾
Á
Ä
Å
Æ
Ç
È
É
Í
Î
Ñ
Ó
Õ
Ö
×
Ø
Ú
Ü
Þ
ß
à
á
â
ã
ä
å
æ
ç
è
é
ê
ë
í
î
ï
ð
ñ
ó
ô
õ
ö
÷
ø
ú
û
ü
ý
Ā
ā
Ą
ć
Č
č
Ē
ē
Ė
ė
ę
Ğ
ğ
Ģ
ģ
Ī
ī
İ
ı
ĳ
Ķ
ķ
Ļ
ļ
Ł
ł
ń
Ņ
ņ
Ō
ō
ő
Œ
œ
ŕ
Ŗ
ŗ
ř
ś
Ş
ş
Š
š
Ū
ū
ű
Ų
ų
ź
ż
Ž
ž
ȃ
˚
˛
́
̄
̧
Κ
Π
Ω
ά
α
β
γ
ε
ζ
η
ι
κ
λ
μ
ν
ο
π
ρ
ς
σ
υ
χ
ω
ό
ύ
Ё
І
А
Б
В
Г
Д
Е
Ж
З
И
Й
К
Л
М
Н
О
П
Р
С
Т
У
Ф
Х
Ц
Ч
Ш
Щ
Ы
Э
Ю
Я
а
б
в
г
д
е
ж
з
и
й
к
л
м
н
о
п
р
с
т
у
ф
х
ц
ч
ш
щ
ъ
ы
ь
э
ю
я
ё
і
ї
न
ल
ि
ू
​
‑
–
—
―
‘
’
‚
“
”
„
†
•
…
‰
′
″
‼
⁰
€
℃
№
™
⅓
←
→
↓
↔
∂
−
∗
∞
≈
≠
≥
⊂
⌘
■
▪
▶
►
●
☺
♡
♥
❤
人
份
你
公
力
卐
司
吃
囧
國
子
宏
島
広
愛
慢
有
柔
肛
股
自
車
道
達
门
限
際
電




ﬁ
﻿
！
￫
�
##a
##m
##e
##l
##o
##s
##i
##b
##p
##u
##t
##v
##š
##n
##z
##ā
##j
##g
##r
##d
##k
##ē
##E
##N
##O
##V
##I
##T
##ī
##y
##ū
##f
##h
##ļ
##ņ
##c
##ž
##2
##
##P
##ģ
##x
##8
##0
##5
##7
##A
##F
##ķ
##w
##6
##°
##č
##M
##Z
##G
##L
##Ī
##B
##3
##R
##U
##C
##K
##Y
##S
##J
##D
##й
##W
##X
##с
##ё
##4
##Ē
##Ā
##Š
##1
##о
##д
##т
##в
##е
##р
##и
##õ
##9
##ä
##Ū
##ŗ
##q
##г
##а
##л
##к
##H
##з
##ь
##ō
##Е
##Т
##И
##¬
##у
##я
##̄
##ü
##ó
##н
##ц
##€
##п
##Ņ
##×
##ч
##Ž
##é
##м
##ы
##ш
##К
##Ķ
##Ļ
##ж
##á
##Ģ
##ö
##б
##å
##ı
##à
##ф
##島
##ė
##μ
##´
##х
##²
##Č
##А
##Й
##Ф
##Q
##™
##В
##Н
##̧
##Ü
##ъ
##﻿
##ş
##ç
##щ
##­
##˚
##ø
##ю
##è
##Л
##Ы
##ô
##
##ğ
##˛
##í
##ß
##ź
##®
##О
##З
##±
##ú
##ų
##Э
##É
##Ö
##ý
##î
##½
##â
##ń
##ë
##П
##Г
##́
##æ
##ő
##º
##力
##車
##Х
##С
##Ω
##�
##​
##
##ñ
##ê
##⁰
##►
##Б
##Ė
##Í
##λ
##ά
##κ
##α
##Ч
##ĳ
##Ğ
##İ
##Я
##Р
##ř
##≠
##ï
##ű
##ś
##ę
##
##Ä
##Д
##Ц
##©
##э
##達
##國
##際
##電
##子
##股
##份
##有
##限
##公
##司
##ã
##³
##⊂
##γ
##ο
##ρ
##门
##У
##∂
##ć
##û
##М
##→
##ї
##Ş
##¨
##Ю
##卐
##£
##道
##÷
##¹
##Ç
##ż
##ύ
##ζ
##ν
##η
##π
##ि
##न
##ू
##Ą
##Ŗ
##
##Å
##ȃ
##і
##υ
##σ
##ς
##
##Á
##ð
##Ñ
##慢
##吃
##œ
##ŕ
##Ш
##ł
##ε
##ι
##ό
##ie
##as
##ai
##ar
##an
##is
##au
##at
##st
un
##am
##ot
##es
##um
##ij
##in
##ik
##al
ne
##iem
##ad
##ās
no
ar
##er
##āk
##us
##ien
ir
##dz
##ēj
##ur
##ār
##ād
##ām
##āj
##en
##il
##tu
##ies
##īb
##et
##av
##iņ
iz
##ak
##īt
##os
uz
at
##āt
##īg
##ei
##ēr
##on
##ēt
par
##ir
##aj
ka
##om
##šan
##iet
##or
##iek
pr
##ek
##it
##oj
pie
ap
##el
##āl
pa
##ija
##ēl
##ab
vai
##tr
##em
kā
lai
arī
##iz
vis
##īj
jau
##isk
##ol
##ijas
kur
##īv
vien
##āc
##ais
kas
tik
pār
##od
##ēm
ie
var
##ums
sk
##im
##ūt
##ši
man
es
viņ
##ības
##ēc
to
##pr
##umu
##īdz
##ul
bet
ko
##ti
##az
tā
##dr
##ev
sav
##eik
pat
st
gad
##arb
##ts
##iel
dz
##ūs
gr
##ag
in
re
##un
##ok
##iju
##šu
bija
##sk
##iec
sp
##rī
##ta
##og
vēl
nav
##audz
##āv
au
##ajā
##ēs
##ību
##ēk
laik
##ej
##oš
##īgi
ies
##aļ
gan
kād
##šanas
##ec
tas
pas
##ināt
līdz
##id
##īm
##irm
##uma
##akst
##pēj
##ap
##atv
##ān
##eiz
lab
aiz
kr
##ic
darb
jo
##rau
##ams
##ob
##āju
##ārt
##mu
##aut
##ter
not
nek
##oti
liel
##umā
##ru
pēc
##ild
vair
##až
##iv
tad
##īk
##aid
pl
tikai
##alst
##eļ
##ez
##ed
##eid
nev
tr
Latv
##ant
##ēja
##ilv
pirm
kl
kon
##ep
##op
##ētu
##ināj
nep
##īn
tād
##kt
tur
##ain
##ijā
##ēd
##usi
sa
##ilvēk
jaun
maz
##īs
daudz
##oc
##ast
##ald
cit
##ent
##gr
##āp
izm
##ers
##oties
##ist
##lē
##ieg
liet
Un
cilvēk
##ib
att
##ība
ja
##ūr
##aud
##rād
##niek
##šanu
pal
dzīv
##ņem
dien
##ina
##dien
##vēr
kom
##skat
iespēj
tie
##pa
##ēju
##00
vairāk
pil
kad
sv
##est
sāk
##iekš
##uk
##šķ
##ūtu
gal
ļoti
inter
##aks
##ču
##lik
##ībā
##iāl
##kl
gar
##ļu
##orm
##ēn
šo
paš
##umi
##auk
##šana
##iev
##eic
##kr
##ekl
##gu
izv
nes
skai
viet
##ied
##ērn
daž
kaut
##oz
##īc
ier
jā
neb
atb
##ūk
##eb
##ācijas
būs
##īr
##iņu
##ens
##ajiem
##ion
##ac
veid
nos
##umiem
##iski
##ip
dom
##āja
savu
##edz
##ņēm
##inā
pam
lik
Es
atr
tiek
##ult
tu
kop
rakst
##iez
min
##īst
ned
##sm
te
##lu
##atu
##aču
aug
##umus
##ut
izd
##omēr
aut
##ier
bērn
##sp
Latvijas
##īgs
##ņu
##āks
##ma
##eikt
pied
pav
bez
nod
##ieš
##ēļ
##īja
valst
br
##uš
nu
vid
div
##mas
##itu
mūs
##ub
##li
##iņa
vēr
tās
sm
Bet
vec
##adz
##akar
pus
iet
kat
dr
str
Ja
##šanās
laikā
viņa
##ež
##īga
##and
##ogr
iek
fil
kar
##ājas
##form
sas
##gan
##īz
piem
##ekt
##āst
šķ
##up
##iedr
izmant
##nes
tam
īpa
##istr
##atav
viņš
tel
skr
sar
otr
būt
##itāt
Pr
##rīd
##ika
##rauc
##īties
##eit
##niec
visu
būtu
##ārd
pret
redz
##eš
##ud
##pl
##iņš
cen
##kār
##ami
##aist
##ādi
ār
reiz
gada
ceļ
##ven
##ni
##vien
##ku
sl
bl
##pēc
##īti
##iņas
daļ
vir
zem
##īd
##aul
##zīm
##evi
mēs
##šanai
##iež
##ef
##ig
##īgas
##las
priekš
##agad
##arp
##auj
ak
rad
##erson
##ov
apm
##akt
nāk
ek
Lai
##āciju
Man
##otāj
##uši
##ēģ
##nieg
##īgu
kam
##eg
##aš
##īts
##eig
grām
veik
piln
taču
vaj
##sti
##maz
##ator
Par
##kārt
Tā
pag
grib
##ikas
sag
or
##ajām
iel
##reiz
tomēr
##iedz
##ust
##ietu
interes
sak
varētu
##var
noteik
Vis
vienkār
bal
stu
šād
##atīv
viss
##ka
##oģ
##ama
esmu
ieg
inform
##lab
kārt
skat
##of
##ēts
##isko
##iens
##āli
##ots
##lēm
pak
dar
##ēram
mums
Tas
##aim
##aus
šī
sal
##eidz
pan
nevar
kādu
Iz
##aur
pad
##ācija
##ošanas
ties
##aun
Ar
##iešu
##dzīv
##aug
##pild
tika
##ju
##lg
##kur
20
labi
ātr
In
person
##ēst
##ait
##odas
##etr
vad
##oši
##otams
mēr
mani
sapr
viņu
##īgā
##ona
##sēt
pirms
##auc
##ties
##gl
las
##oja
lv
##aig
##inu
atk
starp
##ird
mūsu
##ītāj
rok
##ņa
##cer
sek
##pat
##ēdēj
an
nor
At
kuru
##ver
sam
##īta
mil
dažād
sat
##iks
piet
##āz
##eta
tagad
labāk
sab
200
viens
vārd
paz
##otu
valsts
tāl
##ūras
##stu
cik
iem
skol
##būt
##ūd
gadīj
##ing
Kā
##ātu
el
nekā
tāpēc
ats
vajadz
lap
##rakst
al
##ienu
vienu
St
##ogram
##āts
jaut
darba
Kr
Vai
##oloģ
attiec
##strād
##ons
māj
kāds
tieši
stāst
##ījās
##īl
pies
laiku
##šķir
siev
Latvijā
kurš
An
jeb
rez
##enc
##ijām
nop
##ojas
##ort
plān
##liet
##ūz
turp
neat
pamat
īpaš
##ojot
##ļa
lielāk
##ionāl
##nīc
ilg
##iecieš
mar
##ējās
##iskās
##žu
##hn
10
##priekš
maks
##mēr
##tur
ūd
##ojumu
val
ik
##iņā
##lai
grāmat
izvēl
nebija
uzņēm
nepiecieš
gadu
##kat
##vērt
##onu
piedāv
##inām
ac
##īju
Pēc
##ēta
tir
pārst
pol
##oju
##iniek
vīr
jautāj
##iena
##end
##ītu
biju
##ībām
vairs
nozīm
šis
spēl
kopā
Uz
##eju
pats
iespējams
katr
##iskā
##redz
palīdz
Ap
##man
parād
##vald
proc
blog
##iļ
gatav
##droš
saj
šajā
##niedz
vakar
id
run
##ināja
kv
##ēties
##ost
nov
##inās
kurā
##īgāk
##kst
vienkārši
viņi
ab
pēdēj
gadā
##ņi
##uz
liek
##la
##iku
##eni
atp
19
##ans
##ejas
##kar
iepriekš
##ēji
##ētāj
telef
sad
net
##nd
##istēm
Pirm
citu
spēk
program
##pār
augst
past
##ūst
##alp
kuras
iev
##lēg
##per
##dev
##stād
brīd
##ūp
##enes
med
attīst
atbild
rezult
kura
##usies
nel
dab
tuv
##unk
##asar
##ēšanas
visi
sabiedr
##ept
##šā
mēn
viena
##ind
patīk
##elt
stāv
ter
##mit
##odu
##esel
drau
kļ
skaidr
proj
organ
##tā
tehn
neiz
##eln
laika
##br
izskat
##ota
##ne
naud
##ks
prob
##odien
##amo
##umos
##le
tiem
pilsēt
##aliz
galven
No
sevi
dev
uzskat
##ēti
piek
dal
##ilst
as
##šas
Pat
##gal
##me
stund
nedaudz
ser
##ajos
##šanos
pras
sev
##ors
vērt
strād
##aiz
##vis
##iest
##aka
##oreiz
##ijai
izs
pir
caur
māc
##ātā
mat
##umam
atkal
##āku
problēm
dienas
##āti
##ējo
nen
vēst
pasāk
##iņi
lauk
##rīs
##amies
šīs
##cijas
ied
##ējā
##urs
bij
vismaz
krās
fin
cilvēki
vieg
##ajam
svar
##obež
##ūv
##ko
pārl
##nieku
nez
reģ
##īgo
##nu
sistēm
##eri
nosk
izveid
jūs
kal
Ir
mod
beig
pieej
saist
bild
##aules
kāda
##alitāt
vesel
##eru
latv
##inot
kuri
savas
##oto
##ņemt
##ošanu
piemēram
##irop
Tāp
intern
brīv
Tur
diez
gaid
##ļi
norād
##otāju
pāris
centr
##min
Sav
izt
īst
Jā
vietā
##he
savā
nees
spec
##ējis
##āla
##āls
##if
visiem
gais
##niecības
##āta
iep
##isam
atz
aps
##ējot
cilvēku
##āca
##entu
##esmit
vispār
sac
##mā
komp
tieš
Gr
##šanā
trīs
##ījumu
##va
brauc
##āko
dār
Eirop
##kas
gl
15
akt
mājas
nevis
tajā
##ībai
vienmēr
reizi
Vēl
##ieši
##na
##ojām
Nu
izdev
##ilt
##āb
atkl
##pus
##ug
paredz
pu
##ķi
grūt
mazāk
##drīz
##af
notiek
veikal
atbalst
##run
##glīt
##ents
šeit
pēt
sast
met
dēļ
##ša
proces
am
##ociāl
##griez
priek
protams
Tad
organiz
##ņas
##prāt
##ikt
mal
meit
##ajās
viņam
##ojam
##ukārt
raž
sieviet
##ojums
##ālu
pub
##lēp
##tic
brī
izdar
neko
##ita
nedēļ
īpaši
Rīgas
##ga
tirg
apl
Tomēr
##uļ
uzs
tev
##āda
mūz
##dienas
padom
##era
##obrīd
cep
laiks
##ētas
##ķis
nom
aizs
kol
ģim
##str
##ošana
visas
##ījis
##nas
veic
pievien
Br
san
Kad
##itor
dienu
dzīves
esam
##āties
nodroš
##eja
##anc
noteikti
paties
##āmies
##ail
tāds
##aidr
jāp
##ošo
##ves
ad
##iska
201
varbūt
##isku
##ajai
beidz
pavisam
sap
situ
##pil
##nieks
zināt
##ākā
##ūdz
grup
biež
virs
diezgan
##ond
##ēto
Ne
##nāk
prof
sol
tos
main
tādu
izrād
apst
gadījumā
##nē
mēģ
##vu
bur
##asti
pakalp
##ējiem
dator
vald
mež
pac
sociāl
zīm
##ēķ
##rīz
līm
Arī
##āka
tāda
snieg
##amā
mekl
##kā
##ākais
teic
##veid
Liel
##ošu
##tt
##ītes
viņiem
##ektīv
māks
##otas
##ājot
##nieki
##ālā
##pu
##ējas
##eks
##ašīn
##avas
##baud
piec
vil
##tas
vied
zv
šķiet
##ināju
##oduk
##abal
gandrīz
apskat
Al
30
##aļas
papild
laikam
pasau
tīk
##ienā
dzim
minūt
##āra
##onom
darbu
projek
Taču
##ēšanu
##ņiem
viņas
interesan
tālāk
##ektr
##onā
##art
svēt
it
daļa
pien
form
##uru
##gād
##bol
piedal
##darb
##und
##orta
##si
konkur
jās
iedzīv
Sk
gadiem
##amas
##ars
šodien
Viņš
izstrād
draug
Tr
Tu
tiks
lietas
##ļiem
notik
##ner
klāt
mājās
Kas
ūdens
##akaļ
eksp
Bal
atv
publ
##omā
##īšu
pašu
##inātu
tiešām
atm
skrēj
##iep
Tik
pirmo
vari
##isks
Eiropas
ob
produk
##lo
##mi
##iņiem
##eli
##ūta
tāpat
##ojuma
nol
##ināšanas
##sta
noteikt
mir
zinām
klas
##ļauj
speciāl
##āri
dalīb
manu
##ciju
ņem
##dienu
ministr
vel
##ord
##ūra
lid
12
##īgais
iespējas
##āf
ierakst
##ki
atrad
izc
pārstāv
piemēr
šim
sim
norm
##ēv
vietu
##ināts
mazliet
rīk
##īgās
##ūl
katru
##brauc
pārs
polit
##žēl
##aukt
atšķir
cilvēkiem
izl
Pie
pieredz
Vien
##ūkst
tren
sen
##inc
komand
##ušies
pul
gadus
nekād
atpakaļ
iespēju
##īšanas
##eriāl
##rauk
pārd
Inter
teikt
##te
reģistr
##alsts
nem
nemaz
##īte
garš
izglīt
##ra
Dz
nekas
iespēja
atbilst
Sp
##apr
esot
##inājums
##stā
apr
##eti
jums
izp
neliel
##gad
atrast
##ži
##ējam
citiem
vide
##ow
ris
Līdz
##ējos
milj
noz
kādā
100
##ora
##klāt
pašvald
izmantot
##gul
vietas
##ājām
prec
slim
spr
elektr
##ējs
kāpēc
tehnoloģ
##odā
mī
##obil
treš
Mar
of
droš
##otāji
tais
##viet
##ogrāf
slik
pārāk
šobrīd
##ītas
stud
##ējumu
Dž
##lis
auto
Protams
##projām
bērnu
gabal
vienā
##ļus
atst
saņem
##enti
nosauk
dok
##ura
pab
konkr
##ža
mas
dod
##icis
Andr
vies
##ušas
##skol
fr
ban
##to
##aku
tem
marat
dienā
##tuven
##ijs
filmas
##ējām
apmekl
for
##ikā
##ījums
##vas
pareiz
kult
divas
##air
ātri
sald
kļu
##ūru
##ītājs
ner
##ara
##akts
nākam
samaz
saim
##su
av
fot
cilvēks
lēm
pop
dzies
apkārt
##īkst
##ījuma
salīdz
pieņem
īsti
##āru
ietek
poz
##pras
prez
vasar
dat
bijis
nekad
##ūn
##īsies
mīl
##mes
##enī
part
kab
##lā
log
##ber
sird
bieži
pasaules
kor
ind
##ls
##ātad
darīt
iekš
##āna
##sim
##eklē
##ēšana
##uld
atl
līdzek
plat
ēr
nodarb
uzman
profes
agr
##aidām
virz
##ros
oper
##ets
##tuveni
pārliec
##ja
mier
Jo
vēlāk
dzird
kuriem
varu
##šos
esi
##ijās
res
vers
##otājiem
Kat
aplik
##brī
##ene
com
Lab
##ogad
iestād
kontr
Te
##ia
kamēr
ien
grāmatu
ziem
kādas
##ojās
Pār
##urn
##ētā
koment
##oru
joprojām
##amu
inst
tām
##ard
##ālo
pants
Viņa
grāmatas
iegād
##stipr
pasaulē
##kan
jaunu
reizes
##evišķ
pietiek
autom
zaud
##ini
##inājumu
atcer
pati
AS
Valsts
##cija
līdzi
##grib
##viel
##aldies
Tagad
Ies
##iņām
##ēdz
##ājās
put
četr
##io
cer
aizsar
##iņus
izr
uzt
11
saka
Tāpēc
##ējums
##enta
neesmu
##tiv
sava
ekr
sarakst
##īna
50
tai
##eris
##zem
##ins
materiāl
izlas
##smes
##ient
pavad
##laik
dokum
##tipr
##eļu
mēneš
##niekiem
##ēļu
dārz
##žas
aptuveni
mana
##ūtas
parasti
sastāv
##kop
pilnīgi
rekl
sacens
Jaun
##itātes
sarun
##ākās
sakar
##gs
jebkur
Ko
jābūt
Gal
25
##īto
Mēs
ēd
latviešu
milz
teritor
rež
Pas
ekonom
##mir
vēstur
visai
##aļu
interneta
##ss
##omu
popul
kil
spēkā
darbiniek
##ošanai
apj
##āmas
mašīn
##lēdz
To
attēl
novēr
The
##aļā
##ata
aktīv
18
likuma
uzdev
paziņ
pel
būv
ievēr
##kāp
##īp
##ess
līg
iesp
neg
Tād
##mal
kvalitāt
mobil
izpild
iemes
##ināti
##ānu
saviem
ierīc
izskatās
savus
vajag
funk
##ākas
##raukt
uzv
##oni
##aļa
##etā
Var
##ww
pilsētas
meln
##eņu
sēd
beigās
mans
sept
nozīmē
www
##ētos
##ārs
##ācijā
##āki
##ošā
##ert
##enis
kāp
labu
##ņā
tēm
##auz
filmu
tek
##sts
##bild
##ājis
teik
bar
ciet
informācijas
aud
paši
##aksas
redzēt
viegli
##mai
Min
##oda
nebūs
robež
šādu
pārbaud
grūti
##ms
plaš
uzz
atsevišķ
##ojis
neviens
nepat
pāri
apstāk
##ošanās
desmit
paliel
Fr
šoreiz
##ītā
##oša
varēja
sagatav
##stat
viņai
galā
##iskas
liela
##itīv
nespēj
bērniem
uzreiz
Sa
vērā
##eģ
varēs
drīz
##vēt
##iš
informāciju
##irk
ārā
nopiet
visus
Jau
##ķu
sauc
negrib
draudz
##stab
video
lasīt
ziņā
sākumā
##ināta
Go
Kriev
spēj
##ana
##one
##vid
ilgi
atrodas
nebūtu
port
##etes
##avu
Kop
groz
##acionāl
glu
izpl
##līdz
##tāl
mai
Aiz
ASV
lielu
sec
Val
veiksm
kontrol
##ošs
puses
veidā
##lim
aprakst
kons
citi
##ceļ
km
īs
Otr
paliek
tap
sasnieg
##gun
regul
apg
nevaj
##ņus
pils
##āns
citas
gul
uztur
##omas
##nis
fiz
daļu
šā
##ētājs
brīdī
lat
ener
aktu
Kād
up
rād
ķer
##ējusi
Savukārt
##ēz
##otājs
El
16
Kur
autor
lēn
aic
di
silt
nepieciešams
##ībās
##ējuši
gald
beidzot
pirmā
##īnu
Varb
##incip
##īšanu
##ļaut
liec
##ēšanās
apt
obj
Varbūt
##ākt
priec
iepaz
punk
pārvald
Ziem
darbības
##ācis
vieta
##iskais
saņēm
##udž
zāl
##isti
viedok
dep
uzlab
##ešu
##ījumiem
##iemžēl
##istu
ād
zemes
krit
kont
veikt
##ītos
biedr
nedēļas
raj
Pa
##taut
labs
Šī
##hol
dur
stat
neap
izkl
mam
##ukt
cuk
Rīgā
audz
servis
smag
zied
nok
slēp
##mām
em
##ījusi
mū
ziņ
žurn
minūtes
##ada
##uss
pap
gu
##ns
disk
##ūg
Tāpat
saglab
pos
##ava
##eles
uzvar
##ājuš
apz
diena
visa
varam
##nīcas
Pag
##ējais
00
sāka
divi
su
##aņ
##akus
latu
pier
Piem
ļauj
##aisa
klaus
Šis
uzrakst
##ogle
##amp
domāju
tīr
me
iegu
13
filma
rīta
liels
kust
lietot
Dr
##ieru
##ījos
noskr
14
lej
##ājam
##aust
naudas
priekšā
stundas
savukārt
##entiem
Pirms
kilom
##fek
istab
sadarb
lietu
virtu
##gas
dzīvi
sīk
##īšana
##ānis
mīļ
##uc
pirmais
tādēļ
rakstur
stipr
##ass
##km
tikt
##ipar
##ttp
paman
atrod
pašā
http
##ansp
##etur
ceļu
rūp
nolēm
autob
pusi
tādas
##ino
##embr
##stāv
pieaug
##ināšanu
vadīt
Nek
naudu
lapas
piedzīv
##desmit
telp
stil
Kaut
##ērs
kļūst
Balt
##iešām
iespaid
##ētāju
tiesības
teica
ugun
kart
darbs
##ena
kriev
god
##ietis
##ījuši
Nav
##aida
##ējuma
bag
stāsta
pienāk
problēmas
##oks
skaist
Dom
pastāv
nākot
fakt
sporta
##dienā
trad
jūt
Pl
rec
##ruk
sagr
iegūt
droši
nog
##ogu
##emon
šos
##nieka
eks
kompān
##otā
konf
##ījumi
noder
star
##aina
galvenais
##īru
num
komis
##ējie
##pt
pēdējā
datu
izb
##usu
Google
##itr
bērni
pakalpojumu
taut
##dar
šogad
vidū
##les
skrie
gados
māksl
nost
17
##vad
biez
##lī
##gā
##ītis
nodok
jāiz
dir
sāp
##griež
kval
##ojumus
izglītības
##ērk
Kom
pirmajā
##īšanās
##bilst
##ūc
polic
nē
##augu
##ētās
budž
dzīvok
##jaun
##ieni
amat
kādam
##laic
kopš
rokas
tic
##ējādi
Ministr
##ošās
##isma
uzskata
ietekm
##kait
skaits
##unkt
##mar
produ
deb
likumu
kaf
##dienās
mēnes
##ālās
Kam
Ls
ku
atkar
Tātad
cits
##els
iekšā
sabiedrības
Saei
mācību
blakus
apmēram
īsten
##tel
##ījies
##ener
##onas
muz
mais
rind
saul
tūkst
##ministr
sniedz
prakt
šāda
##ļau
##ung
atgriez
skaidrs
Piemēram
aprī
dāv
priv
##ienam
##ērb
acīm
##valst
##astu
##cen
attīstības
gluži
ēdien
cilvēka
vārdu
šie
##ieties
sarkan
uzb
apstipr
patēr
pozitīv
##ēra
jauno
##eis
aizsardz
##ātiem
##ināties
aizmir
skriet
skait
garām
aģ
transp
enerģ
kan
valodā
metod
stand
ierobež
liekas
##noz
turpm
##sa
pārsteig
##ook
Bl
diz
ielas
palīdzību
prom
Zem
##ri
##ēšanai
finans
##int
##esta
sākot
domā
nepieciešam
Šodien
kultūras
##vil
##ērā
Nev
dzīvē
sirds
jāat
nepār
piešķir
bir
interesant
##liek
neuz
vienkārš
mīk
piedāvā
novērt
manā
##embrī
ES
##aub
Kon
nesapr
##ji
##umb
##ienas
klus
iP
pagaidām
Tw
mūzikas
dist
jām
Mūs
arvien
pirk
##aģ
##iņos
nopir
izg
piepras
izmanto
##ojumi
40
##anti
##āma
##īgiem
kap
##oid
otru
##eras
tevi
Kāp
pateic
Intern
vakarā
##ows
mug
##skr
eksper
##iešiem
##avā
raksta
##iznes
##onis
laba
viegl
peri
dažādu
dzied
##amb
nej
koncer
gai
Jūs
##ojumiem
tirdz
kurus
instit
telefonu
Sāk
##ļos
sēr
saska
notika
199
iesaist
##āzes
aktiv
Ministru
nob
spēc
atjaun
led
##itāti
rit
##nā
##TA
kārtībā
Esmu
draugiem
##otos
##akš
patiesībā
jān
strādā
deg
pašam
ātrāk
kabin
cent
##ils
##emp
zaļ
##irz
Starp
##asta
##ātus
katrs
##likt
TV
vār
iesnieg
iedom
svaig
apvien
##ītājiem
Kl
princip
tūr
##ch
starptaut
cetur
dzēr
##ītāji
kļūd
prezid
roku
ģimenes
##iņam
##itter
21
##āto
patiešām
##pils
vienas
jautājumu
##dres
personas
public
nosaka
tirgus
Daž
visām
panta
##vi
padar
Re
##iģ
tum
sistēmas
utt
baud
smar
sanāk
iedzīvotāju
emoc
nepar
mērķ
Lat
ienāk
##mat
piemin
dziļ
sajūta
skolēn
piedāvāj
stājas
Str
aizd
sez
##ošanā
prot
cita
##iskajā
vajadzētu
augu
vairākas
projekt
izplat
rud
atgād
##iter
##elis
##aini
papildus
##elg
informācija
Maz
dž
##ingr
manas
##indows
distanc
Ties
##āmi
vēlas
saprot
ciem
Tev
resurs
##īnas
tādi
stāvok
##iciāl
norāda
red
##enu
fotogrāf
Zv
izteik
kriet
##ušās
Viss
brīdi
##osies
kurām
term
bildes
trau
pazīst
pastāst
Šajā
nozar
nakt
šiem
darbojas
##ants
iest
pārt
pieder
pavasar
##ījumā
Tikai
Android
laim
##tup
kompl
sievietes
Diev
##lap
##ūšu
pirmās
##īra
##aic
skatu
telev
balt
##ele
##anu
arh
noskat
##ājos
##ket
māt
manis
lieta
jūsu
citām
jautājums
##ektu
nakts
##ežģ
rezultātā
viz
##ēb
nedr
##ustr
inf
##ivers
##entus
bijusi
Iespēj
dzīvo
##oku
klien
cauri
izdom
##ejs
##jas
anal
##eņ
##erv
##lud
tēl
otrā
##kam
##ences
##IS
satik
Nē
visā
##ence
brīn
interesanti
##ināl
Kāpēc
Vakar
im
jād
##met
##ipl
pusē
##ošas
lielā
vadītājs
daudzi
cenu
programmas
psi
Nos
##iž
##kal
##etu
mērķis
piekr
punkt
Ig
tuvāk
dīv
paša
daļā
##erc
##ēkš
dabas
Turklāt
galvas
vidus
pild
Windows
##sies
##iķ
nezinu
##ācās
##āms
##trauc
##ēšu
kopēj
inv
dara
##inoši
adres
bals
apliec
##vēl
##asts
deput
Pol
##oci
Am
sil
##ināšana
sul
doties
tuk
paskat
Vec
loc
##ītāju
##ojoties
grāmata
saz
##anšu
ast
##īsim
jauna
sē
Fil
acis
netiek
##ojusi
aizl
aģent
tādā
dažas
skolas
produkt
grupas
maiz
stab
tēr
pašas
rakstu
Paš
šai
kuram
Paldies
māju
bi
##IE
##ījām
##īcijas
pietiekami
##ēg
trūk
saprast
šādi
##ojuši
realiz
##galv
##īš
neredz
komun
000
ziņu
kār
administr
##olu
24
##vā
##ča
ide
##ps
valodas
##aik
##all
##itatīv
domāt
izst
patika
##uper
##īgie
saņemt
foto
ārpus
ūdeni
vāc
liecina
Pēdēj
mon
pens
nonāk
savien
precīz
der
##jam
uzmanību
turpmāk
mot
rīc
izmantojot
##inter
likās
Viņi
izpr
turklāt
daļas
kilometr
##anv
##oniem
Liep
biznes
kred
lietām
skrien
##ādes
fant
izmai
sadal
pilnībā
svarīgi
##ay
mīlest
trauc
dažādas
dēl
##oma
##eil
##cep
krust
uzr
Pēt
##ācijai
##osm
jauns
sarežģ
##ādu
citādi
palik
##ūrā
daži
savām
kādi
tikpat
##āva
##skolas
22
pipar
##aup
vilc
indiv
##hone
##ājuši
pievēr
##idr
produktu
profesionāl
kolēģ
teor
režīm
##ētāji
Nāk
##IA
##ānā
##ojumā
ārst
noskaidr
##person
##amās
jaunas
##inājuma
šķir
veida
likt
veidot
izj
##akti
##sēd
##tiem
Jelg
zinu
##ošais
##ains
projektu
Kar
##ījumus
##ējuš
vērts
sum
gribu
alb
gait
stundu
pateikt
##odz
##krien
kopumā
biļ
##mier
gana
##ģērb
smu
##kaidr
nogal
##ējies
pierād
zil
ieb
nepatīk
jūras
konstat
##lig
lapu
metr
atsk
darbā
diviem
sāku
##rāt
parast
##ore
##aceb
strauj
##marat
##mant
velt
izņem
katram
ceļa
katra
##ists
tehnoloģiju
Sal
drošības
seg
##nī
iec
pēdējo
izsk
##etru
mūž
veido
##ink
top
Cit
##ipa
##AR
kājām
Vair
##ikācijas
vietās
##amais
stac
Katr
Daudz
##ah
##ošiem
##ākiem
##ūti
Ak
uzl
klub
izdarīt
Tie
##ark
dārg
kait
ez
##not
##īne
iztur
##ētais
##ojos
##maš
eļ
veselības
prieks
atvēr
Twitter
##smi
runāt
pievieno
virzienā
uzstād
domas
strukt
##ple
cien
notiks
ieraudz
ziņas
##acebook
abs
nedz
neaiz
zināms
lapā
meklē
darbību
##ināšanai
rakstīt
psih
##ēkšņi
apdroš
Latvija
kuģ
##ovs
Ad
##oft
##īšanai
lēmumu
##ādas
bērna
priekšsēd
##onus
ietvar
lūk
nāv
##šķi
##okol
##vielas
atlik
##aksā
iekārt
mākslas
oficiāl
rot
pasākumu
Cilvēk
##ved
##ājies
smaid
the
krietni
aukst
lielākā
det
##antu
##īgām
skan
telefona
rīt
##oga
##ojies
strādāt
sport
##inājās
maksā
##īgus
vienīgi
stāsts
elektron
Bez
jaunā
Ļoti
pašvaldības
janv
sistēmu
##aru
ziv
tiesību
##cijā
reklāmas
##enēm
##ācijām
spēles
runā
cī
##atā
uztic
aizg
attāl
Ed
ledus
baz
mus
##kohol
atkārt
nedrīkst
HT
pieteik
Tās
kod
ļaun
pārkāp
##ou
##ilp
parakst
##gļu
##itāte
Mic
Tieši
nedēļu
nevaru
##trauk
taisn
gāj
##istiem
rek
kādreiz
##akas
uzņem
krievu
Cik
##ulis
##elta
atzīst
##ern
##ori
priekšu
##assvēt
##inga
tras
Ab
paldies
per
##āni
ep
##ekļa
izrādās
cenas
kājas
##ūdzu
Kal
Iespējams
Darb
noteikumi
##nīcā
kļuva
mugur
kino
##eņa
bērns
plan
bilde
pot
##uli
meklēt
Vil
##iskie
dzelt
pusmarat
San
jār
saus
elem
normatīv
##iro
##aigz
##oka
Not
##īns
uguns
sakot
viel
Krievijas
seš
ierad
bijām
agrāk
Bērn
šādas
programmu
##vair
izveidot
##veik
citus
skatīties
mās
##ītēm
gadsim
dzīve
neatkar
Gar
##ox
non
##ejā
cilvēkus
Apple
sapratu
atzīm
##kiem
##inājumi
viedtāl
braukt
##ikl
film
sanāca
populār
gudr
nesen
##ere
##sme
divus
##ākie
jur
mērc
nevajadz
galvu
kartup
##inis
ieguld
problēmu
peld
##empion
Nes
vadītāja
##ušo
maksas
Aut
##jot
##ūm
sviest
##smit
Daug
vēlreiz
##go
teāt
šķita
gribas
internetā
##īda
atd
Viens
uzd
rest
pakāp
pud
23
aizrau
noslēg
izvēlēties
atbalsta
##ošos
pulkst
Il
##AS
tul
vasaras
smal
prātā
prezent
saskaņā
##eh
jomā
##tus
rodas
piesaist
uzņēmuma
ietvaros
savād
likum
uztver
##šo
pasūt
##ack
aizsardzības
kun
zob
##ēsim
panāk
##iekl
Vid
tip
lietotāju
dib
Šo
paņēm
##irms
##emd
##amat
##diena
##astr
def
##ibli
so
##šot
##als
##ators
Savien
saimniec
Ziemassvēt
nebiju
Sm
##ill
dzel
##krās
nosac
##tif
tādējādi
##ainu
alkohol
##maksas
##ēru
##ine
Paties
sieviete
##ētājiem
##ākajiem
reģion
fond
##upa
balst
##vārd
kurās
sagaid
Diemžēl
Jānis
##erikā
boj
##saim
##ilg
ikvien
##ola
direkt
dec
alus
##ross
##otāja
##katoties
gult
int
liter
##otēk
apgalv
tal
ielā
##žiem
durv
Lietu
pēkšņi
Baltijas
##ieniem
##ārī
sevis
rom
##ūku
rada
kvalitatīv
##rīv
##ublik
priekšlik
piedāvāt
##nīcu
vain
pareizi
##irs
apmier
##arg
Sams
zir
Ie
valstī
##stas
slav
vairāki
vajadzēja
ārzem
tirgū
otrajā
tālu
piedalīties
beigām
Saeimas
cilvēkam
otro
##enciāl
Igaun
##ķer
interv
mu
zina
Interes
kaim
tēv
čempion
##nēm
skaļ
##ipēd
mēdz
sveš
pasaul
attiek
##vairāk
SIA
##sl
##enci
Gan
mel
izvērt
##ošie
Tāl
sistēma
recept
Rep
cena
##egor
ok
vislab
pašiem
##iera
situāciju
##ax
##šru
apakš
vārds
##usa
Micros
vienīgais
izviet
standar
##otās
atbrīv
Facebook
doma
Nok
līn
##veic
##oms
pieslēg
problēma
atbilstoši
ska
##ītās
kreis
##eva
ieguv
Pap
Samsung
##pirms
attiecības
##ārz
projekta
kurai
komentār
Nr
##īciju
##īzes
nodrošina
diskus
nacionāl
ceļš
##atoru
##eidzot
##idu
oblig
sejas
##onam
##ojami
vienam
Ār
##ētāja
Mums
##kos
##atūras
##eļa
dažādi
dienām
de
##ekts
pārskat
gadījumos
Microsoft
parādās
bru
budžeta
##iln
##ātāj
mirkl
bibli
gadi
dzīvot
komandas
##jā
bas
pārvaldes
##ieri
Šoreiz
##ograf
##iņai
##ājusi
##Fit
atļauj
##ēli
##eliģ
##ausm
nevajag
Rez
rokās
galda
##laicīgi
##šs
Jur
sīp
test
centrā
pilsētā
##ķa
##interes
aptauj
tau
tauk
##rossFit
Pav
centra
finanšu
zinātn
noris
režis
##ila
izmēģ
eiro
##ādā
personu
brauk
##aki
tikko
##inātas
lauku
iedves
jūl
sasniedz
ikdienā
žurnāl
##ienes
apk
divu
izklaid
ret
vides
Mūsu
šīm
manuprāt
tend
rezultātu
nekādu
automašīn
cel
dv
##astā
ceļā
kaln
veikalā
nosaukumu
##du
##imināl
sākt
sest
##dra
##ont
debes
Mār
diemžēl
efek
##āmu
##ro
domu
iegādāties
##lam
privāt
mik
##ktob
nopirkt
veids
blogu
til
lielas
maršru
telefons
temper
##uj
minim
iestādes
tēmu
60
cīn
guļ
##pad
mazu
noslēp
ol
veiksmīgi
##oli
nekur
##inājis
Ch
vienal
pieejams
sastāvd
tautas
tātad
##izācijas
valstu
Tel
##ete
mājām
sākās
Nez
vaļā
##laikus
Tiesa
##pied
piedz
apb
līmenī
##ogs
samaks
bumb
roz
##ārā
kategor
Galven
aizvien
reizēm
tav
radīt
pasākums
izmaks
likums
situācija
##ošanos
blogā
meitenes
Aug
##ognoz
aiziet
rū
nekādas
##cion
satur
meža
bagāt
por
raid
abi
Kamēr
LV
##aktu
ceļam
lūp
piena
Šobrīd
Visi
pārr
mūsdienu
vietām
Bija
##eica
saules
nedēļā
26
kārtību
rēķ
Austr
likumā
jūn
viņus
vīrietis
##atas
nevēl
angļu
sāls
##ič
otra
naktī
ved
sh
van
##svar
sākas
ieteik
idejas
krāsu
noskriet
pēd
35
cēl
##lietu
##ienus
klient
##niece
vizu
##iskajām
##ods
##niecību
##ova
pagatav
jē
2008
sieviešu
jautājumiem
##inam
##īgos
tirdzniecības
##ālais
Cen
##abiedr
atbalstu
skriešanas
šit
apar
karst
zvan
pieredze
##tos
##van
nolik
##iskos
Mas
mūziku
##kus
##ošajiem
atsp
##ainā
brok
##augst
spēku
##lodz
pieredzi
asto
diev
jāv
##amāk
krekl
ikdienas
statist
It
bail
toreiz
kļuv
ādas
28
##dab
lok
potenciāl
dziesmas
HTC
##ieku
pieņemt
jautr
ķir
Or
Skr
ceturt
celt
##auž
iznāk
bloga
ef
uzņēmumu
##pilsēt
##iestu
aktīvi
vairākus
maksim
aplikāciju
Nor
##ih
##pas
sākuma
##inieku
sadz
##gāj
##išķ
dzer
absol
Rakst
rokām
##vē
##enz
vajadzīgs
sūt
bezmaksas
ģimen
##ērt
piel
laukā
Labi
olas
super
koka
iespējām
##eču
##ātas
Rīga
dis
##ests
krēm
krāsas
rajona
Lūk
apkop
palika
iPhone
dub
##ālas
Div
##īšos
##fer
##epat
##eklis
Pal
programm
##ific
##ojams
svin
pilsētu
kvalitātes
##ER
izrādījās
lūg
ābol
##pēju
nepie
katrā
sait
citā
praktiski
##āļu
##ājumu
sajūs
27
mor
##ījusies
mērķi
nepieciešama
datora
kosm
tab
##da
jāuz
divām
vecumā
##tiec
##ebru
gatavs
simbol
##īgajā
līdzīgi
univers
izdevās
stūr
pagājuš
fantast
alg
##osipēd
tiktu
prieku
pasauli
tradic
tūl
mant
nācās
##fr
##ici
grozījumiem
Tajā
moti
tiesas
valodu
sertif
apskatīt
amatperson
##iniec
garumā
Lik
se
sai
laic
piekt
ēst
šāds
saprat
Pad
tom
process
līk
kast
Krist
medic
gaļas
sun
##inas
aizb
##eļi
Art
##kai
##ēna
lēt
rāda
##pējas
##ēnu
ideja
##elf
lietus
redzams
##igit
##ian
##iņās
##aisīt
minēt
##ājušā
skaitu
pašvaldību
##pret
trim
Dzīv
slikt
##elk
otras
glāb
mobilo
vēd
II
kak
glab
##inājumus
VI
##ell
nosūt
gaisa
komisijas
vecuma
pļ
izpēt
lieliski
##āž
nogur
##ļūt
dot
tv
individu
ped
##ea
jurid
##padsmit
visvairāk
##aism
45
prognoz
Sv
slēg
apģērb
galam
80
pres
augšu
rel
2009
pieejama
dzelten
on
apgr
skāb
izn
##īdu
nebūt
bijuši
devāmies
##azīst
staig
lielāku
Av
jum
##krit
##andid
krīz
##ari
nenot
pārlūk
ērti
nag
atvērt
##īsi
##ilkt
##ņēma
smiekl
eksperim
nekust
Izrād
##estiv
##strum
##embra
Patiesībā
opt
2007
praks
sekund
skaitā
gulēt
iedz
kādus
veikalu
projekts
bibliotēk
ros
##iskām
varo
kārtas
iemāc
klases
##niekam
jebk
līdzekļu
mieg
oriģ
velosipēd
pārviet
procesu
nākamajā
automāt
Nacionāl
konst
sēn
##azām
Mans
dažādiem
tipa
##ilk
daudziem
orient
pirkst
paredzēts
uzsāk
nodrošināt
aprēķ
bīst
##īgajiem
padomes
versija
līd
##di
##pēja
nauda
500
zin
žēl
##ieb
##star
##ivil
##ista
##okārt
veidu
Run
saturu
##āzi
redak
arhit
oktob
palīdzēt
patīkami
lielo
radio
pazud
asoci
Grib
dem
siž
##klaus
lejup
ceru
##asm
dienās
##ings
aplūk
sākotn
autors
turpina
Sar
##izēt
augšā
priekšr
jāt
##gur
##iesm
Nokia
neies
Vald
kuros
Sig
##ite
##ojama
##ejot
lietotājiem
##ūkas
aizlieg
pasniedz
institū
Republik
lep
90
Ber
##ausk
acu
Šķ
##ve
puse
malā
##inātāj
kartes
70
papl
pašlaik
šķērs
vārdiem
nākotnē
##ātos
nosaukums
gaitā
##eld
##aum
Ser
aizdom
izmaiņas
##ml
##dzes
gads
augstāk
kļūt
izprat
izdz
vēlme
tīkl
ziemas
##limp
##ņos
##ater
zinātnes
mut
##par
##cel
uzm
##inieki
ideju
pabeig
ierīces
apstākļos
##ač
##no
##iskajiem
##ols
glez
mierīgi
ķerm
##pēl
nekāda
labā
reizē
spīd
pagal
ņemot
durvis
300
slikti
##val
augš
valstīs
procesā
31
Ned
##sties
visam
būtiski
pastaig
dodamies
teritorijā
mēnesī
kandid
zināšanas
īpat
##nišķ
server
kalend
tīri
vieglāk
dol
##īva
galu
##ceros
brīža
##isms
ekrāna
pārdev
pasta
konsult
##fil
persona
šokol
##atūra
iepriekšējā
mēneša
##ump
dzelz
##ieti
Grām
##laus
izšķir
ielu
stundām
sociālo
##alt
smadz
2010
Valmier
treil
pārsteidz
restor
bul
loģ
##atēģ
policijas
##ēsies
krēs
sajūtu
dek
##grām
sub
##ītē
drēb
##atīvo
rezultāts
cm
peln
vēj
##ekcijas
vidēji
##rad
##ortu
atzin
firm
##ikti
sakarā
lejā
aus
akc
ērt
dai
##bin
labas
##astāv
gāja
##skait
Zviedr
sēž
##eriem
##iskiem
nomain
noviet
##ējoties
##ējumi
ievad
CrossFit
##old
meitene
##re
##ismu
##šanām
pieliet
##āles
teju
##ank
stik
darbi
dziesmu
Nep
##āšanas
##ņām
##ogas
##ovsk
Visu
tuvu
punktu
kalp
tums
##ce
garant
regulāri
##nīca
Mež
##ož
##ation
esat
ietver
pirc
##itas
vārda
attiecībā
televīz
Papild
ministrijas
pārsvar
masu
pieaugu
seriāl
2012
##osim
neveik
valstīm
minūtēm
##idz
##omāt
##atīvi
svarīgāk
turpinās
uzskatu
muļ
post
##irg
nevienu
atsauc
nejau
gribētu
sakr
dzimšanas
##eģistr
izņemot
Sas
šaub
##ānas
dienesta
atklāj
Ik
Ņem
Latviju
##estu
asp
##ice
vecāki
prasa
##ektīvi
01
RS
##eķ
vīrs
Vents
##gar
nevarēja
tiesa
starta
tulk
##maiz
vienlaikus
savam
pieejam
##veida
aprūp
tehnoloģijas
nest
##apar
izteikt
meist
Šeit
##oloģijas
29
##šās
netic
##ījušies
plast
nopietni
sagriez
##ītais
Īpa
lidmaš
##valstu
stingr
lieto
invest
Turp
LM
iezīm
mainīt
notur
nāca
##emj
filmā
jut
mār
rītā
izbaud
piepild
##eļiem
komerc
vecākiem
ieviet
##mm
##īvi
lietošanas
dažādām
acīs
mājaslap
Mārt
des
vēlos
##inājumā
medij
gaida
pacien
visb
plec
##klāj
##ekta
Laikam
stabil
en
pur
##skap
maza
biežāk
zāles
dažiem
paņem
atris
Pirmais
2013
sniegt
ārkārt
konfer
pietur
Tālāk
##īgai
kabineta
lic
stratēģ
##centr
tūlīt
##zīst
##iešanas
##ang
##ron
apstrād
##inājumiem
izmantoju
svētku
nelielu
iemeslu
turpināt
zvaigz
IT
##ētiem
neviena
##ilvēc
skaisti
pārstāvji
grupa
dabū
izstād
izdarīti
##īšanos
##īša
plkst
attīstību
resp
##ala
##priec
##okrāt
labprāt
jēdz
fini
maratona
nāks
##ris
##omāju
##tern
izvair
ķīm
graf
izvēle
logu
##itār
lielāks
saprotu
virsū
burv
skolā
mamma
izz
##agn
grupā
ig
pasnieg
sacīja
pievienot
##āžu
##eigu
pretī
lapa
patiesi
publik
Rad
##ēdes
draud
##ākajām
nākamo
Ind
interesants
febru
piegād
iesaku
ietekmē
Rezult
and
finiš
puis
malas
2011
dvēs
Jums
pla
##ieris
##meņa
gaisā
motiv
bļ
lielāka
versiju
enerģijas
gadam
medus
##arts
##ērz
##bor
visur
iegūst
sabiedrībā
##āņu
##ējus
slep
bankas
peļ
##uri
iecer
izmaksas
##ekli
vārdus
galvenokārt
cukuru
reliģ
abas
##tegr
Vairāk
tīm
##ticamāk
##īši
##ietiek
##otājam
Pats
##emonstr
krimināl
darbus
rezultāti
prasības
reāli
##āniem
plauk
daudzas
##īze
sevišķi
Em
nakti
sin
##ģijas
jaunās
pabalst
kvalitāti
pārtikas
Vēst
spilg
nopeln
spēlē
izdevies
sociālās
Viena
maksāt
Pam
dodas
iekļau
##adēm
##osf
uzdevums
uzraudz
savās
realitāt
vidu
attiecību
tradicionāl
cenšas
darbinieku
il
ņēm
izaug
##emāt
sakārt
Domāju
##ieša
biznesa
Sl
paaugst
##ēšanos
krāj
saskar
draugu
Kāds
līmeņa
##iķi
##aties
sāli
##mens
pamatā
pusēm
##ign
lidost
digit
ēdienu
preču
##sar
##anču
##niekus
durvīm
Skat
dzemd
domes
radās
Kopumā
brīnišķ
planš
partijas
paplaš
Ier
##īgumu
paaudz
##āze
dabūt
atmiņas
vasarā
##UR
aizv
izvirz
iekļaut
palīdzības
nepareiz
viedtālru
##ainas
##aigi
Treš
pārmai
savstar
Med
dēv
nec
dažādus
vislabāk
##PS
##ošus
turpat
saukt
##eita
mazo
novada
noj
draugi
strauji
LMT
##oguļ
drus
sievietēm
negaid
iepirk
sastop
transport
Dien
fai
programma
personām
dalībnieku
uzved
kul
pastu
pamazām
Brīv
acīmredz
Ek
##ht
fail
tēj
##eļas
rudens
apd
##ūka
Mani
uzzināt
Šogad
paskaidr
drīzāk
klientu
vēs
šaur
##ES
savs
##mugur
iepak
kompet
sacensības
televiz
atn
šādā
fl
##ats
dažus
pelēk
galīgi
bērnam
problēmām
padomju
instrum
raksts
nolēmu
ilgāk
fakts
##atori
kapit
Hol
##KA
mūsdienās
skolu
parādījās
Eiropā
pēr
seksu
aplikācijas
vienalga
ēkas
##ālajā
##ionāli
pamēģ
seko
satura
dati
##ānijas
teritorijas
godīgi
rev
sau
saskat
ni
nozīme
jebkurā
cukura
##ādiem
##niecība
stāstu
grāmatā
papīra
##īvu
##odr
iestā
##iežāk
##atora
uzņēmums
skaidro
komanda
mašīnas
Jelgavas
tak
##der
##atīvā
sevī
izlasīt
remon
sem
##ome
vidē
nākas
padz
Šīs
##prot
##pres
darbiem
##nesis
maratonu
dizain
Ceļ
novad
##otais
##ētajā
nevienam
##inājusi
redzam
rokā
150
Liepājas
##proj
##īnā
skaidri
datoru
Siev
##oo
iesniedz
dokumentu
popular
vārdā
hip
##DS
izk
aprīk
sūdz
##uks
tor
gribēju
mitr
pū
šķidr
ierakstu
ūdenī
asins
Jasm
ver
ļaud
##cis
##ips
pagājušā
Vispār
lielāko
Lattel
just
mīkst
parad
palikt
##ēns
valdības
smarž
žan
##ašanās
##ējumiem
citās
##ļāv
##organ
##aisn
##ējušies
##jiem
##arm
ieslodz
balss
interesanta
ēdam
iemesls
sienas
tambor
brīdim
noskaņ
##ējumus
apv
##āliem
##uls
spēju
##aino
pašai
uzsver
atceros
mēnešus
pērn
noteikumus
sekoj
galvenā
gadsimta
festiv
##īļ
##avi
##iskus
kārtā
pēdējos
slaven
brokast
zvēr
##IN
##tap
##otājus
##aidu
krist
labāko
tīklu
##ļas
nerun
##ākajā
sēk
##esu
##īgāks
##ētiski
otrs
pēdējais
reti
savādāk
##AL
Aleks
īpašu
mājā
skum
pašreiz
##atīvu
Rob
bār
drī
nab
##lb
##enim
kurs
pateicoties
atgādina
##irst
atliek
esošo
atslēg
noteiktajā
normāli
mēnesi
precīzi
pasaule
galvā
iekār
Savienības
vāj
pievil
gala
kārtīgi
samērā
Interesanti
pārsvarā
op
nodar
attiecas
mom
citur
nesan
gatavi
nespēju
izskaidr
##ikāciju
koncep
mērā
kļuvis
iespējam
zemi
interesē
gaidīt
centru
pulc
arhitekt
Manu
analiz
atbildes
salīdzinoši
##ākos
apspr
trešo
robežas
dažādās
formā
dalībnieki
cilvēc
##anta
nosl
līdzekļus
numur
laul
##anas
akme
tīkla
meh
griez
##entā
specif
degun
##ķiem
izskatījās
sacensībās
ton
uzkr
##ekti
vienīgā
vērtību
stipri
Rū
##are
##esa
neskait
redakcijā
tē
##OS
Mana
intens
az
mak
##utbol
smil
nelaim
kārtējo
Sākumā
web
##otiem
sarunas
tēvs
##aba
kurp
citr
##iedru
amerikā
Bausk
maģ
līgumu
jok
##tam
##fs
visās
sacensību
aizmirst
Nezinu
Fl
##ītiem
##vielu
materiālu
devās
neesot
punkts
telpas
mig
kalnu
pieejami
##ry
karti
slap
puķ
elektro
apmeklēt
Tādējādi
Centr
uzg
priekšroc
400
##ull
##skatās
šov
iekr
redzējis
maijā
Pagaidām
Ul
vispirms
jaunais
##ināšu
likvid
apmāc
##inieks
mēnešu
situācijā
##āžas
stad
spēļu
##aujas
prasībām
vēstul
veikalos
Lond
##ras
integr
darboties
Pirmā
bil
##ētie
be
krūt
Ag
Hel
aizņem
līmenis
imp
optim
##AN
pārējie
muļķ
Mad
##atūru
skaita
lika
īpašuma
Kār
pasākuma
putnu
muguras
32
lūdzu
plaukt
netika
bēd
uzrun
izslēg
Gatav
##inār
##ekļu
laikos
##atvers
mazs
##spēl
##liel
##ikai
ieros
kontek
Liet
##oriem
piebilst
2006
galveno
izcel
datus
Ex
Mai
Raim
valdes
iedzīvotāji
izcil
atsevišķi
istabā
##erm
varat
līdzīgu
##strādā
nolūk
atradu
funkcijas
pedag
##īcija
##ieks
prāt
piep
ilgst
ņemt
Kol
Mac
pieredzes
rotaļ
kaus
tajos
tepat
##ūrai
##iežot
valoda
miljoni
studiju
savstarpēj
Tiek
ķermeņa
Ilz
##ingu
pirkt
izrais
skatuves
tar
zup
##mam
##eņi
noticis
pamata
izsnieg
gaismas
profil
Gun
##vēģ
##īgam
parāda
civil
##kav
posmā
##TS
ātrumu
mūzika
partner
Ats
##ītie
iepl
kvad
God
seju
palicis
lēnām
standart
Bar
Iev
Redz
visos
trak
vairākiem
Iepriekš
apkalp
Au
Pil
laimi
kādiem
aiztur
bērnus
apmērā
nākamā
forši
toties
ķipl
##ādz
##gi
nodaļas
karj
transporta
aizrauj
##ites
pietr
ļau
rakstīts
sajūtas
variants
mašīnu
uzdevumu
klientiem
jos
atgriež
nekādi
ierast
vecāku
labākais
plāns
darbinieki
##ācijās
steidz
mazā
altern
māte
kn
##aib
pārvēr
palas
kara
augstu
netālu
māko
##ciem
##iktu
##emes
##iegl
interesantu
Noteik
Pied
Son
jautājumi
arm
##āde
akadēm
norādīja
pakalpojumus
neman
##eikties
nemain
sērijas
raud
insp
##ecom
aizmugur
Augst
Izrādās
dū
kaudz
lietotāji
Vienkār
auditor
autobusu
Interneta
##šaub
##či
uzņemt
##eicās
##ītājam
vārdi
dažādos
gatava
programmat
konkurēts
prezidents
Laur
##ate
##iete
##orts
jaunus
dzīvnieku
##etd
pierakst
##eļus
##ozīm
izdodas
piekl
vērtības
lomu
start
nepal
mēģina
atlaid
##brīn
shēm
nereti
telpā
##erā
##omās
##rukt
pirmie
##īrs
ball
saturs
defin
olu
##nei
atkrit
##ojusies
##emz
pamatu
plānu
198
unik
eksist
mātes
Mat
##eir
##atved
##edēļ
##īgākais
salīdzinot
##gum
##ievēr
##ote
##usā
atver
pagr
kompānijas
nodokļu
Latgal
zelta
šū
jūtas
sant
zib
Vismaz
vajadzībām
vīriešu
automātiski
demonstr
koncentr
burt
fotograf
drusku
Ac
##vēra
bezdarb
kampa
ident
pētījuma
kilometru
##ārst
##ājoties
dzīvojam
zemē
augstskol
centrs
Ziemassvētku
Padom
futbol
šausm
pārējiem
rezultātus
sarakstā
apdrošināšanas
Oz
##eib
vienreiz
##ināto
paredzēta
iedzīvotājiem
##ēšanā
##rīn
##ejām
kolektīv
satiksmes
##ee
##qu
visticamāk
viedokli
dus
plak
##ūrmal
##zemes
nozares
Sh
Sat
tādus
atklāt
neliela
##ulaik
neskatoties
veco
baid
##cionāl
pieb
##niecībā
pēdējās
lauksaim
iPad
##āds
pagriez
##draud
pilns
Id
Net
##stund
tādiem
kombin
burk
Republikas
ģen
##antā
panākt
grāmatām
##ļauties
plastmas
Delf
Tam
##īvs
##inājām
##īni
cepeš
iedomāties
neiet
saule
gaļu
Kopš
kāju
vingr
##ālis
nepam
Neb
koku
aizstāv
Tādēļ
Itāl
Reiz
##ošajā
##ubl
##lāg
drīkst
scen
##iekas
##ācies
##proc
savai
skaista
spried
Brauc
##ior
##ītāja
interesi
##netu
līdzekļiem
36
biks
nelik
##ure
tram
glob
pierad
sign
##ojiet
pilsēta
situācijas
grupu
atstāt
sagriež
vācu
##amie
savos
starpā
pieņemts
kabinets
iecien
janvārī
jāl
gribi
atsauk
organizācijas
gabalu
Jēk
Ēr
laip
ieņēm
garšas
ledusskap
##eram
##irsn
jāk
##āšu
##oles
līdzīgs
iepazīst
periodā
biļetes
##oņu
daļai
piedalījās
Biju
darbība
##ināšanās
stikla
Las
##iss
uzst
maniem
gadījumu
##ima
nodaļa
##īzi
attiecīgi
##fa
##ogi
pagasta
sekot
māja
##āš
izdzīv
blogs
līmeni
platform
##eņiem
##autr
##ētajiem
vairāku
##vai
##axy
vēlēšanu
domām
atzina
procesa
##ceļa
tapēc
##ēzek
##eo
jauni
sasniegt
priekšsēdētājs
bruņ
Beidzot
Mil
Piek
nark
pic
##put
##ollo
##eklar
jāiet
vienkārša
konkurs
Galaxy
paraug
aizbrauc
elp
sadzīv
Lattelecom
##šies
uzlik
pieņēm
stulb
##ītājus
##iniekiem
nezinām
notikumiem
komandu
##ix
##RS
##avs
##atīva
jautājumus
tekst
aģentūras
preses
##āriem
paral
citos
nekāds
rup
##apz
nesp
produkts
aizsarg
##ijam
izmantošanu
daļēji
##manis
spēka
Darba
iedarb
Franc
tūrisma
argum
filmām
Er
ģener
##āte
nepieciešamo
telefonā
septembrī
Jeb
##oter
netrauc
##ojušies
sviestu
ekstr
gribēja
plānots
runa
##atl
paņemt
laikrakst
##inājuši
kontroles
kafej
produktiem
bu
draugs
scenār
bater
##ametr
spie
plud
atradās
iepazīties
nesaprot
Pēdējā
Sēdes
lūdz
nepiln
nevajadzētu
Lien
##ojamo
sadarbības
Ver
rag
##ošām
reģionāl
kompens
sniega
uzrakstīt
oriģin
55
vīrieši
ministrs
rūpīgi
spēja
vēlēšanās
pasm
izstrādāt
kritēr
iedvesm
Nov
##zu
##ret
##ņģ
noform
ieskat
fan
##eet
eksk
ātrums
Dievs
prop
ieskait
vadības
sekm
2000
saglabāt
būd
##ters
2014
dalībniekiem
politikas
kompleks
mikr
Toties
et
matu
mēnešiem
efektīv
Iek
##ējusies
##ejam
lielisks
parādīt
saistīts
formas
loga
produktus
Saul
alu
laikiem
Amer
mārket
Dāv
māk
##ojumam
vienai
##ace
redzu
##igar
jādara
Rēzek
proti
##ēla
vientu
viedokļa
īpatn
planšetd
bāzes
kuk
org
##atīvās
##encē
sastāvā
zālē
nejauši
##20
jauniešu
radi
sapl
noskatīties
gūt
pieļauj
valsti
tiesu
ieviest
kvalitāte
Daugav
vējš
apak
##ālos
varas
pagāt
kaul
mīn
pārējo
pasaž
pilna
papildu
Rīgu
##AT
##ājā
spēle
notikumu
atvaļ
risinājums
meg
tajās
##inos
##icēt
izmēra
2004
##glītības
aprīlī
Jasmīne
miz
iej
vēstures
Gl
VS
po
izmēr
dažām
zemāk
bojā
One
##īnes
brīžiem
numuru
Siguld
you
##XX
##inoties
nozīmes
Skol
maratons
tekstu
Galvenais
Fin
dikti
apgu
divdesmit
atbalsts
Le
briesm
speciāli
milzu
Atr
siera
##kām
Inform
neesam
##darbības
mammas
metodes
komentāros
olimp
zeķ
##ock
##gudr
šķēl
sertifik
dej
labo
teātra
Satvers
##pā
##ietes
##auda
nosaukt
kameras
lielākoties
##metu
sakaru
dru
sauk
otrādi
ekonomikas
fotogrāfijas
atskaņ
pielāg
##brit
valdība
komentāri
finansiāl
Cep
ēku
##ījumos
ieinteres
daudzumu
ģimene
atmiņā
lēmums
ļaudis
Som
##uta
Latvijai
##eša
mežā
pārstāvis
faktiski
atkarīgs
##īšiem
tarif
sug
ģe
gard
##udārz
pilnvar
skatās
skatoties
padara
Pirmkārt
sezonas
gov
##cijām
##eitu
plūs
##inājies
##iešus
##ināsies
funkciju
Manuprāt
žel
##aķ
##zas
izliet
lielās
velti
izpau
servisu
recep
uzbūv
izaic
pamatīgi
spēlēt
Lielbrit
nespēja
klausīties
Nikl
plāna
autori
tumš
cie
gs
##laban
pilnu
aplikācija
ziemā
apjom
Th
kav
leģ
uzskait
##iga
vērtība
mainās
teicu
tīmekļa
faktu
##for
pamod
īpašumu
jāmaksā
psiholoģ
santīm
Vesel
beigu
vārt
viļ
##ījāmies
##ušos
2005
plāno
ministrija
izgatav
kolēģi
##notaļ
Fir
##tās
uzrād
##ētikas
bildi
lēni
For
nepr
##irkt
pazīm
Ol
mieru
pienu
princ
Esam
##īdas
##iežu
modern
Šie
##tais
pielik
visādi
gribētos
vakara
samazināt
##AB
##alg
##ītus
##ics
Pret
aktivitātes
Mask
Nol
Viņas
sit
##otes
lieli
nevarētu
##laž
##oļ
##enā
sagād
Ventspils
Vaj
lieliska
sākums
piedalās
funkcion
##eter
##tra
daiļ
vit
##irdz
##ielād
klāst
And
formu
##alu
reak
nepietiek
##iste
domin
uztais
75
##ienos
mazas
angl
neliels
skolēnu
apdraud
pusot
jāsaka
Jēkab
deklar
tējas
netr
nostipr
atnāk
##abil
brūn
nevarēju
##runi
istabas
Noskrien
Mor
aizst
##nese
produkti
četras
rajonā
Kuld
LE
Nord
Stu
paj
riek
##alv
manām
veikala
darbiniekiem
paziņoja
pārraid
##be
##pe
daudzums
kameru
iepriekšējo
adresi
demokrāt
visbiežāk
Bauskas
Ivar
vienlaicīgi
##ive
garšu
##ektā
saku
neizdev
Sākot
pludmal
SE
ej
grāmatved
viedoklis
kontakt
kafijas
iestāžu
sieru
spīti
pagar
noteikumiem
pakaļ
US
kup
sirsn
iznīc
##ētām
##ānus
brīvi
Neat
pulver
versijas
sarakstu
Delfi
NE
Nel
vilt
##riek
##dienām
pētījumu
ražošanas
kopējā
dekor
Pu
PS
cil
##land
##iniet
izlēm
vajadzības
franču
apgaism
emocionāl
Lietuvas
lak
īr
atg
aptur
##ubil
nopērk
tuvumā
neizmant
mežu
Jūsu
resursu
mām
nepied
##ipt
Uzņēm
novembrī
sod
informēja
tēju
##ikam
##ometr
telpu
salas
neesi
beidzās
aicina
kompānija
##enerģijas
Ņemot
ur
##iķu
##āšanu
##āsies
abiem
atbildi
saistībā
tūkstošiem
olīv
sākotnēji
33
hum
##balst
šādiem
##aprot
ierīcēm
pārsteigums
musku
Igaunijas
Gru
pers
##ķēr
##RM
##ātam
##ozes
redzēju
mediju
You
##erb
pārb
sistēmā
dokument
jebkuru
objektīv
atgriezties
##odes
##agr
veidojas
uzņēmumi
spēks
treniņu
datiem
Lūdzu
maig
##ff
##īgāka
Sony
eti
rast
##ci
##umt
neliet
prior
Univers
noslēdz
Pasaules
saņēma
En
Ied
##ijiem
##etam
##ēsi
##esti
vietējo
vidi
proced
atkarībā
taust
##atūrā
##alk
piespied
sabiedrība
atcerēties
alkohola
kļuvusi
Kārt
##tuv
##ošajām
otram
Parasti
asf
mīlestību
pup
##orīt
vēlmi
paliks
bijušas
abām
formul
mirkli
Papildus
Agr
##ūž
apzīm
zīmes
skats
muzik
piedāvājumu
Edg
Dienvid
##īguma
varēju
grāv
interese
termin
veselību
Vēlāk
Ziemeļ
nāves
MK
##onos
lietoju
##kuši
augustā
punktā
failu
Jāat
Jūrmal
ietilp
Indra
trūkums
tramv
darbam
##ēni
apgūt
finiša
būšu
##TE
##ākus
dažu
domāj
kalna
pagājušajā
##amajā
##ozof
tamlīdz
sieva
nenozīm
##pusē
##darbu
##āšana
##āsim
visnotaļ
##ievien
nosp
bērnudārz
pirkstu
skaņas
ģimenē
##rim
##ējumā
##aga
atviegl
eksām
Be
ha
izņēm
pastipr
svec
neatbilst
pieejamas
garšo
vienkāršs
Cilvēki
pārdzīv
kļūs
Op
rip
zar
##eši
##oh
##oss
pārtrauk
aci
svētki
Mur
Nod
pērk
Visas
atstāj
Black
Filma
režīmā
skaļi
skap
kādai
padarīt
Aiv
ejot
##ētus
##tion
##entam
##atoriem
##auga
solis
komisija
OS
cigar
šņ
##giem
nodev
cepur
Andris
sacensībām
paskatīties
skrienot
zini
##biedr
valstij
sabiedrību
principā
Viņam
jubil
nokr
##ektiem
##tiesas
##artam
atmosf
latiem
atspoguļ
cietu
##iskajai
koord
##ūks
lielākais
Vīr
deju
##MS
##auru
atlas
##ālus
pārņem
##age
tīklā
rekord
perfek
Bur
Kāda
##liem
##žos
neier
##irt
##program
moder
risinājumu
līguma
kilometrus
##ānijā
internetu
izvēles
modelis
sniegs
jūlijā
del
savulaik
##smas
mācīties
cim
##ood
##pēļu
smēķ
sola
putn
virtuves
gaiš
Pus
cieš
th
inici
brā
divās
ceļiem
nomet
ietekmi
Otrā
tapa
Vārd
noņem
rakstīju
slodz
noteiktu
##inux
mēģināt
miljonus
##ards
konserv
Riet
##ces
azarts
##osa
##ālam
##skis
brīdis
dziesma
decembrī
##ļūst
aizpild
jaunieši
##aktīv
2003
lati
prezidenta
plastmasas
De
Mam
Mēn
##pal
##ņot
Nik
fol
##izē
##ūts
Jebkur
gur
palaist
vecais
īpašs
neizd
speciālisti
Telef
uzaic
##ietim
bērnības
slimības
tilta
ārkārtīgi
LN
##rs
garā
gribējās
atkāp
Atbild
pasākumi
Norvēģ
Augu
Trīs
tavu
parun
spējas
##ainis
tālru
atlīdz
kvadrāt
vīru
##ii
##kap
arom
##ect
labāks
interpret
dažkārt
minēto
deva
soli
klasē
ēdiens
emocijas
jūnijā
Īpaši
slēdz
##rr
##aļām
sēnes
##eniski
uzņēmumiem
tūkstoši
Jās
##ītajā
##emi
otrās
intereses
spēli
izcīn
absolūti
Lauk
sens
##ādus
##okur
##rauks
Pirmo
atbilde
braucot
pui
metru
līdzekļi
GPS
kin
##starp
##izrād
informē
asar
pacient
preces
apjomu
hok
##eāt
##alas
paspēj
pusgad
maksāj
latviski
meiten
nolem
uzvārd
##ekom
lielveik
dienn
noteikumu
personai
vīriešiem
sabiedrisko
##pilī
pieciem
pulksten
nāksies
##otie
aizvad
krējumu
##ainās
partn
pārliecināts
ziņo
Svar
##brīd
nožēl
##īrā
kamera
miljoniem
posms
Komis
direktors
Vācijas
baž
##āģ
##īgums
dzej
##audzis
neno
nerv
##nozīm
dziedāt
##īšus
neatkarīgi
##kaita
šokolādes
Person
prim
spētu
gara
ceļojuma
##inoteāt
sociālā
pavasara
##IM
##ītei
##prat
ieslēg
trūkst
pakl
krāsa
veselu
##ambor
nogalē
ilgu
##inst
##ukst
šķēr
izvēli
runājot
māksliniec
cipar
nr
som
##BC
gandar
aizved
nesas
jāap
trešajā
pārbaudīt
uzlabot
kvalif
deputāti
leg
ķīn
##ex
##āmo
tikšanās
lielais
vecā
organizāciju
##eņus
##iķis
##kul
##ācu
lietotājs
stāstīja
noziedz
Tāds
rudenī
komunikācijas
Pavisam
Diena
Svēt
iekl
##akās
krāš
izmeklē
ieteic
Proj
##tiesību
uzbruk
stāvokli
pensiju
pension
Beig
Nop
kub
kādēļ
##aidīt
##spīd
atsevišķu
priekšsēdētāja
plaši
sekt
##ēlās
jauki
vēlu
tual
Atkal
pasākumā
tēma
maizes
kluba
amerikāņu
zāļu
##ekļi
spār
martā
vēsta
neveiksm
sūd
ziņa
šur
##vel
##nēs
##īču
izsm
uzk
tikmēr
iegū
rezultātiem
ievērojami
VSK
pogu
##oņa
manī
spilv
minūšu
vajadzīga
izvēlas
stāvēja
beidzas
attēlu
ieguva
pastāstīt
sulu
Māris
gaļa
lād
tiku
krīt
katras
##alitāti
trešā
##bergs
apstākļi
Kopā
Starptaut
kungs
gultā
##amiem
pārc
otrais
metāla
nākotnes
Put
bū
##ožu
##iešana
##ātes
kautk
pusstund
##andin
plānošanas
sāpes
mūžā
Niklāv
Mobil
##istab
izmantots
reģistrācijas
agres
nopietn
aprūpes
pievilc
Zināt
##pried
##aimniek
rezerv
kolek
meklēj
industr
līgums
vidusskol
obligāti
Viet
##ītajiem
##orā
brū
Pagājuš
Rezultātā
cepeškrās
##ON
##inošs
izsp
##ieriem
konkrētu
pavasarī
pieklāj
mies
piez
aizr
##eklēt
pilnā
saistīti
sirdi
serviss
Vēstnesis
Cēs
cieši
mult
jaud
pateik
citam
jāņem
ārvalstu
matemāt
četri
##ēles
plus
Laiks
sajūt
mirk
piemērs
##embrim
standarta
IK
gāzes
##ējošo
##īgajām
##elē
pārk
nenos
konkursa
sarunu
dēls
Vikt
cept
riet
##TI
aizm
##īds
svarīgs
dāvanu
mērci
Avots
34
##dze
##ekļiem
tiesā
gabaliņos
nodarbināt
Būs
Kult
apn
graud
##egul
īpašnieks
Apollo
vakaru
gaisu
Koment
Vienkārši
dipl
##āmā
##ity
modes
sievieti
atšķiras
negribu
##vadu
rindā
smuki
bulj
Ozol
kinoteāt
mur
##izācija
pasp
nekav
##ektus
apmai
īpaša
atbildību
Tuv
kafiju
nepārtrauk
sviesta
Ner
Tim
##ds
saslim
klātbūt
miljonu
Nekas
##eirop
fak
mīt
##aigu
garu
pretrun
atpūtas
##ojamas
##ētājsistēm
latus
mūžu
distanci
Com
Šā
##ogur
daudzveid
atrašanās
smilt
padal
abu
##alitātes
audzēk
nodokļa
izmēģināt
meistar
##lauk
izbrauc
apav
##pring
##ejai
##autas
##igur
šādus
rezer
##kart
laukumā
ģimeni
dzimumu
Vienīgais
dokumentus
oktobrī
Šķiet
Drīz
Gad
ticis
tava
visliel
iesāk
filozof
250
kustības
bailes
acīmredzot
Nordea
##andināv
saut
nelab
atņem
vainas
##eda
rakstā
objektu
fotoapar
mehānis
3D
##erts
##traukt
skarb
krastā
pieci
korpus
tēmas
upes
Nedaudz
Sen
qu
rob
##oņi
##asp
##ādos
##ivud
jāg
pamāc
bezgal
noteikts
palīdzēs
teksta
nians
Diez
lēk
##kom
##ēp
##īšanā
##ML
##iešanu
izmis
##ināšanā
Pirmajā
salīdzināt
taisnība
Mēr
Viņu
##šais
strādāj
##alitāte
apsaimniek
lietotāja
dolāru
Ban
Tiem
šamp
##ise
prov
piev
##abr
pārsp
mantas
pēcpus
priekšm
izstāst
fe
slud
##log
izgudr
sku
refer
atpūst
piecas
pārdot
ekrāns
Kādu
izklaus
pastāstīja
Ka
##aja
nozīmi
meitenēm
viesnīcas
attālumā
##vārdi
krīzes
##IJ
valod
pasākumus
cukurs
policija
37
Jap
kond
dienvid
bērnībā
##ance
uzzināju
pamanīju
aktivitāt
kļūdas
dziļi
Satversmes
neizdevās
kais
pārstrād
valstis
Princip
devos
nezina
pārdom
##entif
baznīcas
režisors
Ilze
Ilg
iebild
##tsaim
Vispirms
itin
šodienas
skrējiens
stāvoklī
Jāp
Liek
##žen
##ati
##eder
##antiem
sekret
197
tavs
As
Bērz
CS
sti
vīz
šūp
##ilj
mazās
Priekš
personīgi
Katru
virtuvē
romant
augšup
Sociāl
vēt
##ela
##oll
##auca
pazem
vizuāli
akmens
iela
nedēļām
teiktu
Fran
bioloģ
Vasar
gum
mēb
##mju
##isa
nokl
iziet
##akot
##ojamies
##apt
skaists
akcijas
##atīvas
drošību
dārzā
sagatavot
narkot
Mon
Meit
og
##ban
##undr
veidos
tuvākajā
Katrā
mārketinga
Gul
galva
dažreiz
gatavo
dzirdēt
rīcībā
Tāda
godu
žāv
##mēt
##US
neinteres
##enas
vakars
dzirdējis
servisa
kustību
Kaln
Har
Nem
Sam
kg
##por
##enē
##ēlu
##emper
grīdas
##ēks
##ējušas
pilnveid
priekšlikums
piedzim
subj
leģend
42
loma
##nor
trans
kliedz
apmaks
uzskatīt
atšķirības
īsz
vielas
Saska
transportlīdz
Veik
##bo
##šiem
savāk
tādām
slink
Angl
pārsniedz
konkrēti
48
Ieva
mis
mit
sf
Att
apsūdz
sastād
somu
##bu
##pāt
##etēm
progr
piemērot
lēmuma
nesaprotu
noskaidrot
oficiāli
gultas
pēdas
Di
Ob
neļauj
##ach
augs
pavēr
nepieciešamas
attīstība
saņēmu
novērtēt
Pašlaik
likumproj
Juris
mald
##Ls
pārvad
##ode
##ušā
noteikta
uzņēmēj
##ināsim
virsrakst
dizaina
vielu
##ujor
Ceru
Piln
Sec
šajās
galv
nepieciešami
Galu
kājās
##otnes
##ītēs
laikus
joc
domāts
neder
autoru
##īgāku
atbildēja
miljard
banku
ge
zud
atļau
##ira
attur
##ionā
Izmant
saprotams
pamats
attīstīt
operētājsistēm
pārbaudes
aizmirs
infr
summu
stacijas
##PA
pārējās
##inājumam
skaistu
sekas
ierīci
pieaugums
piedāvājums
attieksmi
##pilsētas
Holivud
Mih
host
kū
iebrauc
lasa
apstiprina
receptes
Pan
Viļ
Wi
naf
Ņujor
##zi
##its
atteik
##īri
##andas
pannas
allaž
beigas
apjoms
mīlestība
apgalvo
99
Kan
Lind
nama
manai
##ulu
Izskatās
Stok
1000
portālā
ķirb
##āšanās
##ējāmies
##oram
pirmizrād
##opu
brend
##nieces
ielikt
##embris
Salīdz
iekārtas
rozā
priekšrocības
kai
##zd
gadās
neatceros
paciet
medicīn
jumta
Bild
##illes
atgr
Izvēl
ekrānu
lasītāju
drēbes
olīveļ
39
Gust
Super
fiks
##mul
##iji
parlam
pieliek
pirmajiem
mazais
kārtība
lasītājiem
pieeja
Sky
temat
Daži
Valmieras
##ikām
2002
profesionālās
televīzijas
##akter
piest
apdz
apcep
##rītu
nedar
izdal
paveikt
karal
virk
izslud
apliecina
oke
taks
##laid
aust
akciju
##āzē
matus
braucam
ieraksta
##vietas
nokļu
ārzemju
Mārtiņš
ain
##ment
##ājums
līdzīga
daudzus
vietējā
##ight
atbildēt
ekspert
jūtos
Mazliet
Noteikti
Būt
##aip
##andr
jaunie
atbrauc
spēkiem
mašīnā
stila
mērķiem
Dab
##ātās
laukos
kalnā
zivju
uzraudzības
Sald
kodu
##odi
##obi
klik
##īzē
##alizācijas
svarīga
speci
uzmanīgi
ieraudzīju
hot
lin
atļauties
##elēm
##imi
mazāks
##ibr
rakstura
iegūtu
Patīk
komentāru
RSS
burtiski
Dep
ejam
leju
##omb
##aps
Proti
ievēl
saistīta
pakalpojumiem
ieraksts
vēsturē
EUR
Sek
Tall
pūl
##amus
##ājusies
jāpie
saraksts
dzīvoklī
Principā
lim
šajos
##ET
##onedēļ
jauniem
sveic
veikta
atšķirībā
vēsturi
apstākļiem
Laura
pogas
īsi
nolikt
##use
vecs
modeli
smagi
laicīgi
Mal
##ējiet
paslēp
##iers
karav
milzīgs
Droši
##īsimies
vitam
atpūsties
BM
pārveid
##ick
trakt
##ēnas
izmantota
vīrieti
pasākumiem
jāpār
avots
departam
iekārtu
##our
##amos
piezīm
kādām
britu
##ieži
stāstīt
piecus
iebūv
suns
kontekstā
angliski
dieg
gau
piens
ķēr
##40
##ātr
apkur
##ījumam
skatos
iestādēm
sadarbībā
pienākumu
biroja
EK
cir
sild
zag
##sē
##otajā
##eku
##evs
izmantošanas
dažāda
attiecīgās
##ētājus
Kasp
frak
sviests
februārī
Dienas
Foto
##daļas
##edž
iespējamo
šķīr
labāku
skolotāju
sajauc
netiks
iestāde
##ketbol
asfal
##oun
iepriec
klim
piemīt
##plūd
sekoja
skrējiena
Pievien
##ey
##box
apsk
pretim
turpināja
mati
##ēvs
avār
iemesla
interesantas
ikviens
##inātājs
Māks
Pak
Roz
Tele
kaun
##50
uzp
##iskajās
turn
zeme
priekšstat
Stāst
Skaist
apgroz
jāc
nēs
negad
iesk
vērot
filmai
pretend
īpašumā
##īgākā
stilā
mīklas
dzērienu
jāveic
Ter
riņ
manam
sastr
labāka
Pateic
nodrošinātu
dators
tehnoloģijām
pavadīt
būvniecības
skolēni
Artis
Oper
rat
tw
##ha
##orn
pašn
iekļauj
##iļas
īstais
garšvielas
četriem
##astrukt
attieksme
Rakstur
tīklos
tēva
PSRS
Drau
Sabiedr
##udz
##šoties
##rīt
##kon
spiest
dienai
##uka
ierīču
##vert
policis
##berga
mīklu
ciemos
pipari
pamēģināt
Ieg
##okas
##ēdu
vidējā
Izglītības
pienākums
distances
summa
Serg
AN
trī
##līd
##šus
##alā
uzliek
##inātā
ieteikt
labākā
iepriekšējās
izstrādātāj
publiski
produkta
izglītību
slimību
institūciju
##odroš
Lau
##ostu
##ane
reāl
spēs
veidojot
krāsā
rīkoties
produc
rīcību
glezn
Radio
uzglab
Lid
meita
##ātie
apņēm
iegr
vēlies
iesaka
##istus
raksti
##maņa
##efox
lapām
dzimt
atvēl
agri
telpās
iespaidu
Neviens
Katram
respond
pārmaiņas
Gu
##liec
##vietu
##agu
miltus
izraisa
eļļu
detaliz
baigi
##inoša
pārz
##ušais
augstskolas
stāvā
auduma
ziedu
nolēma
sarežģīt
metrus
eļļas
efektu
III
##fin
##iti
##ole
jaunajā
sievu
nopirk
dzīvokļa
izbaudīt
Pilsēt
uzc
parametr
nesag
cenšos
saprastu
piedāvāja
telefoniem
vidusskolas
trases
universitātes
Beigās
ml
mist
viņām
dzir
##ica
Apm
stundās
diž
biroj
soda
Ātr
##ūrī
##ates
##ili
##ilka
dzert
reaģ
paskr
būtībā
katrai
sapul
nodarbojas
uzmanība
atceras
ādu
nepieciešamību
Amerikā
elektronisko
algas
dinam
##NS
izvēr
##iskai
kleit
Nees
speciālistu
portālu
nokļūt
ieplān
atkritumu
Edgars
Teik
Vienā
tant
zināšanu
##mē
##šie
##KĀ
##urb
divreiz
izmantoti
pazūd
programmā
aktos
dzīvokli
Toreiz
fas
##ciet
##ķert
##ws
nostrād
##erim
vēlmes
karte
brauciens
Skaidr
variantu
teikts
izbeig
brīnums
metro
janvāra
Sapr
sien
vēja
##āg
##dal
##dams
##ķī
##isu
##otus
##ējai
vistas
kok
patlaban
rep
līdzsvar
ielām
satrauk
Star
internet
studijas
cerības
nepatika
neaizmir
aizgāja
tumsā
ieskaitot
##oot
##bur
##ems
iepat
internets
amata
sēdēja
siltum
saskaņ
baudīt
Cer
Dei
Iv
trauk
##utu
##term
traģ
##ocijas
citād
lietā
##ināšanos
autora
braucu
mēģināja
svētkiem
lūpu
dzelzceļa
Stokhol
Me
##oķ
##igr
vairākkārt
jābrauc
lielākas
prasmes
nezin
piecu
raksturo
struktūr
##lus
##tis
izkāp
##ska
īpašības
runas
padome
displ
nenozīmē
Vol
du
moc
sejā
Ūd
##šajiem
nemit
līdzās
##kriev
zināmu
reklām
tomātu
citrona
rīv
tol
vīna
##ļāva
##usī
##oras
##īcijām
attiecīgā
##īgāko
Daudzi
tautsaim
infrastrukt
GB
Tautas
itā
rīs
zāb
##ly
##oč
##erī
izlik
jauka
ierīk
##kust
identif
attīstībai
partiju
##ājušies
jāatzīst
mīlestības
Dod
rīts
##anž
pārm
pāriet
austr
vecās
daru
kviešu
gaismu
nozieg
Tehn
jebkurš
Dieva
info
piekrit
deputātu
ezera
neiespēj
puisis
dob
nežēl
##elī
##olū
pārvar
darbos
nebeidz
piedev
formātā
nākamais
Pasāk
palielināt
punkti
jādomā
mirklī
maršrutu
firmas
Sest
mač
##erus
aizdev
divos
vīrieša
notikumi
vilcienu
atskait
sastāvdaļas
Mer
Maks
lek
vest
##rā
##aiti
patur
##īsiet
##ozi
ietur
dabā
grūtāk
noteiktā
sagaidīt
medicīnas
Firefox
Vienu
er
##ints
kurienes
ieņem
##ētājam
skrējienu
autore
neapmier
skaņu
LVL
sajūsmā
igau
gāju
pantā
##ienē
parkā
##ēka
lietotājam
##ušie
jautājumos
ražotāji
kompāniju
kreisi
izšķirts
Vācijā
la
sā
##izāciju
patstāv
stim
##ogā
jaunajiem
attiecībām
atpūt
trasē
ikvienam
muti
ch
dī
##ament
##āro
atdzes
##iegt
ielās
Atceros
procentu
Baltic
slimnīcas
nopirku
aģentūra
slapj
600
somas
##net
##dis
Visb
##glāb
nenorm
ierīce
iesniegt
Igaunijā
izvairīties
nabadz
Jaut
Linux
ta
šu
##oļu
koks
daudzu
sāks
brīvu
mobilā
plašāk
līnijas
ignor
Apr
vāra
##cin
pārvērt
intel
lasi
uztaisīt
muzeja
tendence
jēga
arhitektūras
HD
Ph
Sw
sodu
tilt
##āne
kops
strīd
##āzijas
īstā
epiz
Bērnu
bilžu
Su
Tom
Tevi
niek
##atur
##āji
trij
garlaic
balvu
organis
bildēm
##malc
Krievijā
sīpol
dusm
Jan
jūtu
##TV
##ānija
##icion
pašs
augļu
##ektors
vienkāršu
maksu
abon
izveidota
pārdošanas
mašīna
aizdomas
punktus
kartupeļu
aizbraukt
Tai
mud
tēt
iestrād
skār
veidiem
196
##runis
nedēļa
pašvaldība
konflik
nedzird
statistikas
maksimāli
elektroenerģijas
Eur
tī
gredz
Latvia
Konkur
albums
grāmatvedības
38
Kor
Word
hor
risk
sint
št
##ānos
turēt
rakstus
gadījums
neatrad
norādīt
malu
adv
koncertu
Pašvald
trūkumu
basketbol
temperatūra
velosipēdu
Latgales
nekavējoties
Mod
rul
ģērb
šal
##čas
##otograf
atdz
prāta
##prec
teritoriju
robežu
negribas
enerģiju
Internetā
kredīt
standartu
sācis
##ories
##aksta
veikts
sagaida
##katās
Jaunais
##ūgt
Jelgavā
palasīt
Rēzeknes
is
##žam
noš
uzkar
stiep
labvēl
maksa
virsu
mirst
materiāli
mēnešos
Otrkārt
pienākumus
konstruk
pod
seja
##bal
##AM
nepras
krast
##ersī
mini
Program
vada
matiem
izlem
sekundes
lejupielād
02
Dis
jūrā
##jūt
##ones
##skāb
traki
brīvības
brauciena
veicot
pozitīvi
Daugavas
pietrūkst
Past
lent
īsu
##ējams
spog
dramat
būtisk
dienasgrām
fiziski
centās
base
morāles
##OL
##cijai
pieeju
nodot
ietaup
Krista
attiecībās
palīdzēja
vēstuli
konkrētā
##ceļā
Neko
svaigi
##astrof
aplūkot
Veselības
Baz
Res
lauz
##VD
##inošu
##ārus
Atcer
Attiec
vajadzēs
brīvprāt
nomier
projektā
tun
ļaus
##aņu
##atr
##iki
esošās
izdosies
pilnvērt
2001
saistītas
dārza
sulas
izmaiņām
likumd
##10
##inn
krūz
interešu
šof
iekar
ielād
elast
velo
diskusijas
mājaslapā
rupj
Norm
Tv
eju
gāz
mēt
##ase
nogād
##īgajai
attaisn
maija
##iķiem
ieguldījumu
Gandrīz
ledusskapī
nepārtraukti
PR
ag
##nām
##apkārt
Latviešu
nepiem
##esties
pretēji
skolotāja
sabiedrībai
latvieši
tiešs
Jaunā
jēgas
Emīl
paaudzes
lā
sienu
ļāva
##kās
jaunāko
mazi
komf
vairākām
galer
nesa
Jāņa
pētersī
milzīgu
biedru
izteikti
normatīvajos
pagatavot
tējk
Komentāri
Tele2
He
Iel
Mājas
Piet
##ikācija
##eres
##ojumos
##elp
navig
laikm
##īgāki
sanācis
robežās
Ekonom
Saules
Wh
ziep
ļaut
##opa
pusdienas
saboj
notiekošo
uzsvēra
veicina
pakalpojuma
mirdz
izlasīju
rindas
Internet
albumu
nepaman
Sc
Sap
rei
##olej
##inātos
##ovad
padev
Vienīgi
kultūr
Zemes
režīmu
dubult
ābolu
apgrūt
uzmundr
recepti
piespiedu
Dan
##otajiem
##īgajam
##onst
##api
mazg
radīja
ūden
noteikto
maratonā
vasara
sadarbību
smarža
Katrs
Kultūras
neied
##ores
nepazīst
dzīvoj
ārsta
##tiesības
sapņ
grupās
##eksu
sudr
Nevar
automašīnas
##ovskis
##ētajām
premj
auk
ieskr
vietējie
piesp
atvain
kilogram
vadītāju
smaidu
kalniem
Piekt
azartspēļu
03
fona
##oņiem
##th
##otām
##īzijas
##lietas
simpāt
mīlu
Kurš
kartē
punktiem
inval
Abi
pacientu
ēdamkar
Vajadz
Bir
##autu
atalg
apaļ
vēlams
gadījumi
norādot
malt
meitas
##pp
##opt
dienest
komit
tiesībām
satikt
lieku
meiteni
dial
džemper
dīvaini
Rec
##ūš
atrād
nenol
īsto
dalībvalst
piemērots
ārstniecības
māsa
atļaujas
Raimond
ekskurs
lāp
tus
zināju
##adās
paiet
laimes
##rīna
klajā
##smē
tuvojas
gaisma
##puses
nosaukuma
atgādināja
distancē
literatūras
izklaides
dedz
veter
##jēdz
##ītim
##itācijas
nepil
šķīv
beidzies
Air
Met
##ārās
jāz
atļauju
sugas
Dal
men
niec
##cipl
##ķus
izkr
##ītī
prātu
inov
##okus
pilnas
algu
zvanu
Saeimā
jāmeklē
automašīnu
pabalstu
Raksturvārdi
51
pauz
##šin
##KS
##stāst
noklaus
izš
##ītīgi
vaic
lielisku
mazie
ceļojumu
atsūt
mammu
institūc
smaržu
asociācijas
##ublic
LETA
quot
06
Ren
Sag
zīd
zāli
Šāda
##pul
##ādās
##īvo
##oper
saš
ierind
Andrejs
punkta
vag
##iņdesmit
izkārt
##orl
attiecīgo
augstas
grupām
Alber
jāsāk
apzināti
numurs
bikses
paralēli
apakšā
##formu
##nozīmīgi
Niklāvs
piezvan
Meln
Sept
pūd
##īvā
trāp
ceļi
putr
grūtības
##griezt
sievietei
apskatīties
nelielas
taisīt
reklāmu
siltuma
realizēt
uzdāv
reģiona
institūcijas
Stud
BMW
09
Pāv
Ro
ex
##tml
nešķ
redzes
plāni
tērp
rekom
pusmaratonu
Flor
Francijas
lomā
nik
šļ
##iksēt
nodib
ilgterm
kompon
pienācis
politiku
normatīvo
nagu
Spr
rām
ēstu
##pektīv
nerakst
nof
uzlikt
##irtu
atpaz
##ičs
eksperiment
Saskaņā
##sird
##iesmas
nevain
Atšķir
patīkams
vērtē
strādāja
mācās
ministra
simtiem
āda
Nekad
jūlija
kriminālproc
brokastis
Mūz
Žēl
##aiņa
##dzēs
##tuzi
izšķ
vienlīdz
inžen
vēlētos
##aksu
svaru
masa
saimniecības
skriešanu
pārsteigumu
kilometri
VID
Mēģ
##jut
##iber
piedod
vecumu
sasmalc
pazaud
elpu
galvenās
##ojamu
notikums
jebkura
180
infl
tukš
teorēt
rekomend
Bel
Sad
jūru
lem
##ish
izskr
jaunumiem
mazajiem
lietder
lasot
īsts
veikals
valda
Pāris
materiālus
zvaigznes
Viņiem
Īs
##aa
##jos
##iets
papr
pasarg
aizskr
veica
sapnis
ietekmēt
Reinis
maizi
smadzeņu
Sac
naz
piebild
dzin
kopīgi
datorā
ietekme
skriešana
meklēšanas
mediji
šķīrēj
##ikās
tostarp
līdzīgas
##aidīja
paklaus
Izs
vērtējums
atmiņu
posm
izdomāt
46
65
Cetur
ul
apels
##ījušas
##īvas
##eicies
pārlieku
pārdod
studentu
ķermeni
entuzi
Up
##TU
##illa
##ālie
kokt
steig
##okš
##ezid
aktr
norēķ
vīra
mierā
dāvan
palikusi
guļam
pārsteidza
saskatīt
laipni
Sim
Vel
ses
##aņas
lieliem
##ēdams
reize
asinis
brīžos
izlīdz
materiāls
noderēs
tūristu
Nacionālās
Rūķis
vēstules
ietilpst
Bieži
Iep
Nob
On
pik
rītu
nogul
uzklaus
##itāšu
##ula
maziem
neskaita
miltu
iemīļ
kredītu
My
tot
##alīdz
##ājs
izej
grādiem
mazos
ātruma
sievas
sajust
pilsētās
amb
saņems
nākamgad
avi
adreses
sestdien
oriģināl
##DD
##okam
vairums
vecmām
reģistrā
Otrs
nākotni
projektiem
Vilnis
saites
bāriņ
Gada
La
LA
sel
##punk
##80
##umul
##ente
izmantotas
ārvalst
##lash
skatītāju
##aigž
stāsti
sadaļā
pētījumā
tīkls
velk
paziņojumu
Filmas
smieklīgi
41
800
Lap
Max
Īr
##dir
arīdz
rakstīja
šādām
rokdarb
analīzes
saiti
nekustamā
Mak
veln
##eed
uzkāp
savi
jaunat
salik
mājok
medikam
modific
gabals
pieaugumu
kļūdu
konkursā
arīdzan
Viņai
zelt
##za
##ādām
jaunām
veidots
simt
attēls
statusu
tauta
Zviedrijas
bedr
lauksaimniecības
43
LU
Ukr
akr
bit
##ear
##ork
apņem
##ulas
atteikties
dzīvības
būsim
iekāp
Prof
##ūda
neatliek
##lay
izlases
vēsture
jānos
līniju
amatpersonas
pirkstiem
Bite
##valsts
parasts
klīn
palai
minēju
vidējo
marin
asin
prasību
miera
versijā
fonda
##sland
izcelsmes
pedagoģ
koordin
jāgaida
Cena
hron
vieni
reform
##inātāju
kru
satr
##inieka
runāja
gaidu
gaismā
slikts
tempu
instal
dārzeņu
Zvaigz
Berl
magn
##gār
##rit
##ardz
##orator
lietojot
##šķer
cenām
spēkus
izskata
tevis
izstrādes
politisko
Džons
apstākļu
istabu
šosejas
44
Phone
lēc
##metr
##tube
##onīm
laist
##ule
skrop
pretējā
skolās
novirz
svara
zīme
nozarē
debesīs
praksē
Kru
LG
bērz
##atch
##urk
līdzeklis
normas
pietiks
##mane
meklējot
Līdzīgi
biedri
piparus
filmās
iznāca
kaisl
ras
raug
apdzīv
iestat
##rub
klusi
##ozīcijas
Prom
##migr
atšķirība
ekonomisko
teiksim
kopējo
ev
vīn
zonā
Šādi
##adu
##tul
pārg
mantu
ieslēdz
līdzdal
iespējama
##uku
##anda
filiāl
##atīvs
tuvāko
viesnīcu
četrus
analīze
pazuda
Con
IS
Sol
vīnu
##eč
##iešanās
nopr
##ājamies
##ilu
dzijas
##raukuši
nepas
jāaiz
skrienu
vīri
iztēr
mēģināju
materiāla
Varētu
autobuss
nodokli
skolēniem
summas
durvju
šito
treileris
bāz
gaum
hal
##mēm
##Pr
##iskajos
##iskajam
pārmet
greiz
skrējēju
Bor
Ogr
Sta
sn
##jus
##ēž
##LS
##ero
##ājumi
##antus
garša
##uša
pētījumi
virsot
tēmām
biedrības
resursi
izdomāju
silts
pensijas
kuģa
puiši
Blu
Olimp
Saim
##ģis
infek
darbībā
trek
pirmos
ieraug
autovad
vadība
vakaros
##ostas
sabiedriskā
apgabal
Gruz
Tar
Zaļ
##čs
visādas
pasaka
minēts
izmantošana
tirgu
aktieri
atklāja
pārstāvjiem
upur
žurnāla
traukā
naktsm
Nesen
ģimenei
ieteicams
cepeškrāsnī
Mus
Sak
Saj
benz
zināja
##daž
##ags
bremz
brālis
##oloģisko
programmām
izbrauk
palikuši
pievērs
vienaldz
Pac
mand
##eģet
kaimiņ
braukšanas
Sākotn
Pier
##okā
##ezn
pamest
veikti
pagastā
ant
skola
gatavot
vilkt
sirdī
paziņo
saņēmis
tradīcijas
kolēģiem
ieradās
nonāca
lūpām
stūres
Ivars
Jāatzīst
izklausās
jogur
sīru
nokārt
izrun
##eim
##āle
griež
spied
##āvu
veca
ieliek
darīts
##drīzāk
uzsākt
saņemšanas
dokumenti
izmaksu
Pateicoties
Iet
bun
fav
raib
##AP
pasak
vadībā
trešais
nobals
Polic
izskan
nenotiek
Iekš
Kuldīgas
Miha
##bl
##IT
##stories
##ādē
##ech
labās
slid
kārtības
roka
palīdzība
procenti
īstam
120
ienāca
mūža
posmu
lietuv
atdal
Lietuvā
dizainpar
aktivitātēm
49
56
UN
rieb
##kulis
##ster
skand
##inātās
##icstories
redzama
apmeklē
##gles
atpazīst
dalīties
iztēl
iepirkt
atbalstīt
padomāt
sanāks
spriest
drīzumā
starptautisko
pajaut
perspektīv
Gulb
akl
ogu
taup
##āšanai
skatījās
Inst
attīstībā
ražotāju
pavada
sēdēt
skaistas
monitor
Liene
Neliel
Aud
jap
loter
raudz
##ong
apbrīn
Aps
##īgākie
atbildības
izdevumus
itkā
dokt
salīdzinājumā
iestādēs
ēdiena
atkārtoti
Jāsaka
pašnāv
##orld
pī
##vām
##vers
##cm
##AV
##auš
nomaz
savdab
##ide
neskaidr
nodaļā
vidējais
##laiž
plašs
sēņu
detaļas
pudeles
recepte
bibliotēkas
Padomju
tan
zonas
##mail
##nim
##ķest
##empl
##ināšanām
katastrof
sasod
darīja
saprata
mainījies
audio
klienti
iecirk
krēms
##armon
fakult
titu
##OR
##AU
##ītr
krāp
ierēd
nevaram
neatr
idi
lieki
terap
bildē
saimnieks
fizisko
ziņots
iespaids
aprīļa
ārzemēs
Neesmu
85
bied
pīp
##iol
##aju
svaigu
pamet
vecu
stāvu
forma
##vieta
uzmanības
dizains
motoc
Neskatoties
go
##māju
##samb
##āža
##30
neie
vēlamies
##ops
nepaz
dzīvību
komers
vietai
nospied
drav
anti
norādīts
Skandināv
konkrēt
funkcija
portāls
redakt
cīņa
pakāpeniski
nopelnīt
kvalifikācijas
rezerves
Dev
##oņ
##āras
##orus
##olid
skaņ
lielām
nepav
nepac
dabu
stundā
nenāk
atradām
aktuāl
zāle
##uch
##eņos
nosūtīt
plašu
kapitāla
ritu
Šim
##ākām
##eiktu
jauniešiem
balvas
iemīl
##oloģiju
īpašas
procentiem
svētdienas
piemēru
ziemeļ
reklam
varēsim
Zemgal
lidostas
atsauksmes
col
##ound
##IL
##ūšanas
##umeirop
##āris
notikt
##istam
##ovas
Manā
skaties
Anna
novembra
zināma
slimnīcā
draudzene
dāvanas
stāvoklis
sastāvdaļa
jūnija
astoņ
USB
Holivudas
##VO
##amību
##ērijas
stend
##ēku
skrēju
salikt
Ant
īpašnieki
daba
caurspīd
mazāka
malām
reģistra
kultūru
mērķtiec
tautu
nesanāk
programmatūras
Siguldas
gūst
iOS
##kor
##olit
regl
redzi
baltu
medu
Pati
ražot
melnā
nāvi
zivis
Bo
OK
namā
##iča
##dras
gran
nevien
marta
runājam
vesels
##tein
frag
izriet
ekonomiskās
sēdē
ugunsk
Autors
discipl
ķermenis
Aleksandr
Finanšu
Būtu
Mart
intr
mazgā
plānā
attīstās
piekļu
iztikt
ražotājs
##own
zaudē
augusta
termiņš
klients
vaniļas
Glu
Sy
lam
##fl
##habil
##ciņu
varonis
grie
sāksies
minētās
videi
veikšanai
izvēlējos
prieka
zvana
##darbību
dodos
uzdevumus
period
precīzāk
depres
semin
ieslodzījuma
Jebkurā
Māra
bēg
##ajs
##ekļus
##āvās
pavēst
##niecībai
ansamb
pētījums
sliktu
teksts
aizsardzību
Sandra
smalki
##sardz
propor
IR
Jauk
Pērn
līst
namu
ogas
tonis
##auta
##ulēt
##oza
veidi
daļās
aks
##ega
Ing
Atp
Krimināl
novēl
dalību
gaiss
partija
biedriem
##ovska
nesteidz
Brīvības
##instal
naftas
Pamat
##alis
##iesmu
skar
stere
noties
Visiem
neizs
kalt
skrējienā
portāla
gulēja
izklāst
mammai
slēpjas
zaļo
pacientiem
klikšķ
08
IM
Lā
Ub
kūkas
##mīl
pārgāj
##ogiem
Latvian
slīd
bloķ
pank
neatbild
##ināms
Vienmēr
Marat
uzdevumi
atrodams
pusmaratona
nevēlas
##pilsētā
nepareizi
Jēkabpils
partneri
pārspīl
Aig
BAL
lug
nam
##ķim
apli
##ūtos
spar
pirmoreiz
domāja
##ušajiem
nevarēs
mācības
##prātīgi
septembra
Otra
biezp
ieraudzīt
tendences
52
Osk
ber
ienes
lamp
##dom
##att
##avām
esošā
dziju
##inājos
izmēru
iespējami
redzami
195
ievies
dzīvesveid
Lielākā
skrējēji
atbilstošu
banka
Pasniedz
sezonā
protest
cīnīties
sēkl
Can
End
IE
Pur
testa
četru
Ķīnas
##ads
uzsp
līdzšin
kārtējā
lasītāji
samaisa
milti
spēlēs
##īgākajiem
atklāti
organizē
nekādā
masas
uzvaru
autobusa
pateica
tēlu
Liepājā
Pētījuma
59
Kun
Mu
##vuši
##eka
iespr
##inātāja
trep
dienests
militār
uzņēmumam
brīvdienas
##ēķinās
simts
funkcionāl
nokav
īstenībā
pieteikuma
pasaulei
vannas
izpētes
dzelzs
atgriežas
##rimin
itāļu
05
Rud
Tika
##ba
##EN
##ojošo
##untu
krūm
lielam
dzīvoja
svārst
bezjēdz
Pieņem
viesu
reklāma
ievērojot
desmitiem
žurnālu
patēriņa
adrese
Vides
priekšlikumu
smilšu
konkurētspēj
Pārd
Rīt
koda
ēnas
atnes
pārējos
rehabil
##ānam
lietošana
parādīja
tehnikas
pārlej
apsvēr
apskates
jāskrien
draugus
atmiņa
pabeidz
iestādē
eksempl
degvielas
kārtu
nolikums
apģērbu
Sarkan
sadzīves
Amerikas
intelektu
##arh
nobr
kaz
nepad
lietošanu
dzīvoju
domās
Prob
Part
lasīju
##ingv
gaidām
zviedru
apmeklētāju
nākamās
##ēzi
Nākamais
cīņu
mugurā
twitter
kau
##alo
##ēras
varēšu
manus
klavi
daudzās
miner
sarīk
##aktiski
skatienu
Krās
strādāju
##ējošu
atrada
izlaid
apraksta
laimīgi
uzstādīt
Kaspars
47
Dar
Kaz
taur
##ašu
##ys
uzkl
apdar
varen
aizviet
aizbild
garo
ārstu
neizt
aprakstu
diskut
noskrien
nolēmām
piekrast
saziņas
stingri
justies
Neatkar
Ūdens
##co
parka
pārrun
pirmkārt
nepies
veidota
##luat
mūsdien
laukiem
viesnīcā
apraksts
Nākamajā
Likums
Sarun
tēvu
95
Ku
tavas
veģet
nelas
visapkārt
iez
stūrī
krējuma
vakariņas
augsta
prasīja
brīvdienās
##kopības
eļļa
pārskatu
efekts
rūķi
lētāk
mutē
komerciāl
ļaužu
co
vīl
##umbr
koki
laborator
##andi
priekšmetu
pieskār
Apskat
izsniedz
braucām
izdevumu
pareizo
nere
pieņemšanas
balsī
Ven
Zied
##gabal
pārējais
nepārs
sašu
priekšmet
sociālajos
svētkos
##ogrāfijas
Organ
glābšanas
Sil
ph
atveid
##ekven
##ojušās
jauk
interj
##īcijā
##ūves
veselībai
organizācija
pakalpojumi
elektrības
slikta
metode
ekspertu
pazīmes
PV
fig
##fu
jauks
##iecas
plāks
vietējās
nosauc
dari
valdz
brīvā
apsol
##ojāmies
meklēju
drošs
korpor
Paskat
tūkstošus
nepieciešamība
stāvokļa
sīpoli
kalpo
64
DVD
Lu
Mīl
##ekv
ieejas
apmet
kamer
anim
##nīcās
datoriem
minūtēs
ekspluat
nodarboties
aicinu
kvalific
koncerts
parasto
soļ
Kristīne
Kap
mic
zināšanām
āb
##inājusies
jaunumu
uzņēmumā
telefonam
saldo
apjomā
uzturēt
neapz
piekrīt
kārta
pievērst
teorijas
māsas
kartupeļus
defic
Runājot
Diezgan
Āfr
##IK
##aliek
laiki
labklāj
daudzām
akumul
Atbalst
##devu
saistību
zinātnieki
audumu
secināt
Baltkriev
dizainu
sešiem
Video
Divas
standartiem
nul
vak
za
##vusi
##ano
##ājiet
apēd
varējām
tobrīd
noteic
vietējiem
pagāja
orķest
liekot
gaidīja
projekti
vasaru
##pilsētu
sezona
termiņu
pavasaris
piesaistīt
Bār
Čeh
##sarg
##ļā
##ikšu
neņem
##eros
##ieta
lielos
##acea
parādīsies
kabatā
pilson
direktīv
dziļāk
ugunsdzēs
sīpolu
loģiski
saulē
shēmas
Daugavpils
tiešsaist
##Press
Gluži
Tuk
gļ
jūra
ēšanas
arod
##ēmu
katlā
##ands
Izl
maksājumu
abus
iedal
pienāca
noteiktas
treneris
risināt
nozag
##vielām
teorētiski
cīņas
rekonst
Bērni
lidostā
pārraides
ķīniešu
TO
Vidz
ilu
riska
sist
##ēšanām
neievēr
##ējama
manās
komiks
##ipu
būtību
gribās
lasīšanas
labākajiem
pamatskolas
īpašnieku
meiteņu
pozitīvu
pārtiku
Skype
##inies
##druk
patenta
aukl
kontu
brīva
īsta
aktieris
Brig
papildināt
izglītība
risinājumus
spraud
iemesliem
diskrimin
izgaism
mājup
auksts
cīņā
prezentācijas
harmon
##ge
izrau
prokur
##elties
tikuši
##entes
nupat
lasu
piespr
galvenie
piekļūt
situācijās
apkārtnē
izraisīt
rēķina
kļuvuši
maģistr
pagrab
Ain
Pul
migr
##ceļu
plūst
izmain
##skatu
vairākās
izmantoja
Pareiz
vārdos
193
ievain
skrējējiem
ziema
kontroli
nokļ
amatā
projektus
izvērtēt
smadzenes
04
lomas
nolas
##aļai
vecumam
Izdev
personības
##deva
politika
saņemtu
pārliecināta
apjoma
pagalmā
Hans
Pies
lī
oz
##ējošs
##elim
savākt
noteica
Priec
redzēja
radot
##ēsties
tālruni
vīrietim
stunda
strādājot
organizēt
šovakar
ieņēmumu
Viktors
KN
##EL
pieg
lielie
pirmajām
komēd
tiešā
nebaid
nedom
brāl
##itātē
ārsts
īpašniekiem
Uzreiz
puķu
svētdien
miers
papīr
suņu
budžetu
atgriezās
princips
pārkāpumu
fondu
kosmēt
dvēseles
Inese
Sun
kant
Ģim
##āā
##dzis
##osu
apgād
##ims
##press
##dru
##eiks
aizsk
turku
ierasts
mēneši
Savu
Tren
materiāliem
darbinieks
attēla
stilu
albuma
pieteikumu
krīze
negaidīti
Itālijas
WordPress
Mel
kail
tavā
##IKA
##ārņ
##aidi
svār
dome
pusei
acs
runāju
trešās
Tweet
absur
tiltu
jautri
ērtāk
nesanāca
Pagājušajā
DS
lit
mm
nācies
poga
##bēg
##DR
##alc
##ade
##ējumam
##osp
##ekcija
##imetr
esošajiem
stād
slied
virsp
##īdi
idejām
tehnisko
publisko
koncerta
tauku
Reizēm
reģionālās
##aigžņu
bai
lauc
##ours
##LV
##ēls
pārv
iegriez
pastr
klēp
nākt
samazinās
virzienu
autobusā
tradīciju
Zemāk
izprast
vilciens
piektdien
riekst
Paul
ps
##mās
##mēn
##ith
pārtrauc
grādu
vect
skatīt
izvēloties
uzņēmējiem
latviešiem
Savā
Tikmēr
normālu
rīku
Sporta
futbola
baterijas
Open
Deb
Play
Tos
Van
Zinu
dotos
fen
nū
šuj
##lāb
##TER
##ūkl
##ases
##inī
nomin
##ējoša
kapēc
visdrīzāk
##ījušās
kursu
viennozīmīgi
palaid
sākām
##acis
nedod
sasp
##onda
burb
zīmi
speciālists
saldējumu
zaudēt
rādīja
uztvert
##maizes
favor
kūku
loku
##ņai
kursa
tikusi
##opul
izmantojam
ievār
glāzi
putni
milzīga
piedzīvojumu
Blog
ķirur
lidmašīnas
atnāca
reižu
cūk
kvar
lpp
izglāb
##ācām
patri
staf
pasaku
##ilda
kārtām
vajadzīgo
teicis
notikumus
Tikko
atstājot
novērst
objekts
protokol
siltu
Administr
čempionāta
aptaujāto
miegs
dabūj
armijas
cimd
folkl
Ev
Vērt
rikt
reib
soci
tml
##ļav
##ējoši
##ējošā
##ire
pārp
##arbojas
##entos
rakstiem
redzētu
Inga
saprāt
ilgāku
simpt
logiem
##viela
pieminēt
ugunsgr
efektiv
jēgu
Aivars
specializ
Sāku
siers
##pi
##pend
##ušu
##nos
##ūb
##ansēt
##ērc
##ojušas
##okr
iesākt
līdzvērt
izmērs
domājis
minētā
##uto
paved
ilgs
augstākās
izveidots
pārstāve
pieņemu
aicināja
mīksti
gaiši
Pavasar
kategorijā
īpatsvar
smaržo
Pils
gājām
lig
lukt
##sol
##balt
##iew
##atām
vienošanās
kokiem
##akstu
labajā
##diens
būsi
Izm
varianti
Kādas
Mūsdienās
##materiāl
komentārus
seans
Zviedrijā
nomainīt
tautsaimniecības
Red
est
mij
izmekl
nesam
Visa
spēlēm
netīr
sabiedriskās
studenti
dziesmām
##ūns
pārliecību
ticēt
brīnum
ideāli
traucē
Pēteris
šķirnes
Im
litr
risku
Īst
##ger
##asi
##enko
paēst
kontā
pieteikties
Pirmās
puiš
šķietami
noteiktās
Elektr
priecīgs
faktors
reģionā
retāk
izstādes
Kārlis
cieņu
Mihaels
nepaciet
risks
takas
##ājāmies
##omp
##ieto
tikšanos
nepiek
telpa
redzot
balts
baltā
balto
##ceras
jautājumā
nezināju
amatu
izdarīts
Lielā
izlaist
sauca
metodi
iesniegumu
resursus
motor
pierādīt
kastes
suni
popularitāti
rasties
IP
Pir
Ziņ
tac
Šveic
##avilk
##akām
apšaub
spons
##tera
##aine
mazāku
##aktī
gribam
šādos
uzsvar
kultūra
logo
aicināti
saņēmusi
muzeju
čempionātā
Helēna
aizmugurē
tolaik
54
Māc
īstu
##DA
neitr
viņā
vēlēšanām
##iežam
##ovu
pieteic
trīsdesmit
nodarbības
##arda
cerību
rajonu
piereģistr
sadarbība
atrodama
datub
sarežģīti
Cilvēks
aizraut
lepn
ausīm
failus
televizoru
degunu
nelikum
IZ
Mill
Top
##vin
##alai
##etas
##ālajiem
##izdab
labdar
##īks
ceļojums
veiksmes
nevari
##dzīvo
lasām
##oloģija
Patentu
gaidīju
apsēd
risinājumi
friz
Iesaku
melno
Plān
nepieciešamās
spēcīgs
Dažas
uzlīm
noslēpums
apbalv
dabūju
viedtālruņu
Londonas
krāšņ
Cēsu
rāp
sedz
##pap
##onija
prāts
##ojošu
pietuv
lietošanai
##ūri
ātrumā
##ingā
vajadzīgi
Store
svars
aktiem
Krievija
īstenot
tumšs
HTML
gājēju
##saimniecības
Austrāl
licences
##XXXX
Amaz
Tomas
biš
##ķe
##čiem
##ali
##ākam
spož
##ošam
kautko
redzējusi
redzējuši
piesardz
vesela
paredzēti
veicināt
sapņu
pašvaldībām
pareizāk
spēcīgi
mērķa
struktūru
okup
puķes
menedž
Sākotnēji
Of
Qu
Sku
Ur
kung
##oil
##ātais
apkar
##ules
lielajiem
plūd
nedomāju
būtības
##over
pamatojoties
blogiem
##ances
##veidā
dalībnieks
rīks
Dzim
preciz
tempa
lēmumus
konsolid
dāvana
kļūda
tumši
brīnumu
atskan
parastā
trase
norises
līderis
nerunājot
departamenta
Deivid
ūdenskr
bau
baig
veļas
##bērn
neir
##etē
##irb
spējām
braucienu
ražotājiem
publiskās
##ower
avotu
kabatas
Varu
##griežas
piešķirt
periods
ienākumu
jādodas
nacionālo
spilgt
kulinār
žanra
mīnus
pēcpusdienā
slinkums
sīpolus
skārien
AT
PH
čak
##nam
##cr
##celt
nodz
krējums
##ūrām
personāla
##gle
augstākā
tehniku
viegls
pienākas
garšvielu
pierast
nobeig
tējkar
Londonā
Dāvis
nenoliedz
Profes
Dub
druk
dūm
dakter
lop
##asa
##enei
pief
kokos
##epar
jāb
veidošanas
sastap
tālumā
pieskar
marķ
atbildīgās
paredzēt
konkursu
atvad
Labāk
Kādā
klusums
aizgāju
decembra
šķērš
Ubuntu
ARM
Gais
Mīk
Nom
lec
##cept
##Fi
##ises
apciem
vairākos
nodom
nodomāju
zemnieku
##zīmē
##laiku
novec
Groz
noliek
atbilstību
studentiem
cerēt
kalnos
kosmētikas
miega
kalendāru
ārkārtas
sēklas
savstarpēji
##ATO
pusotru
Sacens
Vies
Zelta
##amām
vienīgo
zemu
piemērota
korid
maiņu
uzrakstu
mīkla
periodu
Pēdējo
rīcības
debesis
mikro
varoņi
pabeigt
Satik
netraucē
etn
bažas
pusstundu
sastrēg
aksesu
##izdabz
58
BR
Nen
Reģistr
sārt
zel
##stāj
##ory
##ement
pārkl
pārejas
##ēniem
smejas
skatījos
uzskatīja
izdevumi
pienāc
pārdomas
plati
priecīgi
ceturks
sezonu
talant
komentāriem
krēmu
kakla
izpratnē
novadā
avārijas
##dažād
53
Ben
EM
Neiz
Port
meitu
šorīt
##kšķ
parku
vēlējās
atzīt
Grie
Spec
Katra
maiņas
kontrole
dēlu
panākumiem
advok
Sīk
feder
māti
nai
##ıt
paēd
tādam
##aukst
oranž
balsi
modeļa
maina
māksla
gabalos
konkrēto
ekrānā
teikšu
apstākļus
nopietns
energo
ziņojumu
budžetā
pieprasījums
principu
lūpas
staigāt
Eksp
referend
KNAB
AP
nı
##īņu
##ŕø
##amības
sākusi
##ube
gadījumiem
piedalīsies
apmeklētājiem
koncert
1999
pazīstams
##iķa
##IES
kartupeļi
zeķes
nenormāli
stereoti
##ıtŕø
nııtŕø
Brī
Skrien
dots
eirop
hob
mul
sauj
##line
art
##ādams
##osi
sākumu
ceļojumā
labākās
patīkama
izveido
treniņos
nervu
profesionā
palielinās
nolēmis
##stāvu
stils
nonākuši
atlikušo
nosacījumiem
##ātājs
seši
kandidātu
zupu
perfekti
apkures
nemitīgi
4G
Dob
šonedēļ
neēr
visdažād
##ulā
patiks
##ošajam
iesāc
##ainais
augļus
neleg
teror
padomā
Dzint
Tādā
Frei
fiziskās
maisījumu
patērētāju
eksperti
sēriju
izjūt
kodol
pudel
zobu
direktore
iemācīties
krūtīm
##quare
##riekstu
stimul
motocik
Riga
pīl
čūs
##CrossFit
uzstā
##trol
tiklīdz
nevienā
trokš
pamost
ielai
saknes
izskatu
ražo
pakalpojums
dzimuma
saraksta
draudzenes
Saeima
loceklis
konstatēts
fonds
Rezum
atrisināt
padalīties
Af
Civil
Gast
Kino
Per
Rom
Tiešām
pīrā
##bank
##atis
nogriez
##āre
apļa
##ūrs
atrasts
vecums
pusaud
skatītājiem
ilga
aplī
viesi
ievērot
konsist
atjaunot
iedomājos
intervijas
sižeta
aizliegts
ilustr
Des
MP
bak
disku
lup
wh
Šai
##isi
##inus
ieš
varot
##rāda
ierodas
##acz
##luz
saspring
Parlam
##kaņ
##sētā
Kriš
piesārņ
devu
putu
sniegu
izpildi
kustība
mākslinieku
muzejā
tēls
aptaujas
servera
bļodā
makšķer
kurpes
Francijā
principa
izcīnīja
WiFi
Sergejs
Daniel
ultr
LatvianCrossFit
AR
Kok
tēja
##lān
##zināt
##OM
##ūnu
laid
kases
troks
bezvadu
nodod
filtr
priekšst
sekos
norit
iemīt
skolotāji
piedāvāts
apsveic
normāla
iekšējo
instruk
teritoriāl
attēlā
jūtams
biļeti
gadsimtā
ievietot
asaras
Swed
tētis
Raž
mez
mac
maigi
sirm
##IC
uzrau
atmin
##onijas
lieluma
veidošanā
##nīcai
grāmatai
atbildība
svētkus
gabaliņu
1998
Polijas
paņēma
sižets
Valdis
pabalsta
atslēgas
laulības
būšot
Ekonomikas
Biznes
Co
Car
Kind
Tal
jomās
##egan
##īlu
uztrauc
sacer
redzēsim
netais
vērtībām
izslēdz
viegla
brīvību
mākslu
konkurss
politiskās
atcerējos
glud
Otrajā
kvalitatīvu
apmierināts
sasniedza
debesīm
aparāts
ziniet
Grāmata
Roberts
noklus
Os
Viz
fonā
fiksēt
kāj
##eor
##gru
##AD
vienādi
##istes
##lēgu
smej
kārtējais
samier
noved
prasmju
saistības
priecājos
finansējumu
iesaistīties
neparedz
fotogrāfiju
komunikāciju
sajūsm
apģērba
Turpm
slepkav
atļauts
##olejb
Sin
##vakar
##kš
##her
apēst
iesūt
citreiz
veidus
telts
būtiska
192
pārliecība
varēsi
autoriem
sāpēm
kapte
principiem
emociju
silti
režīms
stacijā
dārgi
kods
diskusiju
Chr
rosacea
Padomes
Agrāk
##egu
##ēžu
##PP
##iene
apgriez
lielus
##šķīr
neskat
##oze
normu
##akao
krāsās
glāzes
nelielā
gaitu
hokeja
neinteresē
Iedz
Lana
Ok
lāc
reit
##lad
##ijis
kaķi
gadīties
##ago
lietās
##skata
##spul
jautā
palīdzētu
##meņi
krāsain
zaudējumus
energ
sīkāk
Doma
pieprasīt
smalk
amatpersonu
remont
horiz
Gam
zupa
Āz
##ājumiem
izņemt
##elu
##imst
##raukl
pirmajās
sākuši
pavērs
skrēja
Prec
##ēģina
##alizēt
normāls
cerams
aprakstīt
uzvarēja
kanālu
pieprasījuma
biznesu
kaimiņu
##ANDS
karjeras
sienām
kokvil
astr
lieg
##ID
##ieģ
nokrās
pārmēr
grādos
##edit
##eklī
rakstījis
##atavo
redzēs
balz
informāt
starpniecību
plāniem
ikgad
atziņas
tempā
samazina
Joprojām
baudu
mērķus
pilda
piektdienas
Universitātes
700
KP
NATO
goda
kūka
mest
makar
zinot
##mājās
##daļu
norau
##enču
pieaudzis
apprec
##ūtā
manip
dzīvei
garas
##iedarb
smiek
##efs
##īgākas
skaidroja
paredzētas
speciālistiem
apkārtni
pieprasa
rīcība
noturēt
Jūrmalas
BBC
CV
Kons
LC
Sant
bund
kauj
nodzīv
aprun
laivu
##okļu
##ove
balk
salu
tiesīb
atstāja
operācijas
attēlus
plaša
siltumu
Nevaj
kuģi
samaksu
ausis
dēvē
šūnu
respondentu
ARMANDS
07
Kādi
Pic
Ziv
Ābol
##ašanos
##ED
netur
##ologs
triec
nesat
veidotāji
##iezīm
ikdien
organismu
nomiz
rīkot
garšīgi
maratonam
zaudējis
četrām
izpildīt
kontrolēt
mērce
privātperson
##maizi
Maskavas
Moz
hol
kemp
na
paust
vāk
pierun
saīs
dreb
drosm
vadītāji
gaidot
veicas
pacēl
notikusi
iekšējā
zaudēja
iemesli
biedrs
finansējuma
indivīda
Smart
vēdera
pārlūks
tīkliem
Ceļš
Murmul
progres
pirmizrāde
frakcija
Atšķirībā
Vit
bites
rand
vok
Škap
##VIS
##avās
pieejas
##rīk
pašām
##ierus
##igi
gadījies
spēlēja
##zemē
##ceļš
papīru
suic
vienkāršāk
termiņa
Vakarā
trūkuma
administratīv
cīnās
ķiploku
knapi
daiļrad
Iedom
PHP
SMS
##tī
##jaut
##āram
skūp
liell
Atz
piesāt
pēdējie
laukuma
atklāju
izrādes
valdību
vilnas
atradis
dārzeņus
priecē
iepazīt
rinda
sarkano
apvienot
sula
kilometriem
neatkarības
režisora
Sieviete
hipot
ģenētiski
Augusts
##kartes
dos
stikl
##unā
iesild
##eklēju
sakap
Arm
##ostac
pārsnieg
komandai
korup
nopietnāk
atrodam
izgāz
projektam
elementu
##iniece
investīciju
apstrādes
sinep
eksistē
platformas
Dārz
Mot
cītīgi
dikt
joks
kautr
map
somā
##ūpēj
##aušu
##ave
##avai
gras
krasta
##ušiem
virsmas
Stamb
stāstus
prasīt
apsar
izdara
izstrādā
atved
zināmā
zināmas
sugu
domāšanas
komplekt
Citi
##aha
struktūras
Savienībā
alkoholu
apgalvot
muitas
relatīvi
konkurētspējas
kampaņas
##vaidz
Informācijas
Brīd
Mag
šāv
##nedēļ
##aiņ
nopl
izol
##īji
nekļ
strau
slā
##lass
lasītājs
##ingt
ilgts
uzņēmēju
pareizā
Labs
dārzu
negribēja
mēnesis
institūta
elementi
pudeli
mutes
##film
apvain
izskaidrot
konceptu
Škapars
ABC
Būv
brauks
##ouse
##ūšanu
##ĪG
vēlaties
līdzjut
##andu
jautāja
##ender
vakardienas
pārlūku
ierakstus
cietumā
virtuvi
metodēm
pārsteigts
sasniedzis
ieteiktu
nekustamo
jutos
festivāla
Ideja
Pievieno
Toms
zaļā
##MI
##atiz
uzzīm
vist
stāšanās
intu
dienestu
##ense
kopšanas
salauz
saproti
vīram
piekri
gabalus
datums
operators
perioda
džek
ezeru
ieraudzīja
epid
pulkstenis
balstās
interviju
Nacionālā
neskaitām
Acīm
YouT
meitenei
uzņēmējdarbības
pastrād
kūp
lip
lif
Šādu
##out
##jo
##steidz
##ijos
nobrauc
arb
##ekm
##īnus
dzīvojamo
Laim
pakļau
sievišķ
laukumu
komandā
pietiekoši
ekran
sēdi
suņi
sarkanā
skaitlis
jāatr
sērija
pildīt
palikušas
izturēt
viedtālruni
Vidus
seriāla
Agnese
pasažieru
Caur
Tor
##anz
##stam
darbojās
##ache
##lub
radītu
Stat
lielāki
parādīties
skaidra
padomi
mežs
zvej
spējīgs
aktuāla
##ēzes
nepieciešamības
centos
jārēķinās
motivācija
padziļ
vientul
nodarbinātības
57
AD
Hen
MAR
Rūd
Silv
saudz
ziņām
##vēst
##ūšana
##SD
nestrādā
līdzekli
krizdabz
lielajā
##alds
nospr
ārējo
daļām
Manas
pagaidu
##īgākās
patiesība
burtu
Liels
klātes
Valent
smagu
konfigur
aizmirsu
nesapratu
izstaig
staciju
nonācis
Auto
iepakojuma
dominē
priekšstats
Problēm
Rub
Vār
Vēr
Zane
farm
sods
ēt
##bit
##kast
##onai
##ālajām
lietošanā
gals
##likšķ
pretenz
ielik
sakop
saliek
satiek
blogos
uzskatāmi
piecdesmit
eksporta
Spēl
zaudējumu
izbūv
neredzu
zivs
literatūrā
sūtīt
Skaidrs
Kristaps
neiedom
Gaid
Kab
Sastāv
af
bāze
dāmas
gājis
lau
##nest
##90
##ājams
##ājumus
##olas
pārklāj
gari
jāies
iegūs
treniņiem
aplikācijām
atsevišķas
skaisto
laimīgs
segm
aparātu
pagalam
finišam
Piedāv
izmeklēšanas
BALVIS
PVN
Iec
Piec
eņģ
iT
jomas
sācies
##mod
##otr
pusn
lasījis
##ināmies
App
194
##iesta
vieglu
kolon
grupai
zīmju
sprādz
datumu
ceremon
grozījumi
žurnāls
atkarīga
muguru
distance
biļešu
smuk
ceturtdien
fantastiski
amatpersona
netrūkst
Vārds
subjektīv
##ooth
##sardzības
63
Baib
Island
Rimi
##eam
##aro
##abu
paslud
aizkav
karoti
satrauc
Uzvar
augstumā
izplet
baltās
sazināties
samaksāt
izstāde
ģeogrāf
Deput
3G
Off
Portu
cūkas
ru
rak
##das
##adi
ari
stūra
citai
šķips
Laika
neizbēg
saldējuma
autobus
jāizd
patēriņš
Dievu
Valmierā
medijos
konferencē
ilgstoši
aizmig
Mākslas
##tulk
Ogres
Az
Fot
Ķīnā
šv
##ciņas
neapr
pirmdien
nudien
Prieks
##iedza
ātru
augsts
organisms
minūti
apmeklētāji
pozīcijas
sarunā
dzīvokļu
Dievam
profesionālo
psihi
skaņa
iekļauti
##organiz
ekskluz
##ekomun
Pilnīgi
Dabas
##odrošina
Amazon
Del
Ele
Kin
luks
vāku
##tek
##niem
##ca
##imb
grauz
pirmajam
palūk
augt
piedurk
darījumu
attiecīgajā
##iniekus
mazākās
solīja
jāsaprot
ieraksti
ierakstīt
dokumentiem
rādīt
privāto
smaržas
klienta
elementiem
kartupeļiem
sestdienas
visbeidzot
kritērijiem
tarifu
Lielbritānijas
Lielbritānijā
tālruņa
nieka
mijiedarb
Eir
Fi
Iest
līb
važ
##ģi
nogr
izrakst
##abl
labumu
tri
garlaicīgi
atrak
salv
labākie
##meist
braucienā
jāpas
atmaks
dokuments
rādītājs
ēdieniem
resursiem
Vecr
maize
##vārdu
kategorijas
jebkad
iekļauts
Slov
sauli
##ciema
izpaužas
IKT
iepatikās
igauņu
YouTube
Lēm
nācis
##gam
##dama
##OT
izredz
uzpl
koal
##tsar
trolejb
sākam
skaistā
augļ
paveras
iekais
##plor
Intel
##ūdens
vajadzīgas
lapās
telefoni
tehniski
atklāts
organizatori
koled
Bris
temp
pozīciju
sastāvdaļu
šaubas
ķīmijas
februāra
akmeņiem
Draugiem
nofotograf
gād
naid
sāc
ēka
##daļā
##indz
neil
piegāj
gadž
##inātus
labais
pēcāk
jaunos
jaunākās
##ieres
ieteica
Prezid
ārsti
Atliek
vakaram
profils
atšķirību
konkrētas
ieguvis
aģentūru
skanēja
musicstories
Ēriks
youtube
olimpi
ilgtermiņa
reglament
##oursquare
riep
vibr
zinātu
##ste
nomas
##erland
pieš
paātr
skul
daudzos
bron
saraž
turpinājums
uzņēmēji
sociāli
notikušo
ministriju
##vietā
apmeklējuma
aktīvu
##īps
robežām
Krieviju
fiziskā
latgal
ķerties
Komp
starptautiskās
izstiep
gājiens
kundze
priekšlikumus
sliktāk
oktobra
peļņas
Uldis
Maikl
priekšstatu
Sn
Snieg
air
bāzi
rūg
atcel
vistu
grandi
##ido
darbībām
straum
otrkārt
##igh
skolotājs
##ionālās
brauca
nodrošinot
piecām
uzvāra
nepieciešamos
publicēt
kopējais
invent
izpratni
jēdziens
stadijā
Zvaigzne
Kamp
Nad
VIS
hom
kakt
##ižas
##aiņu
##osk
atrau
spāņu
##eido
jaunums
sāktu
augsti
kārto
##etro
sajut
izsauk
tehnoloģija
sīki
1997
Klaus
naktīs
balstoties
tilts
pielej
prakses
partneriem
Augstākās
Telefons
Swedbank
Pab
Vas
bat
##miem
##išu
##pusi
##rus
##ēš
##ūkt
##ģiju
##ķes
noķert
##erry
pieņēma
stie
##ids
##entil
sākties
##guļ
karstu
būtisku
skata
mēroga
blogi
mēģinājums
notikuma
ērta
kāpt
kuŗ
izjūtu
sagaidīja
kreklu
##astāvok
pleciem
kausa
identitātes
69
Mini
Piel
bus
vij
Ēd
žūr
##čakar
##amajiem
izbrī
jauku
##ulī
##ošajai
##ājušas
domājot
radies
interesēm
pakļaut
gadījās
maksāja
sader
uzskatīts
matr
krāsnī
ģimenēm
apstrīd
##berry
ērts
kontrolē
rūpes
krieviski
iedomājies
administratīvā
pierāda
teātrī
celtniecības
prakse
serveri
pircēju
instrumentu
ļautu
meklējumos
DSL
Dace
šej
##nāca
##ārim
##eko
##oki
##āksim
##efic
radusies
##oviča
atsvaidz
##encēm
aplis
dzimum
trešdien
operas
apgūst
smags
Plus
finansējums
kļūdām
sapratis
izpratne
##agnost
kinoteātros
mēbeles
Lauma
Jūl
Mis
VER
end
pauda
ķieģ
##iot
##js
##raudz
##dēļ
##dzi
pieķer
visumā
##āniju
krastu
garums
smird
priekšnes
pilnīgs
paceļ
slimība
faktoru
psihol
klubu
##noteik
element
atdot
ģeniāl
Mēness
sajūtām
sapulc
nazi
Ceturt
nomazg
Aigars
Mik
Zīm
facebook
īss
##vec
uzmet
kāzu
līdztiesības
rakstot
vērs
plānus
nelīdz
##iests
pasākumos
veikaliem
patiesību
##loķ
barot
maiņa
Internets
paņēmu
tauki
restorānā
pieaugušo
medijiem
##oterap
pulveri
neizdodas
pārkaisa
nianses
gumijas
fragm
Bul
Dok
Māl
Rih
Šāds
šinī
##punkt
##ēžas
##66
izspēl
uzbr
atļāv
##orit
lietojam
##ēnām
pašus
augšas
gatavojas
neiztur
pārslēg
taisa
taisni
Katrīna
priecāties
pieprasījumu
iestud
##ercuk
segas
elektroniskā
māsu
nacionālās
slēgt
spilgti
realitātes
plauktos
Atsevišķ
Ilgi
minerāl
Portug
Beļ
Dainis
Jān
Muz
Ugun
Zil
bārd
dota
lodz
pauž
ķēd
##biks
##70
##atnē
##inskis
##ārais
##etooth
jausmas
##olā
triju
interaktīv
nospēl
pusdien
karsts
sarg
noteikumos
sistēmai
saistās
izteic
gliem
padomu
mežos
pacelt
produkcijas
miris
operāciju
##ertik
pārbauda
atrodami
uzbru
##IEN
bizness
izjūtas
Dzīve
juridisko
bibliotēku
jātur
akcent
sertifikātu
princes
pretrunā
ieraugot
php
rekonstruk
Māte
Tavs
dosies
ēnu
##eat
##tver
##ojošā
ieiet
##obe
jaunajām
dzīvniekiem
tiekam
augļi
šķist
radīts
##nīcām
kalni
ģimn
New
mežon
pārliecināt
uztvēr
atsevišķa
grozījumus
ādai
Droš
rindu
ceturto
bišu
fantāz
atkārtot
normatīvajiem
kreiso
pieturas
##apziņas
Raimonds
Ast
fer
lav
meta
##uč
##ani
##aulē
##etiem
##orb
konven
##īniem
saskār
Ann
##osta
projām
galvenajiem
paredzēto
meži
sēdes
barības
draudzeni
aktuāli
upi
Klus
Nākam
taisno
##ilgi
veda
konferences
atgūt
muskuļu
Svarīgi
atdzesē
Skandināvijas
Aleksandrs
micro
Neg
SV
kakao
Šorīt
##vain
##kg
##itū
visk
krū
##ņemot
atrastu
izdod
pagājis
pieskait
nozīmīgs
augstāko
augstāka
probl
Negrib
dzirdēju
saruna
Nekā
trauku
administratīvo
pusmaratons
nosacījumi
sertifikācijas
varoņu
sižetu
##agram
matemātikas
apaviem
bāriņtiesas
Grieķ
cūku
dez
maj
saik
ķim
##līn
atskat
kaķ
krita
##pac
nesm
##aci
kard
noraid
##āzt
iedeg
veselas
gaisot
puika
grūtniecības
iedzīvotājus
##ļaujas
ierakstā
temps
uzvaras
ļaujot
izbraukt
muzejs
saulr
struktūra
pasūtīt
zirgu
melod
pasniegšanas
sakārtot
mehān
izslēgts
##irdzniecības
Ņujorkas
sudraba
institūcijām
naktsmīt
Do
siena
##hh
##60
##CTA
##arta
##adic
##enam
##ālē
laime
visādus
##ieda
saskait
ilgas
Apt
iepriekšējos
apkārtējo
ekrāniem
kāpums
žurnālā
piedzīvojumiem
deputāts
locekļi
decembrim
zinātniskās
staigā
nemanot
neierobež
##ONIKA
atgriešanās
Hot
Mc
Sveik
Šādā
pielikt
kāz
##unes
darbav
izmaksā
##istē
domāta
stresa
sagādā
informēt
sekām
patīkamu
organisma
tehniskās
nezināja
kalns
Grūti
Jauno
saucas
ādā
kafija
balsis
##vēlas
aukstā
temperatūrā
neticami
smilš
vārtiem
Komisijas
ieklaus
rehabilitācijas
Vidzemes
VERONIKA
72
Mir
Zaub
##lant
##AC
##UN
##12
##amība
##enēs
##ītām
attap
kaķis
apet
ing
iesm
##aļās
troļ
atrun
saspr
vadību
Aplik
vienmērīgi
pacel
##ekss
piecpadsmit
##darbība
##gada
teiks
starts
apstiprināja
spēcīga
tukša
kaklu
respektīvi
realitāte
Raimis
dzirkst
Ai
Vad
dim
dūr
fī
vertik
##TR
##yan
##ģija
##ītajām
uzpild
pried
aizņēm
nepiet
##likuma
raksturu
pavēl
otrdien
baltas
pieteikt
lapiņas
uzņēmējs
parādība
sadaļa
spēki
tehnika
krāsns
nodrošināšanai
mēģinu
ietekmes
dokumenta
diagnost
servisiem
sešas
vainīgs
testu
bumbu
Divi
šokolādi
zibspul
Itālijā
aromāts
Gustavs
kauns
Dem
Her
ainas
mok
rūt
toni
Šov
##72
##arš
jaudu
griest
pasēd
darbībai
katal
iekas
sasta
skati
pantu
##ināmi
Aptuveni
neizprat
izsaka
krāsām
Nex
apstāties
Liela
papildina
miljons
mīlas
iegādei
paziņojums
tekstā
faktori
publicēts
pipark
vilcienā
##manto
ļaunu
izmaksām
Grāmatas
##ational
stadion
citādāk
skulpt
CD
Kž
Tēvs
meli
##hron
##ļaus
##žs
##īvās
pārējām
kravas
garastāvok
veidoja
virsm
ielūg
Visvairāk
balta
nozīmīgu
Apvien
stāva
kļūtu
asiņ
aktieru
zīmolu
##unds
Bals
speciāliste
##malas
izpilddir
analīzi
metri
Ziemassvētkiem
kreisajā
laiciņu
Projekta
Stāsts
Florence
Iem
Tava
ikr
kum
##mūz
##edr
##īpa
##way
##akoties
visādiem
tast
##icē
nepamat
neskr
salātiem
telefonus
##galā
nenop
līmenim
##malā
īsumā
Kādreiz
Dažreiz
motīv
izvietot
Ikvien
digitālo
Explor
izcili
tamlīdzīgi
diennakts
pūdercuk
Acīmredz
Eleon
AK
kārd
lūz
sc
sāniem
tec
##pēt
##jūras
##MA
##auts
vara
##eck
nepier
##niekā
iemet
neattiec
pilsētām
treniņš
nākamajam
ienaid
melns
nopietna
rādītāji
apziņa
suven
spēcīgu
noskaidrotu
līnija
statistika
nolemts
transform
Izslēg
šujmaš
Jāni
Kv
html
ij
nāc
##ietā
##ojošās
esošie
betona
koš
labiem
##istiski
dzīvs
##ņēmu
balsu
##šķiras
medību
kompoz
veikali
mēģinot
atraduši
dārzeņi
septiņi
secībā
secināju
tapis
Kurzemes
statuss
biržas
apvienības
saprotam
nāve
soļus
statistiku
konstrukt
slepen
geoc
Promocijas
Canon
arodbiedr
virspus
##TERE
Bab
Poz
Veid
dil
Četr
##lēk
prām
apavi
##iskam
tikām
##odoties
##prom
savāc
##ejādi
##audu
jāstrādā
atbil
pavilj
nodal
sarīv
##īderland
Vislab
##tiesa
īpašo
procentus
abās
kalor
uzsvēr
atradīsies
Vienlaikus
saņemot
logi
istaba
##ucis
emocionāli
vilciena
Nākamā
struktur
temperatūras
noslēpum
aprīkots
brokastīm
ģenerāl
lūdza
Pilsētas
Zemgales
manipul
Gū
Gai
fon
##iešanai
##arl
##ārl
dzen
gru
labad
plēv
pluss
##uki
likties
nedab
paveik
veci
pusdienām
skolotājiem
##oloģiski
lielākajiem
svarīgu
padomus
skrējējs
ministru
sakara
jebkuram
##austies
mākslinieks
##metru
veltīt
klubā
kvalitatīvi
##inātāji
pasniegt
revolū
apmācības
izdzīvot
jāzina
infekcijas
Aic
MB
TĀ
sir
##ertu
parks
##iskumu
vienības
##skal
būtība
būtisks
mēsl
sagaidām
mērķu
aler
gatavas
gatavošanas
māca
glāz
grūtībām
sapni
izstrādi
pārsūdz
treniņi
iekšējās
teritorija
mobilās
uzvarēt
apstiprināt
pozitīvas
transportu
ESTERE
dīvain
sportisti
gudri
uzdot
lokā
piegādes
ilūz
planšetdatoru
republik
struktūrvien
kvart
ceturksnī
Līva
Nāc
zēns
##mus
##nie
##ūna
##arez
##ijus
nostād
##ējamies
atlai
klip
##spot
puss
Prei
##venes
slin
##aša
##atīvais
iegādi
##oloģiskā
stāstiem
lielākās
runāts
##alizējot
##aizdevu
izdarījis
Lieldienu
##ložu
atrasties
jebkuras
##auze
plašas
nopietnu
Aizk
Otrais
izdomāja
##ējušās
baznīcu
nosacījumus
zinātnisko
Nedēļ
plecu
##ievēro
Ide
laacz
Kindle
76
Akt
Tobi
bais
loks
vaļ
##pie
##ūstu
##iniem
izbrīn
##ēriju
laivas
##prov
kooper
##alda
vērien
radik
pieslēdz
pamatskol
piedāvās
nezaud
atklāšanas
ražotāja
##uļiem
Trans
reģistrāciju
Marks
saldā
avotiem
iegādājos
sarunās
uzdevumiem
diametr
pienākumi
noderīga
numura
##liekas
noskatījos
parakstu
uzņemšanas
panākumus
inteliģ
##ātājiem
VITA
import
SEB
neaizmirst
Apl
bad
doto
laup
##iļu
##īrī
##amm
izgriez
kapu
##tren
##unt
daudzuma
ierun
otrai
ielūk
mājai
runāj
valdībai
atstar
logs
īsā
uztura
160
tīra
riteņ
smaids
intervijā
šitā
restorānu
Papildināts
svarīgākais
stratēģijas
peļņu
izraisīja
propag
Saule
šņab
komitejas
71
Cien
Ener
Lej
Mājās
dotu
##meni
##ūnas
viendab
auzu
##ices
nodēv
katl
redzamas
##atoram
##aucās
pietika
maksās
deviņdesmit
modeļi
adīt
zināmi
rīko
pieredzē
risinājumiem
precēm
ziņkār
posma
##uck
kartēm
policijai
patēriņu
bauda
mērķim
silta
pusmaratonā
iepirkšanās
Sievietes
krūtis
argument
Maskavā
Jāpie
Visbeidzot
pašsaprot
navigācijas
Pien
Vlad
don
moš
muls
takt
ventil
##dārz
##EC
##atās
pārtraukt
##ulk
spal
paslikt
klav
##istikas
##maņu
pavār
nodeva
vidējās
darīju
labākas
Krūm
jautājuma
pasākumam
organizācijām
nemald
Marija
gabaliņus
ziemu
veiktas
biedrība
riteni
zirn
raidījumu
sadzird
Rezultāts
nelaimes
dzīvojamās
Vajag
LNT
pārdomām
iTunes
Ieb
Virtu
ebr
čup
ēkā
##tec
##Berry
##stās
##stāk
##ējš
##ārta
##eiv
iedeva
labus
##ezent
dažās
jāievēro
streik
karstā
vienkāršā
darītu
vajadzību
blogus
attīstīties
izsūt
dārgs
##ailes
jāsam
Sport
slēpni
klausoties
starptautiskā
traumas
veltīta
paraksta
##ātāji
klientus
ceturtajā
Meža
licenci
jēdzienu
pagātnē
Somijas
rekordu
birojā
neiespējami
Baznīcas
61
Kir
rotāj
tim
vas
##alās
##dzim
##ektiv
##edia
konta
pilni
nosēd
##ikseļu
vakariņām
dalās
sistēmām
logā
ēdu
objektiem
pārvalde
svaigs
principus
iestājas
izstādi
Pēdējos
Pēdējais
cienīj
Indijas
Gatavošana
būdams
BlackBerry
Rietumu
Mēneša
infrastruktūras
ēdamkarotes
5km
Cr
Kaž
PD
bod
##een
##PO
negr
##ilku
apkl
vaina
patr
vēlējos
labie
darbosies
jaunumus
garās
Esi
telekomun
##plan
cenšoties
##aista
reizei
slāp
pilnīga
Kristi
metāl
Vienīgā
draudzīgi
secina
kontaktu
eksot
laimīga
siltā
apmierināt
Likuma
bīstami
līderi
krēslā
uzvedības
cigaretes
atlīdzību
šurp
okeāna
fenom
74
Paz
us
šad
##po
##ĒTA
uztrauk
inc
aizkar
##estēt
veidošanu
izdomā
paveic
brilles
drū
ang
pazemes
neatt
valk
piedāvāto
bijušais
##alizācija
Jāņu
izdevīgi
pušu
##inājušies
spriedz
spriežot
pārliecināti
galdu
noskrēju
140
novērtē
svaigas
relj
##inātājiem
investīcijas
pūš
pagātnes
Morics
Pašvaldības
šķīrējtiesas
rīm
ut
ve
##sen
##sabiedr
##OTI
##hu
##ologi
plos
klašu
kautkā
autent
divpadsmit
piemekl
akcija
sajauk
svarīgas
atklās
pētīt
atšķirīgi
nekādus
guva
godam
mākslinieki
ierobežot
izplatīt
piekrita
balsot
Jelgava
kaitējumu
pārvietoties
eksāmenu
deleģ
Lauku
Komisija
vidusskolā
ogļ
organismā
Db
he
loj
##mb
##ipēj
##vār
##žus
##arot
##ertr
##urt
##osā
##rup
neveic
vērojama
salāti
seks
plānot
##ostāv
izveidojis
bildēs
nemīl
pašvaldībai
dārzeņiem
novēršanas
mobilais
aptiek
objektus
pamanīja
jāizvēlas
sāpju
nepārprot
topā
ieguvusi
nacionālā
galamēr
izstādē
nolūkos
Somijā
Nemaz
ligzd
piefiks
Dīv
Ejam
LR
gail
imigr
jelg
kaujas
taku
##būv
##neša
##II
##JU
##alos
##eniem
##tuves
iztr
##irn
piestāv
##ālām
repr
aizvēr
##obiļ
kontein
strīp
būtiskas
##īdams
##oloģiskās
neatņem
neatkārt
##ināma
izsl
Turpat
atklāta
adapt
dzimis
pārstāvju
izliek
Džord
darbiniekus
Jautr
objekta
saglabā
Draudz
sēžu
vielām
Smilt
Austrumeirop
saite
Noteikumi
augstskolu
platforma
cilts
Vīrietis
legāli
valodās
šoferis
Ha
Java
Rev
Ria
fabr
kot
roc
##ĪB
##ēma
koefic
vēlamo
palodz
##lika
neslēp
veidotas
##ovičs
##ausmu
Izra
personīgo
anonīm
iemaņas
augstā
devēju
devējs
īstas
apsveik
##ails
Spānijas
pavadīju
populārs
mašīnām
robeža
noderīgs
nodoklis
ierobežojumi
komplektā
Twitterī
atlika
zupas
karjeru
Piedod
plūsmas
asfalta
ANDR
Apmēram
Teiksim
Sestdien
Tomass
Jāpiebilst
62
Jēz
Opt
lu
lēti
##plē
##stos
##ikipēd
pārņēma
stop
##ogām
krūšu
darbasp
nekr
klep
klint
##ope
##īnē
sviedr
pusm
karš
elegan
vajadzība
##mēra
atbildīgs
modeļiem
beigsies
kolekcijas
##aukties
##tehn
forš
platformu
septiņiem
pārbaudi
diag
ienākuma
nozaru
aģentūrai
ideāls
nonākt
rotaļu
ieradušies
tips
saits
daiv
Nepiecieš
izkaus
moments
ķiploka
programmatūru
izņēmums
Mammas
Dodamies
piedevām
Bluetooth
IMD
##avilkums
Grozījumi
Rūdol
Bru
Don
Iman
Ros
ment
rīdz
rub
##šte
##iepu
##ējami
atļaut
##ojošs
piezem
pārlas
spoguļ
##aidās
pirmajos
jaunajam
izmet
iekļu
##nieci
##aiga
blogspot
modeļu
ziemeļu
ekonomiskā
upe
tūkstošu
1995
savienības
režīma
aizgājis
iedvesmu
juridiskās
iedziļ
Gribu
aizdomāties
##maize
pieejamību
lidmašīnu
auditoriju
Nebija
Bērziņš
Salīdzinot
ārvalstīs
kokvilnas
Flash
liep
leņ
##aita
paroli
##omi
##imt
pases
##ūros
karšu
##aucas
seksa
norobež
pietic
beigusies
pieejamo
##ords
izpildes
negribējās
tautai
tirdzniecību
ienākumi
tabl
sapratīs
iekļautas
pārmaiņām
ierasties
Norvēģijas
tualetes
ANDRIS
Eg
tenis
##vēm
##ēža
##IZ
##ojat
##odarb
##unts
nekon
##astos
##audas
dzīvnieki
kautkas
##iere
padsmit
Stīv
piedāvājot
iedod
centram
aploks
variantā
profesionāli
sarunām
Vari
raksturīga
noderēt
komisiju
bieza
infic
Polit
derēs
garantijas
populariz
procedūru
Mamma
Izmantojot
Tallinas
diegu
veterinār
koktei
sasodīti
dravnieks
Explorer
Bud
Mīļ
Oto
Pauze
Situ
dīd
vēju
Čep
šūt
##piem
##vei
##aram
pielīdz
##olog
##rauj
##eļļu
mazām
##krīt
vadu
Atm
blogeri
Pirmie
ieviešanu
izrādi
politiķi
atceries
sakars
sagatavo
##embri
pastāvīgi
nākotne
Plat
svaigā
locekļiem
klubs
Abas
noslēgumā
brut
glabāt
##novērt
sakrit
##šaubāmi
Cerams
Attiecīgi
tiešsaistes
Satiksmes
ilgtspēj
Foursquare
Nīderland
World
miks
##žel
##iko
##erta
##oseksu
##ērē
iešu
esošais
##obrauc
##iāli
autoc
Proc
veiktu
##iedzīv
informācijai
Atgād
iemēģ
pamatīgu
īpašnieka
piedāvāju
preci
konkrētajā
apmeklējums
mīlēt
pārliecinoši
dārzs
novērot
ievērojam
barj
palielina
sasniegtu
jāizmanto
ticu
algorit
minētajiem
izvairītos
skumji
pietrūka
burkānus
spriedumu
atvaļinājuma
atmosfēra
apmaiņas
aukstu
Bu
Fant
Līv
Tat
We
Web
misk
zona
##sas
##NIS
##inošas
##aly
reālu
paspēju
##ida
turas
sākusies
nesak
raksturs
vecas
iemaksu
elpa
plānoju
neatlaid
bijušo
pastā
izveidi
organizator
ražošanu
garšīgs
uzlabotu
atrodamas
tradīcijām
1996
komunik
kredīta
piparmēt
teoriju
zobus
tradicionāli
šaubu
iekļauta
realitāti
atlaides
uzvārdu
paskriet
reformas
Iedzīv
Bat
Faktiski
Kub
Nat
dejas
delf
jakas
zēni
šok
##pak
##jū
##dž
iron
##ējamo
prēm
##ements
##inātais
nepab
pašmāju
Pres
pilnīgu
Visus
sadur
sadaļu
atklājās
veicu
Neap
Alūks
atvas
izpildījumā
galdā
guvis
telpām
uguni
budžets
Konkr
eksperts
pazīstama
iestādi
nevajadzēja
Ventspilī
dēvēt
plauktā
prioritātes
neatradu
aktrise
##ertrūd
Datu
Virs
hak
mēl
pist
sān
Čārl
Šādas
##māc
##pos
##yn
##GAR
##stām
##adr
##ake
uzš
##izglītības
pārņēm
##eikšu
kādos
trib
##000
##āstīt
##niecēm
slīp
Parīzes
gribat
miltiem
##ūza
ilgums
ievieš
mēness
izskatīties
norādes
nedēļās
izrāde
populāra
Tādu
smaga
dzīvoklis
sniedza
Polijā
##IEM
elektroniskās
talkā
lūgumu
skābo
ēdamk
mākoņi
kaudzi
reakcija
humora
Jautājums
lejupielādēt
collu
litru
ikdienišķ
Zaubes
neattiecas
Len
Mič
Rekl
liber
sūk
##vīna
##kult
##IV
##stūr
##ākajam
##entr
atdzīv
vienību
gadalai
daudzajiem
izmest
vairākums
vietnē
ārējās
lasītājam
rokdarbu
turpinu
##uzņēm
nezinot
meitai
jāsag
jāskatās
plates
sasniegšanai
priecājas
ziedi
enerģija
liktenis
saitu
nogurd
nogurums
sēnēm
##valitatīv
īres
Iedves
domājams
##istabā
mirkļa
##IJS
Patīkami
Recept
patriot
LS
Sor
TP
eglīt
Ģertrūd
##lām
##ned
##ader
##ājiem
##ājuma
izejas
##imies
savv
##ažu
tādos
liku
pusl
izmantotu
ekipēj
skatījumā
paziņas
##mans
parādu
##karti
uzskatāms
brīvs
organizēšanas
zinātņu
nemāc
viesiem
profesiju
būvēt
uzturā
fizi
statusa
tīrs
tūkstoš
nopirka
naktis
Santa
Artūrs
priekšroku
Republikā
televīzijā
pieaugušie
kapitāls
migla
muļķības
kafejnīcā
izaicinājums
miesas
nelabvēl
nešķiet
##īpaš
Bi
EX
JĀ
Tirg
diska
tit
##ūšas
neprot
##irku
mazumt
##pace
##ēnā
vietnieks
##ozas
Paral
iemūž
pamatiem
īpašums
piedāvāta
drauga
atzīts
pievienoties
lido
Dzel
Džeks
Kops
priecīga
pamanīt
sagrib
skriešanai
ēdienus
interesantāk
pavasari
##vedis
atļauja
norisinājās
##āžā
jātiek
izdzird
ciparu
buljonu
smiltis
apavus
lekciju
posmos
jāatrod
jelgav
Log
Leg
Sand
Viest
hekt
tilp
vējā
šauj
##ģipt
apavu
##odamies
##ante
sašķ
lietotājus
paliku
interf
likumi
smaida
##āsti
izmantošanai
norvēģ
action
pēdējiem
matos
malās
profila
dzirdu
četrdesmit
melnās
tapšanas
Eliz
kontin
kompānijā
enerģēt
biroju
pirksti
metriem
saimniece
Austrumu
efektīvi
āboli
varoņiem
Runā
kalendāra
sēžot
Mežapar
aizvain
Bildes
gaumes
loterijas
Nevajag
problemāt
66
Daļa
SIM
bo
cilp
sešu
tru
ēkām
##ler
##bar
##riem
##des
##AA
##ĪLS
##11
uzj
##onim
##ekot
##ēlis
reper
##ēsiet
lietots
atteicās
##auka
##smīgi
bezcer
Priv
izvēlējās
sociālajā
publisk
videos
konkrēta
ekonomiski
nopietnas
Valters
suņa
maisot
tuks
nonācu
##vārds
maršruts
likumsakar
programmēšanas
##pretim
izpētīt
pieturā
izaugsmes
dzemdību
pērl
momentā
ekstrēm
sagādāja
kvadrātmetr
diplomāt
Lāč
ūdenskrit
nemaldos
SP
hel
##atizācijas
##āmām
##etus
parastu
prepar
piestipr
##ēlas
pārcel
kost
##āvis
pasts
traks
##veru
Stumbr
##encei
190
devēja
piemēri
bankom
iegādes
kvalitātē
melnu
Valkas
Pagājušā
mātei
biogrāf
sešus
ieradies
noslēgt
atbrīvoties
kreisās
pārskata
##pretī
prognozes
akcept
šķidrumu
reakcijas
atspoguļo
putnus
Vārdu
īsziņas
##KĀTS
identific
nepiemēr
apelsīnu
##VOKĀTS
pavēstīja
luktur
estēt
EMĪLS
ADVOKĀTS
augļķer
73
Dec
Kn
LTV
Zatl
horm
laur
rull
##austa
##eth
izgul
paraugu
parasta
apvid
##iskuma
kasti
##āvā
##ejās
nekam
##īnās
##īza
pannā
lauka
veseli
sacep
situācijai
zinātnieku
zīmola
izceļ
nemāk
Marta
rādītāju
piedzīvot
pirkumu
izmaiņu
jutās
purva
finišā
ņēma
ņēmu
uzskaites
ieslēgt
īpatsvars
Bēr
Jans
Līga
Mekl
N9
Reg
ķēdes
##gard
##88
neiek
##usis
beta
grab
tril
##īsa
##upes
##neses
Artur
labākajā
stāstā
nozīmīga
medaļu
Patlaban
tiešo
tirgo
mainījusies
teiktā
franc
koriģ
instrukt
melna
veiksmi
##ēze
##udžeta
debijas
tūristiem
prezidentu
saprotami
pastāstīšu
maizītes
administrācijas
Salas
kuģis
trasi
teātri
pieslēgumu
individuāli
drēbēm
mājaslapa
acīmredzami
klāstu
Bankas
Seko
austrumu
dizainparauga
labdarības
79
Pel
Tan
ked
pump
##aņem
##polit
##cijās
nerau
nobild
vienot
manīt
##azd
##okiem
vēlēšanas
krauk
palīgā
##vērs
##īdiem
ord
darījis
Izlas
starpība
sekss
pieskat
medaļas
tirgot
##uļus
sociālajiem
pienāks
dodoties
sastāvs
melnais
aktuāls
lēnāk
emocijām
##īšām
nonākam
atvērts
oficiālā
##ēsimies
ārzemēm
kaimiņiem
dzeršanas
treileri
plaukstas
sūdzības
izslēgt
apkalpošanas
inspekcijas
atlaidi
MARGAR
Acīmredzot
67
Day
Gatis
IV
Post
Rem
Rok
Tādi
cr
him
zāģ
##los
atgad
##ērija
##ētai
vainu
vienīgie
##ejiem
lielisko
##iegu
##estrī
domub
ceļus
ceļgal
radījis
apmain
interesēs
Visā
skatīšanās
norun
norakst
neats
Apkārt
ievilkt
dabiski
##alizē
asi
izdevumiem
sapņi
tīkli
notiktu
treniņ
nerad
pārliecināties
Tādas
kāpnēm
papēt
pieauga
sagrāb
aizsardzība
neuztic
Dažkārt
komplekts
stacion
pārkāpumiem
pēdām
Skrēj
pagājušo
jumtu
nabaga
šūnas
iecienīt
jāliek
vientuļ
USD
aizveda
MARGARĒTA
Ej
Klas
PC
dviel
kūk
ģitār
##vest
##jams
##gus
##akā
esošos
##ulim
##eļos
nevienas
##opēd
turieni
likumiem
mūsmājās
dros
telti
##oficiāl
Izstād
neatbalst
īpašniekam
ikdienu
stāvēt
##bremz
izskats
pilsētai
pirts
nezini
procesi
cepuri
ierakstiem
samazinot
līgumā
Elīna
siltums
rindās
pazīstami
savienojumu
intīm
literatūru
brokastu
kļuvušas
lūgt
pazudis
subs
šovasar
pieņēmusi
uzvārds
stipend
narkotiku
likumprojektu
piebilda
seler
pankūkas
Maiz
Tūr
fakti
jaku
maf
čili
##ējošās
vaigu
##ēca
spo
daudzumā
izvilkt
dažos
##ozā
vērsties
##arpus
pilno
Izej
neatgriez
grāmatās
pievienoju
datori
lidostu
avoti
Pārejas
##itīvi
uzvara
nejēdz
veltīts
iekārtām
nonāks
Autob
prezentāciju
apmierināti
diskusija
##osimies
semant
analizēt
nepalīdz
virkne
ieskatu
Iegād
Resp
Atbalstīts
Uguns
Dir
Pēkšņi
Veic
soma
vitr
##ios
##atnes
neēd
##eksp
piešķ
##odams
##antam
kleitu
tādās
##oca
##āpj
palūdz
komb
vecmam
veikli
tiešr
mainījās
sociālais
vilk
minūtē
politiskā
viesmīl
gultu
siltas
aptver
servisi
noderīgi
pozitīva
Mūsdienu
ceturtā
rītiem
teātris
apgalvoja
ieguvums
Ārā
norisinās
ieteikumus
zvanīt
sagrieztus
dzemdes
apmācību
augstskolā
baidās
mikrof
izpausmes
vārtus
##programmu
brāļi
aromātu
audzēkņi
Ātri
Sastāvdaļas
AES
Oktob
Tūl
lekcijas
pūk
tort
vīns
##nāc
##kalp
##ēšos
##hid
##hidr
##ētam
##ojoši
##elei
##aban
esošajā
##evu
##okast
##ich
klin
Ungār
šova
##eklim
##īca
iekļūt
karam
##ganist
skrip
##igo
šādam
saista
nodrošināta
Alfs
izpeln
konkrētās
cerība
autortiesību
turpmāko
pieminekļa
krietnu
sazvan
reģionu
temperatūru
nepieņem
##pēles
dvēseli
sinhron
paskaidroja
parunāt
##finans
gredzen
dienestā
japāņu
grieķu
Pieņemu
nenoliedzami
koeficien
NO
Sark
Tavu
lom
nams
nakš
ostas
vamp
šar
##ģu
##UTS
##arat
izaudz
##izglīt
##olē
##imetru
spe
sper
##eji
neklaus
##ainām
minētais
##īstu
nedomā
##oģijas
skatītāji
jebko
##laikā
vērtējumu
izteica
specef
cepšanai
apstājās
sniegšanu
zvaigžņu
produkciju
##low
atradīs
slimībām
studijām
atcerējās
veiksmīgs
īsa
neapst
sadarboties
īstenošanai
sarkanu
aktivitāte
aktivitāšu
musul
nevēlos
vēderā
jokam
Leon
jocīgi
Opera
##vēstur
May
RTU
ZZ
eur
viol
##oču
##vju
##atbild
##otam
nogriež
##āros
##ojoša
##azīl
patreiz
##agā
rakstveidā
autostāv
vecākus
redzējām
apmēru
valūtas
telefonos
atbalstīts
cepamp
##anci
garšoja
forumā
saimes
izlase
aktīva
sasniegts
klausos
Domes
startu
klusē
džeks
Ign
izjust
izjūta
viedtālrunis
balstīta
iedvesmas
piedzēr
orientēšanās
sindr
realitātē
Trešā
fails
šķidruma
pērnā
sertifikāta
fotoaparātu
kondicion
aizmirsis
izstrādātāji
Afganist
interfeis
Gmail
Kaf
Lis
dāma
gig
pust
ren
siek
with
##grau
##TĀ
##inform
neļāva
##omot
##orf
##ūtās
##ūtīt
ins
##ošai
labot
nepastāv
neplān
##niekos
pili
garn
paver
katoļu
karu
##nesi
##igg
saki
##ofil
labākajām
ikdiena
neizskatās
##ābu
izdarīja
izdarīju
dzīvesstāst
apstājas
burtiem
##ļauju
treniņus
komandām
slimnīcu
forša
sastāvu
gulb
iepazīšanās
pierasts
pamanījis
Plaš
##ļautu
Klāt
ienākumiem
planētas
Berg
sūdzību
deguna
Centrāl
nolūkam
apjomi
kontaktus
##rrrr
pusgada
kleitas
Īsten
VITAUTS
68
Just
Led
Men
do
jomu
ola
racionāl
##ārtu
atdar
laisk
##ulē
liks
rakstām
puslīdz
Pro
Pras
priekšnieks
īpašā
Uzskatu
veselīgu
atklājas
nomira
meklējam
trenēties
drošība
vēsturiski
grozījumu
nokļūst
kuņģ
pozitīvo
jāmaina
dzēriens
Pēdējās
Jurid
Cenas
mantojuma
##elkot
krīzi
institūcija
seriālu
purv
pašreizējā
kvadr
kampaņu
urb
etiķ
slodzes
pieklājīgi
īsziņu
Linda
komfort
Mūzikas
lietuviešu
Ien
Pastāv
RE
buk
joku
podz
tār
##zin
atņemt
##ekas
pārpild
paspēl
krām
trik
##eps
turienes
jaunumi
pašnovērt
minētos
nodaļu
zemeņu
tiesne
gadījumus
veselība
īstajā
##ojamās
aizspried
solī
izstrādāts
maska
saldējums
dziesm
atgriezies
mugurs
centīšos
mūžīgi
rūpējas
pacienti
spiesti
sekmīgi
pludmalē
gandarījumu
diplom
benzīn
lībiešu
sastapt
92
IN
MS
Psi
Raj
higi
raust
nerād
pieveic
##una
vēlmēm
##idas
noticēt
ple
klaj
klost
jaunības
jaunākā
jaunākais
kopīga
auga
##itucionāl
Arh
mērogā
##ināmā
blogam
latvietis
pētniecības
metās
veicinātu
soliņa
valde
klase
atšķirīga
nemēģ
izpausm
Kopēj
cietuma
uzzinātu
secinājumi
īslaic
autoram
##ājušās
šoseju
sāpīgi
rediģ
pievērsta
gaitas
piesaista
norisināsies
bumbas
ieteikumi
līkumu
izpratnes
stratēģija
motivāciju
uzrunāja
profilaks
akadēmijas
##otehn
Ern
megap
briesmīgi
klāsts
Anglijas
tīrī
nulles
Turpmāk
Office
PDF
Bīb
Liv
nac
zonu
ķep
šūn
##uļu
##iešanos
uzskr
vienošanos
iebilst
##ieciet
līdzinās
jostas
nesav
##ozs
##ozu
nebijām
likmes
rakstveida
skrej
skrienam
zemenes
balti
##ausi
personā
vadītājiem
Atver
Atbilst
##āza
elpas
mājsaim
netiktu
##istēmas
ieviešanas
asist
izsauc
laukums
brīvo
brīvība
gaidāms
veicis
klātienē
Market
bankr
fotokam
putekļu
ekrān
pilsoņu
objekti
rajons
bagāts
tautības
Komun
atjaunošanas
sadala
piparu
uzticību
čempionāts
apkaim
morāli
pārvietošanās
krēsla
firma
savstarpējās
profilu
alternatīvu
Jūrmalā
griežas
nepavisam
puišiem
##arezult
Col
Digit
Fiz
Gaujas
Power
Reģ
Rič
aina
hidr
juta
lol
sānu
čau
Šos
##pan
##kaul
##ēva
##NET
##IR
##FC
##aiņi
##atūrai
nestrād
##ado
##ējāt
##ējamā
##oskop
##ekonom
pagu
##icu
jah
dzīvojot
augļiem
bla
Visticamāk
salā
Arn
andr
sabl
##īgākajām
biji
procesus
cepšanas
nodrošinās
sociālos
All
konkurentiem
izcep
Džo
korekcijas
110
pavadīja
ievēro
regulē
autores
mīļākā
gods
jāno
jānodrošina
montā
eļļā
cienītājiem
Ziemassvētki
tēvam
zinātniskā
raidījuma
kosmosa
vēderu
pļavā
pircējiem
lidmašīna
televizora
šķēlēs
procedūras
klātbūtni
atskaites
uzkarsē
Tvnet
Nobeig
jaunatnes
riktīgi
Fonda
Jūras
Los
Rit
by
baļ
sētas
Šles
##iļa
##brauk
##ģa
##Book
##stot
##umiņu
##akšu
pač
vienoties
varoni
koši
grīdu
##īnai
svītr
veidoti
blīv
samaksas
satel
pamatpr
piekrītu
gaidīšanas
puikas
patiess
jāpar
piedalīšanos
eksport
piemērotu
izloz
atbilstoša
atlaist
novērstu
melnas
cieti
atsevišķos
servisā
piedzīvojums
konfekt
sarkanās
Nevis
piešķirta
teorija
Cilvēku
atzīmēt
piesaistīja
izvērtē
minētie
pļavas
pastaigas
pārdevēja
migl
Ievēr
auditorijas
stulbi
pusotra
objektīvu
izstāstīt
olīveļļu
velna
google
Aizkraukl
Cita
Pārt
bud
vic
##ĀR
##amam
##amākais
##esā
##ale
nešaub
##ātajiem
pieļaut
##tip
patentu
aizņemt
nekait
vairumā
brig
karsta
ārd
blond
vienkāršas
sala
lasīšana
atsakās
blogeru
mūzikā
adekv
vilšanās
Dziesmu
Margar
pārbaude
spējīgi
apzināties
Pagatav
skaitam
iesniegšanas
profesionālā
biļete
restaur
zobiem
pārlūka
sekundēm
miegā
citronu
joslā
pieradis
aizstāt
atlases
jaudas
priekšmeta
paveikto
virkni
Visbiežāk
Atpakaļ
Mīlest
uzstāšanās
97
Han
Hels
Ryan
Tap
rāv
sagad
##nītes
##zs
##īskap
##erl
izlab
izdienas
piebrauc
apbrī
vienotu
ieceļ
##uni
##skaidr
trūc
vietējais
bezp
skries
otrreiz
Priek
veikšanu
##atorus
skatījumu
salab
tālrunis
atslēdz
kvant
finansēt
izveidoja
bildītes
atbalstīja
jāpiem
noliedz
izcelt
atšķirt
atšķirīgas
nemier
aprobež
bankā
samazinātu
saimnieki
plate
peles
secinājumus
maisu
skaitās
promocijas
piešķirts
aktiviz
kolēģis
uzlād
klientam
sertific
Izrādījās
bibliotēkā
3000
publika
##sarga
Ierīc
apspried
atgriežoties
plūsmu
Anderson
Nodarb
kolekciju
trīc
basketbola
Venēc
Po
Rīts
dauz
gū
govs
lās
lēz
zādz
ĻOTI
##maks
##ķēra
##LU
neilgi
##ett
uzdz
uzinstal
##odam
krim
krut
darbošanās
lieliskas
##vērš
strūkl
##ežis
vadīja
##irds
īpašībām
vīrišķ
Uzman
pēdējam
vērtēšanas
noskaņu
procesam
Lielais
dzirdēts
aplikācijā
Pārējie
jūtama
Nevaru
dzērienus
piekrist
ezerā
apdrošināšana
saimniecību
ikvienu
firmu
ievadā
pircēji
meistars
verd
rotaļliet
Godīgi
kompensāciju
mīnuss
riekstu
sveces
aizrāv
Japānas
CSS
birojs
klēpī
Rezumē
Drošības
Nexus
ogļhidr
77
Pek
Rid
Tol
auss
gav
gauž
vāka
##mār
##menis
##eķu
##āņi
##hs
##AKS
noc
##oment
aptuven
##ella
reorgan
##skārt
##oblog
klau
nesaist
veidošana
nosūta
##efa
šādai
attiecīgu
gatavu
iepriekšējais
tuvojās
##meņu
1500
mazākas
mainīties
zviedr
##darbs
publiskā
saldais
putns
kāpost
diskurs
klausās
neuztrauc
1991
iestājās
improv
deputātiem
ārpuses
fantāzijas
##ARA
atzīmē
pakāpi
tomāti
tomātus
atvērtā
puisi
Daugavpilī
pusgadu
ANO
konstrukcijas
Murmulītis
Vladim
kostīm
Gauj
TT
Vaš
bars
dāmu
watch
##otājas
##ējamas
paroles
##itāru
pārpil
ieč
iedroš
nepak
iespējamās
kopums
Parīzē
tehniskā
##brīv
ass
prasība
mēģinājumi
klasi
ministrijai
saldēt
pārliecības
iestādei
##maiņas
rādīs
mīļie
nolēmusi
birst
apvieno
piedāvājuma
ezers
atvērta
maršruta
potenciālu
Palīdz
programmās
ieslodzīto
šūšanas
bezdarbnieka
Blackberry
šampan
laikmetā
Iekšlietu
dzīvesveidu
baumas
incid
Izejvielas
Bau
Fini
Sab
dejot
ot
rais
timi
##bul
##niņa
##iesti
noliet
##emat
ieņemt
paspēja
##ēdama
mazajā
##ester
##īcijās
rakstīšanas
izdot
pretējo
ceļot
radīta
darām
darīs
personību
pirmsskolas
atslāb
lielākie
atpal
nenoj
pētījumiem
klasisko
profesion
profesors
operatora
ASK
rūpniecības
padarīja
Strād
Tieslietu
fotogrāfijām
Citiem
pieslēguma
universitātē
pieaugušajiem
pleca
nerunā
apspriest
partneris
pagrūti
laikraksts
pludmales
iniciatīvas
rietumu
Meitene
klimata
policisti
rīsu
ietaupīt
skropstu
Instagram
Deivids
energoef
smiekli
Optim
Slim
Ziniet
adr
kāja
mem
pain
Īsti
Žan
##eak
##port
##jan
##ash
##ārdz
##ilā
##ītam
pārējā
ietu
skaid
skandināv
##ults
##azg
##šuj
aizvērt
kluss
nebrauc
likte
karsti
Pried
##niecei
##uda
sekoju
rezultāta
dabūs
skaidrā
brīvdienu
prieki
##ojamā
nolaist
Spānijā
from
saimniek
apkārtnes
paziņot
funkcijām
uzturu
saņēmuši
ieguvu
iespaidīgs
Plkst
izbeidz
pārsteigt
Konst
izteikts
tukšas
locīt
kuģu
Note
prezentācija
pārraudz
stūri
juridiskā
ļaudīm
uzrunā
joslas
īpatnības
govis
reakciju
sektorā
laikmeta
Ukrainas
filiāles
Aija
Bites
Din
Liekas
bēr
cauru
ran
zēnu
##tan
##daļa
##BS
##48
##ējošas
izstā
uzsm
kurieni
##aisu
kof
grez
##šuvu
##aļi
##inātiem
##aksts
aizies
##ions
domājam
smējās
šķūn
ārējā
salātu
personisko
vārdam
pamatīgs
##vērtē
##iniekam
spēlētāju
amer
ražošanā
pievienojot
zīmēm
apmeklējumu
pieņemšanu
##malu
sasniegumiem
sīkums
TV3
svaiga
tērpu
Vilc
elements
olbalt
karstumā
simbolu
nenotiks
jebkādas
lepni
tīklus
izteikties
pacienta
kursā
scenārija
scenāriju
mega
##emius
parlamenta
pārvarēt
animācijas
Āfrikas
informātikas
Rot
Vācija
ego
jutu
kanc
pēkš
rent
raķ
sup
##oņus
##nās
##īli
##ary
neērt
atšķ
laiv
##okļa
##idž
##apstāk
nesāp
priekšnoteik
##aigā
turpinot
iepriekšmin
jāpies
sociālie
meklēja
apskati
Džeim
atstāju
uzlabo
Dombr
tradīcija
traumu
uzrad
atvēra
mērces
kaimiņi
Grāmatu
pārsteidzoši
stratēģiju
viedtālruņa
pašreizējo
pārvēršas
želejas
paspēt
bezgala
bailēm
Elizab
ME
Out
Valst
Zel
ma
sāt
##sāp
##IP
##iepa
tāf
grādi
##ape
##eds
attīr
##ēnam
##āsta
##nesa
pretstat
##īdēja
radošo
##atorā
ātrs
personīgā
spēlētāji
191
sadaļas
izsv
brīvas
pievienojās
zīmē
sniegšanas
spriež
izlasi
sagatavošanas
uzturēšanas
uzlabošanai
##aņķ
130
krievi
kanēļ
jāatceras
piešķiršanu
mīksta
publicē
paskata
tērēt
zilā
apmierināta
mirklis
iepirkumu
brokastīs
burkāni
haot
pērkot
sautē
korpuss
priekšmets
reklāmām
atsūtīja
asinīs
Gruzijas
nepārsniedz
Ceh
Der
Ever
Gund
PAR
Riek
ainu
home
tiec
zīl
čig
##īžu
##han
##cilvēk
##ķeras
##umj
neoficiāl
##ākai
##ilb
##ētajam
##ekul
##elācijas
##ēlā
kaste
manāmi
koc
tādai
šovu
šofer
jāieg
nosod
vidēja
smieties
##nig
kamol
orhid
Izveid
paziņām
lapai
turpinājās
pamatus
abos
atpūta
augsto
glāze
virsmu
Als
konkurēt
dalībniekus
mīļi
nosaukumi
fotor
četrās
melnie
Aizsardzības
aktualiz
Paši
##griežoties
policiju
kanāla
ienākumus
ciemat
Pašreiz
likteni
Citādi
gājienu
elementus
sasniedzot
laiciņa
lejupiel
sastopami
revīzijas
neskaitāmas
alternatīva
identitāti
signāls
izlēmu
apgaismojuma
sektora
vislielāko
mehānisms
dienvidu
austiņas
Stokholmā
auksti
satriec
pašnāvību
astoņdesmit
Parlamenta
balkona
Baiba
telekomunikāciju
FM
Ger
Pot
Pļav
lauru
rūgt
takš
##caur
##arus
are
##ājieties
##onakt
apstād
apciet
skept
##uns
##ecina
aizkust
##obs
##entas
likts
##ute
vērta
redzēts
reizēs
veikšanas
iegūta
atslēgu
alum
izvēlē
izvēlēts
sadedz
neliek
modeļus
norādi
kompakt
lidojuma
foršs
platība
attēli
uzval
jūtami
pildījumu
nonākusi
sešdesmit
sviestā
reģionos
saulesbr
astoņiem
sajūsmu
iedzert
konsultācijas
brīnišķīgi
paplašināt
novadu
joslu
atverot
šausmīgi
picas
bērnudārza
sludinājumu
Būtībā
paturēt
neprasa
akredit
greizsird
titulu
Hansaban
78
Ceļu
DNS
Eh
Gold
Janv
Lev
Ram
lel
utml
ģerb
##aw
##liņš
##ketu
##ales
##ienot
##urā
##iņr
uzsk
##oniju
##iekārt
##ema
vieniem
ievērt
##drīkst
spir
spiež
klints
##ainajā
##ūrās
neskar
bezsp
vecie
saskr
blend
##evičs
saklaus
darot
vienuviet
##īlis
lieko
pastas
sacen
aktier
pievienojas
Tikpat
politikā
aprit
Mark
atlicis
negribētu
rajonos
apziņas
mīļāko
##energo
centimetr
atgādināt
pastāsta
kopējās
veidošanos
City
pasūtījuma
talantu
glabā
asociācija
Pamēģ
izaugsmi
viedtālruņiem
##INĀ
Latgalē
ieskatīties
apturēt
cepures
putniem
dziedātāja
Diāna
Policija
piekrastes
riepas
Nedēļas
miskast
Hal
NR
Non
Noz
Ped
Sel
bakst
dušas
keb
kuc
mp
pods
##aņa
##ņās
##austu
##eng
uzspēl
##īgajos
jaukt
skal
##ielas
reālo
kādās
aizgād
##ival
kadru
##ēnes
tieku
brīt
brāli
vecākā
drāmas
saknēm
vadītājam
sekojot
iemaks
##ingo
brīdina
glaz
Vēlreiz
cepumus
jāpievēr
pacēla
izlozes
Dzied
samazinājies
platības
mierīgs
uzvilkt
plašāku
pieri
mīļākais
Baltijā
faktoriem
dziedāja
apvienība
satiksme
pievērsties
meklēšana
baznīcā
obligāto
tendenci
350
saitā
kastē
augšējā
pastaigā
tumsa
slepk
pieraduši
kukur
neprec
spiests
kokteil
modificēto
ugunsdzēsības
nepacietību
skārienjūt
Cienīj
IMDB
98
Bars
Cel
Iemes
Mair
War
ai
fokus
miel
##pina
##funk
##ākajos
##akta
kazas
esu
staip
gramat
##idar
lielai
pamain
minēja
augi
sark
Princ
iemaksas
atsav
ieviešana
aktieriem
pievienots
sapnī
##darbi
speciālu
atšķirīgs
videok
saņemu
saņemties
zaudējumi
cieta
suņiem
biezu
izteikta
derētu
smuks
##ARB
sportistu
neatkarību
pakāpes
sastāvdaļām
līkum
glābt
nagiem
eksperimentu
Gribēju
aizdomās
integrācijas
rotaļlietas
auditorija
kvadrātmetru
operētājsistēmu
atvainojos
invalid
bitēm
folkloras
mezgl
koledžas
2x
HP
Mām
Nora
Rol
civ
##lid
##GB
nedzīv
##akos
pieveik
visaugst
##produk
savējo
vēlētāju
##ejo
##ilde
traf
jaunajai
##istiskā
##iedis
kopīgu
##ušām
draz
strīdu
##itātei
apmēr
##aura
personāls
izvēlies
dalības
latvisk
Vēlos
procesors
tirgum
vilnis
dzimtas
draugam
eksped
noteiktos
piemēroti
simf
avīzes
mierīga
Teor
robežai
veiksmīgu
labsaj
ziņoja
rūpniec
pastāvēt
Strad
satikties
dīvaina
bazil
Bērns
noslēguma
aptauju
žanru
apvelt
krūts
nemainās
dūmu
signālu
nespēs
fani
recepšu
pulvera
tramvaja
Nereti
ogām
izstrādātājiem
inflācijas
asinīm
neērti
gliemež
Bas
lir
lejas
must
rap
vaz
##mer
##bas
##ējumos
##urg
##ādama
izdruk
##īgajās
##itis
vienatnē
##eiki
spogu
sportu
labām
Latvenergo
pirmajai
##opol
galiem
nosm
nosakot
piemiņas
pilnīgā
skatiens
turpināju
nozīmīgi
neliekas
izveides
gaism
sastāda
patieso
jāpērk
iedzīvotājs
komentārs
aktīvs
negatīvi
liecināja
aptums
Plan
iegūto
biezs
##ūces
ēdieni
ierobežojumus
1993
Street
sadalīt
Kalv
uzdod
receptē
apbūv
Galvenā
fantastisks
alga
varoņa
dvēsele
bļod
tradicionālo
iespējamos
Maija
Veron
santīmi
sagādāt
brāļa
slodzi
Iveta
piegādi
EXPO
kraukšķ
96
Bit
Biķ
Den
Diz
Sint
Vīt
liesmas
sēt
##osti
##āšanos
##VA
##anās
uznāk
apsp
##ever
laikapstāk
aizmi
##ainos
##istika
sver
jāņ
kopiju
nedara
ietēr
##ektora
##upu
šādās
rokai
labākos
skolām
Uzz
##mani
saistība
neesat
mazākā
ģimeņu
datoram
sniegto
vilka
apskatu
##artes
konkurencē
treniņa
viesnīca
saldi
nākamreiz
pozicion
būves
guv
virtuve
pozitīvs
TVNET
padarītu
sarežģīts
parastās
baznīca
Garmin
izvērtās
minimums
aizbrauk
festivālā
akmeņi
stadionā
bēdīgi
prātīgi
paspējis
lugas
biezpiena
Biedr
Mars
Sēd
Vēt
Vir
rotā
sāl
taka
##ware
##otajām
##ākst
##ilc
jaukā
reput
##rauz
daudzviet
izmaisa
##istas
lietoti
vēro
radīto
radošā
veikumu
##pilda
parādījies
##valdes
##ostā
neliec
devis
Iron
sacīt
aizsāk
mežiem
atšķirīgu
lēmumi
dzirdējusi
negod
iemeslus
teikumu
veiksmīga
rādās
objektīvi
īsteno
projektos
ciema
traus
arhīva
galvaspilsētā
ideoloģijas
sarežģīta
Garš
Ziemassvētkos
nosacījumu
Ārlietu
tendencēm
tavi
tūliņ
glabājas
paskaidrot
opoz
Godātie
aizmugures
shēmu
Skolas
cigarešu
apsaimniekošanas
dzirn
podk
ziepju
Pāvils
gaužām
Home
Lil
Līg
Laine
Mo
alas
laz
pest
satv
vīt
zūd
šausmu
##vīns
##daļ
##ēšot
##NK
##35
nož
printer
grezn
##inātie
labir
##ickr
lielums
tādejādi
##grūt
gars
pavir
sasaist
skrūv
padus
sameklēt
##ūdaļ
neizdar
uzskatīta
caurumu
mācībām
gaidam
uzsāka
izpēti
droša
logus
agrā
operatīvi
ekonomika
kāpņu
Komerc
sērijā
principi
##iterī
dēla
mell
bumbiņas
Likumā
Vēstur
Trešais
zvēru
iekrita
pārvērst
elpot
pamodos
gandarījums
##istabas
Meitenes
tanī
cūkg
Jānim
Rim
estrād
rod
sain
tīru
vim
čip
čukst
##vēs
##gen
##ho
##žot
##MB
nolai
##enk
##ālija
vienādas
manliekas
##agi
reāls
##ošajās
##inājumos
turēja
jaunam
dažned
rakstam
autonom
karot
āra
pagājuši
salātus
seku
Atkl
satiku
labāki
##iļļu
gatavoju
sajutu
lieka
iepriekšējiem
neteiktu
ievirz
vērtībā
iedot
mēģinājis
mežģ
konkurence
puls
pārdomāt
front
Pārbaud
Ziemas
uzvarētāju
raksturīgs
##emont
locekļu
noskaidrots
peldēt
panākumi
soļi
taukos
krēma
nenotika
asociējas
pārdevējs
##filmu
piegādāt
cilvēces
vēstule
rotaļlietu
inspekcija
santīmiem
Nikol
##kapit
likumdošanas
atpazīt
fakultātes
Gastons
Chrome
Eirov
grupēj
Eva
Jor
Meks
Taks
Vāciju
fi
jūdz
kios
let
tēti
##TK
##inošo
##ikš
nedroš
##urf
##ēlies
##ologu
vienpadsmit
kasta
##āvas
##ošajos
##app
krat
krok
##īka
plakst
plīts
##ainiem
komprom
kautkur
veidotu
pamud
atra
divatā
sask
##rīda
##egvielas
sabruk
paziņu
stāvot
izskatā
##alizāciju
strādās
izveidojusies
pētījumos
padomāju
##ondu
zvans
apskatot
konkurentu
speciālā
reģistrācija
sliktas
korekti
septembrim
uzturēšanās
rādītājiem
diži
galdiņa
apziņu
uzraksts
kļūstot
iespaidā
mākslinieka
ticības
interesantus
izgāja
iesaistīto
saprotama
smuka
ļaundar
Darbs
izvietoti
olām
pēdu
##pilsēta
##pasaules
ābolus
konsultāciju
turpināsies
izziņas
finišs
kompetence
asarām
##IJA
Māksl
Maxima
mandeļu
Pulkst
efektivitāti
Mozilla
Slovāk
Tobiass
Paralēli
Biķer
88
Cl
Ez
Hip
Lif
Ras
ciest
disks
od
Ļeņ
##niņu
##ITE
##ūmes
##JA
##eits
##ietni
##ojošas
kāzas
##izēta
visādām
pārskait
##eiku
dzint
spul
spējis
##ēdami
mazajām
##audžu
palīg
nosauca
kopvērt
bezd
karoga
saskan
akti
##jutu
pamatoti
##ināsi
uzskati
Eiropu
Lielās
teikto
fotos
komentēt
ievēroju
līgumus
audi
plašā
portālam
vieglatl
zaļās
krustiņ
##ējušo
direktora
amatpersonām
praksi
novietot
aspekts
sagrieztu
dabūja
motivācijas
Pamazām
ballītes
Mobile
Vieta
smiltīs
jāpieņem
parametriem
sudrab
inženier
piedodiet
Ģimenes
našķ
Īstenībā
dažnedaž
CE
Pos
Romas
Sevišķ
Taisn
Vieg
lod
paud
paug
rotas
zaķ
##vana
##nai
##nus
##īlē
##24
##99
##inošā
##ikip
##illēm
##etov
izīr
##ometru
paģ
manev
kokus
reālā
līdzīgā
aizrād
plaušu
mazbērn
##krēs
karogu
ceļas
gribēs
##encis
plānos
skaidru
atzīta
##afe
mēģināšu
sniegumu
seno
aprind
dodot
bariņš
galds
saglabājas
apzinās
pieres
raksturīgi
noderīgas
tumšā
izteiksm
##IET
komunikācija
pipariem
parastais
perf
gudrs
automašīna
iepakojums
kapitāl
numurā
intensīvi
Milz
poļu
Atbilde
iegūšanas
Zinātn
Stokholmas
spogulī
šķīvja
Baltkrievijas
putukr
Tūlīt
pamatprincip
Aizkraukles
Hit
Is
Pe
Režis
cin
line
rīsi
vs
Ķīps
##meit
##svēt
##tiņas
##EF
##ģim
##umst
neeks
noķer
iztulk
sting
dzidr
reāla
aizt
klājas
liktu
nedarb
neizprot
kalkul
centrālo
tirgotāji
cepumi
valdīja
piecos
piedalītos
izstrāde
draugos
pārslas
reģistru
reģistrēta
nemāku
saņemts
masku
operatoru
darbinieka
septiņas
Kādēļ
ziediem
Drop
pieauguma
kompānijām
domāšanu
pirkuma
centies
terminu
termiņā
monstr
Karal
Kartup
alkohols
krekls
Indijā
slaveno
muļķīgi
raudāt
kaudze
bučas
pusstundas
Attīst
nēsāt
Pasākuma
Oficiāl
##cript
Games
aizmigt
nepabeig
repertu
Feed
Ker
Nakts
līgas
vāv
##ķēru
##ame
nestāv
##usm
##avīks
##akami
##oslēp
##ietas
##ietēm
##ekr
jauko
##iskums
pārņemt
grauj
reformu
##eza
##īnei
turot
kadastr
galarezult
domēna
##ušajā
vecos
##egs
Paredz
pakārt
Izstrād
tiesnesis
##vera
tālab
novār
sabiedriskajā
izskatīsies
##leņu
galvenajā
lauki
procesiem
saputo
solo
burz
lidot
garšīga
apmeklēja
dzirdējuši
##stabil
zālēm
recenz
nesaprata
1990
neparast
resurss
izteiksmes
tēla
##kalna
##vēlēšanu
traucējumi
Adv
uzņemties
savādāka
##svarā
potenciālo
segu
jebkādu
5000
tekstus
neizmanto
iniciatīvu
iesākto
medicīniskās
piezīmes
šķīrējties
apņemšanās
uzsvars
bakal
Āzijas
##iezīmē
kapitālsabiedr
Ass
Mont
Za
blu
dif
rib
##nk
##db
##VS
##Don
necen
##ūto
##prā
grim
##iver
nevalst
citviet
pašpār
izvad
Esot
Prot
Stef
izvēlējies
netīšām
spēkam
naudiņu
prasās
izveide
izveidojuši
mūziķi
patiesu
patiesības
meklētāju
piedalījies
klasif
dalībvalstu
aveņu
atsevišķiem
ziedus
stiprs
bagāž
noderīgu
piedāvājumus
nozari
izdomājis
traucējumiem
Sanāk
soļiem
nosacīti
romānu
astoņi
##klausās
atzinumu
paaudze
uzvedību
skumj
akmeņu
priekšrocība
nelikās
pieļauju
Informācija
multim
IKP
izmisīgi
Japānā
vitamīnu
asfaltu
riņķ
traģēd
erot
lemts
līdzdalību
luksof
šejienes
900
Adr
Jūn
Ki
da
liedz
modu
ov
omul
vol
Ēģipt
##jago
##xt
##75
##argā
noplūd
##āmās
##iņģ
##akmens
uzmin
##ekļ
apš
##aiss
toņi
dzija
##rīc
##aines
##kli
tiekot
kopijas
##ektoru
skrējis
##itātēm
zems
ekip
Parex
Izložu
augstāku
stāvs
uzskatāma
nenod
veselīgi
##darbus
dalībvalsts
nemaks
Dzird
gabali
apmeklēju
kultūrā
attēlot
uzvār
atsevišķs
rādītājus
Elīne
faktiem
jānot
vārtu
starptautiskajā
punktos
apliecību
tukšs
šķirņu
izturību
maršrutā
apģērbs
šokolāde
maksātnes
festivālu
elektroener
Iepriekšējā
Rēzeknē
Murakami
kolekcija
mehānismu
Lieki
Vasarā
Anglijā
kultūrvēstur
Santjago
homoseksu
savvaļas
Kurs
Lin
MIN
Nra
Saist
Sāksim
Win
XP
rudz
raiti
žur
##iču
##īņas
##QL
##ikop
atgu
##onī
kaž
pabūt
##izēts
stār
pasakas
##ainie
##ēdas
dzīva
pašās
izvilka
##ipars
strīda
##ektam
##atīvie
Atkar
uzņēmumus
uzņēmumos
parādīts
gaidījis
kolos
sanākt
esamību
jāpav
jāpied
dzimst
noliegt
klasiskā
ņemts
pārdesmit
saņemšanai
maraton
salīdzina
John
komentē
Jauns
sagatavoties
negribēju
lēnā
uzrakstījis
ierobežojumiem
nepārtraukt
jānor
konstatēju
##ernitātes
Valmiera
sakrīt
tulkojums
publikai
iegūstam
instruments
numuriem
baterija
Kuldīgā
maksājumus
Ņujorkā
sašut
##mēneša
sponsor
Šovakar
##mbian
Jēzus
Kopsavilkums
Barsel
Sevišķi
ID
Mix
Om
Oļ
Pēr
cirk
emu
mūr
sienā
ēter
##lēc
##lijs
##oad
##EK
##OD
##anes
##aužu
##ateriāl
##ākajās
##uras
##akiem
##irkst
pārbrauc
##idoja
aizp
aizķer
##raukā
##autā
lielumu
##aksn
šķiedr
##ārda
ceļos
##īdis
gribot
gribēt
Izd
lasījumā
lielākajā
pastkast
skaidrot
##news
uzskats
saistīto
mazāki
mēģinājumu
reģistrēties
studēt
līdzekļa
attēlo
mobilajām
neapšaubāmi
kustēties
pamanījuši
atrodoties
aktivitāti
džung
tēli
astes
iebraukt
oficiālo
Cilvēkiem
sportistiem
attālums
Bērniem
mērcē
attieksmes
online
Mārtiņa
konference
aizbrauca
kafejnīcas
uzrāda
aizpildīt
LNNK
neveiksmīgi
vētra
Vasaras
karavīru
fascin
Berlīnes
mērķtiecīgi
Mīklu
Brīžiem
##nieču
pavārgrām
palodzes
darbaspēka
86
Grau
Sem
Vin
den
lakas
vin
##igu
##tirg
##rijs
##don
##IG
##atn
##amer
##ikul
##eniek
park
papras
vienotā
tikties
patik
gril
##ogus
lielajām
trill
##ināji
mazajam
##entās
galus
auguma
vērojams
smēr
katedr
zemestrī
##ovam
Visliel
padot
mēra
tālajā
vīrus
asiņu
strādājis
##iestā
finālā
izveidotu
ražošana
dzīvesvietas
##pili
Neaiz
teiciens
##eksa
izstrādē
Tiklīdz
izcils
slikto
apkārtējiem
profesijas
ievērošanu
negar
varēsiet
Aizg
nodokļus
##elsies
īstenošanu
Blakus
Rein
nepatīkami
segumu
Vairs
pulksteni
celties
rēķinu
Skrund
pļavu
ausīs
kalpot
nejauš
lidmašīnā
mājaslapu
stabili
aizvest
iekļauties
nojausm
iepirkuma
mitruma
nesanāks
bateriju
sirsnīgi
Uzņēmumu
etiķi
nodevas
atmosfēru
graudu
Comm
pilnvērtīgi
##oresurs
Dalīb
Symbian
kaulu
direktīvas
nedomājot
sliedēm
Speciāl
neaprakst
Respektīvi
ZZS
Pagatavošana
Ryanair
Diskus
Jer
KĀ
Sakar
fans
my
nar
īkšķ
##LA
##15
##ated
##inēt
##ākot
atlikt
prest
##ekciju
##ologa
ieeja
kritu
kramp
pirmdienas
jauniešus
##ieglo
nesmu
veidošanai
pusdienu
balva
darījuma
panor
lasīja
iemant
##ortim
blogeriem
vērtēt
lauks
Eiropa
atklājot
cepumu
Brazīl
2015
zīmēt
atvilkt
atmet
variantiem
rīki
atstājis
Katrī
Labu
Pārsvarā
vēsturisko
sēdēju
kartona
skaistumu
diriģ
maisiņu
tirdzniecība
spēcīgas
ritmā
komplektu
precīzu
stacija
elektroniski
pieslēgt
simbols
pabeigta
ķermenī
asinsvadu
amerikāņi
##procesa
pasažieri
bērnudārzā
that
pārstrādes
iebildumu
CSDD
Īsumā
pienācīgi
skūpst
##adicionāl
geocach
Preiļu
Atbilstoši
jāpievērš
sarkans
Bļ
GP
LPP
Sib
Tēr
Zāl
muc
vinn
##damies
##ēga
##NE
##ļāp
##urst
atceļ
##onf
ieeju
##aze
##aziņas
grami
spont
##echn
attīrī
##eicu
veidošanās
tuša
vecvec
šķīd
##aule
kārtīgu
pirmsāk
lasīšanu
sabal
izvēlējušies
vīriem
noskalo
grūts
paciņu
piedaloties
skrējēja
pārspēj
atbilstošas
Spēles
pareizu
nākamajai
atceramies
##ious
ekonomiku
atsevišķās
Goog
slēpj
pieaugs
kompānijai
##auguši
gaišs
kabinetā
pazīstam
kredīts
Vairāki
dārgāk
noslēpumu
gleznas
dzemdībām
sekojoši
iekārta
iejauk
izmēri
māmiņas
industrijas
industriāl
sfērā
epizod
organismam
##opulār
##šķīrās
benzīntan
Aģ
Fit
Jon
Lem
NFC
So
Tēv
aitas
biz
dež
fanu
gab
hist
lies
čakar
##fic
##ĀS
##itai
patikt
##agl
spam
spektr
sports
pasi
trijiem
klīst
lieti
palīgs
##vēru
##ēnai
##ēnus
jāiev
atrieb
sliekš
zemapz
##labā
Int
sievai
bijuš
telefon
izskatīšanai
asprāt
internetam
iepērk
pētniec
mainīsies
Alb
izstrādājumu
nolemj
garšvielām
pareiza
izrēķ
secinājums
apraksti
sasniegusi
uzturēšanu
pārvaldē
##ājamās
piedzīvojis
uzbud
Koncer
piederēja
ideāla
##ahoo
apdrošināšanu
pārkāpuma
balstīts
standarts
pieslēgties
ķiršu
apkopot
tomātiem
pļāp
skābais
šķērslis
smadzenēm
eksistenci
aizstāvēt
Nolēmu
Atbildes
Norvēģijā
Drīzāk
korpusa
tante
ziepes
ilgtermiņā
TOP
astronom
##plēša
Lisab
##ikipedia
dās
##men
neatv
##eno
##ālai
esiet
esošajām
nekautr
##aids
##opļ
##īriem
kopienas
nedarbojas
vērojot
blūz
zemāka
##augs
personība
sapra
pietura
plānās
neatšķiras
martam
izsalk
nenok
Turcijā
vispārējās
situācijām
apskats
variantus
miljon
##ogrāfija
indi
līgumi
desmitgad
uzrakstīts
ieguves
koncertā
##lapas
soļa
dievs
Dzīves
slēgta
jebkāda
##olds
Treškārt
pārmaiņu
šovs
nolūkā
picu
rekords
buljona
strādājošo
vētras
patstāvīgi
Pieteik
piezvanīt
Tartu
Skrienot
kapteinis
jāizdara
Bank
Maps
Ral
lomās
māla
rut
siks
Št
Šonedēļ
##oom
##veš
##vaigz
##nod
##īņ
##Hz
##ervis
pieaic
##izētu
##okolu
##inātām
klusu
dzīvu
izvelk
vietnes
##īcijai
drošu
zema
margar
gatavošanās
ievāk
piekto
Irm
izteicās
dārga
paredzētās
##runī
piedalījos
konkurences
izstrādāta
nolaup
##āfr
izpausties
pieņemti
##berz
Jaunajā
Pasaulē
aprakstīts
fizisku
upē
smagas
iegūts
##marž
kanēli
pārsteigta
##kaidro
seguma
kundz
saimniecībā
atbrīvot
rūķiem
porn
sekundē
pirkstus
pelnījis
pielietot
atklājums
finišu
iegūstot
failiem
remontu
festivāls
kursus
standartus
mākoņiem
Lasot
pagātni
Siguldā
plūsma
SEK
nokriš
Nike
transportlīdzekļu
Saldus
linku
##skābes
komforta
atalgojumu
maltīti
sašaur
priekšmetus
kosmētiku
Problēma
cepampap
Alsun
mp3
Cre
Hum
Hor
Na
Ola
Vinn
bēn
gāzi
kūr
kut
sakt
sejai
Īsi
ķeks
ļoo
##mel
##īī
##ūma
##aika
noņemt
##enieks
##orks
##ojošais
piegriezt
##arbon
##ogo
krasi
##icas
##teri
plēs
kleita
##astiem
kopīgā
##ektor
teltī
radīšanas
samekl
##ūzas
pamati
īpašām
lielākiem
izvēlos
izvēlētos
##karte
##meņiem
saistītās
veselīga
apsēst
meteor
uzsl
adopt
saput
solās
##arte
klasiskās
treneri
izpalīdz
operatoriem
Laba
aizsargāj
septiņdesmit
nepatik
izplūd
lēnas
iespaidi
noderēja
mākslīgi
sarkana
pazīstamas
baltais
tukšu
Pašam
auksta
ieguldīt
Daugava
kunga
literatūra
mēdzu
prognozē
pastaiga
restorāns
seriāls
konferenci
digitālās
koncepcijas
civilās
aizraujoši
dusmas
burkānu
muskuļi
Telefona
Lauksaimniecības
pateikšu
augsnes
pašsaj
izlemt
piespiest
Alberts
sesijas
sīrupu
mazgāšanas
interjera
##materiālu
Ražotājs
nomizo
atbilžu
mēslošanas
82
Live
Pietiek
Tum
Taiz
om
##kun
##urv
apcer
##elc
topa
līdzīgiem
##apņ
##apul
##ical
darbiņš
##eļš
jaunībā
##iegs
izmantos
radīti
##egas
sakņu
10km
vīrusu
nozīmēja
atpūtu
##ney
sevišķ
nenom
centriem
atklātu
metožu
cepamo
lidojumu
frekven
##simt
Iesāk
apjaut
maijam
rūpnīcas
atkarību
skaitīt
domāšana
tūristi
baltie
detaļu
jāraksta
savādāks
sapratām
aprēķina
pircējs
apdāv
takām
tamborēt
Verdi
nepiedal
primitīv
klātbūtne
olīveļļas
trijos
lauciņā
kungi
troksnis
energoresurs
kāzām
tiešraid
AM
BB
Bag
naž
Āb
##latv
##tām
##šamies
##de
##hop
##DZ
necer
negul
##erties
##āmais
uzad
##irts
##itiv
##abūt
inbox
kravu
##audās
svešu
##auku
paveid
veciem
vecāks
##andes
šķiņ
bloku
norma
##ingi
lielākajai
piedāvāti
piram
norādījis
vispārējo
zīmol
zīmols
papildināts
formāta
speciālo
aprik
saņemšanu
nosaukumā
maskas
foruma
virziens
versijām
sastāva
milzīgas
uzdevuma
būvniecību
izpilda
upuri
nostāju
rindkop
patērē
ierobežotas
jāmācās
1992
skolēna
prototi
galvaspilsētas
dēlam
detaļām
sausas
sešos
filmēt
pudele
pasūtījumu
potenciāls
##āžs
Turpinot
##ange
zvaigzne
seksuālo
dzīvojamā
pilnvaru
funkcionalitāti
taustiņu
termini
pārtraukuma
##emium
trīsp
noklausīties
entuzias
evolū
Vērtējums
Elektron
arbitr
važiņr
renov
Pārtikas
Vašingt
Amat
But
Bijām
Cor
FK
Fer
Gemius
Ma
Nozīm
Raiņa
Techn
Vāc
Zir
Zina
aer
cache
sier
##ein
##Bal
##alb
aromāt
##ārš
##enos
##onijs
##oluc
vardarbības
##ectr
līdzfinans
##rust
##ediju
##grad
tiev
ierauga
ieroč
veidotājiem
domēnu
atrib
vecākais
strēm
##īdama
Parād
##aitas
lasīšanai
lasītājus
anket
Uzs
novilkt
abpus
abstr
deviņiem
mācīšanās
pētnieki
izceļas
pareizs
izlasījis
portālos
kritiku
slēpņa
piedzīvo
māksliniekiem
transports
protesta
Mazā
##lapu
saimnieciskās
pieslēgums
ieguvuši
kategorijās
izmaksās
Likās
eksperiments
pārvietojas
sākotnējā
pelnīt
Ikdienā
pieejamības
iezīmes
ķīmisko
faila
numurus
kombinācija
spiedienu
nepilngad
Jēkabs
NEX
Uzņēmuma
##programmas
lielveikalu
Times
brends
dramatur
##pulkst
norēķinu
Neliels
Lāčplēša
komfortab
Irmgard
Ciet
Jut
RIM
Zar
bon
lēr
nieks
pin
tūdaļ
čalis
##mārs
##TF
##inoš
##alga
##erministr
##enh
##ietilp
##trūkst
manos
grēk
kret
nekārt
##estas
pameta
##spie
vecāka
radījusi
balles
salonā
iemies
iemaisa
Ang
īpašību
ieder
izveidojot
ekspoz
skrējieni
lidojums
saņemta
pabalsts
##ardu
pavadījām
teritorijās
septiņus
portāliem
kritums
piedzīvoja
komisijai
ticība
atkarība
institūts
Mazais
pārtika
satiksmi
apliecināja
atvērtu
pieteikums
epastu
noslēgts
kvalitatīva
brauktu
jūlijam
Māras
cīnījās
sajūsmas
minētajām
šaubos
draudus
peļņa
brīnišķīga
revid
Lattelekom
armija
kolektīvs
jālieto
atsauksm
arguments
faniem
atvaļinājumu
Forši
domājat
slodze
##palik
māksliniece
mēbeļu
Piektdienas
kazino
propagandas
JavaS
Alūksnes
Ģertrūde
uzjautr
Ju
Olg
Ret
eir
letes
Šit
##pes
##pent
##tiņa
##ning
##dot
noiet
##ējošos
##ājami
##ērijā
inj
neviļ
tranz
##istiskās
paliet
svīt
##efer
radušies
ielej
101
ikmēneša
nepieciešamā
nozīmīgumu
novembrim
piekāp
apskata
jāsas
skrējējus
piemēriem
normālā
rīkojas
reģistrēts
reģistrēti
masā
saimnieku
iekšzemes
milzīgā
populāri
sagatavošanās
Kādam
uzvarētāji
iespaidiem
vārti
motīvu
paliktu
Cits
nonācām
panākumu
obligātās
sīpols
debesu
jāveido
potenciāli
fantastikas
saita
VIP
prognozēt
nagi
treilera
pacients
enc
respekt
Skatos
joki
oriģinālu
želat
pacientam
Svētdien
operētājsistēma
nedarīt
izšķirtspēju
tiltam
iekarot
nesaņem
Alberta
##nosac
biškop
apkarošanas
prestiž
##olucion
Biez
Det
Dist
Līb
Līgo
Lote
Nils
Rodr
Regul
SK
Silt
Skatoties
bikšu
gājuši
linux
pūt
sēdēj
ļāv
##ew
##ners
##neš
##fas
nobaud
##ital
##ojum
apļus
##aisot
pārģērb
toks
patvēr
gruz
labums
aizver
notr
daudzsol
izmērā
lietuss
lietojams
paveicies
##īzei
##ness
nākusi
ātra
Stāv
Krāj
##īla
##mann
liekam
##peria
tuvākā
pirāt
pirku
izveidojies
modē
metas
malku
nomāc
Transp
pārstāvi
Pieļauju
gabala
##skolu
sarunāt
ekonomikā
septiņu
uzrakstīšu
nolēmuši
nogāz
##iķus
balsošanas
sega
jāredz
fondēto
romāns
Interesants
sveša
receptēm
taukus
žurnālistiem
portr
jūnijam
ceturtais
vēders
uzsākta
Gribētos
sēžam
faili
Ceļā
Aleksis
izsniegt
ballīte
ģenēt
biksēm
iepazīstināja
tālruņu
atlīdzības
pacietību
ainavu
##KĀD
rullī
redzesl
MyS
pabeidzu
Bāriņ
riekstus
horizont
helikop
Mairita
81
ACTA
Dru
Nar
Publ
Tab
Xperia
loka
rēg
tiz
Šan
##yl
##cape
##ējošie
##iles
izkop
##eldz
##emē
laiž
esošu
savain
reālajā
labuma
labumus
##edev
##auditor
##klas
##eklam
izvilk
atrodu
karstas
##ektos
slaid
radoši
radušās
balans
gadījumam
##laip
Apz
skaidrības
galvenajām
vieglas
centraliz
Savulaik
##iforn
Gro
##uļķ
skrējienam
klasei
ņemam
piemērotas
politiķu
banānu
samazināts
apjuk
fizikas
piedzīvojumi
novērtējumu
dzērieniem
rudeni
impl
dīvāna
neredzēju
krustojumā
uzradās
apdrošināšanai
Repš
basām
zinātniski
vizuālo
kaklā
krēslu
publikas
Dienai
paradumus
jokiem
uzstāj
scenārijs
komplekss
atvaļinājumā
mizas
dejo
demokrātijas
provinc
doktora
Oskars
kantor
kokosriekstu
Nadīne
##UNO
Mičio
kancel
kanēļa
DE
Ori
Smit
Uš
ed
keram
mol
naksn
riev
ām
Žurn
##igan
##gais
##kins
##ym
##21
##atiņu
##esi
##esh
##ādāk
atc
vista
##īnija
##šķērs
##ipas
vecām
iekļāv
virt
oran
ielaist
Atlant
stāstījumu
Ans
gatavoties
izspr
priekam
organizatoru
maliņas
##darba
dalībnieka
rīkus
saimnieka
virzienos
izraudz
veikto
saglabājot
rūpēties
Nekādu
sniedzējs
atgriezīsies
privātā
atjaunošanu
starptautiski
Vecā
braukšanu
mikros
nolika
noguris
orientāciju
kalendārā
atzinību
plecus
iecerēts
tradicionālās
necieš
kompetences
miglā
pierakstīt
nepaliek
nepilnības
šķēlītēs
ieinteresēt
emocionālo
nospiest
brūkl
nežēlīgi
labklājības
ievārījumu
##XXXXXXXX
negras
MINI
Bes
Biļ
Desmit
EP
Por
Yahoo
band
dodu
nic
zeķu
##EA
##ford
##45
##uriem
priežu
vieno
vienīgās
pārpalik
variet
varavīks
grēks
vēlās
##aidīju
nevesel
citāda
attais
galot
garumu
##aukums
Ess
##smei
##āstu
##upcijas
##kārš
##zīmes
##usties
pakr
Stock
turpinājumu
neatst
vakariņās
augstuma
model
gaidāmo
amiz
adatas
solim
meklētājs
piecelties
apskatus
klasific
simti
##braucām
nemaksā
atbilstošs
agreg
iespied
atsevišķā
zemesgrām
saglabātu
uzvarētājs
kustībām
noskrējis
faktus
debess
iesaistīti
ritmu
zaļi
dzērieni
albumā
pierādījumu
janvārim
viela
prezentēja
paņēmis
režisoru
piedzima
astoņas
Kristof
minētajā
individuālās
Gribas
publikācijas
kompetenci
atnācis
remonts
konteksta
MacBook
Gunta
Iepriekšējos
##ometrs
pupas
sekretāre
medicīnisko
ielādēt
Biruta
piekļuves
Dzintars
horizon
Maikls
apetīti
AKKA
##planēt
piešķīra
Kļ
Māj
Se
bāl
ju
kāt
pāv
rab
##lija
##št
##TP
nokāp
##ojošos
pieķēr
##ēlos
##eme
jauc
dzēra
aizkl
klāj
##ocīgi
pilī
svilp
nospried
likumus
atrasta
būtne
Prāta
ārlietu
padodas
ātrās
mērs
lasītāj
sekotāju
Stand
pamatot
##turi
runājām
augstāks
patīkam
prasmi
aktus
malkas
sniegā
vilties
atvieglo
studijā
Džer
pozīcija
iekšpusē
četros
Varam
uzzināja
Frank
aprakstā
fiziskas
audzināt
apzin
raksturot
bagāta
policijā
saulīte
novērtēšanas
##skrēj
nejūt
1994
džins
ciemā
realizācijas
profesionālu
plank
jārunā
normatīvie
filmēšanas
apbed
Kristus
klasesbiedr
aizdomājos
augšpusē
atnāks
atslēga
Rūķi
miglas
prātam
startam
Braucot
ledusskapja
izstrādātāju
vislielākais
pieveikt
Bērziņa
##bankas
atbrauca
tantes
līdzsvaru
koksnes
vaicāja
LAA
bērzu
aizskar
apsēdās
Urban
Fantast
87
Dmit
Kļav
Last
Tieš
Zini
mēli
podā
vēz
word
##jevs
##rūp
nokrit
izgr
##ālajam
kāpa
##odis
ink
##skas
cilvēktiesību
garāks
pašr
iekļ
##plān
all
spēlēties
1940
programmai
nelā
nenov
nenāca
nomir
pārdošanā
cerībā
milzīgo
ierīcēs
palielinājies
ziedot
mīļā
sarkanais
pozitīvā
zaļš
starptautiskajiem
prezidentam
analīt
Pētījumā
nogali
atdod
##argi
degu
##dabas
maksimālo
pārdeva
drēbju
televīziju
aspekti
mājaslapas
draudiem
Skats
pērti
smilts
alternatīvas
ballīti
ziben
oriģināls
apakšas
finansiāli
govju
jubileju
nenožēl
Personīgi
Starptautiskā
Mērķis
fiksi
izšķirtspēja
Piektdien
Audi
pagrabā
Pareizi
uzsvaru
BRUNO
nekļūd
grauzd
##tsarakstu
griestiem
Vislabāk
nepārprotami
Austrumeiropas
daiviņas
##graudu
energoefektiv
Beigu
Def
Dānijas
GS
Hu
UZ
bakt
fok
mēles
sortim
vēzi
zon
##līgi
##uļa
##nit
##hy
##RT
##ikiem
##adarb
##ille
atdev
##itārā
pieiet
##iskāk
koko
patvers
vēlēties
nekt
jaunai
jaunietis
mazināt
citāts
domājusi
slavas
##īdamies
Izskat
tiesai
##aitis
pietiktu
Annas
lielākajām
gatavību
iepriekšējām
dabūtu
skaidras
##brūn
prasm
izveidojās
nomaina
burti
konkurenti
##loud
125
nelieli
##ējamu
students
Andra
pareizās
kāpj
teksti
veiksme
slēpnis
Dream
stipra
skaistums
ēdienreiz
apstiprināts
protokolu
dēli
mugurkaul
ieradāmies
atdala
ikviena
Lietuvu
intervija
privātās
guļot
Telev
presē
relaks
Nacionālo
Runa
oktobrim
serveris
aspektu
aspektiem
RS90
piepildīt
krājaizdevu
apdom
sēklu
piebilstot
ierasto
paraugs
kompleksu
pludmali
koordināt
neizdosies
Sociālo
ķēros
Teikšu
dalībvalstīm
pikn
noprast
Music
Jauku
kamerām
Brige
Sacensību
JĀNIS
selerijas
Dag
Ekr
Form
Lud
TE
Tech
Vīrs
Vējš
asti
laka
lemj
peli
ēnā
##mājas
##Wh
##altu
##urāt
##enal
##ajas
##orient
apļi
##ālisma
##trop
varējis
dzēst
##ogain
##ānās
maziņš
izvar
nesatur
vietējos
##dzīvokļu
gadījuma
rezid
##laika
parādījusies
skaidrojums
izskatītos
tiešās
atbalstam
zinātne
konkurenci
ministrijā
Vienot
garšaug
bankām
automātu
paziņots
septiņ
spējīga
viedokļi
Paņem
sīkumi
aprīlis
kanāls
ierobežots
finansēšanas
vārītiem
skolēns
dīvains
silu
iebrauk
attālumu
sausa
aizraušanās
dibenu
kvalitatīvs
aptauja
braukšana
karstums
izpēte
##valod
stiklu
krājumus
josla
programmatūra
bezdarba
Braucam
māmiņa
nodevu
partneru
tualeti
ķirbju
parametri
traukus
riskēt
mazgāt
##earch
ISO
iztēloties
atskanēja
Biznesa
izredzes
katliņā
diagnoz
amerik
kopvērtējumā
fotoses
89
Cent
Febru
King
Lī
Pērk
dīz
jūrmal
kair
liesm
māku
siet
tīt
trub
čīkst
##vīnu
##rom
##IB
##IX
##aiņiem
##iness
arhe
##dzemd
##avam
##avel
##iekam
apceļ
##izācijai
##ēmas
ieķ
līdzen
daudzkārt
lietišķ
ierašanās
būsiet
domē
teltis
slieks
zemei
akta
radošās
pagastu
iemest
##oloģe
Analizējot
izvēlamies
##īgākos
tirgos
uzspr
News
100km
Marvel
gabaliņiem
nosaukumus
konkrētais
konkrētiem
Pārāk
Pasta
Krievu
kritiski
sadarbojas
sīkumiem
ticību
maisījums
piedāvājumiem
aizdedz
izteiktu
naktīm
iestājies
Iespēja
imdb
Noskat
##ēgt
motīvs
Liepāja
uzņemta
atzīmes
svešā
izklaide
minimālo
portu
raidījums
bibliotēka
bīstamo
aprūpi
reliģisko
tradicionālā
sauļ
opozīcijas
uzstājās
pazīmēm
apzīmē
tramvaju
##istabu
premjerministr
paklausīties
##punkta
Kundz
nūj
Administratīvā
cimdus
kulinārijas
iesūtīja
Atzīšos
psihiatr
Izslēgts
norvēģu
Šanh
Big
Du
Dol
Ivan
Mier
Rīdz
Rīgai
Tic
did
lil
nīk
rac
sojas
vnk
##līg
##ūsti
##auti
##amajam
##ējošiem
##itch
vardarb
skurst
grāb
līdzjūt
klāja
kongr
jāiem
##īzēm
piemirs
##uden
zemākas
radiem
radīs
##iedziļ
##off
tiesīga
ātrā
lasījusi
sabiez
iemin
acum
tuvojoties
##elna
nenon
fināl
saistīt
##ondo
##bauda
publiskajā
atradusi
apkārtējās
ēdot
Varš
iespaidīgi
ēdienkart
pozitīvās
nobraukt
dzēriena
prezidente
augusts
ārpusē
sadales
smuku
meklēšanu
rītam
zivi
gadsimtu
piedāvātās
bumba
aizliegumu
šķērsot
uzmāc
pastaigāties
tumsu
šaubām
neticu
sastopamas
paskaidro
vēss
noskaņojums
tonī
importa
pedagogu
Tiekamies
ieskats
bērnudārzu
skapī
##amborēju
spilvenu
virsraksti
Viļņas
piestāt
jāpiebilst
Europe
##olejbol
nepilnu
paprikas
medikamentu
Gulbis
Gaismas
Precīz
dimens
##mūzikas
Bon
Brīn
Dek
Dator
Feder
Kul
Ludz
Moš
Mia
Nej
Pet
Rūp
Tici
Zaļā
egl
mer
pogām
rītos
##iB
##tīk
##jē
##īlas
##fab
##CT
##argu
izeju
apgl
laivā
visādu
pārrakst
ieņēma
savlaicīgi
grants
vēlēsies
aizceļ
pēctam
##īnām
nosvin
bērniņš
piemet
pretinieku
radīsies
interesentiem
personiskās
lasiet
neatcer
ikon
##ināmas
blogosf
vakariem
novāk
piektā
ražošanai
mainot
normām
garšīgu
Labklāj
kāpnes
maijs
sasnieguši
servisus
jūties
komisijā
##ūca
sniedzēju
patērētājiem
ierobežotu
nepārvar
Sākšu
ledu
##kalns
savienot
likten
kaitējums
eļļ
rītdien
sauszemes
testēšanas
automašīnām
apbur
kalendārs
Īpaš
grafiku
iepakojumu
kompetencē
remonta
unikāls
finansiālo
sugām
santīmus
pupiņas
pavērās
epizodes
piesardzīgi
ARKĀD
kotl
Arturs
ARKĀDIJS
2h
83
Lip
Pop
Sch
leļļu
most
sūta
šauru
##koka
##aiks
##austr
##enus
##irc
##tru
##izējot
tikšu
skrub
reg
refl
##oklis
labiekārt
aizej
aizņēma
kliš
konts
nepārd
mazsvar
citplanēt
##ento
lietai
sākšu
jāier
likumam
koptren
filejas
tamdēļ
skrietu
saredz
##ausa
jautāju
ikkat
blogeris
##drošības
brīdinājuma
beigt
ražas
cepu
##undament
atveda
speciālās
speciālista
piemērošanu
pulss
neregul
samazinājums
novēršanai
aktīvo
negatīvo
saucās
aicinājumu
##ērkoc
Kompl
distanču
iesaistās
komplim
vidusmēra
paskatās
Pētera
šķirties
smaidīt
kvalitatīvas
skaļru
iznākusi
konstru
mute
pabeigts
pieejamība
skumjas
mākoņ
nemanāmi
māmiņu
prioritāte
jubilejas
pensionāru
izsmalc
konditor
Sabiedrības
Sapratu
noziegumu
Maksim
vecmāmiņas
Krust
Rudens
reibumā
naiv
pamosties
piekrišanu
ebreju
skandināvu
izstāžu
84
Bus
Cal
HES
If
Lav
Rai
Raid
Sveic
bīd
din
fm
gol
rūs
rall
sānos
volejbol
ķem
šor
##āļi
##NA
##ģener
##ariem
##staig
##esp
##ākajai
atom
##onto
##ālajai
paļauties
##ījāt
##olis
pārgriež
pārprat
##odos
varon
dzes
##iecās
iesēd
##raut
plūm
turēties
saģērb
##īss
kompres
sākumam
pašapz
atrasti
rakstos
bērnību
sarūp
kārtot
pannu
noregul
sadārdz
ievilk
skaidrībā
skaidrojumu
asu
nenob
vēstīja
ceptu
solīts
pārstāvjus
simul
politiski
100g
frāzes
pieņemot
iekšlietu
iekšpuses
sarunāties
kāpostu
pārbaudītu
portāli
pilsonis
viedokļu
uzrakstīju
tautā
enerģētikas
Konfer
jānod
vārīt
Reader
sezonai
iestāties
sazin
220
zilo
Katrai
Garn
tipu
##inieces
piektajā
sekundēs
sēne
dolārus
tumsas
transportā
justos
akmeņ
Flickr
Centrālās
uzrunāt
Materiāl
ieņēmumi
aizbraucām
viļņi
sākumsk
deleg
pārvērtās
konflikta
štata
kilogramu
veģetār
neilga
ģimnāzijas
Preses
fotorad
##Baltic
Beidz
Est
Lo
Li
Land
Naudas
Rus
Sum
Sound
VP
Zita
lū
lien
lēto
moto
rim
riepu
vice
zol
##mena
##anis
##alē
##akl
uzdroš
kurss
pārvil
##prokur
grunts
laikmet
krājumu
konvert
daudzdzīvokļu
lietotu
##šķis
galap
karogs
##ektore
##plānā
##oviļ
veiks
interesējas
##oģiski
turpinātu
augstās
##ūstot
##oduc
drausm
uzskatus
Grūt
tirgotāju
sapņiem
solījumu
gabalā
avotus
kontrab
melnbal
nepaties
Ziemeļu
viedokļus
kontakti
smago
ziņās
Nekust
pastāvēšanas
ierobežojumu
padarot
mērķauditor
nozarēs
brīnumus
sazīm
savienība
biznesā
kredit
krustu
nogalināt
Adobe
Kaliforn
##astronom
mēdza
melni
izmaksāja
rūķu
lepoties
pielietojumu
reliģijas
reliģiskās
iestāšanās
nodarījumu
izskaidro
aizraujošs
fotografēt
etiķa
asfalt
Dienvidu
hokej
##board
parlament
Vajadzēs
kriminālprocess
sasmalcinātus
pasargāt
steigā
terapijas
berz
vakcin
riekstiem
Austrālijas
liellopa
Dokum
ikreiz
Mayb
Cam
Cap
Cuk
Dark
Ep
LTE
Makar
Mašīn
NRM
Pīt
Piena
Zob
distr
piks
rūd
tt
zaļa
Ķīna
##lād
##tor
##ye
##MO
##aton
##ijies
priest
##ālijas
##iskv
skaud
manta
stir
##teru
plāt
garais
pašiz
nesniedz
bried
vēroju
pusfin
drūm
sargā
cenz
##lasa
interesenti
atsāk
lapiņu
Krit
jebkas
vīriešus
bijušā
pēdējām
tehniskais
iztīr
paredzētā
jāpiel
mēģinās
valdībā
piecēlās
atmiņās
produktiv
ministre
spridz
gabaliem
bank
zaudējumiem
ēdināšanas
negatīv
sagatavots
draudzenei
Electr
Pay
konflikt
bērnišķ
kanalizācijas
nepieciešamais
sirdsapziņas
interesantiem
pazīstu
Daudziem
uzlādes
rītdienas
zivīm
pakāpe
panāktu
reģioniem
žurnālam
onku
##pēlē
garantē
##ations
laulību
Centra
atgriežamies
šausmas
uzlikts
laikrakstā
ragana
##ometra
procedūra
šurpu
iegūšanai
valodai
dienvidiem
ekspertīzes
Skaisti
šoferi
inflācija
lietderīgi
neapzināti
nokļūtu
Suns
Daniela
latgaliešu
Rihards
Lejup
Imants
Stumbres
Labklājības
Dim
Farb
House
Jāt
Ken
Naktī
Rum
Saf
TR
Vied
dakš
dilles
mēd
ostā
puz
rožu
ČAKS
štel
##bps
##AK
##Camp
##HL
##asy
##āsi
parūpēj
##emas
vardarbību
dzejas
nekvalitatīv
##opāt
jaundzim
mazus
mazāko
rakstīšana
##spal
pusdienās
redzēto
priekšvēlēšanu
radu
ekv
skatiem
##auna
##aucu
samēr
samain
tālāko
ilggad
ūdeņiem
gatavojot
gatavojoties
netieši
pilsētiņas
fināla
brīvajā
centrālā
vispārējā
izdarījusi
izrāda
datorus
Alus
##gādes
Skult
ekspon
speciālas
izlec
sliktā
fran
nerada
pavadībā
vēsturiskā
kāpumu
cieto
cietums
secinājuma
palieku
slēpņus
##austīt
Domājams
klusa
savieno
Akadēm
##ieklāj
iedvesma
jāuzņem
fantastiska
velosipēda
aizdomīgi
akcīzes
ievadīt
likvidēt
izcilu
Lauris
sadzīvot
netraucēja
santīmu
Youtube
klātbūtnē
priekšmeti
pavērot
turnīra
turnīrā
policistu
policists
reaģē
Sadarb
Policijas
Sarunas
burbuļ
uzbrūk
Krūmiņa
Smiltenes
Auz
Ge
LIE
Stipr
Taur
gmail
kef
zomb
##lers
##tim
##yr
##AF
##adas
kaķu
##able
visp
pāreju
ieelp
##evskis
patiktu
notic
nekl
##ruņ
nepag
pašos
ierastā
jāie
jāst
nosv
likumos
vecis
strop
Prov
Produk
##plat
noteiks
Visādi
skatāmies
tiesīgs
ātro
personiski
pieturu
saber
pazu
pieskaņ
ūdeņi
piedāvājam
polig
spēlētājiem
atpaliek
neizskat
Patiešām
noskal
organizatoriem
uzsvērt
jāpad
jāpag
zīmējumu
formātu
speciāla
Interv
off
Džob
samazināšana
Jaunās
aktīvās
##ceļas
regulēt
autobrauc
175
debat
sarkanas
nepārliec
iesaistīt
riteņiem
iesnieguma
publicēšanas
biot
kilometra
biļetēm
muskul
Smiekl
priekšlikumi
zirgs
pārskats
vannā
zvanīja
smadzenēs
sagriezti
komercsabiedr
tīmeklī
torņa
mīksts
analizējot
Piedal
kolektīva
aizsargāt
kompensācijas
kritēriji
megab
mizu
želeju
Oliv
LED
pulveris
Rietumeirop
Dead
diennakti
izsludina
iegrim
Gudr
report
neapmierināt
džemperi
Sagatav
piekrastē
##tekus
koalīcijas
uzbruc
pasēdēt
91
Brau
Dur
Ib
Tīri
emigr
fac
gam
got
remd
virm
vaf
zār
šedev
##dod
##°C
##čo
##MU
##ann
##atus
##steig
##ājama
##eto
##aven
##eip
##eims
jaukas
##eika
grīd
labam
krātu
##ildes
nepa
##ēdam
dzīvnieks
sviedru
tup
sms
vecpilsētas
telt
zemnieki
Visai
sekun
Kred
spēlēju
spēlējot
spēlētājs
runu
augstākas
strādātu
mācība
modelim
gaidīts
atziņa
nodrošināšanu
sapņus
mēģinājumiem
pacil
Lielākais
apskatei
nolaid
ņemu
ministram
velobrauc
##braucot
pārdomu
drošībai
saimniekiem
indiešu
nodarbību
pelēc
secinu
taps
sasniegums
aicināt
uzlabojumi
ziņojums
mīļoto
piedzīvojusi
maisā
aizsardzībai
iPod
neparasti
laimīgu
jādod
piekritu
Vecmām
komunicēt
kuģiem
paņēmienu
direktor
talants
Lietuva
romāna
vainīga
Igauniju
svešs
rūpēj
aparāta
aizliegt
kandidāts
digitālā
kulta
zibens
augstskola
kolektīvu
izlēmām
Burt
##iiii
Ozolnieku
frakcijas
Termin
detalizēti
sāpēja
uzkarsētā
kilogramus
komēdija
Paula
pīles
farmac
majon
troļļi
Situācija
krimin
sliekšņa
acumir
1h
720
Eglīt
Fast
Gard
Jum
Jol
Seg
Tek
VK
bāra
back
došanās
eg
fit
hier
nēģ
out
vulk
##lin
neieg
arābu
##enšas
##illi
##etos
##iņs
iztu
##omf
prev
##ekš
##ēms
iebr
kokā
gramus
##edest
nepiel
saas
lietojis
##estr
##īrus
augl
vērst
katlu
telšu
pretīm
redzamo
blok
pakas
Atgriežoties
samuls
mājdzīv
pamatīga
pamatojums
ilgā
parādītu
galvenos
##meņus
pieejamās
Turcijas
Grand
izdevīgāk
##aft
veikalam
tirgotājiem
Brokast
sank
izrādē
izrādīsies
Lieliski
pārdošanu
studija
pareizajā
nodarbināto
ziemai
Pārējās
Jaunie
##sson
draudzes
depoz
īstenošanas
ierobežo
pirkšanas
padarīšana
apliecinājums
##īšot
pievērš
gaitām
zilgan
attāluma
gājienā
perform
kreisā
rozes
porciju
potenciālajiem
tabakas
pagājušās
##elline
450
slēgts
televīzija
sniegtās
apstrādāt
jēdziena
plaukstu
krājumiem
Gatavot
savstarpējo
shēma
nespētu
buf
Glob
Leons
nožēlu
bažām
pensionāriem
atņemšanu
gumij
Secinājumi
pūles
##āgst
piedevu
iepirkties
apsvērumu
Šveices
Vizu
pārsniegt
sinepju
gaisotnē
riteņbrauc
Rūdolfs
nakšņ
Dropbox
Aģent
93
Bob
Fox
Festiv
Nauda
Pild
Vielas
bārā
dušā
har
lēts
lāz
mān
one
sētā
vēža
##budžeta
##āķ
##ūpējas
##SS
##inj
arest
izkus
##osas
prost
prāmi
pārn
iestipr
dziļu
##rupu
##antas
pirmām
kluc
dzīvniekus
kadri
##īrijas
domāti
rakstnieks
##ušam
##andžel
kars
izmantojis
zemniekiem
sakām
Izt
##aitā
vadlīn
plānota
turpu
marts
izvēlēsies
novembris
netiku
stāvus
uzskatiem
prasīs
izsakoties
##alitātē
##alitātēm
dārgu
##puse
kolh
sniegtu
formāts
konkurents
piemēro
politiķiem
risināšanā
elektrisko
Marina
Džek
konkrēts
dodiet
samazināšanu
datuma
sirdij
versijai
negāja
mobilajā
septembris
audums
desmiti
kritumu
pierobež
klausījos
skaistās
170
Klien
piedāvājumi
sezon
arhīvu
tēlo
uzlūk
oficiālās
Viljams
Sanāca
uzdūros
izvietotas
##cionāli
raidījumā
zvani
iznācis
drēbēs
ietvert
licenc
profilā
definīcijas
atveras
kampaņa
bruņoto
efektīvu
izmēriem
cimdi
gurķi
parunāties
nenovērt
likumprojekta
galvām
atgriešanos
reaģēt
mudina
spogulis
baseina
Attiecībā
maltītes
pauzes
dāvanām
evaku
virsotnē
redaktors
neizsak
klaviatūras
Izmēģ
##ostacijas
Valentīna
trium
motīviem
Aicinu
Ledus
Psih
Arhit
megapikseļu
sekunžu
Cīr
Dac
Iļ
Lās
Mās
Mīt
Miķ
Nepat
Pāri
Sagr
Vī
aitu
flash
pe
pj
zaļu
°C
##vež
##ror
##kad
##ēvu
##hm
##ģijā
##KO
##austs
neiel
neform
kapr
##oros
pārta
##ultu
nekaun
neveid
dažs
bezk
brillēm
vecāko
censties
zemēs
Laikā
pilngraudu
kārtās
nevarēšu
paziņa
Step
Start
plānoto
nozīmīti
parādīšanās
gatavots
caurums
izveidoju
izveidotas
dārgas
##darbiem
atmest
nolād
izcēlās
Dzin
izpal
elektrība
sirdis
plata
iegāde
pietiekams
milzīgi
Pasaule
paziņojis
Good
Zeme
jāmēģina
##onists
iesniegts
galvassāp
locekli
trūka
mūžam
cienīgs
psihoterap
oficiālajā
muižas
svešas
žurnālus
Mārcis
jumts
pasniedza
ķermenim
pārdevēju
Grāmatā
bulv
nomainīja
aspektā
stabilu
viduv
saskaras
vēsā
koncepcija
argumenti
saplān
olimpisko
psiholoģiski
moderno
nometnes
fotoaparāts
miljardi
atteikumu
Pasākums
pētersīļu
##punktu
izskanēja
Maratons
trepēm
apdares
Ainārs
stafetes
Oslo
bundž
Deputāti
neizbēgami
piparkūku
Biķernieku
Mixnews
Brun
Bill
Coca
LP
OR
Tip
Vita
bom
dun
imit
jaka
joma
lut
link
pig
ķib
šonakt
##mī
##uļi
##tiņu
##virz
##isis
##ath
noč
##āres
##ilē
##iņo
izgā
paraz
apsm
apcept
##iskāks
##iskākais
toņos
savilkt
pasv
krāt
##rud
nepiev
atteikt
dzīvotu
##klis
veidoto
paveicās
kārtīgs
Iznāk
ātrāks
anul
sabr
iemeta
skolai
ilgus
bijušās
##mana
sadraudz
ievada
izskatīt
organizēta
izdarītu
izrādīties
Skan
rīkiem
pilsoņi
biedrību
slēpošanas
apziņā
stipru
pienākumiem
jūtām
sniedzot
kluso
pieprasīja
International
pieminēts
viduslaiku
derīguma
izturas
vainag
izvērtējot
apakšējā
karsto
##filmas
publiku
uzraudzību
brīnišķīgs
šķidrums
nelaime
kausu
kafejnīcu
Lienča
termins
brāļiem
pusgadā
uzbrukumu
apnik
apmaiņa
piedzimšanas
Kanādas
karalis
displeju
rīsiem
Pašvaldību
mājokļa
līdzdalības
jogurtu
iecirkņa
lampas
dzīvesveids
nobried
zaķi
pārtrauca
okupācijas
profesionāļiem
jāturpina
piparmētru
title
palūdza
Corn
Grīn
Limb
Nācās
NAV
bēb
diedz
frī
lob
lētu
lēta
šm
šort
##pav
##LO
##aušanu
nead
##etei
izkust
##omet
app
apiet
##auties
lieliskā
plīv
trac
##epti
garder
pašap
atbrauk
vēroja
vecajiem
sasm
slauc
viršu
##ault
sagur
Izg
rokrakst
satais
nopublic
ūdenim
##manās
parādību
parādīs
pastaigu
piekar
norādīto
Jāņem
sacīkst
braucis
pētījumus
procesoru
pievienoto
piedalīšanās
notikušas
rīkojumu
pieredzējuš
##ējamās
risinājuma
elektrību
masai
salīdzinājums
platuma
ievērojamu
ierīcē
sagatavošanu
draudzenēm
upju
lēns
saglabāšanu
interesantā
mugura
gaiša
izplatīšanu
vizīt
##ervers
Pols
paskatījās
ezer
atzīmi
saimniecība
vainīgi
standartā
mantojumu
laiciņš
smieklīgs
smieklīga
izdzēst
restorāna
svarīgāko
kulmin
pērles
padzīv
verb
koncepciju
noslog
intensīv
Bauskā
iekrīt
spriedums
miziņu
govīm
lielveikalos
somām
operētājsistēmas
kūdras
uzglabāšanas
izbeigt
Janks
rullē
Īrijā
raugoties
aizrautīgi
korupcijas
klinšu
vimeo
bakalaura
Oriģ
Maybelline
Jeļ
Mail
Nab
ruļ
rašanās
sērkoc
vik
ķert
ŠE
šk
##māks
##āļa
##goties
##andra
##ato
##umiņš
##ārg
##akovs
##elku
spalv
##idā
pēcgar
neved
mazuli
garos
garīdz
nesar
izdotos
piemir
Prā
cenā
apmald
pagulēt
ielog
iegāja
##ofr
Atgriez
pazust
##ūdu
īpašība
##ināmo
nozīmīgas
atbildēju
stāvlauk
izskatīšanas
devusi
serpent
brīži
nomoc
aizsūt
dzīvesbiedr
izrādīt
izrādijās
mākslā
vilku
izstrādei
pašvaldībā
slimnīca
##ogrāfiju
dodies
nākamnedēļ
samazinājās
indik
platību
Pārl
sakari
mašīnai
atsevišķus
palielinot
pārvaldības
veiktā
tīrā
raksturīgas
pamanu
ticiet
saulains
neuzz
mīkstu
produktam
konstatēt
straujāk
oficiālais
kungu
zobi
zirga
žurnālisti
retor
samaksa
saulespu
dievu
Noro
svinēt
kastītes
iezīmē
konkurētspēju
aizbraucu
tekstiem
Atrad
##erbur
nometnē
puišu
Nopērk
##traukties
olīveļļa
struktūrf
Konkursa
pētersīļus
raugās
ansamblis
Krimināllikuma
Kungs
krūmiem
konkurētspējīgās
sistemāt
pieteicos
IZM
pierunāt
Armands
jāiesniedz
Aplikācija
domubiedr
Stradiņa
multimediju
Bol
BARB
Gor
Hmm
Joz
Kev
Lib
Sev
Sense
laku
satvers
zinās
ēšana
ēna
Ģirts
##IF
##inē
nodr
nošķir
##ējošais
izkar
##ajeb
##ition
kāpu
visn
pāreja
savald
grū
repres
līdzīgām
vairumam
izmazg
lietojum
cilvēkos
gariem
kopīgās
##ušajām
vecm
slān
zemēm
##eigt
iegaum
Atoms
Uzkar
##ostīm
mediķi
neizr
vismazāk
saistītu
saistītos
##ifor
izdevusies
pētot
burtus
līmeņos
Internetu
ērtu
plašākas
negribot
izplān
regulēšanas
Pagr
pieaugt
skaistum
nodokļiem
ietekmēs
atgriezos
aprīlim
birokrāt
kaps
zaļumus
pildspal
produktos
biod
Karls
smukas
konstatēta
kaitējuma
muskat
jārīk
ieguldījums
tulz
cēlonis
apkopoti
mantām
tulkojumu
ieceres
brīnišķīgu
Media
necaur
tornis
Ievas
kolektīvā
Brauciens
iedarbojas
raganu
izaicinājumu
pamodās
aizstāj
nepieder
transportlīdzekļa
rīsus
Euro
dienasgrāmatu
atrādīt
eksperimentēt
uzklausīt
gaumē
Organiz
Stambulā
džeki
pakļauti
izpilddirektors
subsīd
musulmaņu
JavaScript
BARBARA
1x
94
Dav
Geor
Istab
Link
Luks
Tru
Tavā
doc
fun
geju
isl
nūd
ruk
žig
##pās
##cent
##25
##LE
##Ceļš
##ро
##ни
##stus
##amajām
##ējat
prat
##itīs
##ojs
pielab
##elēs
jauda
vienmu
vienāda
skart
statu
spekul
##auto
##estības
##klī
##ozo
likmi
##sma
bezs
vēršas
karodz
priekšnieka
akcijā
nākuši
vadībai
anek
Steth
stāvi
terases
deviņi
Patēr
mācībās
nenor
vēsts
paredzētajā
priekiem
piedalījušies
normālas
pārsūt
nemaina
risinās
trešdaļu
drošāk
gabaliņš
bankai
##ikāņu
korian
nodarbībām
pārliecinātos
Teāt
cerēju
aktīvas
izpildījums
barav
lasītāja
uzturēšanai
lēnu
audzēt
klausītāju
zaļie
publicēta
fotogrāfija
nedrīk
dīvainā
Amster
tērē
gaitās
konstatēja
Citad
cienīgu
sportā
sauss
piedāvātas
vislabākais
norisi
apbūves
Skriešana
nepievēr
onkulis
miegu
Nacionālajā
uzsākšanas
Gribi
jātaisa
gleznu
serveriem
garantiju
noskaņojumu
griezt
iekrās
kauliem
šķēles
pagarināt
konservatīv
maksājumi
nolemjam
diennaktī
miljardus
apgrozījums
Sudr
Atceries
vīlies
diskriminācijas
pseid
palaidis
epidemi
Veicot
saldētavā
Dinamo
SantjagoCeļš
##itivus
ŠEIT
Barb
Dat
Līd
Love
PA
Rock
Sub
Zinot
siļ
čeh
šod
##mīt
##bord
##pol
##nības
##nost
##fy
##cē
##MP
kuro
grem
spur
iesim
aizvil
darbojoties
notek
##rut
##īkas
mazam
##ibu
##ējušu
garīgi
##iedu
minēti
nodots
drēg
slavu
ekst
veikuši
skatītos
tiesisko
Stīvs
uzņēma
pastus
atbildīgi
##lex
mācījās
vēstījumu
vieglā
veselus
centrālajā
##ift
atzīšanu
puiku
vilni
##inājušas
nolieg
ierakstīts
mīļu
##bergu
nodarbe
Iesp
putas
attēliem
uzvilk
tēmai
##auza
barību
palielinātu
diap
uzrakstīja
bagāžas
iegūtās
kanāli
jāatzīmē
vienkāršo
tirdziņā
piedāvājumā
augustam
izplatību
apliecības
Pēterson
ārstiem
konstatē
##mašīnā
sapratuši
populāras
skaļāk
tests
lūgums
dzeltenā
Valdem
stabilitāti
iespējamiem
vēstulē
izcelsmi
modernās
deklarāciju
kupl
neizmantoju
sekretārs
##aptver
pilnveidot
miljardu
velns
skropstas
atnesa
deficīts
tiešsaistē
liellopu
bronzas
pūdercukuru
Pozitīv
eglītes
mazumtirdzniecības
bukl
##svētku
jānorāda
wordpress
Astr
Dailes
Get
Gol
Leld
Nog
SS
con
digg
goz
jūr
līc
pok
##led
##vaļ
##šam
##ny
##nīti
##āšos
##gos
##fi
##ciņa
##MC
##UB
##St
##umd
##ēris
kapac
##ekmē
##itt
##ited
##izstrād
pārskr
varā
##azīm
stal
##ārtā
mazinātu
lietiņas
kadrus
rakstīšanu
sasild
redzamā
pagaidīt
Vista
##atīvajā
Izklausās
vadīšanas
Atlik
pieteicās
stāstīts
Anita
ūdeņu
##ends
spēkos
patīkamas
##odukt
naudiņas
deviņus
izveidojusi
##ifi
kompozīcijas
atklātas
paredzēja
cepure
jāpier
jāspēj
simtus
##braucu
prece
frāze
apmeklētājus
lēmumiem
Labākais
ziemeļiem
aizsargā
ievērības
konser
##ēzijas
zemesgabal
audzināšanas
pieaugusi
pienākusi
##telef
praktiskā
praktisku
garāmgāj
ierobežota
piešķiršanas
saprotamā
analīti
Vecāki
savienojums
nogales
janvāris
uzticības
čempions
pārskatīt
zvaniem
zvanus
kakl
pārlūkā
aprēķiniem
bīstama
Valdības
Servis
##ači
krēsl
pelna
aspektus
zvaigznēm
plaukst
sūdzēties
##ermiņa
karjerā
palasīties
demonstrē
pasmaidīja
mīnusi
atkāpe
pateiks
rietum
buljons
links
Baltics
konflikts
pilnvērtīgu
pauze
lemt
noguld
greizi
krūmos
Profesionālās
profesionāļi
Konsult
Lēmumu
izbrīnu
ģimnāz
Eleonora
Piedodiet
neraugoties
Cienījamie
Iemesls
pjedest
AB
Gir
Hon
Piens
Ris
Rod
Rag
Smu
Slik
bāzē
dump
m2
pūc
rāmi
sānā
tetov
zari
ģīm
šef
žak
##nodroš
##TO
##ст
atcelt
piestrād
##izo
##šuv
trotu
##īniešu
nesaj
ieraugu
##lut
stresu
fileju
karā
piemeklēt
blak
priekšgalā
eko
interesēja
##aunas
atsākt
pamatojumu
##laiks
novest
uzskatām
vērtīgu
centri
dzīvesvietu
sapņos
viln
samazinājumu
operācija
operatori
dzirdi
izlasot
mobilajiem
plašumos
uzzini
silto
statusā
apzinos
stiprā
iespaidus
kanālā
neuzman
pateicību
koncertiem
nozare
brīnumi
ārstēšanas
zili
segums
izskal
Cilvēka
Absol
Darbā
##otēku
Igaunija
diskusijās
loģisks
izaugsme
Trešajā
flag
Kārkl
nezināmu
Francija
īpatnībām
Cepeš
sodīt
maigs
nospiežot
kvalifikāciju
sūds
narkotikas
##kontr
Saprotu
izšķirtspējas
sintēt
dienasgrāmatas
dienestam
piezvanīja
pārgāja
Musicstories
fakultāt
maģistra
federācijas
LCD
suicīda
Ikviens
klepus
Iedzīvotāju
apkaimē
adrenal
paģir
degust
MusicstoriesLV
Baņu
Eks
Ejot
Food
Gail
JL
Kura
Mi
Mūr
Meg
Ru
Sof
Tums
Tib
cens
mudž
maisa
pēta
čem
Ģener
ģitāru
šp
##mei
##piež
##veņu
##dami
##che
##AI
##ĀM
new
izejot
##ajumt
##omm
pieber
##abo
##izēti
pāra
##okomp
##inātajiem
darbad
nevilt
trijās
saf
##istisko
##ibas
garuma
garlaik
nesaku
nebūšu
nodomu
slānis
akcion
akmeni
ekoloģ
sekotājiem
tālākā
Starts
plānošana
##istēmu
devies
izsekot
mācītājs
organizēšanu
mūziķis
kolor
Lielajā
jāsaņem
izlūk
atrastos
Mareks
ofisa
mierīgu
cerot
kilogr
novērš
aktīvā
liecības
viedoklim
audzis
krieviem
saullēk
nepieciešamie
novērtējums
ritm
pieminekļu
fotogrāfs
##kalnes
aizliedz
smaidot
kategoriju
astoņu
āboliem
pazudusi
lidosta
Medic
moment
noslauc
Lieta
izsniegšanu
Guntis
unikālu
koncentrēties
Eric
spiediens
kaula
tarifi
Fire
izlēma
cigareti
LNB
Tuvojoties
negadījumu
displejs
Modern
Disney
posmiem
bezjēdzīgi
Pārdaug
laboratorijas
komiksu
Austrālijā
baigais
daiļrades
saikni
deviņdesmito
kukurūzas
elektroenerģiju
rudzu
Neaizmir
RIMI
ēdienkartē
ekvival
Da
Deg
Pi
Pen
Pens
QR
Rei
SC
Sirds
UP
bio
egļu
gatv
kus
rādi
rogain
sut
zīda
ēšanu
štr
##aņā
##pis
##vo
##āņiem
##ēgu
##ēsti
##ēžiem
##ūšanai
##ņlēc
netip
uzac
parūp
##azina
notīr
##aidot
konj
turētājs
saaukst
citkārt
##ūrēt
garīgo
neba
nodošanu
brun
##plit
radoš
##atīvos
darīšu
ciktāl
aliņu
##enda
caurlaid
izveidošanu
centros
izdarījuši
Britu
jāpam
paciņas
Lielo
vilks
dzimusi
##gādina
##unda
skrējieniem
ņemiet
iekšēji
iekšienē
ienākt
iegādājās
putekļus
paziņojumus
negribi
tapšanā
smagā
slēpt
Nekur
aizmirsts
kanāliem
Zemkopības
mīklai
jāmin
eksperta
Sākums
džin
piederību
trūkumi
iecel
sportists
parakstīt
zirgi
ieguvēji
karstuma
astoņus
krekla
skābekļa
purvā
Pamatā
uzsverot
Aleksandra
momentu
arhitektūru
deguns
mākoņu
futbolu
piebiedr
kombināciju
uzliku
pasažieriem
iznīcināt
cepurīte
##oodārz
pensionāri
Viktor
pamācību
Secinājums
Panor
Tallinā
sāļ
Pieredz
pajautāt
pīļu
plašsaziņas
sēkliņas
Izlūks
nelikumīgu
pieskarties
Nenol
pusaudžu
samierināties
brauksim
piedurknes
Bulgār
Losandžel
Tolaik
rabarb
Cements
Didz
Gin
Klaip
Long
Slēp
Tēt
Vo
WP
dāmām
nas
natur
pīkst
##iši
##kod
##EG
##ham
##16
##13
##stila
noorganiz
atpl
##ērām
piej
pievar
pieplūd
##iztur
##šifr
##ullē
saviet
##ogam
##āvi
lielajam
klej
##ainim
lietojama
iereib
jādzīvo
veidoties
tiekamies
smaka
##īziju
skatus
tiesiskās
Inf
Atvain
tāls
laps
##oloģijā
pamatotas
##ētājā
augstums
devējam
izveidojas
brīvdienām
gaidījām
Grob
izdevība
veikaliņā
pievienota
Skot
publisku
trenera
reģistrēt
##vietām
mask
atceroties
saraksti
konsul
tapusi
sasniegs
noskatīšanās
analīzē
punktam
Vecais
vāciņu
traucēt
izturības
detektīv
Edu
retums
kategoriski
saitēm
nagus
kandidātiem
dolāriem
peļķ
krājumi
nojaust
sastopama
pelēkā
aprīkojumu
vāji
Gunārs
civilizācijas
1989
unikālo
360
bruņrupu
uzlika
Atradu
pielāgot
ieinteresēti
rieksti
dzejo
pateikts
aktivitātēs
uzņēmējdarbību
geoslēp
atļaušos
spiesta
##līdēja
Apmekl
nebeidzas
tīģ
Normunds
agrī
pētersīļi
Neliela
pīpēt
piekļuvi
simptom
Spēle
segmentā
suvenīru
pamatskolā
dīdž
spoguļa
Režisors
Band
Glass
KO
Kast
KAS
Lad
Nest
Robež
fundament
hump
juni
lija
mūra
Šajās
šah
##kostīm
##cs
##wall
##ZI
##19
##stem
##esim
##ile
##aktiv
uznāca
##ātāja
parod
##ely
##prezid
##tions
spīt
aizš
##muižas
##otify
##ocel
garajā
##iedēt
ierād
atbloķ
##ebr
rakstītu
minor
##āksies
smakas
stres
kareiv
izmantoto
##aktora
kārtis
nevarot
tiesneša
cikl
##īlī
##lieta
##ūzu
izvēlētā
izvēlējāmies
novēlu
pilsētiņā
mācījos
maliņu
koll
adatu
papildinājums
ekspl
atmiņām
lidlauk
##ūles
treniņā
spraug
saņemti
nākamajiem
pietiekamu
materiālā
ēda
attēlots
ierīcei
baro
sasniegumi
gulta
diab
papīrs
skaistuma
##daris
Tevis
traucēja
nogale
pulksteņa
paņēmiens
vislabākā
Galvenokārt
ieteikums
ieteikumiem
cēlās
pagājušogad
individuālo
pielietojums
ieceri
instrumenti
akmeņus
tonnu
uzkrīt
globālās
elpošanas
sertifikāts
Andis
nelieto
zariem
cietušo
Putins
fotoaparāta
iebildumi
vīzija
Kalnciema
kopsum
uzdāvināja
Maxim
uzkāpt
semināru
Maratona
lasāmviela
čakl
Dobeles
troksni
atļāvos
republikas
Iebrauc
Fan
Fur
GR
Herm
Pers
Sing
Tavas
ask
biskv
seni
tin
##piena
##žā
##otek
##inācijas
negl
izķ
##akšķ
##irta
##elkas
##prāts
grav
##ski
darbiņu
plik
nevēr
##ainus
mazajai
##estību
sākta
garīgās
vietne
vietniece
jādz
nosus
vecam
vecajā
pusēs
stress
redzat
##plūst
##ovie
apmērs
ekos
Laima
veikl
veikusi
sakuļ
starpību
samaļ
satraukt
nozīmētu
neizskaidr
##ley
piekab
dalībai
vērtēju
mācīt
glāzē
paziņojumā
izpildīts
saucu
##oney
konsekven
aktuālas
siltās
biedrus
mīļo
nogar
biezā
saulaina
##valstīm
sērf
centīsies
centieni
izteiksmi
kārb
ideālā
ieciet
uzlauz
maksāšanas
janvāri
Interesanta
žurnālists
maksimums
dzelteno
pabeigšanas
atsaucās
desu
uzvedība
##projekts
paradumiem
žanr
pulcējās
##spēles
Kolēģ
aizraujoša
steidzami
startēt
##ruktur
konkursam
rupji
atvaļinājums
viļņa
funkcionalitāte
nepiedāvā
izņēmuma
vidusskola
brūnas
apnika
kinoteātrī
daudzveidība
pamācības
feini
##IJAS
pārveidot
##ount
uzpeld
izvērst
Emīlija
sabojāt
lāpst
vecmāmiņa
Ieteik
orķestra
migrācijas
iegriezties
Mācību
sinepes
McDon
reprezent
Digital
lejupielādes
Vecmāmiņa
neadekv
Abr
Liter
MA
Num
SF
Sāp
Zelt
bik
dest
jāj
mīc
muld
pakar
rož
rašanos
tēta
ģēn
##bals
##āšanā
##yth
##22
##ķītis
##čus
##KiB
##100
##urus
##ilas
izž
atkr
##elītes
##izdev
vienād
vienkop
pārnest
stāties
iesmēr
līdzīgus
labos
aiznes
dzīvība
iespējamas
dažbrīd
domstarp
pametu
likme
bērniņu
piedēv
nodošanas
būtnes
Premium
bloc
ielika
balvām
anest
anketu
Sten
ilgiem
maternitātes
Jāņiem
putra
procesos
priekus
padoms
pievienojam
dzīvesveida
nodrošināja
vilšanos
izstrādājumi
pārslēdz
slimo
templ
saimniekam
avota
logoti
cerēja
teikums
portf
lats
pārvaldi
audzē
ziņot
kustībā
nogatav
nostaļ
##ūcas
ticami
īstenošanā
atgriezušies
ēdienam
interesantām
Kont
ritms
tumšās
Noslēg
pildot
sadalījums
Pētījums
sarežģītu
dārgo
kaitina
aukstums
smalku
muiž
nolikumu
Ore
sapratusi
iznāks
varoņus
iemācīt
šķērsām
Grāmatved
Nepār
atsaucoties
zvaigzni
startēja
biksēs
narkom
iedarbību
iedarbība
laikrakstam
oriģinālā
mikroviļ
orgānu
emocionālā
Uzņēmums
Jāatzīmē
paspējuši
vidusskolu
saslimšanas
smiltīm
virsrakstu
uzcelt
##burgas
dzinēju
totāli
katastrofu
ugunskura
Sarkanā
diskutēt
Dubai
motociklu
apsardzes
melior
ielūkoties
aprindās
Alsungas
3h
DC
Gints
Jāz
Jana
Kuk
Lor
Pink
Rel
ausu
bult
bonus
cipars
kaj
līz
raiz
sur
sār
sekl
Šajos
##lera
##āpēj
##res
##roku
##GA
##ĒR
##stīt
##amarat
##inska
##adsmit
nostāv
##ārajā
piebremz
##izēja
##odor
dziedz
reālas
##ecu
##obj
##ivi
jauniz
##ocis
citron
izvil
##iedē
augiem
augumā
ietr
##āsts
redzēsi
cenšamies
radījuši
kārtīga
##raksta
1080
ieved
dalība
Irākas
veselīgs
norādēm
centrālās
apslēp
atklāšana
paredzot
atbalstītāju
cepties
saplē
mainījis
Lieldienas
tīklam
Spotify
trešdaļas
nākamajām
virziena
negatīvu
desmitus
uzturs
aicinot
iepazinos
stilīgi
ietekmēja
patērētāji
pateicu
gaita
nobrauk
zaļumi
dziļas
Tiesības
##iķe
administrācija
ārstniec
atvērās
##iklopēd
dibinātājs
nosacījums
direktoru
decembris
žurnālistu
pieņemto
Raksts
tabulu
saskarties
seksuālās
nodarīt
4000
nolūkiem
unikāla
##que
nepamet
kritērijus
viļņ
apgaismojumu
māmiņām
nokrīt
IKEA
paspētu
vislielākā
stih
Sociālās
Kalniņš
pūlis
ķērās
nopirktu
parametrus
Starta
plašākai
izlemts
rekomendācijas
aviācijas
jogurta
lepnums
nofotografēt
sajutos
Hotel
aizmigu
geocaching
Tērv
Cin
Ciem
Cosm
Kos
Kaļ
LLU
Sir
Waze
jūd
pant
sūr
več
čal
##mo
##pirk
##nagl
##UG
##ieņu
##aras
##ismam
neien
izgriež
uzpar
paraudz
##elīti
papriec
kursi
darbnīcas
##ažas
##inājāmies
turējās
##klub
jāēd
liksies
augusi
brāz
vidum
divarpus
draņķ
piemājas
##ešas
ceļo
##atore
Apdroš
gatavošanu
gatavošana
sajuta
##kara
##karu
ievest
dabai
devušies
vērtīgas
neesošu
izdarāms
##onds
atvest
ierakstam
piemērus
Vienalga
pulsa
konkrētus
pozīcijā
index
Labā
zaudējusi
aktīvāk
Fren
apgāz
pilsoņiem
fiziskajām
žurnāli
virtuālajā
bagātu
bagāžu
skaitļi
Nevienam
zaļgan
publicēti
Reaton
izplatās
trausl
paskatījos
Filmu
komunic
kreditor
kredītus
šķiršanās
atzīmēja
populārākais
peldēties
zobār
dibināt
diskusijā
retais
mazuļa
bagātīgi
Italy
dubļ
seriālā
reliģiju
iestāšanos
hiper
Barona
nemainīsies
jākāpj
efektīvāk
Saulkr
izmēros
pārraidi
atvieglotu
skapja
delik
palaists
uzaicinājumu
nesasniedz
Starptautisko
Starptautiskās
provok
sastādīt
nokļuva
dzimtenē
izlikties
galerijas
ziemeļos
sparā
klaviatūru
kamerai
what
uzrauga
Brīdī
ingvera
kaloriju
Reklāmas
ieček
olbaltum
alumīnija
Veronika
mellenes
##kapitāla
jānotiek
Atkarībā
Sakarā
Lisabonas
hierarh
Fu
Kle
Luk
MC
Night
Reliģ
Tod
Tajos
Ziņas
maur
zēniem
##bet
##āļ
##joties
##jons
##ker
##ēgas
##ype
##ūmu
##84
##asu
##ares
##atai
##stiem
##stac
##amerikā
neš
##erot
##enr
##omondo
piegriez
vaigiem
toņu
patent
griķu
##okal
##ēki
##aph
##teres
plusi
tran
##īnam
##ēdām
##lēpa
iespējamais
##ējušos
##liku
nedeva
karasp
##ektori
šķīb
sarūgt
nākošo
gribējis
salām
pamatnes
īpašiem
ūdeņos
sajaukt
vakari
netaisn
medit
serv
strādnieku
norādījumus
īstās
izdeva
##uglas
pušķ
meitiņa
mūziķu
padomē
patiesa
zinātni
zinātniekiem
burg
itāl
izstrādāti
nolūku
Vieni
frāzi
foršu
salds
dziesmās
pieņemšana
mīlēja
partijām
jebkurai
Minh
draudzību
gludi
Aizmir
Valūtas
aicināts
aptauk
ekspres
mākslīgo
ierobežojums
neuzkrīt
svaigo
Tiesīb
stabils
kārp
vācieši
Vairākas
priekšsēdētāju
aizgājām
atkārto
dzeltenu
sausā
tulko
apmierina
degrad
nevēlējās
maksimālā
velosipēdiem
oktobris
šķērso
atzinīgi
neveiksmes
puisim
instrumentus
slavenais
plauktiem
piepeši
izsniegšanas
kaudzes
laikraksta
iedvesmo
Pretējā
viltus
tamlīdzīgu
Rietum
lielveikalā
nervoz
Nopietni
kautkādu
ceptas
bioloģisko
Obama
pirmizrādes
ekspertiem
riņķi
riņķī
nopirkām
Startup
šuv
Phil
sīpoliem
gredzenu
Berlīnē
perspektīvas
rehabilit
priekšmetiem
ekspluatācijas
administratīvajā
Uzvaras
žūrija
neizpratnē
iedziļināties
##kultūras
Recepte
Viesturs
Sarkant
bezpajumt
Baņuta
bruņrupuču
BS
BET
Hob
Jāc
Lei
Lumi
MT
Nost
SD
Saz
Sīm
Sail
Siž
Vest
Wikipedia
aļ
ceh
dēm
egles
fal
gaļai
jēra
jelk
jūrai
licis
sent
še
##ipr
##pel
##Dr
##auli
##atiem
##inādams
##ikla
##etās
##avo
##osof
##omām
aprau
stājās
##iece
pasargā
labumiem
##aidīs
##īnēm
mazulis
##astas
##audis
##iālā
##auktu
pamana
sasald
##plaš
noteikšanai
personīgās
atseg
marg
Patika
strādājam
pirtī
apsēsties
braucienam
izdevums
grūta
organizēja
dzīvespriec
nodrošinājuma
mēģinātu
trenaž
nemēdz
garšīgas
garšaugu
risināšanai
Džona
atstājuši
nosaukumiem
pareizais
##zeme
novērojis
sēde
kāpas
teikusi
barošanas
Fred
Franču
upeņu
neapm
guvu
raksturīgo
tautās
Saeimai
vārīties
dzērveņu
dziļumā
arhīv
Vakara
administratīvi
administratīvās
smaidīja
uzņemšana
māsai
uztveres
izmēģināju
rozīnes
absolven
tabula
tviterī
individuālā
onk
atvērtas
eksperimentiem
pārsvaru
pelēks
revolucion
tornī
Kārļa
piepū
civilties
armijā
atlaidēm
pagrieziena
sauktu
deklarācijas
objektīvs
nelietoju
Beat
interpretācijas
nerviem
filozofijas
niansēm
Vasara
aizmirsusi
##urbān
fasādes
ieturēt
galerijā
premjera
ekskursijā
Mūzika
Solv
antib
Paskaties
labklājību
Treneris
nobeigumā
iesācējiem
MP3
Talsu
triatl
kardin
šņabi
neatņemama
laure
##oblogeri
Optimus
MEITE
bezspēc
saind
Positivus
Sarkanturbān
Bak
Citu
ER
Lim
Miš
S4
gūtu
kora
sejām
your
zaru
Čikā
šop
##pers
##uters
##ēver
##OO
##VI
##55
##isina
##ese
##esis
##ument
izlikt
kaļ
##iekot
##ities
##elēt
vistuv
vienota
##oder
vareni
##ime
toč
savādi
savējiem
gadat
dzeru
##sky
##idi
krop
darbiniece
plūmes
##istiska
tiešu
##likums
veidoju
atrakt
rakstīšu
šķīst
priekšnosac
akment
vissvar
salm
pans
##auns
sabild
Krēs
netik
pastiep
atbildīga
izsaukt
izveidē
apsl
amplit
uzsācis
padomiem
kolu
veicināšanas
sapņot
mainīts
meklējumiem
teicēja
##veidīgi
formām
izcila
izlauz
atbilstoš
slims
forums
saldu
platībā
nodarbojos
Joh
iegādājies
ceram
1188
būvniecībā
sagatavotu
draudzības
draudzīga
aicinājums
iepazin
saņēmos
biedra
saglabājies
kustas
mīļš
nodokļi
finansu
sirdsapz
pateicīga
koncerna
laimestu
dīvainu
sazvēr
Pašā
ārstēšanai
pateikties
pierādīja
zilas
konstatēti
Daudzas
Edm
pakāpen
dvie
dzeram
Rakstu
supermār
lūguma
mantiņas
nogurusi
noguruši
aizliegums
pagalma
uzvedas
pamēģināju
asinsspie
kursiem
neskaitot
Madara
fotografēšanas
Netic
nezināmā
paralēles
apakšu
apjomus
brūnā
Kārtējo
Opis
cimdu
uzkodas
miesu
iesākumā
uzglabāt
##estiesas
putru
ambul
noprotu
dizainparaugu
nomazgā
eksemplāru
neiztikt
brālim
uzlīmes
konsistences
Desire
##joprojām
pusnakts
Ceturtdien
fīča
nepieredz
brutāli
##pakalp
Tūrisma
profesionāļu
simfon
Rodrig
Bad
Buk
Back
Likt
PIE
TB
ali
but
damb
ever
figur
hib
kni
kumos
karbon
mag
mob
mīts
siv
sand
urīn
čur
Švar
šau
##lat
##liter
##vels
##Net
##UL
##HT
##aitu
##anim
##ister
neiem
##āmpul
##ilpa
##ietei
##ekcijai
##emu
vissp
vispar
visaptver
gadskārt
vēlā
ganāmpul
pase
platu
mazums
sākts
gali
gardu
nesab
jāprot
veidnē
kopīgo
##ušus
mūsdienām
vērsta
smeldz
ceļazīm
##efektīv
##igs
##niegt
samaksā
200g
ellē
markas
procents
runās
atpūšas
neizpild
pievienotās
jāpa
virsotnes
##veidīga
senāk
mīļa
resns
Pārsteidz
##urnal
izlasīšanas
pavadījis
izpildei
saucamo
īsas
statūtos
servisam
email
diskomf
##ājušo
Drogas
mīļais
biezeni
amatam
Kamera
apstiprinājumu
Neviena
degvielu
centimetru
Klept
izplatīšanas
tukšā
derīga
indivīdu
zila
##mašīna
atvēršanas
populārā
nevajadzēs
Autom
Jurk
minimāli
iznākumu
dubļu
staigāja
sagriezt
grafiks
piegāde
plaukta
sastopams
televizors
instrument
seminār
griezties
neskaitāmi
integrācija
Ilzes
želeja
uzbūvēt
uztaisīju
nostiprināt
formula
Dienvidāfr
tramvajs
atmosfērā
apnicis
progress
silda
Vajadzēja
Zvaigznes
Zaļo
fragment
aizvietot
nereāli
pārvāk
Pilson
Sīkāk
pamostos
ētikas
pretenziju
Briseles
microSD
uzpildes
Transform
Dīvaini
Jautrāko
uzšūt
Iedvesma
Afganistānā
sablender
Ein
Gaz
Jam
Mīn
MAL
Rat
Sirm
Tot
Tais
Vikipēd
bietes
have
over
rakt
tiecas
vāks
##ool
##gent
##gūst
##EZ
##ūni
##ciņ
##ĪT
##algu
##ādei
##ātei
pareģ
##omēnes
##ojošiem
tikās
mandar
patikas
##agas
vēlējies
pasl
##idg
notestēt
pliku
traku
##anto
klad
lietū
pilskal
sāksim
veidotos
briež
brāļu
##upat
##ārds
##īduši
##eviča
akord
pakust
tiesved
##ingam
##īls
##īles
ilgumu
parādot
parādības
pēdējai
iepriekšējie
sadr
##indu
Patr
izveidoti
mode
aktiera
atbalstītāji
nodrošināšana
mainīja
paciest
meklējumi
Lielisks
piecās
klasika
speciālistus
1200
teiktais
iegādājoties
zaudējuši
dārziņā
melnajā
cietā
aprakstīta
sasniegumu
aptvert
Ziemā
neaptver
virtuālo
skriešanā
Kamer
klusumā
pirktu
Reuters
izplatīta
silik
paskaties
24h
konstatētas
strauju
uzstādīts
elektronikas
kodolu
taisnību
sešpadsmit
peldkostīm
soļos
celiņu
noslēpt
kategorija
ceturtdaļ
Divu
sunim
iedzim
pirksta
pasniedzējs
pagalmu
burvju
semiot
torti
bedres
Madr
Lietus
Gunt
augstskolās
kompleksa
##palīdz
izspiest
robotu
bezgalīgi
Monbl
##boy
hostinga
hoteli
karavīri
Pakalp
identificēt
igauņi
konfliktu
komiteja
Purv
Partijas
vectēvs
tējkarote
nodomāja
Bizness
netaisos
pastrādāt
Vidusjūras
baton
žūrijas
šujmašīnu
arodbiedrības
Iegādājies
Bergamo
pleij
konfektes
Tapēc
Akm
Bil
Bern
CC
Jun
Mess
Rest
VEF
Zaud
aven
niez
pāk
Šarl
šaut
##lov
##sā
##ble
##tik
##work
##GF
##indr
##alām
##algas
##ilo
##avār
##ātāju
##oji
##abs
sken
##drup
##okli
##ārto
##antes
klab
##inājāt
##estro
garāka
pamaz
kopproduk
briesmas
##ušajam
sasil
##īzijā
##āstīšu
izmantojuši
otrajam
ceļojumiem
##otājai
##kaņas
Izmēr
elko
turpinājumā
ikonas
dabiskā
vērtīgs
mācīja
bijusī
Turpretī
atzinis
apsēžas
##aily
adatām
dzimtsarakstu
reģistrētas
izglītībā
aproc
ofis
Andreja
##berg
iekštel
virzību
sakarsēt
līgumiem
palielinājās
draudzība
Aizl
Otro
uzraksti
piedzīvojumus
godalg
novērtēja
klusēja
saskaņot
tumšo
traumām
nozarēm
sēņ
aizlid
realizācija
domātas
Liepāju
Salac
Edvar
Bērnībā
populārāko
pudelēm
durvīs
kaimiņš
vislabāko
rozmar
Galvenās
aparātam
krekliņu
iznākšanas
glabātu
nogurumu
Valda
lepojas
aprūpe
meistari
paņemu
finišēt
paaugstināt
viedtālruņi
mitrumu
slavenā
aizņemts
Mach
Augstskolas
ballītē
globālā
sekmē
Niklāva
vārtos
maiga
atvieglot
brūna
Ozolnieki
skarbi
Oblig
pacietības
iepriecināt
detalizēt
zābaki
slapjš
krūzi
nogādāt
kilogramiem
nepilna
Tarant
raudzījās
Apsveic
ābeles
deficītu
izmainīt
absurd
lepnumu
uzstāšanos
tiesībsarg
nesatrauc
##otransp
Kampars
apstrīdēt
##punktā
##bikses
nepamatoti
triloģ
tiesnešu
jāpiemin
cepampapīru
Irmgarde
diapaz
BK
BJ
Bang
Kājas
Lan
Mun
Metro
Sez
beb
dum
kūst
lata
mēm
mētāj
ostu
rem
retro
vort
Čern
ĢMO
Žilde
##aši
##pazīst
##uu
##tl
##ETA
##ismā
##ijusi
nestabil
parādi
apc
vienāds
stumbr
gripas
##āves
plau
plais
plac
izmir
palaida
sākum
nebēdu
pameklēt
atraktīv
augšanas
brūv
##īzija
pretoties
##īdam
##igas
ieliņām
skatāma
paku
Izkāp
##augot
##ikss
tālāku
##ūdenī
alp
alfab
nopark
lielākām
##ture
##vērtējot
vīruss
dalījās
caurum
izveidošanas
pieejamu
##runim
pētnieks
mūzikai
patiesībai
mēģinām
teici
##veido
svētdienā
velocel
##braucam
nemirst
pabrauk
viesis
korel
ienīst
izrakt
##lēdzot
uzdeva
Aizput
ziņojumā
apzināt
vadītājas
iespaidīga
šoseja
atgrieztos
skaitli
kanālus
pārsteiguma
interesantākais
vienkāršiem
pirkts
tirdzniecībā
Reāli
izdomājām
tēliem
tuvākajos
uzrodas
atlikušās
pieteikušies
māsām
populārākajiem
Nesapr
dibināšanas
Ārst
Galvenie
Augš
pārreģistr
rēķinus
Austrijas
jebkādām
aprēķinu
spīdēja
serveru
labprātāk
labprātīgi
krājums
iepakojumā
popularitātes
paradumi
žanrs
tamborad
standartizācijas
karjera
oriģināla
pasmaidīt
pilnvaras
uzrādīt
pazīme
klāsta
muzikālo
nokrita
nervšķ
Projekts
spārniem
misija
sastrād
aizdevumu
konstrukciju
premjers
Īsāk
guļamm
Kazah
valdziņus
spraudni
Pavasaris
baklaž
aprunāties
izpletņlēc
vibrācijas
Gūgles
plēvi
higiēnas
Helsink
likteņa
neliecina
Life
Viegli
neeksistē
Olafs
Cepeškrās
vienkopus
IB
Līst
Tepat
Vanšu
Wall
bot
bīskap
gond
her
lei
lauž
lož
mo
rauj
urīna
Ķeiz
##zāģ
##āļiem
##ūķ
##ūgu
##hot
##FI
##ķir
##DU
##14
##aulu
##ikus
##iņķ
izeja
##oset
##ālēm
laiva
vienos
##ody
skuj
##evska
dzeju
spain
spert
spējuši
spoil
##inātības
##pējām
krūš
darbina
darbošanos
##opor
jaunrad
##ocīt
##greg
palēn
dzīvojuši
nesekm
ierodoties
tieksme
minēta
piedot
bezrūp
##akarē
karotes
teles
Praktiski
zemas
priekšaut
radīšanu
##ovā
gribējām
noteikums
darījuši
cikos
Krast
attiecība
stāstos
izvēlēto
dabīgi
stāvvietā
prasu
vērtējumā
izsit
mācos
nezināt
##minos
atzinās
##tics
cepamā
nodrošināts
Neuz
apsteidz
##pušu
apskatītu
Ald
mirušo
reģistrs
dziesmā
##berts
ziemassvēt
uztambor
izlasē
Touch
mobilizācijas
Varēja
atsevišķām
īso
īsāks
##nisma
Pašu
iegūti
Kaminskis
nesaprat
publicēja
Strauj
ciemiņi
pazīstamu
imper
deputāta
savienojuma
dārgāks
neaizs
lūkoties
neatkarīgu
dibena
dibenā
izklaidi
kategorijām
vizuālā
statistiski
pielīm
dzeltenumu
ausī
svarīgākajiem
februārim
negaidot
asinsr
sekojoša
iespējamība
nelaimi
1980
plakātu
jākļūst
mākonis
postu
zeķēm
pielāgoties
kavē
Old
nepietiekami
pagarš
Agris
perfekts
izmeklēšanu
Harijs
miljardiem
Viļņā
producents
ieplānots
satraukums
siltumenerģijas
dīķī
atalgojuma
nepilnas
pasargātu
aizskrēja
apņemšanos
vienaldzīgi
ieviesa
plāksnes
deficīta
Tukuma
API
Sinat
makaronus
hipotek
grasās
zibspuldzi
neslēpj
luter
profilakses
Nobeigumā
Cehs
##onfigur
Olga
zibenīgi
Lejupielād
Cornwall
Amsterd
Grāmatvedības
Lumia
AL
Auk
AIZ
Batt
Domā
Eli
Kit
Lāc
Mūž
Oj
Olas
OCTA
Rokas
SM
SW
Tit
Tajās
TIK
hand
kūt
le
soc
čiv
Ļauj
##iža
##bes
##bruk
##zēl
##ck
##ķīti
##KP
##Sense
##DE
##enās
##ērot
##aji
prosp
##ālisms
##ēlo
vēlēšanos
paspār
aizejot
jostu
##ruž
##opi
##ēda
garus
##edzen
kopīgs
rakstnieku
rakstīto
bērniņa
vecpilsētu
filca
radītās
radinieki
pagasts
pagājusi
noteikšanu
##āzēm
stāstam
plānojam
pamato
Pirmdien
augstākais
atbildīgā
laukus
pārliek
sistēmās
noskaņa
izveidei
pieejamā
latvju
##ifil
apsvērt
malai
nomed
##ēķina
dzimuši
##bolu
izstrādāto
noteiktajām
pulsu
studējošo
gabaliņi
apmeklējot
novērs
negatīva
sagatavojusi
fiziskām
status
istabiņā
pieaugot
nākotnei
numuri
praktisko
klusuma
pateicīgs
Real
sanāktu
Mazo
##ally
kilometrs
krusta
pārkāpumi
pusmaratonam
Notik
ieradīsies
likumdev
soļu
jūlijs
ieteikumu
absolv
tabulas
jāuzmanās
motivē
sliktāks
dzeltenās
uzsākot
uzsākts
lejuplād
sākotnējo
RSU
meistaru
desas
dzemdības
asinsvad
Jasmīn
žanrā
##organizēt
kursos
Gatavo
zupai
dūmi
baidos
buč
kritērijs
ieviesta
Skolā
dokumentos
objektīva
cepeškrāsns
Cēsīs
apmaiņu
pacietīgi
limits
iekļaujot
izbeigšanu
internetveik
infrastruktūru
pārmest
mačos
Merks
biezpienu
Šveicē
koncertz
reitingu
Iedomājies
Motor
vistieš
prāmja
streika
times
tabletes
mēlē
Zatlers
Mīlestība
Pedag
videokl
MySQL
Group
Ericsson
paspārnē
Box
LB
Lon
Mig
Olu
Pirk
RD
Sār
Til
beļ
purn
vāja
zaļas
##lavas
##gatav
##kina
##kaus
##key
##ūža
##ĪR
##18
##HS
##но
neglīt
##ākoties
##ādēm
##iesma
##akova
##ātām
apēdu
pagriež
##abā
##iskāku
iegriež
skaļu
##ulīgi
##ulīti
reālās
##okado
spītīgi
##ident
aizc
nepieklāj
daudzstāvu
##istaba
lietota
##klu
##aukta
##ināšos
kopīgas
##ierēm
pusp
virp
zemāks
priekšlaicīgi
apmuls
veikums
ieliku
informēti
skatījums
Invest
cikla
cikls
skolotājas
rezum
turpinām
neatstāj
neatlika
izvēlnes
Uzdev
parādā
parādījušies
dabisko
stāvam
tehnikā
devējiem
strādnieki
izsakās
diezin
apsv
sacījis
mala
Alf
Tri
Treil
eksports
dalībniekam
atradīsiet
izcept
rīkoja
atšķirībām
sena
izpārd
atrastas
Džeims
indeks
nodarbojās
automobiļ
zaudējums
darbiniekam
būvniecība
robežsar
groza
Aiziet
uzlabojumus
noskrēja
virtuāli
virtuālās
mīļākās
https
noglab
sniedzēja
apstiprināšanas
starptautisku
tumša
neparād
skolēnam
galvaspilsētu
deputātam
Filmā
realizāciju
rīcīb
palikām
kolēģu
parastajiem
cienītāji
uzņemas
Ilona
smalka
Smil
diskusijām
jūnijs
absolūt
tabu
tvit
Svaig
aizliegta
##reen
atsaucas
grafika
burvīgi
pasniegta
apdeg
instrumentiem
iespējamību
analizē
kurpju
puķēm
neietekmē
paraugiem
ekstra
Ameriku
planšetdators
suga
netrūka
Ivara
apgaismojums
ķirbja
klikšķi
Roze
Rozen
apgrozījuma
pretendēt
Pilsēta
sapulces
Amerikāņu
atpūtai
Programma
Programmas
būtiskākais
Atcerieties
White
bāriņtiesa
magnēt
upuriem
Sajūta
nokārtot
apbrīnojami
Martins
ekspluatācijā
ozol
sliedes
favorīts
pārpublic
nepiekr
Aptauj
revolūcijas
struktūrvienības
jāņogu
ieķīl
fakultātē
MEITENE
Gh
Gaidām
Klu
Māja
Rita
Wol
avenes
braukā
ferm
ker
mijas
poda
sita
we
zils
čiek
ček
īru
##sn
##dan
##ēē
##yle
##ŠAN
##aupa
##amd
##ametru
nofilm
izārst
##ojieties
paaudžu
vaib
vissk
##iskākā
tiktāl
##odama
##ēmijas
topu
##ēkā
##ēklis
līdzcilvēk
krip
##ible
dzīvajā
vietni
vidējas
##īzu
skriešu
slēd
zemūdens
akts
radiniekiem
##atīviem
padarb
personīgais
rokass
iemig
lapt
jautāt
neatkl
neatpal
īpašniece
atbildīgo
brīvās
Eiropai
mazākais
aplauz
mirt
ņemta
izpirk
izpaudās
nelielām
samazināsies
avant
koris
līdzekļos
putna
pavadīta
pavadītu
##laikos
teikumā
sagatavošana
Saņem
uzturēties
pārvalda
uzlabošanas
kontiem
posmam
Nekādas
atgriezusies
piešķirot
##onista
nejut
zaļais
padarīs
pieminekli
dziļā
profesionāls
ļauns
Abu
sesto
saturam
Austrum
atspul
jumtiem
##filma
Zviedriju
svarīgāka
noturēties
licence
izziņu
failā
smaržoja
atslēgt
intensitāti
bēdīgs
Audz
Matīss
Itālija
spiediena
reģionālo
apguves
uzskaitīt
apdraudēt
pārbag
pupiņu
cipari
izmeklēšana
Zinātnieki
vētr
kliedza
progresu
cirka
apskaidr
##OLDS
rupjmaizes
Iepazīst
zeltaini
##laižot
nesteidzīgi
Pareizāk
mikroorgan
zelts
konvencijas
košļ
atlaižu
Izraēlas
Ienāk
rāvējs
ASKOLDS
enciklopēd
Frankf
Brokastis
anekd
Gaļu
Kosm
Lub
Mul
Od
Petr
UR
Vot
Veln
Zig
bard
even
fons
lell
loh
lingv
pun
vāģ
īg
Šokol
##bil
##viz
##šajam
##ren
##No
##hon
##cu
##64
##anam
##angs
##atik
##ikad
nedzīvo
##erp
##uram
##urity
izkal
##akcijas
uzkop
##onz
apskr
##elektr
##elles
##ālī
##ementu
##izētas
skau
tops
##ulig
##oko
##āvos
darbnīcu
nekor
lielumā
##aidž
##ezs
##ainajiem
lietoja
dzīvniec
dzīvībai
dzīvojis
##īcas
veidotāju
like
tušu
pavair
bezm
nodota
##lif
vecum
ārpolit
priekšējā
Laimas
pilngad
noteikšanas
##aigāt
anot
nore
satiekas
jebšu
Pēcāk
palīdzot
novārtā
##istēma
atbildu
atbildēs
tuva
tuvākās
patīkamāk
pilsētiņa
noskūp
gaidāma
norāde
mūziķiem
nomest
veicināšanai
beidzis
Skonto
skrējējam
noteiktajiem
lidoja
##ulda
Labdien
ienācis
automatiz
pavadīts
būvju
sagatavoti
secināja
guļu
posmi
sīkas
ugunsm
##otāžas
nostāja
rindām
saulītē
aizmirsa
prombūt
Zemnieks
jāatbild
interesanto
klusā
atjaunota
džeku
pavasarim
izdomāts
240
ideoloģisko
monētas
noskaidrojās
stacijai
ļaunumu
Sanita
tipiska
skaļuma
svešval
standarti
obligāta
tavam
Masu
Raksta
##ERS
vēder
Svētā
Valdība
Nedomāju
##filtr
Zviedrija
piepilda
Indon
uzgāju
320
ilgstošas
Redzi
trakāk
aizturēja
paraugus
planšetdatora
uzbūve
pamodies
Jēkabpilī
noslēdzies
sveci
modernā
Time
Priekšā
likumprojekts
asfalts
Pakist
apņēmības
respondenti
Saprotams
ignorēt
Aprīlī
šalli
sapņo
izšķīr
steigas
ambīcijas
Pavasarī
taciņu
Kabin
stadiona
liepāj
nekontrol
Stīvens
papētīt
Arnolds
Vladimirs
memor
pretstatā
uzskaiti
perfekt
Iesākumā
portugā
struktūrfondu
MALDA
Tarantino
Cola
Daiga
Ford
Hero
Kov
RA
Rīta
Romu
Soci
Tem
bilst
bada
deln
līt
salst
ugu
vākt
Šādos
##menu
##lor
##bi
##tn
##nik
##TY
##ет
##ка
##otē
negan
##āktu
##ienis
izpras
##ētajai
##āliju
pāries
iesaiņ
pasaki
aizķēr
##aidiet
##edu
kliegt
##ople
lietojums
##estra
##liks
nesalīdz
kopj
nodemonstr
viduk
##vienkārš
mēslu
radošu
radītas
nāktos
ielauz
interesents
sakāms
darījumiem
mēru
roktur
attiecināt
Anal
rezon
lielākus
izvēlēta
parāds
liekā
ievil
piekļ
iederas
krāsainas
Irākā
Irēna
beigties
atziņu
atklātā
paredzētos
raža
cepumiem
nomaks
nomaksas
paceļas
līmi
Lielākoties
jāseko
izstrādājumiem
velta
##ūlās
izliekas
nelielo
sprieg
taisās
Džeis
profesora
virzās
pavadu
negatīvas
cietoks
Minim
aprakstiem
Kurā
Kurzemē
uzlabošanu
guvuši
pamanām
staru
neuzskata
vieglāka
apvienošanās
fotogrāfijās
piederības
baltos
imun
apliecinājumu
saņemto
kolēģus
pierādījums
AdSense
Bezmaksas
pieteikšanās
Garām
populāro
saimniecisko
bojājumu
bibliogrāf
sestdienā
porcijas
astoņos
jautra
nepieļauj
mantojums
iemācījies
pazuduši
atzinuši
tulkojumā
apstrāde
reliģija
viedtālruņus
pūlēm
apvārš
Rūķu
priekšrocību
likvidācijas
Godmaņa
apguvis
saukts
kontaktiem
Noder
uzaicināja
meitenīte
cipariem
Putina
pievilcīgs
misiju
austiņām
nokļuvis
pašnodarb
internetos
displeja
infrastruktūra
dīķa
##glābj
advanc
dienasgrāmata
lauzt
Raimonda
pazaudēt
izskriet
Īrijas
Ukrainā
pievērsās
sēklām
klaviatūra
Neatkarīgajai
Organizācijas
līča
papīrus
dabūjām
simptomi
Plānots
advokāts
Eksperim
ultramarat
rekonstrukcijas
kalorijas
diametrā
Natālija
sagribējās
Reģionālās
##night
ievērtēt
Dizain
trīspadsmit
koordinātes
apglezn
Electron
AI
Bū
Bibli
DL
DR
Gaisa
Ket
Mold
Nec
Pj
RV
Roll
Tirdzniecības
Vor
XX
bingo
mad
makt
pikseļu
pervers
teļa
zos
āru
по
##mīte
##sver
##iša
##post
##OTA
##GI
##32
##iešanā
##aiļ
##ening
##akam
uztraukties
pieķ
visgrūt
##iecies
##ejos
līdzpa
##īku
##ezon
klaiņ
konfek
daudzumos
iespējamā
intervēt
garam
dažviet
likmju
Esiet
strikti
nākošajā
pilnties
salid
salikti
panāca
pieteicies
tālā
Kreis
mājiņas
stāstot
izvēlei
spēlei
sadom
neteikšu
medības
attīsta
tuvs
draudi
strādājusi
mācoties
##veseļ
sniegta
##kāš
##inājušās
pienes
jāsecina
atvilk
skrējām
variācijas
atradies
piemērošanas
##brauca
pārslu
trenējas
drošībā
saņemam
datumā
Labrīt
iegādātos
automobil
materiālo
Jaungada
mobilie
izpilde
melnos
plašo
Krievijai
secināts
Otrās
veiktās
papļāp
tīras
jūti
atkarības
##valstīs
apstiprināta
transplant
kapiem
spēcīgāk
kļūdīties
skolēnus
saprotat
izdomājuši
ideālu
zilu
pulkstenī
taukiem
kalnus
atspīd
VIŅ
uzmest
atsaucību
Sasod
ievieto
izziņ
Rezultāti
popularizēt
mīkstas
pedagogi
Ievu
1986
augstskolām
iepazīstināt
buķ
ieinteresēts
lakatu
formulas
atmosfēras
Zinātnes
pārspēt
skuju
sfēras
limon
trauksmes
Disc
nikni
papriku
idiot
intriģ
gļuk
litri
multi
reglamentē
Negribu
baisi
Mežaparkā
triloģijas
Juridiskās
kvantitatīv
neērtības
mača
skeptiski
saulesbrilles
arbitrāžas
##nešiem
Krājaizdevu
varavīksnes
Stockmann
Garnier
acumirklī
Sarkanturbānīte
2km
Hem
Hard
KR
Piezīm
SA
Spēc
Soft
Tau
Test
Vend
can
dāņu
fonu
lausk
mesties
odz
saž
sūc
##mot
##lavs
##šņ
##zh
##zņēm
##zovs
##yd
##ņaudz
##otne
##umis
##inai
neiev
nopriec
##ako
##akņ
##osiet
uzpras
apaug
##tro
vispus
##draudz
savilk
stāsies
spīdz
##apaļ
kre
##oba
jaunākajām
galvai
nebeig
atbraukuši
kopija
##upe
Praks
zemo
radoša
iegāju
Arvien
Arnis
##augoties
vadīts
Atkārt
elites
vajadzīgajā
Krem
turpinājām
neatris
market
atpū
1920
##ansa
augstvērt
atbildot
naudā
##alizēta
prasme
vēstījums
krāsni
fināls
atklāšanu
atbalstītājiem
organizēts
organizēšanai
ražu
sapņa
mainījušies
apstājies
mēģinājusi
zīmējumi
apskatījām
Kasper
Vienam
senās
aprob
nelieliem
masveida
Andri
viesus
##skolā
apmeklētājs
avīzi
ērtā
iegādājas
sarakstījis
paziņojuma
Aizvad
fiziska
aktualitātēm
upuru
diētu
Piemērs
klausuli
autobusi
jāizvērtē
saulainā
skaitļiem
Šodienas
perif
atjaunošana
padarīts
skatuvi
tērauda
Citas
ezeri
ieraudzījis
aukstas
uzņemšanu
normatīvos
čempionātu
melleņu
aptaujā
tavām
##lodzes
ceturtās
dubļiem
rosina
jāteic
pārdevēji
stikls
pasniegts
Paman
saskarne
Ceļvedis
iesniedza
torni
opon
jokus
armiju
akadēmijā
Vienkārš
pagriezās
kombinācijas
ekstrem
kafejnīca
atskaņotājs
Lielbritānija
atnākuši
Puiši
humoru
smēķēt
Pusmarat
atkāpties
August
maksājumiem
fakta
audzēkņu
ķirbi
Bilde
apdzīt
atbraucis
ignorē
garlaicīga
dusmīgs
štatā
baseinā
likumdošanā
galeriju
dialogu
ambici
upuris
akumulators
spraudnis
tējkarotes
jābaidās
apciemot
koridorā
instrukcijas
Stambulas
straume
Iecavas
skulptūras
Kopējais
Ernests
rotaļlietām
Sintija
jāpavada
gondii
Aks
Dagn
DEL
Fe
Jev
Let
Lec
Magn
Nap
Sīp
View
dul
fu
fisk
sof
zoodārz
ēz
īri
##lic
##ten
##šāv
##jet
##reģistr
##Tom
##hi
##čuk
##CO
##aiku
##isc
##ative
neaug
neļaus
noņēm
atain
##ātajā
kaķa
##itech
##elm
iestr
##uliec
spējam
##rīža
krodz
kliņģ
saķ
jaunkun
garāku
gardi
neskatās
ieroču
pavilkt
ietves
##āstīja
šķē
##iežas
priekšap
aknu
nākoš
Manag
##atīvus
skatījāmies
darīšana
Atis
elfa
plānošanu
ilgāka
izvēlnē
##ināsiet
augstcelt
deviņas
devuši
strādājuši
problēmai
krāsainu
izveidoto
atziņām
glīti
pētnieku
organizācijā
ražotnes
cepam
##pilg
mežiņā
svētdienās
Skum
notikušā
atvēs
skrējienus
pārstāvja
Vienreiz
atstarp
salda
nerodas
indekss
putekļiem
aktīviem
negatīvās
izpildītāju
cietumu
pārbaudījums
plašāks
apstāklis
veiksmīgas
uzturēšana
ķeras
siltumā
sāpe
policistiem
dzīvokļi
dzīvokļiem
ticam
atkarīgi
##telev
dāvināt
privil
nepārsp
##umbas
izgājis
vārītas
piemineklis
Mazs
trauma
satikām
Noskr
Noskaidr
Igors
dīvainas
apliecināt
tērps
neredzēja
motīvi
sadalās
sadalīta
sadalījumu
krustojuma
pierādītu
atvērti
nāvei
atkārtoja
gājusi
Kalna
ugunsdrošības
panākta
Savienība
dievišķ
tabulā
fantastisku
Like
dotajā
atzinums
kalpoja
sagrieztas
zvaigzn
ķīmiskās
aprīkojuma
Centrālā
kontekstu
Lietas
izsniegta
identitāte
baidījās
neietekm
vingrinājumi
konkursos
paraugi
Franciju
efektīva
atskaņot
brūno
Neatceros
lakon
etiķis
noslēdzās
eksāmens
smēķēšanu
partnera
uzklikšķ
pateiktu
diplomu
nianse
Lindas
iepriecināja
Sergeja
iestrādāts
horoskop
brīvprātīgo
dalībvalstis
nešķita
norēķināties
total
instalācijas
Pacien
terapija
komersants
nevienlīdz
depresijas
Endomondo
līdzšinējo
Kapte
iedalīt
Pauls
nodzied
Freiberga
Rezumējot
Problēmas
Vecrīgā
ieklausīties
viendabīga
reljef
dvieli
Autobuss
gigant
izpausmēm
Jorens
putukrējumu
zemapziņā
aerob
atsauksmēm
šoruden
Smieklīgi
Vizuāli
Honkon
3x
Aļ
AF
Dil
DAR
Got
Gear
Hamb
JP
Lienes
Nupat
Pod
PAL
Zos
Zaķ
ait
biešu
došos
hulig
sw
tint
tvert
##līp
##pj
##ton
##row
##aits
##ankas
##aužas
##usas
##usku
##uro
##ājamo
##ājamā
##avēt
izkrās
ieber
dziļa
reisu
spama
vēljoprojām
##ēkt
##aksti
aizdz
notec
attop
dzīvnieka
dienesti
šovā
jāiek
##maņi
vecajām
##nesei
ornam
ielicis
Visapkārt
kārtējās
skatījies
padod
##tiesībām
Atst
##ūzis
pamatīgas
lielākos
vakarus
attīstītu
devalv
vērtējot
caurules
vēstuļu
svarīgāks
modelī
trīsreiz
meitiņu
Brit
jāpat
zinātnē
Alise
notikumam
publiska
klasiskais
ministri
pārstāvēja
temats
saldumu
nākamie
##prasmes
dzirdināšanas
ienīstu
sarakstam
sarakstus
Jaunzēl
pele
kāposti
plašākā
palielināšanu
palielināsies
sagatavoto
sagatavotos
spējusi
kontrolei
kontakts
135
debates
praktiz
skaitl
nobīd
atjauno
dega
centieniem
iesniegti
prote
iestājusies
iestāstīt
baltkriev
dīvānā
pildījums
##traucas
maizīti
krustnagl
mūžs
uzliesm
ļauno
sausu
paņēmieniem
automašīnā
efekta
Austrijā
noskrieti
dzerot
##ālasa
iemācījos
jebkādiem
aplūkojot
kandidāti
Ņemam
stingra
paņemot
krājumos
izvirzīt
Trešdien
saskata
sekojošs
zvērs
arhitektūra
impul
bēdu
izslēgšanas
ierastās
ieskatiem
iejauc
cieņa
pielika
apzīmējums
haoss
cepurītes
perfekta
Augustā
interpretāciju
paspējusi
Niklāvam
agresīvi
aizrāva
pārkais
apavos
leģenda
brendu
traktoru
Sabiedrisko
dzimtajā
līdzsvara
What
apgrūtina
ekskursijas
ierindojās
putraim
uzdāvināt
tērpos
ēstuves
tukšums
klīniskās
satric
nolasīt
kungam
##grupas
mijiedarbības
Portugālē
princese
piparkūkas
prēmijas
Salaspils
Tango
piedzēries
kuņģa
tiesneši
sacensties
Taksim
pašpārliec
Atlantijas
Safari
jāuzņemas
##UGD
DD
Diž
Evil
High
Kaim
Laul
Pods
VUGD
aši
bin
blē
bub
bākas
ciešanas
eu
gin
jogas
kūc
nācijas
vul
veļu
##vasar
##noj
##nāks
##gaļu
##raž
##diev
##OC
##īlēm
##feld
##63
##stīja
neprāt
kaķiem
##ekļos
apkr
apaļas
visplaš
##olēm
kurināmā
pāriem
pāršķir
pārkar
vardes
skel
##apl
aizk
darbināt
trail
nepien
sačakar
jaunākajiem
izmit
##istisku
garie
tušas
izdota
autop
vērti
viņaprāt
##andarta
##ups
##eitas
priekšpusē
skatl
Izold
tālrunī
Stab
turpināšu
īpašās
īpašumiem
valūtu
kvēl
tehniskie
latvijas
gaidīšu
##ifikācijas
##pusēm
puikām
organizētājs
organizācijai
padomei
nomirst
nodrošināšanas
izrādīja
līmeņu
svētdienu
produkcija
ņemti
lidapar
izlid
Pieej
Dzēr
Spice
free
samazināta
partijai
platumā
novērojams
novērojama
plašajā
plašāka
uzzied
Kādus
rajoniem
smaguma
zieds
ziedojumu
slēpņ
klausījās
Plāns
tautību
##laicīgu
rokasgrām
pārsteigumiem
nesaproti
klusumu
Sākam
starptautiskajās
padarīto
Mazāk
resursa
traum
vizītes
aģentūrā
realizēts
neredzētu
pensijā
izjut
zilās
strauja
Vairums
Aktu
ezeram
sauso
sešām
ierados
ieradusies
gudra
gudrības
uzdots
##ASA
panākts
paņēmienus
līnijā
nacionālajā
kreklā
iznākums
maksimālais
apkopojumu
segreg
saišu
kastīti
orientēties
līdera
žēlast
pasniedzēja
pastaigāt
treilerī
Turpinājums
desant
nepareizu
aprīkoti
sekojošu
nodarījuma
Centrs
apkalpošanu
atlaide
signāla
jākon
bruņur
planšetdatoriem
pielikumā
cilindr
##ometrijas
rastos
Norvēģiju
diennakt
Svētdienas
kolekcion
audzēkņiem
Gadu
šampinj
dienvidos
gumiju
apmaksāt
Veiksmīgi
brenda
taksi
gaumi
##ountr
Operas
neaizmirs
dubultā
ēdamkaroti
kriminālprocesa
izšķīd
inflāciju
bedrē
Borzovs
proporcionāli
zaķis
dabūjis
precizitāti
tējkaroti
holand
Henr
Vecrīgas
Briselē
gadžetu
pārslēgties
virsma
Paziņ
Platform
Dzelz
augļķermeņi
spoži
Ignat
jahtu
android
ranga
Vilciens
dzintara
Googles
energoefektivitātes
didakt
jārīkojas
Valdemāra
šefpav
Kazahst
Ah
CP
DJ
Ec
Hār
Jād
LIA
Main
Muse
Odr
Ron
Roku
Rozes
Sākās
danc
fic
gaud
gāž
gāze
hepat
jālasa
rij
ķiv
ķīlu
Žans
##eep
##ešanu
##ias
##bay
##pag
##gāru
##ņo
##čos
##LI
##atel
##amisu
news
atskr
##itors
pieaudz
##elo
vaiga
##emo
##ementa
tikšot
##odami
esoša
kopa
savāca
gadad
iesaucās
##āno
Latvieši
mazulim
##aldu
lietprat
atteic
kadrā
##ūkām
veidojās
pusaudz
strīds
iekop
cenai
zemenēm
nāktu
Park
pagājušas
pakal
darījusi
nevarējām
Izc
Izņem
##āzts
vajadzīgā
attiecīgais
##īlēs
10min
maksāts
piedāvātu
##ostr
neteica
##stādes
brīdinājumu
devēji
brīvdabas
norādīta
Savas
mazākiem
veikalus
sasting
nodrošinājums
adīju
vilna
ekspozīcijas
Baltā
atšķirties
atbilstošo
elektrom
Marijas
atstāts
pabar
##sudr
prezerv
operatīvās
##zemei
ēdām
From
sagatavojis
negribās
aprakstus
aktuālo
Elv
emis
uzvarētājiem
suņus
mīļākajām
tradīcijās
ticams
praktiskās
klusībā
gaišā
jānop
Tiesu
saprotamu
trauks
tēlot
noskaidroju
nepatīkamu
parastie
rotaļas
pārkāpj
gājējiem
Bērna
filmē
populārākā
melo
obligātā
deform
ceturtdienas
nepiepild
juridiski
bīstams
Šķita
pelnījuši
seriāliem
##anger
##itāro
aprīkojums
nerunāju
analizēti
noslīd
neskaitās
intensīva
Helēnai
knāb
parauga
uzbūves
sitienu
Stulb
dzejnieks
nenovērš
Personas
##ukstēja
Svētku
mirkļus
izbraucām
korpusu
Salīdzinājumam
ainavas
piezīmju
toler
ūdenst
Renča
Gulbenes
komersanta
uzspiest
nebaidās
Civilprocesa
konsistence
slepkavību
pretenzijas
Vasiļ
pieķerties
Portugāles
SVF
Gūgle
alerģ
pārsūdzēt
tenisa
##mācības
Logitech
Direktīv
Centrāltirg
tīrīšanas
šampanieša
Hansabankas
Technolog
Bīt
Fol
HK
Jar
JAU
Kau
Kraukl
LK
List
Lost
LOR
Maj
MAN
Rudz
Tok
TAS
nātr
pet
riskus
ukr
windows
Ļena
Šr
##lauc
##būves
##jonu
##kil
##77
##stru
##alur
uzkav
atstād
atmetu
##ērās
##ētajos
##org
##itāra
apval
apollo
##tras
vienība
pārej
paticis
dzīs
##aļiem
līdzināties
##ican
maznodroš
iespējamu
vairākumu
##aukts
pamāja
kopliet
nedomāt
autof
pavies
##adzis
drūz
karaļa
##gans
Prakt
centu
ārēji
sagrau
informēts
darījums
Ingun
lasījuši
Atbrīv
ciklu
alkst
piesm
īpašumus
gatavota
gatavojās
tuvākais
naudiņām
vieglo
bildēt
atzīšos
izdevniecības
paredzams
priekā
aizsedz
veicās
varbūtība
zīmogu
dzima
dzimums
svētdiena
ņemtu
risina
pabiju
dziesmai
apkārtne
##simies
ēras
nodarbošanās
institucionāl
##tive
sakariem
milzum
vēsturiskās
būvē
uzzina
Otrdien
upei
upēm
lēna
diētas
smagn
smagās
lejtec
pamanījās
skaistām
pastāvēja
aģentu
finansē
atjaunošanai
zaļumiem
iesniegums
apvienojot
saprotot
trauki
pārtop
arhīvā
paskatos
stabila
Karl
##ARS
Cilvēkam
baznīcai
ļauna
paraksts
jārada
gadsimtiem
tipiski
bojājumi
līnijām
žurnāliste
taviem
porno
kreklus
##ihu
svinības
morālo
kosmosā
Likum
kastītē
Kristīnes
apgredzen
staigāju
iedzer
velosipēds
redakcija
##valific
pelnījusi
auskar
aprūpē
bļodu
vēsi
šauras
drīk
iespējamie
Ultra
Redzot
aizturēšanas
auditorijai
atkritumus
plakāts
sprieduma
iedarbības
neprognoz
demokrātija
muskuļus
Kārtība
pastiprinātu
Vīrieši
aizvedīs
Mobilais
brūni
Cēsīm
Banka
transl
piemērotāko
augsnē
apdzen
pretimnāk
iepatik
duets
zābakus
mačā
Photos
epizode
krastiem
spoguli
mētājas
sapņoju
Vajadzētu
atalgojums
siltumap
hallē
Staļ
virsotni
katastrofas
ierēdņu
granātā
ansambļa
Āfrikā
Čehijas
baiļu
Sacensības
naivi
Brīnišķ
##lubs
ielikts
jāizdomā
Jūlija
Muzeju
virspusē
eleganti
Čepmens
pērlītes
Meklējot
lomai
Pekinas
Džeimss
uzspēlēt
Teorētiski
Skrundas
energoresursu
atribūt
anketas
neviļus
nenožēloju
Precīzāk
Ticiāns
Capital
3km
CF
Gord
Jām
Kai
Kust
Loģiski
Sast
SPA
Tak
Tiks
Wild
hack
maču
rauga
tīz
Ēdiens
Ķek
Šiem
##liedz
##sāk
##pam
##rent
##dur
##hip
##hing
##ņik
##ņep
##ĀC
##98
neīst
neiedziļ
##āmai
##ājus
atveseļ
##ērku
##irka
prata
##ojošām
paķer
visvis
ieejot
##āvs
iesv
līdzība
līdzīgās
##icijas
nevērt
jauniev
mazina
izmeta
lietojuma
dzīvos
##estība
galos
garīgā
##auks
izved
##acion
domei
kopt
kopdzīv
pavec
bezpalīdz
pusīti
katla
##upi
redzamais
zemā
aka
##egt
griba
Visur
##atīvajiem
##kač
Izņēm
##augi
Ins
vadiem
lasītu
antrop
Atom
##ingiem
vajadzīgās
Stal
stāstīju
lielākai
105
grāmatiņu
noveda
lieks
tehniskajiem
vērtējuma
iededz
latvija
atklājis
izdarīšanu
##ancē
solidar
##arth
piedalījusies
Trase
izcīņas
rīkotāji
nelielās
kabatās
##zemi
dokumentā
sakarus
kvalitātei
sēdēs
galdiem
priecājās
neaptur
uzraksta
sīku
konfes
biezpu
privat
turpmākās
pirkums
pirkšanu
##skrāp
ritma
iesniegto
svaigām
tūres
Dažādu
stāvoklim
Zvan
brīnumiem
apliecība
tukšo
Vecum
dermat
izprot
kilometrā
krustojums
uzrāp
pievēršot
vērtspap
Citreiz
lūkojās
kodus
ļaunā
pārkāpumus
epasta
Vilis
dzeltens
sausās
Notiek
Autore
smalkas
Vidējais
reģions
##otēka
Interesant
izvietots
atbrīvo
retajām
privātajā
tautasdz
dievkalp
Skriet
efekt
ģimenēs
lētāku
noguruma
juridiskajām
Sveš
prese
lepns
restorānos
Sasnieg
Mārtiņ
Mārtiņu
stabiliz
aizvakar
apdedz
nišu
Sieviešu
popularitāte
izkais
##ļāvās
pašreizējās
aizņemties
Maijā
Kolumb
savstarpējā
Guna
akadēmisko
bezdarbnieku
globālo
uzstāsies
pasmieties
pieļaujama
šķēlītes
cieņā
netradicionāl
Ivaru
viltīgi
moderni
iniciatīva
Jebkurš
nervozi
Project
aizrit
atņemšanas
skudru
stipras
apsūdzības
okeānā
##obiļu
klimat
kopsapul
labvēlīgi
invalīdu
inovāciju
Spriežot
teorētisko
apbrīnoju
Čehijā
kosmētika
datubāzē
čakli
iemītnieki
random
līdzjutēji
ķimenes
iesmējās
sagaidāms
iemēģināt
LSC
kedas
garneles
nojausmas
NaNo
Essence
Nenoliedz
Didzis
teleskop
rāvējslēdz
Cim
Dam
Dienā
Eko
Hav
Jūtos
Meklē
Mbit
PI
Romā
SKA
Sirsn
Sencis
Tīr
TNS
Vaid
Viegl
York
dam
kņ
kWh
miņas
pon
Ād
čips
Šmit
šif
##mātes
##lopu
##uv
##dim
##dib
##yc
##cei
##KU
##ра
##ierī
irb
##ādami
##etēs
##akciju
##ose
##oraj
jauš
##iskāka
pārš
manīju
grūb
vēls
##ejiski
līdzību
##autob
klib
##ēdamies
mazuļiem
##istisks
##ūris
##likumā
##īcis
nebēd
##īrādz
##utas
##spār
bezmaz
divrit
##andē
sasveic
##uds
radušos
interesentu
Visos
iegūtas
##aite
vadoties
manif
starpgad
labākus
atsit
stāstīs
pamatota
##manes
##manim
tuvējā
skaidrība
tehniskas
piekop
vēstniecības
izveidotā
braucēji
##ugh
tirgotājs
valdījumā
meklējām
apskate
svētceļ
publiskas
miruši
pārspēja
pieredzējis
senu
nākamajās
samazināšanās
logos
platums
operu
cerībām
112
##zemju
sakarīgu
teritorijām
paziņojot
uzvesties
teikuma
audu
sagatavošanai
draudzīgu
draudzēties
grozā
uzturētu
aktualitāti
aptiekas
saņēmām
audzināšanu
audzinātāja
sadarbojoties
debit
maisiņā
atgriezen
aizsardzībā
pārsteigti
interesantāku
novērtētu
pateicis
institūtu
jānok
Strādā
Zvaigžņu
tuvākajās
adresēm
Policis
vāciņa
nonāktu
palikšanu
parastas
nāvē
aukstuma
pārkāpt
dzeltena
populārās
tipisks
piedāvātais
bruģ
lokomot
dubļi
Paliel
motivēt
eksperimenti
demogrāf
augstākajā
izdzer
##filmēt
ērtības
iecere
paaugstinātu
Skaties
izvirza
flor
Vispārīgie
aizraujošu
raudāja
plakan
Braucu
Jēkaba
reģionālā
noformējumu
kompleksā
mikroraj
atskaņotāju
viļņiem
human
tramvajā
this
uzkod
Jāpiezīmē
žāvētas
Obamas
aizmirsuši
vitamīni
jācenšas
identifikācijas
Pasākumā
aizdevuma
abonēšanas
rekomendēju
Belarus
medikamentus
naktsmājas
ugunskuru
folklor
ligz
advokātu
Krišj
noritēja
neturp
iesildīšanās
Dokt
Izslēgta
Nīderlandes
##vārdsakot
kvadrātmetrus
klostera
timiāna
Elizabetes
difer
##amerikas
Ralfs
dīzeļ
makten
Dū
Dor
Dienu
Daba
FB
GA
KL
Mātes
Pū
boks
dosimies
guru
joka
kūts
niedr
uk
žest
##mēs
##serv
##vins
##vada
##jon
##rag
##īņa
##ya
##otajās
##inārā
negu
nelikt
nerāda
##onna
piegar
##emb
##iskut
vienotas
spēšu
##ogos
labpat
daudzmaz
##ociet
##enties
##krip
izvai
nesal
ierašanos
atbals
domātu
domājām
pamatv
izdala
autos
brūc
izmantojām
##play
radīšana
interesējošo
pakaļā
vadīs
mēreni
atsaukt
lappuses
Anat
plānojuma
neatz
##kata
polīt
bijušajiem
Uzlab
Uzdroš
gatavoja
runājis
netīk
netieš
augstiem
augstumu
ieviešanai
tuvējo
pirti
gaidi
atklājusi
paredzētajiem
pētīja
##ojamību
koledž
dzīvesvieta
mainīs
paciņa
Lieldienām
zināmais
klasēs
pārstāvniecības
simtu
senču
pārdots
Dzirn
Spīg
mīli
trešdienas
avokado
pieņemšanā
mīlam
nodarbojies
miermīl
dzirdēja
Pārsteig
instink
50g
Jaunatnes
attēlota
novērojumiem
septiņos
maigu
gulēju
viedokļiem
saglabāšanas
klausies
metu
mīļās
biezās
rindiņas
patērētājs
Kontr
izgāju
gaišo
jānom
iedomājusies
##vidr
pieminēju
Zvej
izteiksmē
satikšanās
nogalināja
##nīši
ļaunprāt
parakstīja
atzīme
ikvienā
čempionu
izmēģinājuma
sestdiena
dievi
lokam
Divdesmit
fantastiskas
prognoze
augšējo
akcentu
investīcijām
##mmm
izvairās
digitālajā
atnest
aprīkota
nepaliks
Nebaid
pieradusi
stulbs
argumentu
Skolotāja
apguvi
##ievieno
interpretācija
ieslēgts
paklāju
Nopirku
spilvena
kautkāds
agresīv
Neredz
limit
iepriecina
jāceļas
izkāpt
mudināja
krastos
ļauties
niecīgs
inovācijas
##aaaa
salikums
bēgt
akumulatoru
rekonstru
motociklis
čūska
Azarts
Mālpils
##703
fantāziju
spriedzes
piefiksēju
ieviešot
ievilkties
neatbalsta
vitrāžu
kofe
Riekst
labirin
Eirovīzijas
Ēģiptes
aizķeršanās
nobaudīt
dinoz
Farbīte
jāpagaida
Citadele
Kaspersky
Aust
Bay
DRM
Guļ
Goda
Lot
Lep
Lēnām
Sākas
dēļu
meks
pog
todien
veg
Šeksp
Žen
##mez
##niņš
##gai
##gers
##cip
##ķīši
##ов
##artu
##atiņas
##atkar
##otajam
##esk
nef
##ējošām
uzcep
uzdrīkst
atšifr
##iru
kaper
kaķim
##ito
tikušas
pārkārt
ster
stāžu
spēr
##ānai
##teris
##otiv
##antos
daudzpus
##ocket
lietojumu
##iāla
garākas
pašp
neskrien
veidam
pavāru
##ušai
vecītis
pusītes
drāma
iekust
šķīvi
##eitan
redzējumu
Laiku
Parast
noteikšana
darījumi
Izdz
Izņemot
ātrākais
ieman
atsveš
alt
pamatotu
valkā
spēlītes
gatavošanai
##anses
uzskatīti
asas
vērtēja
izsīk
noskaņas
atzīti
apsarg
atklājuši
veicinot
pievienoti
dzīvespr
jāpaliek
meklēs
dzimušo
izstrādāja
mirg
atbilstošā
Spilv
atstājusi
masāžas
samazināšanas
putekļi
Jauna
sakarsētā
paziņojusi
ievērojams
izpildīja
uzzinot
izplata
Ella
labsird
cukur
Dre
virtuālā
rūpīgāk
piedzīvoto
dzērvenes
tumšas
rudenim
Mazās
trauka
baltiem
##kalnu
##kalnā
Film
netieku
bioloģijas
fotoatt
precīzs
traucējumu
šķiras
uzticēties
pārkāpums
uztvere
Ziemassvētkus
alkoholisko
Patiesi
slavens
kaimiņa
žurnāliem
##aužot
kastīte
sliktāka
gulētiešanas
aprēķināt
līderiem
[...]
