#version: 0.2 - Trained by `huggingface/tokenizers`
Ä ģ
i e
Ä «
Ä ĵ
Ġ p
a s
č Ċ
Ġ čĊ
Ġ k
a r
Ġ v
Ġ t
Å ¡
Ġ s
Ġ n
a i
Ġ u
a t
Ġ i
a n
a u
i s
Ġ m
Ġ d
e s
Ġ l
Ġ b
a m
Ġu n
o t
s t
u m
i j
Å «
Å Ĩ
a l
i n
i k
ie m
Ġn e
a d
Ġ g
Äģ s
Ġn o
Äģ k
Ġ ar
Ġ j
ie n
u s
ie s
Äģ r
Ä ¼
e r
d z
Ġi r
Äĵ j
u r
Äģ d
Ġ r
Äģ m
Äģ j
e n
i l
â Ģ
t u
a k
a v
Ä« b
a p
i ÅĨ
Äģ t
Ġi z
e t
Ä« t
o s
Ġu z
Ġ at
e i
Äĵ r
Ä« g
o n
Äĵ t
Ġ c
ie t
ie k
Ġp ar
o r
i r
Ġ Å¡
a j
o m
Å¡ an
Ġk a
Å ¾
Ġp r
e k
Ġ âĢ
i t
o j
Ġp ie
a b
Äģ l
Ġ ap
Ġ ie
e l
ij a
Äĵ l
Ġv ai
Ġar Ä«
o l
Ġk Äģ
Ġl ai
Ġp a
Ä« j
Ä ·
Ġj au
Ġv is
Ġ z
e m
is k
ij as
Ä« v
Ġk ur
Ġv ien
ai s
Äģ c
Ġt ik
Ġk as
o d
Äĵ m
Ġp Äģr
Ġs t
Ġv ar
um s
i m
Ġ (
Å« t
Ġs k
Å¡ i
Ġ f
Ġ es
Ġv iÅĨ
Ġm an
Ä«b as
Äĵ c
ĠâĢ ĵ
Ġt o
Ä £
um u
Ä« dz
r Ä«
u l
a z
r u
Ġb et
t i
Ġk o
e v
Ġt Äģ
Ġs av
a g
Ġ L
au t
e ik
ar b
Ġp at
t s
o k
ie l
r au
Å« s
Ġd z
Ġs p
ij u
Ġi n
Å¡ u
s k
i z
Ġb ija
Ġr e
o g
ie c
u n
t a
Ġv Äĵl
Äĵ k
d r
Ġn av
e j
Ġ 1
p r
Äģ v
aj Äģ
Äĵ s
ai z
Ä«b u
o Å¡
t r
Ġlai k
Ä«g i
Ä į
Ġg r
a Ä¼
Ġ S
au dz
Ġ ies
Ġg an
e c
Å¡an as
Ġk Äģd
Â ł
in Äģt
i d
Ġt as
Ä« m
o b
Ġl Ä«dz
Ġg ad
ir m
Ġp as
um a
ak st
p Äĵj
at v
Äģ n
ei z
Ġ A
Ġl ab
Ġ aiz
âĢ Ŀ
Äģr t
Ġd arb
am s
Ġ 2
Äģj u
Ġj o
Ġ M
t er
m u
ot i
o p
Ġk r
Äĵ d
i c
Ġne k
a c
e z
e Ä¼
um Äģ
Ġl iel
il d
Ġn ot
Ġvai r
a Å¾
Ġp Äĵc
ai d
Ġt ad
r Äģd
Ġ Ġ
e d
al st
Ġtik ai
Ä« s
i v
Ġp l
e p
ei d
Ġ -
Ġ K
au g
an t
as t
Ġne v
Ġt r
Ġ R
Ä« k
Ġ P
Äĵj a
il v
Ġ Ä¼
ai n
Ġk on
Ġp irm
is t
ÅĨ em
Ġ B
Å ł
Ġ V
Ġ T
Äĵ tu
in Äģj
Ġk l
Ä« n
iek Å¡
0 0
Ġne p
Ġt Äģd
en t
ij Äģ
ilv Äĵk
us i
Ġ D
Ġt ur
Ä« st
o c
Ġjau n
Ġm az
Ġd audz
al d
ĠâĢ ľ
Äģ p
Ġc it
au d
ie g
er s
ot ies
l Äĵ
Ġiz m
U n
i b
Ġl iet
Ä«b a
Ġc ilvÄĵk
Å« r
Ġat t
ĠL atv
n iek
Å¡an u
au k
l ik
Ġp al
sk at
r ie
Ġdz Ä«v
a Å¡
in a
v Äĵr
u k
Ġd ien
Ġj a
Ġies pÄĵj
Äĵj u
Ġt ie
Ġvair Äģk
Ġk om
Ġp il
Ġk ad
Ġ I
Äį u
Äĵ n
ak s
Ġ "
Ġs v
Ġs Äģk
Å« tu
Ġn es
Å¡ Ä·
d ien
ĠÄ¼ oti
Ġg al
Ġin ter
Ä«b Äģ
k l
i Äģl
or m
Ä¼ u
Ġ E
Ġg ar
ĠÅ¡ o
um i
Å¡an a
ei c
Ġpa Å¡
i p
g ad
o z
ie d
Ġiz v
Äĵr n
Ġsk ai
ek l
e b
t Äģ
Å« k
Ġk aut
Ġd aÅ¾
Ġv iet
Ġne b
Äģc ijas
Ġat b
ÅĨ Äĵm
Ġj Äģ
iÅĨ u
Ġne d
en s
Ġb Å«s
Ä« p
r i
aj iem
i on
Ġ ak
Ġ N
Ġ G
u Å¡
Ġv eid
um iem
Ġ J
Ġno s
isk i
e dz
Äģj a
Ġsav u
Ġd om
in Äģ
Ġ aug
Ġp am
r a
Ġt iek
s m
) .
Ġko p
Å« d
Ġr akst
Ġm in
ie v
Ġt u
at u
Ġiz d
a Äįu
um us
an d
om Äĵr
Ġt e
l u
) ,
ÅĨ u
Ġat r
Ä« c
Ä«g s
Ġ aut
Ġb Äĵrn
Äģk s
s p
u t
Ġpie d
Äĵ Ä¼
Ä«j a
E s
rÄ« d
Ġp av
rau c
Ġno d
k r
Ġv alst
e g
ĠâĢ Ķ
m as
Ġb ez
e f
l i
Ġ ek
iÅĨ a
Ġd iv
u b
Ġl ik
n es
Ġm Å«s
Ġv Äĵr
eik t
ul t
ad z
Ġt Äģs
ak ar
Ġ 3
Ġn u
Ġ iet
Ġv id
Ġs m
Ġ Ä«p
Ġv ec
e Å¾
Å¡an Äģs
Ġp us
Ġlaik Äģ
Ä«g a
Ġk at
ie Å¡
ĠviÅĨ a
o f
Äģj as
m a
Ġs ap
g an
f orm
Ġf il
Ġk ar
B et
i tu
Ġie g
l as
es t
Ġizm ant
Ġt am
ĠÅ¡ Ä·
at av
Ġ ot
Äģr d
Ġb r
it Äģt
ĠviÅĨ Å¡
v ien
n i
Ġb Å«t
Ġs as
u d
Ġt el
o v
r akst
ik a
Ä«t ies
n iec
Ġs ar
ei t
Ġb Å«tu
J a
k t
Ġvis u
iÅĨ Å¡
e Å¡
Ġp iem
k Äģr
r am
u Å¡i
ek t
Ġre dz
Ġpr et
ai st
ĠLatv ijas
z Ä«m
am i
p Äĵc
Ġr eiz
p l
Ġpa g
Ġ C
iÅĨ as
Ġc eÄ¼
Ä«t i
r Äģ
i g
Ġ Äģr
ev i
ei g
ie dr
au l
Å¡an ai
v en
Ġv ir
Ġs l
Ä«g as
Ġz em
ar p
Äģd i
ag ad
Ġd aÄ¼
Ġm Äĵs
Ġpr iekÅ¡
ers on
Ġ h
Ġr ad
Ġc en
Ġn Äģk
Äģc iju
Ġb l
ot Äģj
m az
Äĵ Ä£
Ġap m
ak t
n ieg
Ä«g u
Ġ F
ie r
u st
Ä«t s
Ġv eik
Ġt aÄįu
Äģ st
Ġv aj
k Äģrt
Ġk am
at or
in g
Ġpil n
is tr
v ar
ik as
au s
Ġgr ib
Ġgr Äģm
Äĵ st
ĠĠ ĠĠ
r eiz
k u
Ġs ag
aj Äģm
l ab
k a
L ai
T Äģ
ien s
Ġt omÄĵr
k ur
ie dz
Ġvar Äĵtu
Ġd r
Ġsk r
Ġs ak
Ġinter es
Ġnot eik
Ä« d
at Ä«v
j u
o Ä£
ĠÅ¡ Äģd
Ġvien kÄģr
M an
ie tu
Ġ or
P r
am a
Ġs tu
Ġvis s
Ġb al
Ġ Z
Ġes mu
ai m
Äĵt s
Ġin form
isk o
Äģl i
ot s
l Äĵm
Ġk Äģrt
Ġ al
Äĵr am
au n
Ġd ar
Ġ H
Ġm ums
Ä« r
Ġsk at
Ġs a
dz Ä«v
Ġp ak
ei dz
Ġ 5
ĠÅ¡ Ä«
ie z
ĠkÄģd u
Ġs al
Ġnev ar
Äģc ija
o Å¡anas
ai g
V is
T as
rÄ« z
Ġtik a
Â «
Ġt ies
Ġp ad
l v
Ġlab i
Ġ Äģt
Ġ 4
Ġ Ä·
od as
t ies
Ġp erson
o Å¡i
ot ams
s Äĵt
on a
Ä«g Äģ
k ar
Ġv ad
ĠviÅĨ u
Ġm Äĵr
Ġman i
ien u
Ġ Äį
Ġpirm s
l g
oj a
ir d
P ar
Ä«t Äģj
Ġ Ä«st
Ġsap r
ÅĨ a
au j
Äĵd Äĵj
k al
Â »
Ġ iek
in u
ĠmÅ«s u
Ġr ok
et a
Ä«t a
l ai
Ġs ek
Ġst arp
ik s
Ġ O
c er
Ġd rau
Ġkur u
Ġs am
ĠdaÅ¾ Äģd
ej u
Ġp iet
Ġs at
p at
v er
ie Å¡u
Ä« z
t ur
Ġt agad
Ġlab Äģk
Ġs ab
Ġl as
Ġm il
ot u
o st
Å«r as
g r
Ġvien s
Ġpa z
g l
Ġv Äģrd
Ġvalst s
Ġt Äģl
Ġgad Ä«j
Å¾ u
n d
Ġnek Äģ
u z
Ġ iem
Ġsk ol
Ġp ap
ĠtÄģ pÄĵc
og ram
Ġ el
Ġvaj adz
Ġc ik
Äģ z
ai t
Ġat s
m an
Ġl ap
Ġno r
on s
Äģt s
I z
ol oÄ£
Ġvien u
Ġ Ä
k st
Ġi lg
b Å«t
l iet
en c
Ġdarb a
Ġatt iec
Ä«j Äģs
Ġm Äģj
Å¡Ä· ir
Ġlaik u
ĠkÄģd s
Ġst Äģst
Ġtie Å¡i
ij Äģm
Ġ Ä£
Ġp ies
oj as
K Äģ
Ä« l
Ġs iev
Ġjau t
Ġre z
ie Å¾
Å« z
ĠpÄģr st
Ġpl Äģn
Ġno p
Ġ2 0
Ġkur Å¡
oj ot
Ä¼ a
pr iekÅ¡
Ġj eb
Ġie r
Ġpam at
m Äĵr
Ġne at
ion Äģl
ĠÄ«p aÅ¡
n Ä«c
iec ieÅ¡
Äĵj Äģs
isk Äģs
h n
k at
Ġ2 00
Ġliel Äģk
Ġaug st
ien a
âĢ ĵ
Ġap st
ĠâĢ ŀ
oj umu
Ġm aks
an s
iÅĨ Äģ
en d
Ġ Å¾
Ġtur p
Ġv al
Ġ Å«d
Ġi k
or t
Ġneb ija
A t
Ġizv Äĵl
l a
Ġnep iecieÅ¡
Ġ as
on u
p Äģr
Ä«j u
Ġuz ÅĨÄĵm
Äĵt a
Ġpied Äģv
ir g
in Äģm
au c
in iek
oj u
u p
ru p
ie st
Ġ Â«
Ä« tu
Ä«b Äģm
Ġ ac
vÄĵr t
Ġjaut Äģj
ĠgrÄģm at
v is
gad a
r edz
Ġp ol
Ġvair s
n e
Ġb iju
r Äģk
U z
Ġno zÄ«m
isk Äģ
v ald
V ai
un k
ĠLatv ijÄģ
Ġne t
Å« st
P Äĵc
Ġpal Ä«dz
dr oÅ¡
Ġsp Äĵl
Ġpat s
Ġpar Äģd
Ġkop Äģ
n iedz
Ġpr oc
Ġg atav
ĠÅ¡ is
inÄģj a
Ġs aj
Äĵt ies
ÅĨ i
Ġ an
ĠiespÄĵj ams
Ä«g Äģk
i Ä¼
in Äģs
ĠÅ¡ ajÄģ
rau k
au r
A r
Ġv akar
lÄĵ g
Ġk v
ĠvienkÄģr Å¡i
Ġkur Äģ
ĠviÅĨ i
Ġr un
en i
et r
Ġl iek
ej as
ik u
Ġp ÄĵdÄĵj
Ġi d
Äĵj i
Äĵt Äģj
Ġ ab
Ġiz st
Ġie st
ist Äĵm
Äĵ Å¡anas
Ġat p
Ġtel ef
n u
Ġs ad
d ev
Ġc itu
Ġot r
Ġm ar
Å« p
Ġie priekÅ¡
Ġsp Äĵk
Ġpr ogram
Ġgad u
Ġbl og
Ġb rÄ«d
Ġie v
Ġkur as
in d
âĢ ¦
Ġiz p
Ġk al
Ġatt Ä«st
us ies
as ar
Ġatb ild
ep t
Ġtu v
Ġne l
Ġsab iedr
Ġkur a
g u
Äģ tu
Ġd ab
Ġpat Ä«k
m it
Ġvis i
el t
es el
ÅĨem t
en es
Ġvien a
Ġm ed
Ġm Äĵn
l e
g al
P irm
Ġt er
Ġ ad
Ġk Ä¼
k o
g rie
ot a
Ġor gan
Ġpr oj
Ġlaik a
a Å¡i
Ġst Äģv
Ġne iz
Ġte hn
Ġiz skat
il st
l Äģ
od ien
am o
ob lÄĵm
um os
Ġn aud
m e
al iz
Ġb eig
Ġno v
Ġskai dr
Ġt iem
Äĵt i
Ġpil sÄĵt
er i
Ġs evi
Ġuz skat
aj os
od uk
Ġd ev
ak a
Å¡an os
Ġd al
or s
Ġgal ven
Ġs ev
or eiz
Ġstu nd
ij ai
Ġp iek
ĠvÄĵr t
iÅĨ i
Ġned audz
Ġst rÄģd
Äģt Äģ
um am
el n
Ġ1 0
rÄ« s
Äģt i
Äĵj o
âĢ Ķ
Ġpr oblÄĵm
Ġp ir
Ġpr as
Ġs er
am ies
Ġpas Äģk
Ġv Äĵst
c ijas
Ġm at
Ġ :
Äĵj Äģ
an ts
ur s
Ġdien as
Ġne n
Ġat kal
Ġm Äģc
Ġ Äĵd
Ġl auk
l iec
aj am
Ġ1 9
Ġb ij
ĠÅ¡ Ä«s
ob eÅ¾
Å« v
aÅ¡ Ä«n
Ġie d
ĠcilvÄĵk i
niek u
Ġkr Äģs
Äģk u
N o
Ä«g o
Ġsv ar
Ġgad a
Ġv ieg
Ġf in
en tu
Ġs istÄĵm
ru n
Ġre Ä£
Ġm od
Ġiz s
Ġ W
w w
Ġizv eid
er u
m in
ĠA n
Ġne z
Ġno sk
Å¡ as
aul es
Ġpie ej
k s
Ġ 6
Ġs aist
Ġj Å«s
al itÄģt
i pr
Ġpr oduk
ot o
ĠkÄģd a
u g
Ġs ac
in ot
Ġsav as
Ġvis maz
Ġtie Å¡
Ġiz t
Ä¼ i
Ġkur i
âĢĿ ,
o Å¡anu
ot Äģju
h e
Ġs ast
Ġv esel
Ġno rÄģd
t as
Ġg aid
Ġd iez
Ġinter n
k as
ĉ ĉ
Ġ iekÅ¡
Ġbr Ä«v
Äĵj is
Äģl a
Äģl s
Äģd a
Ġsav Äģ
Ġie p
Ġne es
ĠpÄģr is
niec Ä«bas
T Äģp
en er
Äģt a
is am
Ġsp ec
Ġvis iem
Äĵj ot
Äģc a
es mit
Ġg ais
s ar
ĠcilvÄĵk u
Ġl atv
m Äģ
Ġat z
Å¡an Äģ
P at
Ġviet Äģ
Ġrez ult
Ä«j umu
ir op
Ġg rup
Ġkom p
Ġvis pÄģr
p us
v a
Ġm et
Ġb rauc
Ġt rÄ«s
Ġd Äģr
Ä«b ai
Å¡ a
em p
Ġt irg
Ä· i
oj Äģm
Ġvien mÄĵr
Ġmaz Äģk
gad Äģ
n a
Ġreiz i
i f
Ġm Äģjas
Ġp an
Ġak t
Ġizd ev
Ġt ajÄģ
Ġnev is
er a
Ġat kl
Ġpar edz
Ġ 7
en ts
Ġnot iek
lÄĵ p
Ġskai st
g a
Ġgr Å«t
Ġatb alst
Ġ op
Äģk o
oc iÄģl
k Äģ
Ġd ÄĵÄ¼
u Ä¼
ÅĨ as
Ġp Äĵt
ti c
Ġpr iek
Ġproc es
aj Äģs
oj am
Ġveik al
em b
uk Äģrt
V Äĵl
Ġorgan iz
Äģl u
oj ums
il t
ĠviÅĨ am
Ġap s
Ġizd ar
Ġr aÅ¾
it a
Ġm al
dien as
Ġm eit
Ġpiem Äĵram
âĢ ľ
Ġsiev iet
Ġ 8
Ġ am
Ġp ub
Ġnek o
gl Ä«t
Ġb rÄ«
A p
v es
al p
Ä· is
ob rÄ«d
Ġpr otams
pr Äģt
Ġned ÄĵÄ¼
Ġp u
T ur
ĠÅ¡ eit
Äĵt as
ien Äģk
p il
Ġt ev
Ġm Å«z
Ġuz s
Ġb ild
T ad
Ä«j is
ĠĠĠĠ ĠĠĠĠ
Ġgan d
L atv
Ġlaik s
v u
o Å¡ana
ĠE irop
an c
T omÄĵr
N u
Ġv eic
Ä Ģ
Ġcen tr
n Äģk
Ġvis as
it or
ĠÄ«p aÅ¡i
Ġno m
Ġk ol
ej a
Äģt ies
Ġdien u
I r
n Äĵ
ĠÄ£ im
ai dr
Äģm ies
Ġes am
Ġpie vien
Ġs an
Ġpad om
Ġno droÅ¡
Ġc ep
oÅ¡ o
ĠdzÄ«v es
isk a
Ġnoteik ti
isk u
aj ai
niek s
ĠtÄģd s
Ġj Äģp
Å« dz
j a
ai l
Ġproj ek
Ġs itu
on d
t t
Ġpav isam
ie p
ĠI n
Äĵt o
Ġb eidz
Ġz inÄģt
as ti
v eid
Ġdiez gan
Äģ b
od u
Ġpat ies
ĠgadÄ«j umÄģ
Ä«t es
Ġb ieÅ¾
Ġm ain
ie Å¡i
Ġvir s
ĠtÄģd u
Äĵj iem
l Ä«dz
v ai
av as
Ġt os
Ġiz rÄģd
Ġpr of
Ġm ÄĵÄ£
ik t
n as
Ġie l
Äĵ Ä·
K ad
d arb
Ġv ald
ek s
Ġs ol
Äģk Äģ
o Å¡u
am Äģ
Ġd ator
Ġm eÅ¾
Ġvar bÅ«t
t o
Ġpa c
aÄ¼ as
ĠtÄģd a
Ġs nieg
ekt Ä«v
ot as
Ġt eic
Äģj ot
niek i
Ġs ociÄģl
Äģl Äģ
r es
Äĵj as
Ġl Ä«m
Ġm ekl
ĠviÅĨ iem
Äģd as
Ġb ur
ar t
Ġz Ä«m
Ġpas t
ien Äģ
ab al
in Äģju
Äģk a
b aud
Äģk ais
A rÄ«
Äĵ Å¡anu
g Äģd
Ġm Äģks
ĠS t
Ġpak alp
Ġpie c
Ġv ied
et i
ai c
l is
Ġap skat
Ġpas au
Ġv Ä«
Äģr a
on om
âĢĿ .
Ġt Ä«k
Ġv il
ĠÅ¡Ä· iet
Ġz v
Ġgand rÄ«z
Ġdarb u
ĠR Ä«gas
ÅĨ iem
Ġpap ild
ol u
on Äģ
Ġmin Å«t
ĠviÅĨ as
ti v
Ġ1 5
J Äģ
Ġdz im
g s
ĠtÄģl Äģk
Ġc aur
ek tr
or ta
st r
Ġpied al
Ġlaik am
v iet
T aÄįu
Ġf orm
am as
ar s
Ġie dzÄ«v
Äģd u
Ġnos auk
ur u
Ġj Äģs
Ġtik s
Ġkon kur
Ġizst rÄģd
ĠdaÄ¼ a
l iek
Ġsv Äĵt
Ġg l
Ġgad iem
a Ä£
om Äģ
l o
Ġliet as
ak aÄ¼
Ġnot ik
Ä¼ iem
Ġkl Äģt
I n
un d
ĠmÄģj Äģs
inÄģ tu
Ä« Å¡u
iÅĨ iem
Ġpa Å¡u
Å¡ Äģ
isk s
Ġi t
Ġskr Äĵj
l Å«k
el i
ĠÅ«d ens
ĠtieÅ¡ Äģm
Å«t a
Ġat m
uÅ¡ ies
ĠÅ¡ odien
Ġek sp
Ġvar i
Ġpirm o
Ġpub l
grie z
inÄģ Å¡anas
oj uma
Ġ Åł
S av
S t
Ġ 9
or d
Äģr i
t iem
Ġ ob
Ġz inÄģm
c iju
r e
Å«r a
Ġ U
Ġdal Ä«b
an ti
Ġspec iÄģl
st u
Ä«g ais
ĠiespÄĵj as
Äĵ v
ĠpÄģrst Äģv
uÅ¡ as
Ġat v
inÄģt s
ĠtÄģ pat
Ä«g Äģs
Ġ20 1
T ik
Ġl id
V iÅĨÅ¡
ĠÅ¡ im
Å¾ Äĵl
Ġatr ad
Ġie rakst
Ġiz c
alst s
m ai
Ġp ab
Ġr Ä«k
er iÄģl
ĠcilvÄĵk iem
Ġv el
Ġkat ru
Ġman u
Ġpiem Äĵr
a f
Ġs im
b ild
in c
Ġpie redz
k i
Ġmaz liet
Ä«t e
Ġat Å¡Ä·ir
Ġpol it
Å«k st
ĠpÄģr s
b rauc
Ä ª
Ġie rÄ«
Ä« Å¡anas
ap r
Ġ e
Ġm ir
Ġgad us
Ġnor m
Ġatb ilst
ĠiespÄĵj u
Å¾ as
Ġs en
Ġat st
Ġkom and
Ġuz t
Ġp ul
Ġne maz
Ġiz glÄ«t
Å« l
inÄģj ums
Ġatp akaÄ¼
Ġ 0
ĠpÄģr d
ĠiespÄĵj a
Ġ Ä«s
rÄģ f
s i
o w
Ġne m
kl Äģt
Ġes ot
Å¾ i
Ġmin istr
Äĵj am
Ġatr ast
Ġnek as
Ġj ums
Ġgar Å¡
Ġv Ä«r
Ġcit iem
Äĵj os
or a
Ġno st
Äģj Äģm
Ġr is
g ul
Ġnel iel
Ġizmant ot
Ġap r
ĠkÄģd Äģ
Ġ ag
Äĵj s
P ie
e o
od Äģ
r s
Ġno z
ĠpaÅ¡ vald
ĠEirop as
p as
Ġv ietu
ob il
otÄģj i
og rÄģf
Ġtehn oloÄ£
k Äģp
Ġsl im
Å¾ a
Ġel ektr
Ġ: )
Ä«t as
Ġviet as
Äĵj umu
pr ojÄģm
Ġ av
ĠreÄ£ istr
Ġt eikt
r os
Ġdr oÅ¡
ĠpÄģr Äģk
Ġm Ä«
ĠkÄģ pÄĵc
Ġpr ec
L Ä«dz
Ġg abal
Ä¼ aut
s im
Ġt ais
V ien
og u
en ti
rau dz
Ġmil j
Ġtr eÅ¡
Ġsa ÅĨem
m es
l s
Ä¼ us
ĠbÄĵrn u
Ġaut o
Ġstu d
Ġvien Äģ
Ġnot eikt
ĠÅ¡ obrÄ«d
ak u
m i
tu ven
ij s
Ġs lik
Ġd ok
Ä«j ums
Ġd od
al t
ik Äģ
Äĵj Äģm
Ġkon kr
ur a
v as
Äģd es
Ġ of
ar a
ak ts
Ġm as
Å« ru
Ä«tÄģj s
Ġapm ekl
Ġv ies
Ġdien Äģ
Ġk Ä¼u
Pr otams
Ġfil mas
ĠÄģt ri
Ġdiv as
Ġsam az
Äĵ Å¡ana
Ġb an
Ä«j uma
Ġmar at
Ġl Äĵm
k op
Ġs aim
Ġk ult
rau kt
Ġap kÄģrt
ĠnÄģk am
ĠcilvÄĵk s
Äģr u
Ġiet ek
ĠÄ«st i
Ġf or
Ġs ald
Å« n
Ġdz ies
k an
Ä«s ies
Ġbij is
r Äģn
Ġp op
Ġpie ÅĨem
Ġf ot
en Ä«
z em
Ġpr ez
r o
" ,
v id
Äģt ad
Ġka b
Ġkl as
Ġdar Ä«t
Ġnek ad
Ġ Äĵr
Ġp oz
Ġsal Ä«dz
ur n
ek lÄĵ
ul d
Ġpar eiz
ol a
ĠbieÅ¾ i
Ġs ird
ol as
aid Äģm
" .
Ġv asar
ĠlÄ«dz ek
Ġm Ä«l
et s
Ġk or
st a
Ġnod arb
tuven i
Ġvir z
ĠK r
Ġuz man
Ġpas aules
p a
Ġpl at
ij Äģs
ĠpÄģr liec
pr as
Ġkur iem
Ġd at
lai k
otÄģj iem
en e
Ġes i
Ġprof es
Ġpie aug
Ġdz ird
Ġpar t
Ġvar u
og ad
in i
ĠvÄĵl Äģk
Å¡ os
Ġdrau g
Ġv ers
Ġtr en
Ä¼ auj
t e
u v
oj Äģs
c om
Ġap lik
Ġkon tr
Äĵt Äģ
or u
evi Å¡Ä·
Ġin d
, "
N e
Ġr es
Äģl o
ar d
ĠkÄģd as
b er
in s
Ġt Äģm
Ġp ut
inÄģj umu
Ġin st
Ġpiet iek
Ġpasau lÄĵ
c ija
Ġjaun u
Äģj Äģs
Ġreiz es
Ġjo projÄģm
Ġ1 00
om Äģt
Ġpat i
ald ies
ĠlÄ«dz i
v iel
iÅĨ Äģm
an ta
Äĵ dz
en ta
Ġkam Äĵr
p u
am u
Ġg ul
iÅĨ us
Ġz iem
c eÄ¼
Ġies p
Äĵj ums
Ġaiz sar
K as
Ġop er
Ġsak a
Ġat cer
Ġsav a
sm es
ter n
ĠgrÄģm atu
Ġnees mu
Ġsar akst
i a
i o
Ġmat eriÄģl
Ġiz las
ĠpÄģr t
niek iem
Äĵ Ä¼u
rau j
aÄ¼ u
dien u
Äģr s
Ġiz r
Ġc er
Å«t as
Ġz aud
Ġ1 2
Ġpav ad
itÄģt es
ĠmÄĵn eÅ¡
m ir
Ġ ÅĨem
ĠAn dr
p ants
Ġdok um
Ġsast Äģv
ĠdÄģr z
Ġsac ens
T agad
om u
ĠgrÄģmat as
Ä«t o
Ġsar un
TÄģp Äĵc
Ġpiln Ä«gi
r ad
Ġs akar
aÄ¼ a
p ar
ĠjÄģ bÅ«t
Ġter itor
Ġt ai
m ar
at a
aÄ¼ Äģ
Ġjeb kur
s u
Ġvis ai
Ġman a
rie v
Äģd s
Ġr ekl
Äģk Äģs
Ġek onom
ĠÄģt r
Ġt eik
Ġap j
Ġieg Äģd
m al
Äģm as
ĠD Å¾
Ġmil z
lÄĵ dz
V iÅĨa
Ġ3 0
Ġintern eta
Ġt aut
Ġpop ul
ĠvÄĵst ur
Ġap tuveni
Ġre Å¾
Ġiz l
I es
Ġdarb iniek
Ġiem es
Ġm aÅ¡Ä«n
Ġpar asti
Ġno vÄĵr
o Å¡anai
er is
Ġg ai
Ġlatv ieÅ¡u
G r
Ġpaz iÅĨ
Ġpa Å¡i
Ġuz dev
Ġakt Ä«v
inÄģt i
ĠspÄĵk Äģ
m s
Ġp el
Ġie vÄĵr
b r
Ġsav iem
Ġl Ä«g
Ġb Å«v
Ġne g
v Äĵt
Ġkl ien
et Äģ
Ġkv alitÄģt
au st
Ġizp ild
on i
Ġsav us
gr ib
ĠierÄ« c
Ġm obil
Ġizskat Äģs
Ġf unk
au z
Ġvaj ag
ww w
e ÅĨu
ĠnozÄ«m Äĵ
M Äĵs
ener Ä£
Äģc ijÄģ
oÅ¡ Äģ
Ġs Äĵd
inc ip
Ġk il
en is
Ġuz v
ÅĨ Äģ
Äĵt os
ĠpilsÄĵt as
Ġk ap
k m
Äģj is
od a
aks as
S V
Ġek rÄģn
Ġt Äĵm
Ġbeig Äģs
on e
Ġlab u
Ġfil mu
J o
t Äģl
Ġredz Äĵt
iem Äĵram
Ġr obeÅ¾
Ġinform Äģcijas
Ġvieg li
Ġt ek
arb Å«t
ĠÅ¡Äģd u
oÅ¡ a
Ġneb Å«s
oj is
Ä«n a
ĠgrÅ«t i
Ġc iet
Ġpl aÅ¡
av u
o Å¡anÄģs
an a
Ġm Ä«k
Ä«t Äģ
ir k
Ġuz z
Ġapst Äģk
ĠpÄģr baud
ter es
Ġ aud
ĠpÄģr i
Ġman s
is ti
Ġvar Äĵja
s s
er t
Ġb ar
Ġats eviÅ¡Ä·
eÄ¼ u
Ä· u
isk as
Ġgal Äģ
Ġnev iens
Ġd esmit
it Ä«v
Ġpal iel
Ġkom ent
ĠvÄĵr Äģ
Ġsag atav
ĠviÅĨ ai
Ġnep at
Ġliel a
Ġnes pÄĵj
Ġuz reiz
Ġvar Äĵs
Ġinform Äģciju
ĠbÄĵrn iem
Ġc ent
ĠkÄģ p
inÄģt a
Ġz iÅĨÄģ
ru kt
ac ionÄģl
Ġvis us
ĠÄģr Äģ
et es
Ġsp Äĵj
is tu
Ġs auc
Ġilg i
Ġnop iet
Ġiz b
Äģd Äģ
Äĵ z
Ġneb Å«tu
Ġne grib
Ġf r
Äģk i
Ġdrau dz
L ab
oÅ¡ s
P Äģr
Ġliel u
Ġatr odas
Ġgr oz
Ġd rÄ«z
Ġpus es
g un
Ġveid Äģ
Ġkontr ol
om as
ĠA p
ĠsÄģk umÄģ
Ġiz pl
o og
Ġne ap
ir dz
Ġsas nieg
Ġveik sm
Ġpal iek
L iel
ÅĨ us
Ġap g
Ġap rakst
Ġp ort
Ġne r
Ġt ic
Ġcit i
Ġs ec
Latv ijas
l Ä«
n is
Ġnev aj
Ġg lu
ĠÅ¡ oreiz
2 0
Ġcit as
ÄĵtÄģj s
ru k
ĠM ar
Ġkon s
Ġt ap
Ġre gul
Ġatt Äĵl
Ġp ienÄģk
ĠbrÄ«d Ä«
t aut
Ġuz tur
Äĵj usi
Ġno k
ĠÅ¡ Äģ
Ġpil s
otÄģj s
00 0
st s
Ġno l
Ġak tu
Ġpol ic
Ä«b Äģs
Äĵju Å¡i
er at
Ġt emp
Ä«t Äģju
Ġkon st
ĠnepiecieÅ¡ ams
Ġzem es
Äĵ Å¡anÄģs
ĠÄį etr
Ġ em
ĠÄ· er
Ä« Å¡anu
es s
Ġg ald
Ġ aic
Ġm eln
Å« g
Ġf iz
ĠdaÄ¼ u
Ġl iec
K at
Äģc is
Ġvid eo
Ġr Äģd
isk ais
ud Å¾
T e
Sav ukÄģrt
Ġaut or
Ä«j umiem
Ġdarb Ä«bas
Ġiep az
Ġp unk
Ġsa ÅĨÄĵm
Ġl Äĵn
Ġbeidz ot
iem Å¾Äĵl
rÄ« kst
t us
T o
Ġd i
Ä«t os
Ġvied ok
Ġd ep
Ġpr iec
Ġap t
ĠpÄģr vald
Ġob j
Ġz Äģl
Ġr aj
Ġuz lab
Ġpirm Äģ
n s
Ġkr it
st ab
m Äģm
ĠnedÄĵÄ¼ as
ar u
Ġ w
g as
Ġlab s
Ä«j usi
ĠA r
e Å¡u
n o
Ġs lÄĵp
Ġd ur
av a
1 0
j aun
Ġm ier
Ġst r
ak us
Ġ audz
Ġz iÅĨ
Ġk u
el es
ĠminÅ«t es
ob us
ĠA l
Ġsm ag
Ġser vis
Ġst at
ais a
Ġm Å«
Ġuz st
Ġz ied
Äģju Å¡
Ġsag lab
Ġsk rie
Ġin t
nÄ«c as
ĠvÄ« rie
Äĵj ais
Åł Ä«
Ġd isk
Ġuz var
ĠsÄģk a
Ġiz kl
Ġ2 5
Ġvar am
ĠÅ¾ urn
Ġl at
l es
ain a
Ġap z
J au
/ /
c en
Ġu p
TÄģp at
ĠkÄ¼ Å«st
oog le
ie ru
Ġvis a
c ep
V arbÅ«t
Ġ1 8
Ġv eikt
an tu
Ġuz rakst
Ġl og
Ä«j os
ĠB r
as s
Ġm am
Äģk t
Ġkl aus
Ġc uk
D z
Ġp os
Ġr Ä«ta
v ad
Äģj am
Ġs u
Ġdiv i
Ġk ust
ej Äģ
Ġliel s
Ġdom Äģju
K o
Ġs ilt
Ġliet ot
ĠpriekÅ¡ Äģ
k am
c h
ĠÄ¼ auj
K op
Ġkon t
Ġsav ukÄģrt
Ġstund as
ok s
Äģn is
Ä« Å¡ana
ent iem
Ġsad arb
S k
Ġs Ä«k
ist ru
ieÅ¡ Äģm
Ġviet a
tt p
Ġrakst ur
Ġl atu
ĠdzÄ«v i
d esmit
ĠP r
et ur
Ġtik t
Ġfil ma
Ġl ietu
an sp
Äģn u
: //
ĠpaÅ¡ Äģ
Ġnaud as
Ġpam an
in o
ĠtÄģd ÄĵÄ¼
ien i
lik t
Ġp usi
Ġi stab
Ġvir tu
Äģk as
rau d
Ġno lÄĵm
aid a
inÄģ Å¡anu
Ġ5 0
ar i
ĠceÄ¼ u
Ġatr od
Äĵr s
ek tu
Ġnaud u
ĠmÄ« Ä¼
Ġ ef
ĠtÄģd as
Äĵt Äģju
Åł is
p ild
Ġties Ä«bas
Ġm e
om Äģju
Ġteic a
Ġlap as
Ġpie dzÄ«v
P ag
Ä«j uÅ¡i
a ÅĨ
Äĵj uma
iet is
O tr
st i
en a
Ġpirm ais
Ġst il
Ġst ipr
Ġkon f
Ġlik uma
ĠstÄģst a
Ġr Å«p
niek a
ĠproblÄĵm as
um b
Ġiesp aid
Ġkl us
ĠA SV
Ġdarb s
Ġkar t
Ġu gun
ĠnÄģk ot
r as
Ġb ag
Ġt ip
Ġpast Äģv
Ġno g
dien Äģ
Ġkil om
st Äģv
b ilst
Ġ Äĵk
em on
Pirm s
Ġj Å«t
ot Äģ
Ä«j umi
Ġg od
am p
Ġieg Å«t
ien am
Ġsp orta
Ġ .
Ġkomp Äģn
rie z
ĠV alsts
Ġnod er
K aut
v Äĵl
Ġk ru
ĠK riev
ĠÅ¡ os
Ġkom is
Ä«t Äģja
Ġek s
Ġtr ad
i Å¡
Äĵj ie
Ġkr iev
ĠÄģt rÄģk
Ġdr oÅ¡i
: )
Ġf akt
ĠÅ¡ au
ĠR Ä«gÄģ
Ä«n u
Ġd atu
Ġgalven ais
ĠbÄĵrn i
Ġno b
Äģn a
ad a
Ä«t is
ĠpÄĵdÄĵj Äģ
is ma
Ġvid Å«
e Ä£
k ait
âĢ Ļ
oj umus
P as
Ä« Å¡anÄģs
Ġdien a
in t
ĠÅ¡ ogad
Ġn um
Ġs Äģp
lai c
s a
Ġk m
ĠjÄģ iz
ĠizglÄ«t Ä«bas
Äĵt Äģs
Ġuz b
Ġpr incip
Ġsv aig
Å« c
Ġnosk r
ĠĠĠĠĠĠĠĠ ĠĠĠĠĠĠĠĠ
g Äģ
ĠmÄģks l
Äĵj Äģdi
Ġ1 1
l im
oÅ¡ Äģs
Ġbl akus
Ġb iez
Ġkv al
Ġ auk
Ġuzskat a
Ġb udÅ¾
ĠkÄģd am
Ġnod ok
Ġietek m
n ot
dien Äģs
Ġskai ts
v il
Äģl Äģs
Ġpakalp ojumu
Ġrok as
a ei
Ġd eg
Ġd ir
ĠdzÄ«v ok
Å ħ
Ġpirm ajÄģ
v alst
Ä«j ies
Ġam at
on as
n oz
Ġcit s
Ġsabiedr Ä«bas
ĠiekÅ¡ Äģ
el s
un g
Ġb iedr
min istr
Ġd eb
Ġkop Å¡
Ġm uz
ĠV al
Ġs niedz
Ġka f
Äĵr b
Ġm ais
ĠmÄĵn es
ĠÅ¡Äģd a
Ġskaidr s
G al
ĠÄ«st en
Ġat griez
iet ies
N av
Ġt Å«kst
ĠattÄ«st Ä«bas
N ek
Ġs aul
P iemÄĵram
Äĵ Å¡anai
er as
Ġr ind
inÄģt ies
ĠcilvÄĵk a
P a
Ä Ĵ
Ġapst ipr
Ġaizsar dz
Ġd Äģv
Ġpat Äĵr
Äģn s
Ġaut om
n Ä«
Ġskr iet
ĠÅ¡ ie
Äĵr a
ĠmÄģc Ä«bu
Ġat kar
Ġpr iv
Ġval odÄģ
T r
Ġgar Äģm
Ġ aÄ£
A iz
ĠvÄģrd u
ĠP ar
Ġjaun o
Ġpoz itÄ«v
Ġac Ä«m
Ġier obeÅ¾
o ok
ĠÄ Į
Ġmet od
as tu
Ġglu Å¾i
ai r
Ġaiz mir
ĠpÄģrst eig
Ġs ept
Ġ1 6
Ġtr ansp
Ġliek as
Å«s u
ĠpalÄ«dz Ä«bu
Ġeksp er
Ġ enerÄ£
Ġskai t
Ġ Un
T Äģtad
Ġst ar
Ġdom Äģ
V ar
av Äģ
ĠS p
ĠnepiecieÅ¡ am
m et
am b
Ġfin ans
Äĵr Äģ
Ġie las
Å ½
Ġpr om
ien as
ĠdzÄ«v Äĵ
Ġc au
Ġiest Äģd
Ġst and
emb rÄ«
A R
Ġpie Å¡Ä·ir
ĠS k
ĠM in
ĠZ iem
Ġd iz
Ġin f
Ġsar kan
Ġkult Å«ras
_ _
T u
Ġn Äĵ
Ġsird s
Ġno vÄĵrt
Ġinteres ant
Ġb ir
Ġsv iest
ĠpiedÄģv Äģ
l ap
iÅĨ os
ĠjÄģ at
Ġar vien
Ġj Äģm
j i
om a
Ġlas Ä«t
Ġne uz
oj umi
ist anc
Åł odien
Äģm a
Ä«g iem
3 0
J aun
Ġpie pras
Ġgad Äģ
ow s
iz nes
Ġizmant o
o id
Ġt evi
ĠmÅ«z ikas
ĠsÄģk ot
Ä »
Ġ ienÄģk
Ġiz g
Ġot ru
ĠvienkÄģr Å¡
uÅ¡ Äģs
on is
Ġapm Äĵram
Ġgad os
Ġs Äĵr
oj umiem
w it
si h
Ġvakar Äģ
Ġinst it
m at
Ġp eri
Ġman Äģ
Ä¼ os
Ġnot ika
Ġtelef onu
T he
Ġm ug
Ġpat eic
ĠdaÅ¾Äģd u
Ġk an
om Äģj
Ġnes apr
Ġrakst a
Ġlab a
Äģp Äĵc
itÄģt i
ir z
Ġkon cer
T A
Ġg u
Ġkur us
ĠkÄģrt Ä«bÄģ
iÅĨ am
m Äģk
Ġt Ä«
ak Å¡
pil s
Ġies aist
Ġvieg l
Ġt irdz
Ġak tiv
Ġr it
Ġsas ka
e is
Ġat jaun
ot os
Ġsp Äĵc
il s
sk r
ĠpaÅ¡ am
t el
Ġaiz d
Ġpag aidÄģm
Ġnop ir
Ġl ed
Ġkab in
Ġpr akt
Ġdz ied
Ġj Äģn
Äĵn u
Ä«tÄģj iem
ĠstrÄģd Äģ
Ġaut obus
Ġies nieg
S p
Ä«tÄģj i
Ġl it
Ġne j
ĠB alt
an u
Ġap vien
Ġrok u
Ġprez id
Ġv Äģr
Ġnos aka
Ġt Å«r
ĠjautÄģj umu
ĠL s
Ġpat ieÅ¡Äģm
S Äģk
Ġkat rs
Ġdz Äĵr
ĠsistÄĵm as
as ta
Ġvien as
Ġpubl ic
es ta
ĠkÄ¼ Å«d
s aim
Ġvis Äģm
ĠÄ£im enes
b ol
Ġtirg us
i Ä£
Ġstarp taut
Ġperson as
5 0
Ġ1 4
ĠiedzÄ«v otÄģju
Ġst Äģjas
Ä¼ au
Ġpas tÄģ
Ġsan Äģk
I S
Ġs il
Äģt o
isk ajÄģ
ĠF r
Ġsaj Å«ta
Ġb aud
N ev
Ġpad ar
Ġpiem in
ĠpiedÄģv Äģj
ĠmÄĵr Ä·
Ġ [
p irm
el is
wit ter
Ġizt eik
Ġem oc
ain i
el g
Ġvajadz Äĵtu
ĠvairÄģk as
Ġsm ar
tu p
ind ows
Ġizpl at
Ġdz iÄ¼
er v
Äģm i
ok u
c is
Ġt um
Ġcit a
ĠvÄĵl as
o Å¡anÄģ
Ġd istanc
en u
Äģt iem
Ġpapild us
ic iÄģl
Ġinform Äģcija
Ġat gÄģd
Ġu tt
Es mu
Ġnep ar
Ġ ĉĉ
Ġap d
ĠstÄģv ok
n Äģ
auk t
Ġpaties Ä«bÄģ
ĠnorÄģd a
Äģz es
os ies
ĠbrÄ«d i
Ġres urs
Ġi P
Ġkur Äģm
Ġsapr ot
Ġ ol
Ġd Å¾
Ġc iem
Ġkr iet
Ġr ud
Ġpr ot
Ä«j umÄģ
D aÅ¾
Ġz aÄ¼
c ept
ie ra
ĠÅ¡ iem
Ġter m
ab il
Ġat l
Ġpaz Ä«st
K ur
Ġman as
ĠtÄģd i
Å« Å¡u
Ġpied er
Ġre d
Ġdarb ojas
ĠG oogle
k et
Ġsk atu
Ġs ez
eÅ¾ Ä£
l og
Ġn akt
Äĵ b
lu d
Ġman is
Ġbild es
Ġcit Äģm
al l
iv ers
ent us
Ġliet a
Ġtel ev
Å¡ iem
al a
us sk
tÄģ tu
Ġrezult ÄģtÄģ
Ġpir kst
Ġno skat
Ġkom pl
Ġfot ogrÄģf
e ÅĨ
ĠL iel
ej s
Ġbij usi
ar k
Ġsieviet es
Ġcau ri
K am
Ġc etur
enc e
enc es
ĠjautÄģj ums
ak ti
Ġm Äģt
Ġpirm Äģs
lik umu
ust r
ĠjÅ«s u
in Äģl
el e
Ġs eg
Ġpav asar
ĠdzÄ«v o
Ġt Äĵl
Ġn akts
Ġv iz
Ġar h
Ġsat ik
Ġ1 7
ĠT V
oÅ¡ as
Äĵr k
Åł ajÄģ
ip l
I E
j Äģ
Ġvis Äģ
Ġdraug iem
Ġan al
Ġi m
, âĢĿ
Ġvad Ä«tÄģjs
Ġcen u
Ġj Äģd
Ġpus Äĵ
ĠÄ Ģ
s ies
uÅ¡ o
Vis s
er c
Ġot rÄģ
Ġprogram mas
Ġdaudz i
e tu
Äĵk Å¡
Ġliel Äģ
Äģc Äģs
Ġ1 3
ĠmÄĵr Ä·is
Äģm s
ĠpaÅ¡ a
Tik ai
Äĵ Å¡u
r Ä«v
in oÅ¡i
ĠbrÄ« n
Ġdar a
Ġtuv Äģk
oc i
Ġ19 9
Äĵ g
Ġgal vas
a y
inÄģ Å¡ana
Ġinteres anti
Ġp sih
Ġap liec
Ġdab as
oj oties
Ġtr Å«k
T Äģd
an Å¡u
is ts
Ä«s im
Ġd oties
ek ts
Ġko pÄĵj
Ġp ild
ien es
oj usi
Ġad res
Tur klÄģt
ĠdaÄ¼ Äģ
p erson
Ġbal s
gal v
K r
Ġ ei
Ies pÄĵj
Ġd Ä«v
ĠaÄ£ ent
ast o
Ġnet iek
o u
m ant
Ġpas kat
Ġap b
âĢ ŀ
Ġs az
Ġjaun a
Ġac is
V akar
Ġin v
ĠpaÅ¡ as
Ġsp rie
Ġs ul
Ä«j Äģm
Ä«c ijas
oj uÅ¡i
Ä« ra
at s
ĠgrÄģmat a
Ġt Äĵr
ĠtÄģd Äģ
Ġpietiek ami
Ġt uk
Ġl oc
Ġre aliz
Ġsapr ast
Ġs Äĵ
ĠS aei
Ġrakst u
Ġat vÄĵr
Ġaiz l
Ġm Äģju
Ġb i
Äį a
ĠMin istru
ĠÅ¡ Äģdi
ic is
ĠdaÅ¾ as
Ġskol as
o dz
ĠÅ¡ ai
Ġdom Äģt
v Äģ
Ġm aiz
it atÄ«v
Ġ ok
Ġ ,
s Äĵd
Ä«g ie
Ġz iÅĨu
Ġkur am
up er
Ġpat ika
Ġval odas
Ġne redz
Ġliec ina
Ġp ip
Ġkom un
Ġnez inu
al s
os m
Ġno nÄģk
ĠAndr oid
Ġad ministr
ĠÅ«d eni
an v
on iem
Ġsa ÅĨemt
Äģt us
ast Äģ
Ġr Ä«c
Ġlik Äģs
Ġpiek r
i Ä·
Ġaiz s
on us
Ġiz pr
mar at
Ġlai m
Ġuzman Ä«bu
Ġsav ien
Ġizm ai
Ġliet Äģm
Ġp ens
ĠÄģr pus
Ġpiln Ä«bÄģ
ej ot
ai k
at Äģ
I A
Äģc ijai
Ġgrup as
dien a
Ġskr ien
Ġkr ed
Ġsvar Ä«gi
Ġt rauc
Ġm ot
Å«r Äģ
Ġizmant ojot
Ġd Äĵl
Ġpal ik
Ġbal t
ĠdaÅ¾Äģd as
Ġsav Äģm
Äģv a
Ġsar eÅ¾Ä£
Ġk Äģr
Ġv Äģc
V iÅĨi
Ġb iznes
kr ien
ĠmÄ«l est
Ġb rauk
Ġf ant
h one
Ġid e
Ġtik pat
j as
Ġm on
K ÄģpÄĵc
e il
Ġpie vÄĵr
Ġiz j
ĠkÄģd i
ĠÄ ¶
Ġd er
am Äģs
Ġtur klÄģt
Ġcit Äģdi
ÄĵtÄģj i
au p
ra f
v i
oj umÄģ
v eik
or e
ĠreÅ¾ Ä«m
Ġprec Ä«z
Ġm ai
inÄģj uma
Ġind iv
Ġproduk tu
P ÄĵdÄĵj
ĠT u
P l
Ġto p
oÅ¡ ais
ĠdaÅ¾ i
ĠÄģr st
i Å¾
ain s
Ġ X
Ġpr og
ĠI z
l aus
Ä«j umus
Ġnosk aidr
Ġkol ÄĵÄ£
Ġveid a
Ġprofes ionÄģl
ĠvÄĵr ts
Ġjaun as
Ġlik t
r Äģt
Ġvil c
Ġveid ot
s ol
Ġprojek tu
Ġiz sk
Ġpat eikt
Äĵj ies
Ġte or
ĠpastÄģ st
a h
Ġgan a
k aidr
ien iem
ĠÅ¡Ä· ir
Ġstund u
a Å¡u
Ġned rÄ«kst
Ġkonst at
ac eb
Ġz inu
Ġno gal
Å«t i
Ä£ Äĵrb
Ġpie rÄģd
Ġs um
Ġdiv iem
Ġv elt
in k
Ġb iÄ¼
st Äģ
ĠW indows
ÅĨem ot
Ġjaun s
ĠsÄģk u
ĠdaÄ¼ as
as ts
Ġlap u
P aldies
am ais
et ru
Ġkop umÄģ
Ġgrib u
Ġs mu
Ġdarb Äģ
Ġnepat Ä«k
ĠtehnoloÄ£ iju
Ġat d
Ġie b
Ġal b
Ġveid o
Ġat sk
ik Äģcijas
m aÅ¡Ä«n
A S
oÅ¡ iem
Ġkat ra
ĠceÄ¼ a
ĠdroÅ¡ Ä«bas
Ġk ÄģjÄģm
Ġj Å«ras
Ġie c
Ġkat ram
ĠIn tern
A n
N Äģk
oj os
Ġviet Äģs
Ä«n e
ĠE l
Ġizdar Ä«t
Äĵt ais
ĠpÄĵdÄĵj o
ĠmÅ« Å¾
Äģk iem
sm i
pl e
en Äĵm
li g
Ġtel p
Ġst ac
Ġkl ub
of t
aceb ook
Äĵju Å¡
Ġag rÄģk
Ġvirz ienÄģ
Ġdom as
Ġz il
ĠE S
ÅĨÄĵm a
ĠdÄģr g
Ġnot iks
Ġpriek s
St arp
v ed
Ġie raudz
inÄģ Å¡anai
Ġiz tur
ĠzinÄģm s
Ġ Äĵst
Ġk ait
Ġst rukt
Ġlap Äģ
Ġpievien o
ÄĵkÅ¡ ÅĨi
ov s
ol i
Ġdarb Ä«bu
ain u
Ġrun Äģt
aks Äģ
Ġc ien
Ġ ez
Ä« Å¡anai
Ġap droÅ¡
Ġz iÅĨas
Ġvesel Ä«bas
Ġm eklÄĵ
ĠlÄĵm umu
Ġne dz
ĠpriekÅ¡ sÄĵd
Äģju Å¡i
Ġ4 0
T ie
om ent
viel as
Ġku Ä£
Ġ eÄ¼
ien t
Ġf oto
ĠS av
Ä«g Äģm
ĠbÄĵrn a
Ġuz d
ĠpasÄģk umu
oj ies
Ġiet var
Ġkriet ni
inÄģj Äģs
Ġiek Äģrt
Ġne aiz
Ä«g us
Ġrakst Ä«t
ĠstrÄģd Äģt
Ġaiz g
vai rÄģk
Ġc Ä«
c ijÄģ
Ġn Äģv
' '
Äģc ijÄģm
rÄ« n
i dr
Ġmaks Äģ
ĠsistÄĵm u
Å¡ ot
Ġties Ä«bu
s l
Ġvien Ä«gi
ĠstÄģst s
ko h
ĠmÄģks las
Ġl eju
ĠpaÅ¡vald Ä«bas
il p
Ġtelef ona
or i
Ġsk an
Ġr ot
Ġuz tic
Ġsm aid
ĠL at
Ġelektr on
Ġ2 1
itÄģt e
T ies
ak as
Ġatt Äģl
Ġrekl Äģmas
Ġd et
ist iem
ĠlielÄģk Äģ
Ġsad al
Ġpiet eik
lÄģ b
Ġr Ä«t
Ġz iv
ĠspÄĵl es
Ġnoz ar
pirm s
u c
ĠpÄģr kÄģp
ok a
Ġuzst Äģd
P aÅ¡
Ġof iciÄģl
N Äĵ
ol s
ul is
Ġned ÄĵÄ¼u
ass vÄĵt
ing a
Ġpriek Å¡u
Ġat kÄģrt
Ġm el
D audz
el ta
r im
ĠD iev
Ġproj ekt
v Äģrd
ek Ä¼a
Ġnevar u
Ġl Å«k
Ġatz Ä«st
Å«dz u
nÄ«c Äģ
p ad
ĠI g
Ġstand ar
e ÅĨa
Ġg Äģj
Ġtr as
Ġjaun Äģ
Ġ 000
ĠkÄ¼u va
M az
ul i
ĠkÄģd reiz
Ġk Äģjas
isk ie
od s
Ġcen as
T Äģs
Ġt he
al Ä«dz
Ġr ek
il g
Ġb az
un kt
o x
us ku
ĠÄ¼ aun
aig z
Ġ ep
Ä«t Äĵm
og a
Ġnorm atÄ«v
Ġrun Äģ
ik l
Ġj Äģr
Ġnos lÄĵg
Ġmekl Äĵt
ĠbÄĵrn s
Ġel em
Ġmug ur
Ġat lik
Ġsak ot
kr Äģs
ĠizrÄģd Äģs
k iem
T ieÅ¡i
Ġk ino
Ġpl an
Ġp ien
Ġ a
Ġd ef
Å¡Ä· i
Ġpus marat
Ġkriev u
IespÄĵj ams
ĠÅ¡Äģd as
Ġier ad
Ġcit us
e h
Ġb ijÄģm
Ġs eÅ¡
inÄģj umi
Ä«n s
Ġskat Ä«ties
Ġizveid ot
Ä» oti
t os
Ġp er
Ġuz ÅĨem
Ġprogram mu
ĠcilvÄĵk us
in is
Ġdz elt
ĠdzÄ«v e
Ġp ot
Ġv iel
sm e
Ġugun s
Ġsapr atu
er e
emp ion
Ġb raukt
sm it
at as
il l
Ġnes en
Äģk ie
Ġat zÄ«m
Ġdiv us
Ä«n as
ĠproblÄĵm u
Ġnevaj adz
Ġgal vu
Ġsan Äģca
Ġm Äģs
Å« m
Ġieg uld
Ġpopul Äģr
ĠL iep
ĠmÄĵr c
ieÅ¡ iem
Ġvad Ä«tÄģja
Äģ Å¾u
Ġs aus
Å¾ iem
ĠÅ¡Ä· ita
Ġgrib as
Ġmaks as
Ġvied tÄģl
Ġ Äģb
ir s
Ġst rauj
oÅ¡ os
Ġfil m
Ġj ur
Ġneat kar
Ġte Äģt
Ġpel d
Ġp ud
ĠvÄĵl reiz
Ġpak Äģp
Ġno n
Äģn i
ĠizvÄĵl Äĵties
Ġintern etÄģ
Ġj omÄģ
Ġpr ÄģtÄģ
Ġatbalst a
m aksas
on t
in teres
Äĵs im
Ġap l
Ġaizsardz Ä«bas
ĠuzÅĨÄĵm uma
Ġpies aist
Ġr odas
Ġuzt ver
Ġprez ent
Ġietvar os
Ġ2 4
Ġkar tup
C ilvÄĵk
p ied
ac k
Ġpan Äģk
Ġsp ort
ator s
m er
us s
Ġlik um
gr Äģm
Ġsaska ÅĨÄģ
Ġliet otÄģju
ib li
E S
ros s
r is
ien us
Ġpar akst
niec e
Ġpas Å«t
Ġ Ð
Ġr est
ti f
Ġpul kst
v an
iek l
Äģk ajiem
Ġuz l
Äĵr u
Äģr z
Ġk un
ÄĵtÄģj iem
Ġneb iju
Ġsm al
Ġturp mÄģk
Ġvasar as
ĠA t
Ġan g
Ġap rÄ«
V iens
Ä· er
Ġnos ac
, Â»
kat oties
b i
Ġd ib
it r
Ġf ond
ĠtÄģd ÄĵjÄģdi
ub lik
ot Äĵk
Äĵn a
Ġal koh
ĠreÄ£ ion
Ġsag aid
Ġkur Äģs
Ġie lÄģ
C ik
in e
Ġik vien
Äģr Ä«
niec Ä«bu
Ġsieviet e
N es
Ġb alst
Ġap galv
Ġdir ekt
u j
er iem
dr a
Ġb oj
nÄ«c u
B ez
Ġsev is
Ġrad a
c ion
Ġp ÄĵkÅ¡ÅĨi
Ġdz el
Ġt ul
ĠpiedÄģv Äģt
il n
v eic
Ġal us
etr us
ĠSav ien
Åł o
ĠJ Äģ
Ġvalst Ä«
Ġieg uv
Ġdur v
g Äģj
Ġapm ier
ĠZ v
eidz ot
p anta
Ä«t Äģs
D iemÅ¾Äĵl
st as
Ġs o
ot Äģja
enc iÄģl
Ġtirg Å«
Ġpiedal Ä«ties
ĠJ elg
Ġiek Ä¼aut
Ġkru st
Ġkval itatÄ«v
em d
ĠtÄģl u
om s
ul tÄģtu
ĠD z
Ġvajadz Äĵja
1 9
Ġt rau
ĠpÄģr lÅ«k
ĠvairÄģk i
Ġsav Äģd
ip Äĵd
Ġpac ien
og as
enc i
Ġr om
Ġm Äĵdz
oÅ¡ ie
Äģn Äģ
ic ros
ĠcilvÄĵk am
ĠÄį empion
ams ung
Âł Âł
Ġsl av
Ġdep ut
n Äĵm
Pat ies
k us
ĠÄģr zem
1 2
Ġp aldies
eg or
Â» ,
Ġbeig Äģm
Ġm u
ied ru
Ġz ina
Ġatt iek
ĠsistÄĵm a
Ġpareiz i
Ġiz vÄĵrt
Ġinter v
F it
Å¡ ru
Äģj os
ev a
Ġotr o
Ġsitu Äģciju
Ġpart n
Ġsk aÄ¼
Ġpies lÄĵg
ot Äģs
Ġnep Äģr
ĠpaÅ¡ iem
iÅĨ ai
Ġizv iet
ok ol
Ġk aim
er n
k os
ator u
K on
Ġsv eÅ¡
Ġdom a
Äĵl i
icros oft
Ġpas aul
id u
Ġattiec Ä«bas
Ä«c iju
on am
Ä· a
oj ami
Ġotr ajÄģ
Äĵt Äģja
ĠE s
ĠproblÄĵm a
pr et
Ġatb rÄ«v
ĠKriev ijas
l am
Ġvien Ä«gais
eÄ¼ a
Ä Į
Ġl Ä«n
Ġ +
Ġpir k
ĠnodroÅ¡ ina
Äģr Äģ
Ä«z es
Ġt Äĵv
Ġdien Äģm
ĠparÄģd Äģs
Ġatbilst oÅ¡i
ie ri
ĠgadÄ«j umos
Ġprojek ta
em es
ĠpÄģr skat
Ġcen a
Ġvien am
f il
Ġs ejas
an g
Ġkur ai
t im
Ġvai n
og raf
Ġkr eis
Ġsk a
ĠceÄ¼ Å¡
ĠdzÄ«v ot
Ġdisk us
Ġn acionÄģl
ĠdaÅ¾ Äģdi
eli Ä£
laic Ä«gi
F il
Ġmir kl
Ġkomand as
ĠbudÅ¾ eta
Ġre cept
In teres
rau g
ĠvÄģrd s
et ri
Ġrok Äģs
Äģt Äģj
ross Fit
Ġcentr Äģ
ĠpÄģrvald es
d ab
ĠpilsÄĵt Äģ
Ġnevaj ag
Ġt al
ak i
Ġs ai
eg r
Ġgald a
Å¡ s
Ġnor is
inÄģt as
T C
Ġpr es
Ġob lig
Ġcentr a
Ġb ru
Ġperson u
h ttp
Ġvis lab
ek cijas
Ġfin anÅ¡u
Ġsas niedz
ĠÅ¡ Ä«m
dz im
Ġgad i
Ġt end
im inÄģl
Åł oreiz
Ġrez ultÄģtu
ĠzinÄģt n
q u
Ġc el
Ġizm ÄĵÄ£
Ġautom aÅ¡Ä«n
Ġnek Äģdu
Ġpl auk
Ġied ves
f r
Ġvid es
Ġik dienÄģ
Ġlauk u
C it
Ġs Ä«p
Äģm u
Ġkoment Äģr
ĠÅ¾urn Äģl
A l
Ġb as
Ġnosauk umu
Ġt auk
Ġap akÅ¡
Ġdiv u
em j
grie Å¾
ĠiegÄģd Äģties
t Äģs
Ġ aus
ĠceÄ¼ Äģ
ĠLatv ija
ĠT ev
ĠZiem assvÄĵt
Ġdeb es
Ġr et
Ġnos lÄĵp
Ġdom u
Ġkal n
Ġveikal Äģ
Ġveid s
1 5
Ġei ro
Ġtik ko
Ġ ien
aug st
ĠR ep
ĠtÄĵm u
inÄģj is
ĠT witter
ĠreÅ¾ is
Ġd v
et e
laik us
Ġliel as
pil sÄĵt
T Äģl
ak tu
Ġpriv Äģt
Ġb ibli
Ġtais n
Ġiest Äģdes
l ietu
Ġvalst u
Ġpieej ams
M ums
Ġliet us
ĠsastÄģv d
Ġt il
Ġblog u
Ġveiksm Ä«gi
ĠJ a
Ġtelef ons
Ġnopir kt
Ġc Ä«n
Ġv aÄ¼Äģ
Ġ Y
Ġm ik
Ġg uÄ¼
Ġ2 2
ĠmÄģj Äģm
ĠlÄ«m enÄ«
av s
Å¡ us
Ġnek ur
Ġsam aks
o Å¡anos
ĠsÄģk Äģs
ĠT r
eic a
Ġizm aks
sk olas
Ġaiz vien
Ġmaz u
l iel
il a
ek ti
g ar
ĠpasÄģk ums
ĠsÄģk t
Ġmin im
ĠceÄ¼ am
Ġizkl aid
M Å«su
Ä«d a
i h
Ġl Å«p
ab iedr
Ġblog Äģ
ar m
dz es
Ġvien al
ain Äģ
Ġgu dr
Ġaiz iet
ĠG r
Ġkat egor
Ġsitu Äģcija
ĠE d
ĠkÄģrt Ä«bu
ĠBalt ijas
m ier
Ġb umb
Ġrad Ä«t
Ġbag Äģt
Ġnek Äģdas
Ġmanu prÄģt
Ġtaut as
ac e
Ġviet Äģm
Ġlik umÄģ
Ġsat ur
t ais
Ä« ru
ep at
in am
ĠmÅ«s dienu
Ġiet eik
Ġreiz Äĵm
ĠviÅĨ us
ĠAp ple
t iec
rie Å¾
ĠN r
ov a
Ġmar Å¡ru
ĠnedÄĵÄ¼ Äģ
A k
Ġk od
ĠmeÅ¾ a
Ġp or
Ä· es
Â» .
isk ajÄģm
ĠD aug
i Äį
ej am
Ġr aid
ĠsÄģk as
Ġmeit enes
Ties a
Ġnoskr iet
Ġs aules
Ä«g os
Ġnev Äĵl
ĠjautÄģj umiem
Äģl ais
Ġpag atav
Ġv ed
b u
Ġn oti
Ġid ejas
b et
Ġr ÄĵÄ·
isk os
ĠkrÄģs u
Ġnakt Ä«
r op
Ġp iena
ol d
Å¡ o
Ġz ob
Ġat sp
Ġatbalst u
Ġr oz
oÅ¡ ajiem
I I
R ez
ik ai
Ġab i
Ġj Äĵ
Ġ www
Ġp unkt
Ġot ra
Ġpieredz e
Kam Äĵr
ĠIg aun
ĠspÄĵk u
ĠmÅ«z iku
Ġp Äĵd
am Äģk
ek ta
Ġskrie Å¡anas
Ġap ar
iniek u
Ġpieredz i
ĠvÄ«r ietis
Ġtemp erat
ĠL ietu
Ġj Äģv
Vis i
Ġsiev ieÅ¡u
Ġik dienas
Ġviz u
E R
ĠkÄ¼u v
B ija
Ġc Äĵl
Ġbr ok
pÄĵj u
ĠKr ist
Ġtirdz niecÄ«bas
Ġb ail
Vai rÄģk
Ġ Äģdas
st rÄģd
Ġpie ÅĨemt
Ġang Ä¼u
Äĵr t
Ġd iemÅ¾Äĵl
Ġr Å«
Ġiz nÄģk
Åł obrÄ«d
Ġk ak
ĠÅ¡ it
Ġstat ist
Ġskol Äĵn
ĠvairÄģk us
ĠaktÄ«v i
Ġh ttp
Âł Ġ
ĠuzÅĨÄĵm umu
Gal ven
Ġ asto
Ġrok Äģm
Ġvajadz Ä«gs
Ġt oreiz
Ġs adz
Ġs est
tr a
Ġzv an
Ġdzies mas
Ġlauk Äģ
Ġd iev
h t
Ġl ok
D arb
el d
ĠiespÄĵj Äģm
Ġkar st
Ġblog a
ĠÄ£im en
Ġraj ona
au sk
il k
Äģl as
ĠsÄģk uma
Ġaplik Äģciju
N ez
Äģj umu
ekl is
Ġl Å«g
us u
oj ams
Ġpal ika
Ä« Å¡os
Ġs Å«t
ap ild
Ġpot enciÄģl
Ġap kop
ĠÄ· ir
Ġmaks im
Ġpils Äĵtu
v al
Ä«j usies
ĠkrÄģs as
ĠviedtÄģl ru
P am
e Äįu
Äģj usi
Ġc elt
Ġko ka
Ġ olas
eb ru
Ġt Äģtad
Ä«g ajÄģ
Ġkr Äĵm
ĠkvalitÄģt es
Ġgatav s
I e
pÄĵj as
ĠmÄĵr Ä·i
Ġsaj Å«s
os ipÄĵd
Ġdz er
ĠizrÄģd Ä«jÄģs
B Äĵrn
p unk
ĠJ Äģnis
ĠnepiecieÅ¡ ama
ain as
Ġgroz Ä«jumiem
N os
l us
Ġab sol
in iec
el k
Ġtik tu
Ġsv in
ĠjÄģ uz
Ġvec umÄģ
Ġpasau li
bild e
Ġizdev Äģs
Ġpriek u
Ġdiv Äģm
if ic
Ġdator a
st ar
Ġman t
Ġcit Äģ
Ġgar umÄģ
Ġval odu
Ġprogram m
Ġpast aig
1 1
oti v
ic i
Ġties as
Ġst ing
iz Äģcijas
kr it
iÅĨ Äģs
Ġkat rÄģ
Ġapskat Ä«t
el l
Ġlai c
eÄ¼ i
Ġsapr at
A ut
Ġst Å«r
Ġnes t
Ġaut omÄģt
Ġbez maksas
Ġieg u
Ġamat person
Ġprakt iski
f er
Ġk osm
Ġn ÄģcÄģs
Ġd ub
el f
Ġlik ums
Ġfant ast
Ġun ivers
Äģju Å¡Äģ
Ġpag ÄģjuÅ¡
ĠÅ¡Äģd s
Ġt Å«l
Ġredz ams
Ġm or
Ġd is
Ġpa ÅĨÄĵm
Ġskai tu
ig it
pad smit
Äģt as
pÄĵj a
Ġmin Äĵt
Ġproces s
kl aus
Ġser tif
Ġg aÄ¼as
Ä¼ Å«t
az Ä«st
inÄģj umus
Ġotr as
Ġm ig
Ġtr im
Ġid eja
N ot
Ġv an
Ġmed ic
D r
Ġr Äģda
Ġaiz b
ĠM icrosoft
ic ionÄģl
ĠpaÅ¡vald Ä«bu
Ġapt auj
Ġs uper
ĠJ aun
Ġkomis ijas
ais m
Ġmobil o
T ajÄģ
Ġk Å«k
Ġg lab
Ġkas t
lik ums
Ġvec uma
g ur
Ġl Ä«k
Äģj ies
Ġnos Å«t
Ġizp Äĵt
Äģ Ä¼u
Ġv Äĵd
Ġs lÄĵg
ĠlÄ«dz Ä«gi
Ġgal am
Ġliel iski
V ec
Ġg lÄģb
lo dz
Ġizr ais
p s
Ġt Ä«r
an k
Ġprog noz
Ġs Äģls
Ä«s i
Ġbiju Å¡i
Ġnog ur
and id
Ġnoteik umi
Ġvis vairÄģk
ĠS IA
ri tu
Ġp Ä¼
Ġpieej ama
emb ra
t ob
Ġaug Å¡u
Ġlid ost
Ġindiv idu
Ġd ot
ies m
es tiv
Ġ2 3
Ġneb Å«t
str um
Ġl Äĵt
Äģd e
Ġ200 8
ĠlielÄģk u
Ġdev Äģmies
t am
Ġjur id
au b
2 00
il kt
4 0
P av
n ov
Ġskai tÄģ
Ġdzelt en
v e
niek am
ĠÄĵr ti
Ġlit erat
A N
Ġk rÄ«z
Ġap Ä£Äĵrb
isk Äģm
ok Äģrt
og s
ĠA d
Ġdrau d
Ġpr aks
Ġs h
ĠlÄ«dzek Ä¼u
er g
Ġgais a
Ġgul Äĵt
Ġp ed
Ġst aig
ok ia
Ġnek ust
ĠN e
Ġsek und
Ġeksper im
az Äģm
Ġsm iekl
Ġsk Äģb
Ġn ag
Ä«g ajiem
inÄģt Äģj
iv il
ĠdaÅ¾Äģd iem
A ug
Ġj um
Ġjeb k
Ġproces u
Ġprojek ts
ĠkÄģd us
ĠB l
Ġuzs Äģk
c el
Ġveikal u
Ġm ieg
Ġr os
ĠpÄģr viet
Ġvar o
Ġdaudz iem
Ġsat uru
Ġiem Äģc
Ġl Ä«d
ĠA ustr
Ġapr ÄĵÄ·
ĠnÄģkam ajÄģ
Paties Ä«bÄģ
Ġs Äĵn
it e
Ġpie l
ĠT he
Iz rÄģd
Ġvers ija
as p
Ġveid u
Ġas oci
Ġparedz Äĵts
âĢ ¢
ĠpalÄ«dz Äĵt
ĠpatÄ«k ami
Ġuzt ais
Ġred ak
Ġdien Äģs
ing s
Ġvel osipÄĵd
Ġb Ä«st
iet i
Ġap lÅ«k
R akst
ĠÅ¾ Äĵl
ĠSaei mas
Ġz in
Ġnep ie
saim niecÄ«bas
oj ama
Ġs un
ĠpriekÅ¡ r
ĠkÄģrt as
Ġpab eig
Ġr el
Ġaug Å¡Äģ
Ġor ient
om Äģs
Ð ¾
Ġpaz ud
Ġnaud a
Ġinstit Å«
L Å«k
Ġkur os
ed ÄĵÄ¼
Ġs iÅ¾
Ġliet otÄģjiem
Ġturp ina
Ġnen ot
ĠJ ur
Ġl ep
Ġap gr
ast Äģv
Ġpas niedz
Ġmal Äģ
Ġor iÄ£
at er
var Äģ
) ;
Ġj Äģt
ĠvÄģrd iem
iniek i
Ġac u
Ġaizl ieg
d a
ĠnÄģkot nÄĵ
st ies
Ġrad io
ĠnodroÅ¡ inÄģt
ĠRep ublik
Ġliel o
Ġaut ors
cer os
as m
ÅĨ os
Ġz up
Ġarh it
Ġst abil
lik uma
Lab i
ĠsÄģkot n
Ġizpr at
j o
Ġne ies
Ġizmai ÅĨas
av i
sk ait
ĠkÄ¼ Å«t
Ġgai tÄģ
ĠapstÄģk Ä¼os
r on
isk ajiem
ĠS amsung
gad u
Ġkart es
ĠĠĠĠĠĠĠĠĠĠĠĠĠĠĠĠ ĠĠĠĠĠĠĠĠĠĠĠĠĠĠĠĠ
Ġpap l
d ar
Ð °
Ġd em
Ġpus e
Ġp ost
iz Äĵt
Ġbibli otÄĵk
Ġnek Äģda
ĠzinÄģt nes
Ä«v a
ĠvÄĵl me
ni Å¡Ä·
g o
Ä«t Äĵ
Ġreiz Äĵ
P Äĵt
Ġvalst Ä«s
Ġied om
Ġteritor ijÄģ
is ms
ĠÄ·er m
Ġmier Ä«gi
ĠiP hone
Ġdur vis
p Äĵl
Ġvis am
ĠÅ¡Ä· Äĵrs
ĠbrÄ« Å¾a
ĠbÅ«t iski
Ġaugst Äģk
ĠierÄ«c es
Ġg au
Ġid eju
Ġdod amies
ĠM an
b in
Ġpag al
Ġproces Äģ
Ġslik ti
Ġm ut
Ġsp Ä«d
Ġgl ez
R S
Ġk andid
ĠpaÅ¡ laik
Ġz inÄģÅ¡anas
Ġlik umu
Ġstund Äģm
Ġviegl Äģk
at ÄĵÄ£
Ġm otiv
atÄ«v o
Ġperson a
ĠekrÄģn a
m m
en z
Ġc eru
Äĵs ies
ĠpÄģrst eidz
ĠK al
Ġkons ult
f or
ĠpÄģr dev
Ġaug Å¡
ĠtÄ« ri
Ġat Ä¼aut
kal p
Ġd ol
Ä«t ais
Ġie lu
ĠM Äģr
Ġiz Å¡Ä·ir
Ġnosauk ums
Ġsaim niec
Ġpolic ijas
Äģ Å¾
Ġiz dz
Ġsm adz
ĠÅĨem ot
ĠmÄĵneÅ¡ a
Ġdzel z
m aiz
um p
ap ar
Ġatz in
k ai
isk iem
Ġkr Äĵs
ĠiepriekÅ¡ ÄĵjÄģ
Ġser ver
o Å¾
Ġt ab
Ġiz aug
Ġgal u
Äĵj umi
ĠsociÄģl o
Äĵj oties
Ġlab Äģ
is mu
Å¡an Äģm
Ġdr Äĵb
Ġv Äĵj
Ġiz n
Äģl es
ekl i
Ġsaj Å«tu
Ġtip a
ĠmÄĵnes Ä«
Ġrezult Äģts
j anv
Äģ Å¡anas
Ġd ai
ÅĨ Äģm
Ġsakar Äģ
R e
Z em
m l
Ġl ejÄģ
Ġiev ad
Ġnov iet
Gr ib
Ġ Å½
Ġpie liet
nÄ«c a
Ġnom ain
Ġg Äģja
a Äį
sk is
Ġtr eil
Å ª
Ġ on
ĠÅ¡ okol
Ä«v i
ĠV ai
Ġgar ant
Ġmeit ene
Ġministr ijas
Ġl oÄ£
ĠF acebook
atÄ«v i
Ġdzies mu
Ġb ul
Ġdarb i
Ġkal end
Ġregul Äģri
os im
Ġes at
Ġiet ver
oloÄ£ ijas
Ġtuv u
Ġziem as
M T
Ġd ek
ol Äģ
Ġvalst Ä«m
Ġats lÄĵg
Ġpadom es
Ġrest or
Ġmas u
Ġtelev Ä«z
ĠsÄĵ Å¾
D iv
Ġjau tr
Ġlab as
Ġturp inÄģs
Åħ em
Ġattiec Ä«bÄģ
I t
Ġt ums
Ġt eju
at ion
es tu
Ġf irm
Ġsvar Ä«gÄģk
ektÄ«v i
Ġgrib Äĵtu
Ġpras a
v Äĵ
Ġ &
Ġt rauk
ap s
Ġ200 7
Ġuzskat u
uÄ¼ Ä·
ĠminÅ«t Äĵm
valst u
Ġb Äģz
Ġ6 0
veid a
Ġdien esta
var s
Ġapr Å«p
ic e
Ġnev ienu
Ġieg Å«st
Ġiz k
Ä«j uÅ¡ies
kl Äģj
Ġs ub
Ġsav am
Ġnevar Äĵja
ĠvÄģrd a
Ġatkl Äģj
Äģt os
Ġst ik
Ġvec Äģki
Ġ200 9
au tu
Ġvien laikus
ig n
p ie
ĠĠ Ġ
L V
ik ti
er l
Ġnev eik
Ġliet o
Ġvid Äĵji
Ġpieej am
ĠvÄ«r s
cen tr
K om
ĠtehnoloÄ£ ijas
Ġats auc
Ġmain Ä«t
P S
V alsts
Ġn Äģca
Ġf ai
eÄ¼ iem
I N
inÄģj umÄģ
ĠLatv iju
z Ä«st
Ġr Ä«tÄģ
Ġsag riez
Ġme ist
p iel
ĠdaÅ¾Äģd Äģm
Ġvid e
Ġpie pild
Ġpiek t
ĠÄĵr t
Ġj ut
im p
Ġgaid a
Ġnopiet ni
Ġnej au
ĠvÄĵl os
Ġliet oÅ¡anas
Ġac Ä«s
ar ts
Ä«g ai
Ġlid maÅ¡Ä«n
Ġinv est
1 3
Ġiz baud
Ġie zÄ«m
Ġvec Äģkiem
Ġne tic
Ġnot ur
Ġiev iet
Ġpl ec
Ġpiet ur
Ġkabin eta
Äĵt iem
Ġatr is
ĠbieÅ¾ Äģk
inÄģj umiem
Ġiemes lu
ĠzÄģl es
Ġuz m
Ġpl ast
Ġfil mÄģ
ĠmÄģjas lap
Ġam er
ilv Äĵc
Ġstar ta
ĠH TC
run Äģ
ĠpÄģrstÄģv ji
at ies
ĠdaÅ¾ iem
Ġturp inÄģt
Ġser iÄģl
Ġizdar Ä«ti
d u
Ġm aig
ĠtÅ«l Ä«t
Ġvis b
ok rÄģt
ĠattÄ«st Ä«bu
om e
ag n
Ġstr atÄĵÄ£
L ik
om Äģtu
ĠI l
Tur p
l ic
Ä« Å¡anos
Ġnev iena
Ġp eln
ĠP ol
Ġdab Å«
Ġpir c
Ġneliel u
it Äģr
ĠÄ Ĵ
Ġapst rÄģd
Ġm Äģr
es ts
Ġnep am
Ġn Äģks
ĠC h
Ġskaist i
b as
i Å¡Ä·
Ġmaz a
Ġj Äĵdz
ĠS tr
Ġp Å«
Ġlab prÄģt
Åł eit
Ġkom erc
Ġsapr otu
Ġvirs Å«
Ġs ait
at n
Äģk ajÄģm
Ġsac Ä«ja
eikt ies
Latv ijÄģ
ĠizvÄĵl e
Ġp ur
Äĵd es
Ġliel Äģks
ĠÄ· Ä«m
P apild
iet iek
Ġpret Ä«
ier is
me ÅĨa
Ġiz z
Ġskol Äģ
Ġs auk
Ġl ogu
Ġ2 6
ĠV is
Ġpaties i
ar e
pr oj
ĠÄģr kÄģrt
Ġslik t
Ġmarat ona
r it
Ġkal p
Ġietekm Äĵ
Ġmal as
Ġbur v
Ġtul k
Äĵr z
Ä«k st
Ġgais Äģ
ĠsvÄĵt ku
Ġsim bol
Ġmam ma
Äĵj us
Ġas p
Ġpu is
ot e
Ġizmant oju
ĠnÄģk amo
tic amÄģk
E l
Vis u
Ġpub lik
Ġi g
Ġpas nieg
Äģ ÅĨu
Ġpie gÄģd
m ens
Ġie cer
otÄģj am
Ġdv Äĵs
TÄģl Äģk
b or
ĠlielÄģk a
Ġsabiedr Ä«bÄģ
Ġzv aigz
Ġgr af
Ġdarb us
Ġfin iÅ¡
Ġvers iju
Ġkr iminÄģl
Ġinteres ants
Ġpras Ä«bas
Ġgrup a
Ġd es
Ġvis ur
ĠpÄģr r
Ġlap a
Ġrezult Äģti
emon str
ĠenerÄ£ ijas
Ġcetur t
Äĵ Å¡anos
Ġn akti
Ġizm aksas
Ġizdev ies
Ġizv air
ĠkvalitÄģt i
ad Äĵm
Ġmaks Äģt
Ġp eÄ¼
Ġuz raudz
Ġie dz
Ġpab alst
Ġcuk uru
Äģd iem
Ġpar ast
Ġr eliÄ£
em Äģt
Ġsav Äģs
Ġdaudz as
ĠvÄģrd us
Ġdzim Å¡anas
Ġres p
Ġkonf er
Ġd odas
Äģn as
Lai kam
ĠC rossFit
Ġban kas
mu gur
Ġpl kst
Ġattiec Ä«bu
Ġfin i
ĠpÄģrt ikas
ĠN acionÄģl
__ __
Ä ¶
pr ot
Ġcen Å¡as
Ġmed ij
D S
o h
Ð µ
Ä« Å¡a
Ġp Äĵr
Ġt Ä«m
Ġjaun Äģs
Ġsas kar
ĠsociÄģl Äģs
Ġsp ilg
Ġies aku
Ġkr Äģj
ĠB al
Ġpus Äĵm
Ä«z e
Ġre Äģli
Ġdom es
Pirm ais
Ġnum ur
d i
an Äįu
il j
Ä«g umu
niek us
Ġsl ep
Ġpa augst
Ġsak Äģrt
Ġab as
Ġuzdev ums
or gan
ĠspÄĵl Äĵ
Ġdarbiniek u
Ġs Äģli
Äģd Äĵ
Ġre alitÄģt
S as
Ġno lÅ«k
Ġat vÄĵrt
ĠR e
ĠÄĵd ienu
Ġiep irk
M ar
t is
Ġmaz s
Ġnop eln
Ġ201 0
Ġdurv Ä«m
Ġ and
Ġrad Äģs
N ep
j am
Ä¼ Äģv
os f
sp Äĵl
K A
d ec
Ġizv irz
Ġsevi Å¡Ä·i
Ġbiznes a
U R
Äģd us
oÅ¡ us
m am
Ġd Äĵv
Ġsav star
Ġatm iÅĨas
s ept
ĠpalÄ«dz Ä«bas
Ġdab Å«t
ei ta
og uÄ¼
Ġpunk tu
Ġpapl aÅ¡
at t
pr es
ĠdaÅ¾Äģd us
Ġnov ada
Ġtrad icionÄģl
8 0
v akar
or tu
Ġpr eÄįu
Ġpar aug
ĠpÄģr mai
Ġstrauj i
Ġpart ijas
Ġpa audz
Ġsast op
Ġklas es
Ġno j
eÄ¼ as
ĠtÄģl ru
Ġpamat Äģ
Ġplan Å¡
; )
o o
Ä« Å¡i
in as
Äģk ajÄģ
en tr
Ġkr ekl
Ġdrau gu
Ġprogram ma
ĠbrÄ« niÅ¡Ä·
art am
Ġ8 0
Ġuzz inÄģt
ab a
ator i
Ġcep ur
ĠdalÄ«b nieku
Ġvasar Äģ
Ġneg aid
Ġuzv ed
Ġl ic
Ġat Ä¼auj
Ġpam azÄģm
ator a
V iena
pr iec
Ġties a
S S
e Å¡i
Ġpas kaidr
Äģn ijas
Ġsieviet Äĵm
Ä«v u
Ġsav s
Ġperson Äģm
Ġgalven okÄģrt
Ġdraug i
Kop umÄģ
B r
ĠproblÄĵm Äģm
Ġkomp et
ieÅ¾ Äģk
Ġsacens Ä«bas
ot ais
Ä· iem
Ġklien tu
Ġtelev iz
al as
er m
ĠM as
Ġim p
Ġv Äĵs
Ġn i
it as
Äģl ajÄģ
Ġtur pat
Ġmed us
sim ta
l iem
Ġ =
Ġt em
Ġdz emd
Ġin strum
ion Äģli
ĠbÄĵrn am
Äª p
ĠnolÄĵm u
Ġd e
Ġd igit
Ġgal Ä«gi
Ġ eg
Ġst rÄ«d
ĠdaÅ¾ us
Ġilg Äģk
Ġteritor ijas
Dz Ä«v
ĠB et
niec Ä«ba
Äģ Å¡anÄģs
Ġt Äĵj
ĠL V
Ġsas kat
atÄ«v Äģ
D omÄģju
Ġf akts
ĠnozÄ«m e
ĠparÄģd Ä«jÄģs
Ġskaidr o
Ġsev Ä«
ĠÄĵk as
Ġg rÄ«d
Ġiep ak
Ġgod Ä«gi
Ġne c
isk us
Ġ2 7
nes is
Ġsat ura
Ġskol u
ĠÅ¡Äģd Äģ
Ġpievien ot
ĠmaÅ¡Ä«n as
Rez ult
Äĵt iski
inÄģj usi
ĠnÄģk as
ĠlÄ«m eÅĨa
Ġaplik Äģcijas
Åł ogad
Ġsek su
Ġizlas Ä«t
Ġkap it
Äĵt ajÄģ
ĠA mer
Ġredz am
Ġrok Äģ
Ġnepar eiz
Ġp adz
Ġies niedz
Ġdarb iem
kl as
Ġvid Äĵ
Ġpap Ä«ra
ĠstÄģst u
Ġjebkur Äģ
i dz
Ġskaidr i
G ar
Ġr emon
Ġsek o
Ġizp au
Ġpadom ju
Ġrud ens
ĠmÅ«s dienÄģs
Ġdator u
Ġmarat onu
us a
Ġpa ÅĨem
Äĵn s
Ġpam ÄĵÄ£
ĠuzÅĨÄĵm ums
Ġpopul ar
Ġnev ienam
Ġs Å«dz
Äĵj umiem
Ġ2 8
aid u
ip s
ĠvÄģrd Äģ
ĠÅ«d enÄ«
ĠgrÄģmat Äģ
Ġnov ad
Ġdokum entu
Gr Äģm
ĠaprÄ« k
r ast
ĠL ai
Ġdiz ain
ie b
Ä« Ä¼
Ġat liek
uk s
Ġgrib Äĵju
Ġgrup Äģ
Ġierakst u
ir st
skat Äģs
Ġ9 0
Ġĉĉ ĉĉ
ÄĵjuÅ¡ ies
Äģk os
Pat s
Ġkomand a
Ġdat i
Äģl iem
Ġcit Äģs
Ġ7 0
j Å«l
l os
Äĵj umus
ul s
ain o
Ġpal ikt
as tr
er Äģ
Ġc Å«k
ĠK ar
ĠI T
Ġuzs ver
Ġvienal ga
Ġ ÅĨemt
ĠÄ¼ aud
ĠpaÅ¡ ai
ĠlielÄģk o
ĠbrÄ«d im
Ġj ust
er b
Ġr ev
Ġpar ad
otÄģj us
Ġnosk aÅĨ
K Äģds
Ġsp Äĵju
Ġvald Ä«bas
S kat
Ġrakst s
Ġnoteik umus
Man s
ĠdrÄ«z Äģk
Ġt ak
Ġb Ä¼
Ä«g Äģks
Ġsek oj
ĠacÄ«m redz
d er
sm as
Ġas ins
ĠmÄĵneÅ¡ us
j iem
Ġiemes ls
1 4
Ġies lodz
Ġinteres anta
ĠÅ¾ an
ĠpÄĵdÄĵj os
Ġt or
Ġm etr
Ä¼ as
er am
Ġkr ist
Ġmaz o
ĠN okia
an as
atÄ«v u
en im
Ġaiz rauj
Ġpag ÄģjuÅ¡Äģ
I er
Ġs ienas
Ġr eti
Ġf estiv
Åł Ä·
ĠN or
Ġgalven Äģ
Ġpel Äĵk
Ġbrok ast
R un
Ġp Äĵrn
Ġnoteikt ajÄģ
Ġatcer os
Ġsmar Å¾
e x
i Ä·i
Ġk ul
rÄģd i
ĠmÄģj Äģ
ĠsavÄģd Äģk
ĠpaÅ¡ reiz
ĠkÄģrt Äģ
I k
O S
Ġes oÅ¡o
Ġiek Äģr
ĠÄ«p aÅ¡u
ĠSavien Ä«bas
p ut
Ġt est
ik Äģciju
Åł Ä«s
Ġtam bor
ĠmÄĵr Äģ
ĠlabÄģk o
ĠatgÄģd ina
Ä«t iem
Ġh ip
Ġbal ss
Ġgatav i
Ġnorm Äģli
Ð ¸
ap rÄ«
sk a
ĠkÄģrt Ä«gi
Ġsam ÄĵrÄģ
Ġied omÄģj
Ġizsk aidr
Ġslav en
N ed
c e
i an
Ġz e
Ġz irg
ĠK ur
Ġcit ur
Ġnod ar
Ġinteres Äĵ
ĠkÄ¼u vis
f s
Ġs Äĵk
Ġb Äģr
Ġg ult
Ġsk um
Ġgal a
Ġgal vÄģ
ĠÄĵd am
ĠtÄ«k lu
Ġ201 1
ĠmÄĵnes i
Ġattiec as
Ġform Äģ
ĠdalÄ«b nieki
Ġpul c
ĠrobeÅ¾ as
Å¡ Äģs
Ġpie vil
ĠiespÄĵj am
Ġnes an
Ġcent ru
oment Äģri
Ġkon cep
Ġzem i
Ġan aliz
ĠlÄ«dzek Ä¼us
ĠprecÄ«z i
ĠdaÅ¾Äģd Äģs
Ġatbild es
Ġaps pr
Ġsnieg t
ĠnespÄĵj u
K l
Ġv Äģj
at e
ĠS ig
Ġotr s
Ġdeg un
Ġaiz r
Äĵn as
Ġizskat Ä«jÄģs
ĠtÄ«k la
ĠtreÅ¡ o
ĠZv iedr
ĠR Ä«ga
Ġak me
Ġsacens Ä«bÄģs
ar g
Man i
ĠpÄĵdÄĵj ais
ĠvÄĵrt Ä«bu
Ġredak cijÄģ
j Å«n
k on
Ġl aul
ot iem
Ġz vÄĵr
Ġgaid Ä«t
Ġ201 2
T el
Ġarhit ekt
Ġc ilvÄĵc
Ġpateic oties
A T
tu l
Ġpasaul e
ul l
ĠÅ¡Ä· idr
r y
Ġgr iez
Ġint ens
G an
Ġt Äĵ
Ġuz kr
iniek s
Ġnel aim
Ġspec if
Ġn ab
Ġstipr i
Tr eÅ¡
ĠlÄ«g umu
Ġkal nu
Ġdev Äģs
ĠsalÄ«dz inoÅ¡i
Ġsarun as
M in
Ġ az
Ġv it
Ġs in
Äĵt ie
Ġnees ot
Ġme h
z e
Ġkur p
Ġkur s
inÄģ Å¡u
Ġpieej ami
ĠmateriÄģl u
Ġsacens Ä«bu
ĠtÄĵv s
Ġvien Ä«gÄģ
Ġkar ti
Ġtel pas
Ġsitu ÄģcijÄģ
viel u
m Ä«l
Ġd rÄ«kst
ĠkÄģrt Äĵjo
Ġpras Ä«bÄģm
ĠpriekÅ¡r oc
Ġs au
Ġak c
Ġredz Äĵjis
Interes anti
Ġapmekl Äĵt
Ġj ok
Ġvid u
Ġgl Äģz
Ġaizmir st
Ġuz g
Ġpie bilst
ĠV ents
ol es
Ġst ad
Å«t s
Ġf ut
ĠM Äģrt
st und
Ġsm il
ĠO p
Ġled us
TÄģd ÄĵjÄģdi
ek Ä¼u
atv ers
Ġlik vid
ĠÄ«paÅ¡ uma
ĠmÄĵn eÅ¡u
r Ä«t
Ġm uÄ¼Ä·
Ġap v
Ġvis Äģs
Ġsp ÄĵÄ¼u
Ġdarb oties
ikÄģ ÅĨu
c iem
ĠpÄģr l
Ġf l
Ġskai ta
ĠEirop Äģ
in Äģr
or iem
Ġcuk ura
pr oc
ĠT ur
Ġnet ika
ĠlÄ«m enis
Ġlaik os
Äį i
Ġlik a
Ġvid us
V id
Ġm aÄ£
iek s
Ġvis pirms
ĠpasÄģk uma
ĠvÄĵst ul
Ġizc el
Ġelektr o
Ġistab Äģ
il i
ĠpÄģr Äĵjie
SÄģk umÄģ
m Äĵ
Ġdat us
Ġfunk cijas
Ġkont ek
Ġjaun ais
Ä«c ija
Ġvid ussk
Ġop tim
Äģc ies
ter s
Ġgalven o
ĠiedzÄ«v otÄģji
Ġint egr
au Å¾
Å«r ai
Ä«r s
l Äģj
ĠlÄ«dz Ä«gu
Ġveikal os
Ġput nu
Ġier os
Ġvald es
ĠpÄģrs varÄģ
ĠatseviÅ¡Ä· i
Ġsavstar pÄĵj
e ÅĨi
Ġnes kait
Ġpieredz es
l d
Ġb Äĵd
T iek
r ai
v ÄĵÄ£
Ġiz ÅĨemot
Ä«g am
Ġvar at
ing r
Ġmugur as
Äģr st
Ġilg st
Ġskatu ves
Ġ ~
Ġt epat
var u
Ġats auk
Ġval oda
ĠparÄģd a
Ä ¢
Ġsl ap
Ġpamat a
Ġatrad u
Ġnoti cis
Ġk aus
ĠH ol
Ġizs nieg
Pag aidÄģm
S m
k av
Ġs em
ĠvairÄģk iem
ĠÄģtr umu
Ġped ag
n et
Ġrot aÄ¼
ap t
e a
Ġf ail
Ġaiz ÅĨem
Ġaiz tur
Ġcit r
ĠbÄĵrn us
ĠlÄĵn Äģm
b a
ie vÄĵr
Ġpal icis
ĠÄ·er meÅĨa
Ġt ar
Ġm ak
on y
Ġpr Äģt
Ġlai mi
ĠkÄģd iem
Ġrakst Ä«ts
Ġvislab Äģk
Ġat ra
Ġie pl
Äģc ijÄģs
Ġgais mas
G atav
Ġt on
Ġs eju
Ġap kalp
ej Äģm
ec om
Ġklien tiem
Ġpos mÄģ
iet e
ĠpÄģr vÄĵr
Ġ5 00
L s
Ġpiet r
Ġuzdev umu
C eÄ¼
Man a
ĠÄ· ipl
ĠmÅ«z ika
Ġstud iju
Ġw eb
ĠplÄģn s
Ġfor Å¡i
Ġpie p
Ġnek Äģdi
Ġtr ak
Ġapm ÄĵrÄģ
Ġaugst u
Ġsaj Å«tas
Ġkv ad
Ġiev iest
ĠnorÄģd Ä«ja
Ġdarbiniek i
Ġvis os
Ġpal as
Ġinteres antu
ĠjautÄģj umi
Ġtransp orta
ie Å¡anas
Ġl Å«dzu
ieg l
Ġvec Äģku
Ġkar a
Ġizt eikt
Ġnem ain
1 6
eic Äģs
Ġkar j
Ä«tÄģj am
zem es
ĠmaÅ¡Ä«n u
st arp
Ġne man
Ġc ivil
eÄ¼ us
Ġk audz
Ġuz ÅĨemt
ais n
Ġst eidz
ĠK om
Ġgatav a
Ie priekÅ¡
Ġt v
ti pr
Ġin sp
oz Ä«m
Ġmilj oni
Ġal tern
Ġj os
Äģl is
Ġliet otÄģji
Ġpir kt
Ġtransp ort
Ä¼au ju
g um
Ġ Uz
ar us
Ġjaun us
Ġnet Äģlu
Nez inu
et d
Ġmaz Äģ
Ġprezid ents
ĠmÄģt e
x y
oj usies
ĠpriekÅ¡ st
Ġsh Äĵm
atv ed
Ġak adÄĵm
ĠdaÅ¾Äģd os
ĠlabÄģk ais
ĠvÄĵrt Ä«bas
Ġvari ants
Ġk n
Ġl omu
Ġpam atu
Ġizd odas
ĠnÄģk amÄģ
Ä«gÄģk ais
ĠmÄĵÄ£ ina
B al
e dr
Ġr aud
ĠI nd
Ġsat urs
ad om
od r
Ġnep Äģrt
ĠplÄģn u
Ġkonkur Äĵts
ussk ap
M Å«s
Äĵt ikas
K ar
lik a
Ġnod aÄ¼as
Ġdef in
at i
it es
Ġpie b
ĠdzÄ«v nieku
vÄĵr a
Ġvajadz Ä«bÄģm
% ,
Äĵ Å¡anÄģ
Ġj Å«tas
Ġgad s
ĠD r
Ġsim p
Ġaud itor
Ġeks ist
Ġatl aid
Ġtelp Äģ
IzrÄģd Äģs
T S
Ġ et
at l
Ġm Äģko
Ġat krit
Ä«v s
Ġaiz mugur
Ġbal l
Ġcentr s
ĠapdroÅ¡ inÄģÅ¡anas
J Å«s
Ġd Å«
Ġb aig
inÄģt o
ĠvÄģrd i
Ġprogram mat
Ġrezult Äģtus
ĠkompÄģn ijas
ĠautomÄģt iski
Ġparedz Äĵta
Ġper f
2 5
Ġpie rakst
Ġaugst sk
ĠmÄģt es
Ġun ik
Ġst rau
Å«r mal
Vis pÄģr
auj as
ĠiedzÄ«v otÄģjiem
Å¡ aub
Ġd emonstr
eik umi
niec Ä«bÄģ
Ġkam pa
k om
Ġt oties
ik tu
ul aik
ant Äģ
Ġkon centr
Ġbez darb
Ġid ent
Ġner eti
Ġt ajos
is s
ĠpÄģr Äĵjiem
ĠdzÄ«v ojam
Ġfot ograf
Ġauk st
Ġsatik smes
f a
Ä«d u
Man u
Ġpakalp ojumus
Ġautobus u
Ġ olu
al iek
Ġar m
ĠÅ¡ Å«
Ġpirm ie
Ġzem Äĵ
Ġkol ektÄ«v
Ġsarakst Äģ
ap z
uÅ¡ os
gal es
lÄģ g
Ġ201 3
Ġviedok li
Ġnozar es
Ġz ib
tr Äģd
tel ecom
% .
gu dr
ceÄ¼ a
Ġpie rad
inÄģj Äģm
ĠtÄģd us
Ġprof il
Ġb aid
al u
Ġat ver
Ä«n i
Ġpan Äģkt
Ġatkl Äģt
ĠRepublik as
Ġs ant
al v
Ġat n
Ġsav ai
Ġvien reiz
ĠtÄģd iem
Ġapm Äģc
ne tu
ĠpÄĵt Ä«juma
Ġiedom Äģties
A v
c ionÄģl
Ġ au
Ġ og
Ġcep eÅ¡
ĠvÄ«rie Å¡u
Ġd us
Ġg aÄ¼u
oÅ¡ ajÄģ
Ġpag riez
Ġdr usku
o ÅĨu
r et
v ietu
Ġne iet
Ġc m
oj iet
Vis maz
ĠAl eks
ĠÄ ª
ĠpÄĵdÄĵj Äģs
ĠsalÄ«dz inot
ĠlÄ«dzek Ä¼iem
cen Äģr
Vien kÄģr
1 8
Ġp Ä«
Ġk Äģju
em z
Ġinteres i
R edz
p iemÄĵram
Ġpiln s
Ġstarp Äģ
ĠÄ£ en
Ġskaist a
Ġvis ticamÄģk
Ġz elta
Âł čĊ
Ġaiz stÄģv
Ġkom bin
ĠpieÅĨem ts
Ġkabin ets
Ġsav os
Ġsitu Äģcijas
Ġ15 0
Ġgabal u
Ġkilom etru
TÄģd ÄĵÄ¼
irs n
Ġ ĠčĊ
Ġb iks
Ġr ei
Ġvec o
Ġiec ien
ĠJelg avas
Ġgrib i
Ġatst Äģt
Ġperi odÄģ
at ur
Ġb il
Ġnes p
Ġgar Å¡as
Ġnos p
Ġplast mas
L iek
S iev
in os
ĠL ond
inÄģ Å¡anÄģs
Ä«z i
Ġ200 6
Pirm Äģ
Ġgrup u
Ġneliel a
Ġled usskap
A ts
Ġ ;)
Ġj Äģl
ig ar
ĠgadÄ«j umu
Ġorganiz Äģcijas
Ġsaul e
g i
Ġs ign
Äģt e
Äĵt ajiem
Ġko ku
Ġpiedal Ä«jÄģs
Ġiepaz Ä«st
Ġnodok Ä¼u
Ġs aukt
Ġman iem
Ġpag asta
e ÅĨiem
Ä« ri
Ä«t ie
Ġpl ak
aug ust
ĠpilsÄĵt a
Ġie ÅĨÄĵm
Ġlai p
Ġdarb Ä«ba
ĠdaÄ¼ ai
I D
Ġat grie
iniek iem
Ġbur k
ol lo
ĠA ug
Ġnes katoties
ĠlÄ«m eni
Ġbur t
Ġ0 1
Äĵz ek
ĠbiÄ¼ etes
S ar
en as
ĠlÄ«dz Ä«gs
Ġdom Äģm
ing u
Ġ ÅĨÄĵm
ekl ar
Ġsek ot
ĠsÄĵr ijas
b ola
Ġj Äģk
ĠvÄĵl ÄĵÅ¡anu
Ġ2 9
ĠvairÄģk u
Ġatz ina
ĠpriekÅ¡sÄĵd ÄĵtÄģjs
n ei
Ä«tÄģj us
man is
ĠÄ »
Ġproces a
Ġaiz v
atÄ«v a
Ġplat form
X X
Äģr iem
or ts
Ġpie ÅĨÄĵm
Kop Å¡
ĠjautÄģj umus
Ġtap Äĵc
ĠaÄ£ent Å«ras
ij am
Ġpie st
ĠgrÄģmat Äģm
Ġkonkur s
ĠvÄģc u
6 0
Ġ y
Ġsadz Ä«v
Ġn ark
Ġiz dzÄ«v
Ġnek Äģds
Ġizmant oÅ¡anu
ĠvienkÄģr Å¡a
Ġmod er
i or
Âł ĠĠ
Ġjaun i
elf i
Ġm Äģja
oj uÅ¡ies
ĠP at
Ġnez inÄģm
Ġnotik umiem
Ġaizsar g
ar Ä«
gad am
ĠjÄģ iet
ĠnepiecieÅ¡ amo
inÄģju Å¡i
Ġkontrol es
Ġpres es
B iju
Äĵl a
Ġnet rauc
Ġtelef onÄģ
Ġproduk ts
Ġkomand u
ĠtÅ«r isma
R eiz
S Äĵdes
ot er
Ġaiz brauc
ĠspÄĵk a
ĠiP ad
Ġar gum
oj amo
uÅ¡ ie
iev ien
Ġ3 1
Ġfil mÄģm
Ġgrib Äĵja
Ġied arb
Ġtek st
Ġnevajadz Äĵtu
L iet
o od
Ġ /
is ta
Ġpl ud
ĠV ald
Ġsviest u
J asm
b e
Ġm it
ĠâĢ ĺ
oÅ¡ Äģm
Ġcit os
Ġ3 5
Ġproduk tiem
Ġdokum ent
Ġstik la
am ie
Ġpar al
Ġpa ÅĨemt
pr ec
Ġiepaz Ä«ties
Ġpunk ts
Ġbru ÅĨ
R Ä«gas
Äģ Å¡
pr ogram
ĠplÄģn ots
Ġkomp ens
Ġgl ob
Ġatrad Äģs
Ġministr s
al k
Ġc ip
iet es
Ġsag rieÅ¾
Ġstu l
ĠÄ£ ener
glÄ«t Ä«bas
ausk as
Ġr up
tu v
ĠvÄĵl ÄĵÅ¡anÄģs
Ġsadarb Ä«bas
ĠrÅ«p Ä«gi
ĠLiep Äģjas
ĠV ec
rie d
Ġnesapr ot
Ġb ater
ien os
Ġsp iest
Ġel p
Ġuzrakst Ä«t
Ñ Ĥ
Äģ Å¡u
ie rÄģ
Ġl Å«dz
Ġr ag
Ġvis d
Ġnep iln
ĠJ Å«s
ĠdaÄ¼ Äĵji
Ġsaglab Äģt
Ġkaf ej
j ot
Äĵj usies
Ġsp Äĵja
Ġlaik rakst
Ġpolit ikas
B rauc
N eb
Ġlaik iem
ĠE x
Ġkrit Äĵr
oj umam
Ġdrau gs
Ġattiec Ä«gi
Ġsaist Ä«ts
ĠizstrÄģd Äģt
ĠdalÄ«b niekiem
ĠmÄĵneÅ¡ iem
Ġsasnieg t
Ġno form
Äģn iem
Ġvad Ä«bas
Ġsnieg a
S K
l auk
it y
atÄ«v Äģs
enc Äĵ
Ġform as
ĠvÄ«rie Å¡i
ĠjÄģd ara
Ġiedves m
F r
Ġp ic
Äģl os
ĠN os
ĠreÄ£ ionÄģl
I T
Ġies kat
Ġredz u
ĠparÄģd Ä«t
Ġproduk tus
Ġviedok Ä¼a
PÄĵdÄĵj Äģ
A B
P ied
z d
Ġv ingr
Ġlog a
Ġef ektÄ«v
Ġb Å«d
Ġtr am
Ġizd om
Ġvalst i
darb Ä«bas
Ġkompl eks
ĠP Äĵt
eÅ¡ a
Ġties u
Ġrun a
Ġ ''
Ġap ak
Ġvar as
ĠÄ«p atn
ĠsastÄģv Äģ
Ġnoskat Ä«ties
ĠoriÄ£ in
J eb
er Ä«
ol og
Ġliel isks
Ġjaun ieÅ¡u
Ġpag Äģt
ĠÄģtr ums
ĠzÄģl Äĵ
ĠL MT
Ġpapild u
Ġris inÄģjums
T ev
Ġm atu
Ġvien ai
ĠpÄģr Äĵjo
Ä«n es
ĠJ ums
Ġk aul
Äĵk ab
Ġpas m
ĠD ien
oc k
Ġnotik umu
T oties
Ġ Åħ
Ġs cenÄģr
en Äģ
Ġst ab
ĠR Ä«gu
ĠdaÅ¾ Äģm
Ġek sk
ĠplanÅ¡ etd
in oties
Ġap gu
ĠR ob
ĠnozÄ«m es
ĠvÄĵj Å¡
b alst
Äģj oties
Ġpie lÄģg
Ġpag r
Ġ Ä«r
Ġt ajÄģs
Ġb Äģzes
Ġf an
ĠA iz
ĠI tÄģl
br it
ĠkvalitÄģt e
ĠmÄģr ket
a Ä·
al g
Ä«j umos
Ġpas aÅ¾
ĠK on
ĠP l
Ġatv aÄ¼
ĠV Äĵst
Ġal u
me tu
Ġnees am
ĠvÄĵstur es
B eidzot
p e
Ġd ikti
Ġrad i
Ġtek stu
Ġboj Äģ
ĠZiemassvÄĵt ku
l Ä«d
Ġm Äģk
Ġie j
ĠG un
ĠÅ¡Ä· Äĵl
Ġmetod es
ot es
Äģj Äģ
Ġizm Äĵr
Ġatbalst s
Ġmik r
ĠK at
Ġot rÄģdi
Ġnejau Å¡i
z i
ei tu
Ġpr oti
Ġ3 00
Ġvald Ä«ba
Ġatm iÅĨÄģ
ĠspeciÄģl i
Ġatsk aÅĨ
ĠteÄģt ra
Ġsertif ik
Ä«t us
aud a
ud Äģrz
Ġpiln a
ĠpÄģrstÄģv is
c ijÄģm
ag e
inÄģj ies
Ġkam eras
inÄģs ies
Ġsakar u
Ġmilz u
ĠkomentÄģr os
Ġbr iesm
ĠspÄĵl e
Ġbild e
Ġekonom ikas
e et
Ġm iz
Ġpamat Ä«gi
Ġfunk ciju
ĠnespÄĵj a
au ra
ĠS an
ĠM ac
Ġpad ara
Ġblog s
ĠlÄĵm ums
Ġfinans iÄģl
Ġsprie d
ĠÄ¼aud is
I M
P ol
Ġdaudz umu
lab an
ĠmeÅ¾ Äģ
Ġol imp
Ġtar if
c m
Ġk uk
Ä¼ Å«st
ir kt
ĠÅ¾ el
ĠÄĵk u
Ġuzb Å«v
4 5
m ent
Ġs iera
ĠÄ£ e
ĠlielÄģk oties
ĠbrÄ« Å¾iem
Ġvel ti
apr ot
Ġiz liet
Ġizm Äĵra
Ġzem Äģk
ĠvÄĵrt Ä«ba
Ġk av
Ġie interes
Ä«j Äģmies
Ġf aktu
Ġgar d
Ġapj om
Ġservis u
not aÄ¼
ĠjÄģm aksÄģ
Ġg Å«t
ĠK l
ĠP as
zÄ«m es
ĠplÄģn a
Ġmain Äģs
n os
Ġiz aic
ĠK Äģr
ĠG ala
Ġdiv desmit
ĠplÄģn o
ĠspÄĵl Äĵt
Ġministr ija
Ġm itr
Ġuz skait
ĠZ em
ĠÄ£im ene
Ġteic u
Ġklaus Ä«ties
B eig
h ol
Ġs ug
Ġnod aÄ¼a
Ġsak u
Ġskat oties
ĠÄ«paÅ¡ umu
Ġautor i
ĠkolÄĵÄ£ i
r iek
Ġm ieru
Ġpl Å«s
Ġpiln u
Ġskat Äģs
Ġizg atav
Ġpsih oloÄ£
Ġ ost
Ġnum uru
Jasm Ä«ne
c es
Ġp ienu
Ġm Ä«n
Ġm eg
Ġlab o
ĠfotogrÄģf ijas
ĠGala xy
l y
Ġuz rÄģd
ĠA g
Ġgrib Äĵtos
Pirm kÄģrt
Ġfakt iski
U S
Ġne lik
ien e
et er
Ġre p
Ġpam od
Ġsamaz inÄģt
Ġaplik Äģcija
Galven ais
Ġc il
Ġpie dzim
Ġre cep
Ġliel Äģs
ist e
Ġizs lÄĵg
Ġatkar Ä«gs
Ġsez onas
I d
Äĵt Äģm
Ġnevar Äĵtu
Ġpiedal Äģs
Ġsant Ä«m
l aÅ¾
Ġv iÄ¼
Ġl eÄ£
ig a
Ġfor mu
ĠtÄ«m ekÄ¼a
M S
in iet
Ġg Äģz
Ġiz sp
Ä· Äĵr
Ġvis Äģdi
Ġsag Äģd
Ġbild i
Ġfunk cion
o Ä¼
Ġv Äģrt
es u
Ġpr op
Ġliel i
Ġziem Äģ
Ġaktiv itÄģtes
Ġapd raud
Ġre ak
Ġkl Äģst
nes e
Ġmarat ons
enerÄ£ ijas
ĠlÄĵn i
Ġraj onÄģ
Ġdai Ä¼
k ap
Ġt aust
Å« Å¾
Ġkr Å«t
ic s
Ġliel iska
Ġnevar Äĵju
Ġman Äģm
iv e
ĠR aim
dien Äģm
Ġvakar a
ĠpaziÅĨ oja
od es
ĠsÄģk ums
Ġier ast
V iÅĨas
ÅĨ Ä£
Ġat nÄģk
Ġskol Äĵnu
Ġpan ta
Ġmam mas
Ġsp Ä«ti
ĠpÄģrr aid
Ġplud mal
Äģ Å¡anu
Ġm us
Ġd eklar
dz e
ĠkÄģ z
ĠV id
Ġiet ilp
Ġkam eru
Ġnoteik umiem
Ġneiz dev
Ġnost ipr
Ġdarbiniek iem
ek tÄģ
Ġaiz st
Åł ie
Ġmaz as
Ġpak aÄ¼
Ġiest ÄģÅ¾u
ĠjÄģs aka
Å Ĺ
Ġiz ÅĨem
Ġvien laicÄ«gi
ok tob
Ġadres i
Ä ±
ĠS m
Ġnep ietiek
ĠI r
Ġgar Å¡u
Ġdom in
re Ä£
Ġviedok lis
Ġtum Å¡
P A
T am
Ġ x
Ġp aj
Ġs ieru
ub il
ĠgrÄģm atved
Ġvajadz Ä«bas
Ġproduk ti
Ġveikal a
Ġneliel s
Ġsarakst u
ĠÄįetr as
Ġaizd om
J aut
Ġiz lÄĵm
Ġc ieÅ¡
Ġap tur
Ġtuv umÄģ
ĠpÄĵt Ä«jumu
darb u
Ġdem okrÄģt
Åħem ot
S kr
Ġs od
ip t
Ġnees i
Ġvers ijas
B l
Ġd ej
ik am
Ġat g
Ġinform Äĵja
ĠraÅ¾ oÅ¡anas
ĠkopÄĵj Äģ
c i
o Ä¼u
v aj
Ġl ak
um t
Ġc ie
oz es
ĠbrÄ«v i
Ġapg aism
Ġp up
Ġr iek
eik ti
ĠÅ¡Äģd iem
Ġneiz mant
ĠmeÅ¾ u
Ġpul ver
S v
Ġs it
Ġiz nÄ«c
Ġaiz m
Ġnep ied
Ġpag ar
ĠiepriekÅ¡ Äĵjo
Ġatbild i
ĠsistÄĵm Äģ
pus Äĵ
Ġresurs u
Ġs irsn
Ġne run
Ä«g uma
Äĵs i
Ġdaudz ums
Ä«gÄģk a
Ġsaist Ä«bÄģ
Ġbeidz Äģs
Manu prÄģt
ij iem
Ġpus ot
ĠO ne
ĠkompÄģn ija
Ġt Äĵjas
Ä· Ä«
Ġsal as
ĠspÄĵk s
Ġjebkur u
ĠmÄ«k st
Ġaic ina
Ġkaf ijas
Ġt Äĵju
Ġm usku
ĠpÄģr b
Ġgar Äģ
Ġveid ojas
Ġab iem
ĠierÄ«c Äĵm
Ġdek or
am ajÄģ
Ġvid i
Ġdat iem
Ġtren iÅĨu
ĠsaÅĨÄĵm a
SÄģk ot
Ġv er
Ġm Äģm
Ġr ast
or Ä«t
oÅ¡ ajÄģm
Ġredz Äĵju
ĠÄ ¢
Ġatgriez ties
ĠtÅ«kst oÅ¡iem
Ġemoc ionÄģl
b iedr
e e
e Äģt
Ġs aÅ¡
ag a
Ġnos lÄĵdz
Ġot ram
ĠuzÅĨÄĵm umi
Ġbiju Å¡as
ĠmÄ«lest Ä«bu
ĠkÄ¼uv usi
k aut
et am
Äĵt us
Ġpr ior
ĠM ad
Ġ200 4
Ġproc ed
Ġatcer Äĵties
Ġalkoh ola
Ġvisb ieÅ¾Äģk
Ġv ilt
ĠvÄĵl mi
Ġpal iks
Äĵn i
Ġviet Äĵjo
Ġh um
ĠpÄģrsteig ums
V aj
ĠzÄ«m es
ĠsÄģkotn Äĵji
k ul
n or
Äģd Äĵt
Ä«t ajÄģ
Ġst art
Ġtel pu
Ġinteres e
Ġsabiedr Ä«ba
f f
Ñ ģ
Äģt am
Ġap zÄ«m
Ġvar Äĵju
Ġliet oju
Ġas f
Ġmed iju
Ġobj ektÄ«v
ĠpiedÄģvÄģj umu
1 00
D Å¾
Es am
Ġneat bilst
Ġ200 0
Ġab Äģm
Ġmuz ik
Ġvesel Ä«bu
ĠtrÅ«k ums
Ġmirkl i
Ġne liet
Äģs ies
on os
ĠLatv ijai
oz of
akt Ä«v
ĠÅ¡au sm
ĠnÄģv es
Ġ( âĢľ
Ġdarb am
Par asti
Ġkal na
Ġnen ozÄ«m
Ġfr anÄįu
Ġ eti
Ġp ers
Äĵj umÄģ
Ġr ai
âĢ ³
Å¾ os
ti on
âĢĵ âĢĵ
pas ta
Ġistab as
1 7
a x
Ġg ait
ĠpÄģrt rauk
ĠIntern eta
ĠÄ£imen Äĵ
ĠdaÅ¾ u
ator iem
Ġpies pied
Ġpirkst u
Ġfai lu
Ġb Å«Å¡u
Ġne tr
Ġsap l
Ġtam lÄ«dz
ties as
Ġsiev a
Ġpieej amas
ĠpagÄģjuÅ¡ ajÄģ
Ġpas tipr
Ä«n Äģ
Ġeks Äģm
m us
Äģn us
ĠkÄ¼ Å«s
Ġatst Äģj
Äģk us
ĠpÄģr dzÄ«v
Ġska ÅĨas
C ep
Ġuz lik
ĠkÄģd ai
ekt iem
Ġac i
ÄĢ r
odu c
Ġform ul
ĠgarÅ¡ o
Ġkont akt
E K
Ð ½
in st
Ġvis notaÄ¼
aut as
Ġter min
VÄĵl Äģk
Ġpaskat Ä«ties
ĠreÅ¾Ä«m Äģ
b o
Ġr ip
ek ciju
ist ab
Ġvalst ij
JÄģ at
ĠFr anc
Ġatsp oguÄ¼
Ġc igar
Äģl us
isk ajai
ain Äģs
Ġsabiedr Ä«bu
Ġsacens Ä«bÄģm
Ġkomis ija
3 5
Ġgr Äģv
Äģn ijÄģ
ĠK o
uÅ¡ Äģ
ĠbÄĵrn udÄģrz
Ġnod ev
ĠskaÄ¼ i
b log
v el
Äģ Å¡ana
at Å«ras
er us
ĠâĢ ¦
em i
Ġsk ap
ec t
ĠF ir
Ġkilom etrus
ĠvienkÄģrÅ¡ s
Ġpadar Ä«t
Ġleju piel
ĠsvÄĵt ki
Ġatm osf
ĠSig uld
Ġd eju
ek cija
Ġz ini
Ġst res
Ġek str
ĠmÄģc Ä«ties
ĠtÄ«k lÄģ
Ġris inÄģjumu
noz Ä«m
p ÄĵÄ¼u
s av
Ġ ejot
Äģd os
Ġpie dz
pr at
Ġsv ec
Ġdom Äģj
Ġrez erv
Ġapg Å«t
Ġskrien ot
Ġrek ord
Äģl am
ol l
ĠL ab
ĠE n
ĠizvÄĵl es
Ġnosauk t
Ġiz ÅĨÄĵm
Ġinter netu
ĠceÄ¼ iem
inu x
Ġ200 5
Ġc ietu
ek om
Ġko ord
ob i
Ġbr Å«n
Ġietek mi
d aÄ¼as
ar iem
Ġd el
Ġat las
Ġrakst Ä«ju
Ġsm ÄĵÄ·
Ġsl odz
ĠbrÄ«d is
Ġsol a
amb or
ĠNos krien
A tr
I ed
f ebru
Ġ ej
ĠG ar
Pr et
mai jÄģ
ard s
CilvÄĵk i
Ġaz arts
ÅĨ ot
iek u
ir t
ol us
Ġdiv Äģs
Ġsek m
ĠlielÄģk ais
Ġneiz d
Ġsnieg s
viet a
Z iem
o ur
Ġ ev
Äģc u
Ġsav ulaik
Ġprezid enta
N et
i Ä·u
Ġnoteik tu
ĠlÄ«g uma
ĠDaug av
ur i
Ġin ici
ĠA nd
Ġaiz vad
ĠV il
Ġbr Äģ
kait ot
A L
Ġuz aic
ĠÅ¡ ÅĨ
Ġan gl
Ġmod elis
Ġdzies ma
Ġvirtu ves
Ġprincip Äģ
L Å«dzu
u ta
iet im
aÄ¼ Äģm
Ġaiz pild
ain is
ĠpasÄģk umi
Ġtap a
ĠnepÄģrt rauk
i i
Ġpal aist
Ġgrib ÄĵjÄģs
ĠÄ«paÅ¡ s
ĠmÄĵÄ£ inÄģt
ĠspeciÄģl isti
7 0
Ä«t ei
ĠS atvers
ĠM eÅ¾
Ġinter pret
ĠbÄĵrn Ä«bas
Ġdev a
Ġslim Ä«bas
Ġlat iem
Ġuzb ruk
en iski
or g
aid Ä«t
Ġjaun ieÅ¡i
Ġmin Äĵto
eg ul
Ġnom et
Ġtil ta
Papild us
E T
Ġpar un
ĠÅ¡ aur
ok ur
Ġsp Äĵjas
Ġpas p
ĠM ai
pil Ä«
Ġizc Ä«n
Ġat kÄģp
ir n
Ġie lik
ĠvÄ« ru
ĠlÄ«dzek Ä¼i
Ġemoc ijas
ĠÄģrkÄģrt Ä«gi
ĠMas k
Ġkvad rÄģt
V al
b rÄ«d
Ä«g ums
Äĵl u
Ġlab Äģks
Ġput n
ĠsÄĵn es
P il
Ġt avu
uÅ¡ a
sp Ä«d
Ġfini Å¡a
Ġplastmas as
ot ie
en ei
Ä«t ajiem
pr ied
ekl Äĵt
Ġinform Äĵ
Ġskat s
ĠuzÅĨÄĵm umiem
ĠÄĵd iens
Ġmet ru
Ġsol i
Ġapj omu
Ġatkar Ä«bÄģ
Äģ Ä£
Ġat lÄ«dz
Ġpas pÄĵj
Ġinteres es
Vis as
etr iem
Ġ19 8
Ġs lÄĵdz
Ġg ur
Ġpiec iem
ĠpÄģrliec inÄģts
Ġkons erv
ĠziÅĨ o
ĠnÄģks ies
B C
P al
V il
Ġc im
ĠspÄĵl i
Ġprec es
kai ta
Ġb aÅ¾
Ġvec ais
Ġperson ai
inot eÄģt
Ġmilj onus
Ġabsol Å«ti
reÄ£ istr
Ġ ener
Ġno Å¾Äĵl
Ġsp Äĵtu
ĠS h
Ġkr Äĵjumu
Ġnoteik umu
Ġmaks Äģj
Ġ @
Äģs im
er im
Ġies lÄĵg
Ġdien n
Ġ4 00
ties Ä«bu
ĠizvÄĵl i
Ġsabiedr isko
Ġnogal Äĵ
N el
Ġ ast
Ġj ubil
ej ai
Ġliel veik
ri g
ĠceÄ¼ ojuma
Ġ4 5
Ġvesel u
Ġpu i
ĠtÅ«kst oÅ¡i
Ġdzied Äģt
Ġpulkst en
ĠLietu vas
Jeb kur
e ÅĨus
o Å¾u
Äģm o
Äģt es
ĠpÄģr ÅĨem
Ġaug u
Ġatbild e
ĠkrÄģs a
ĠLiel brit
Ġno lik
ak Äģs
ac h
Ġh ok
Ġorganiz Äģciju
Ġgand ar
viet as
Ġner v
Ġkomun ikÄģcijas
Ġdirekt ors
Ġdeput Äģti
b al
z ol
os a
audz is
uk st
kar t
ĠvÄ«rie Å¡iem
Ġlat i
G od
f ic
Ġ ain
er ts
Ġuz run
Äĵl Äģs
ĠR Å«
ĠR Äĵzek
Ġgar a
ĠdaÅ¾ kÄģrt
ult Å«ras
ĠstÄģst Ä«ja
Ġbrauc ot
Ġnoz iedz
ĠtreÅ¡ ajÄģ
ĠUn ivers
ĠpriekÅ¡sÄĵd ÄĵtÄģja
Äªp aÅ¡i
Ġu r
tr is
Ġkr ÄģÅ¡
ent am
Ġliet otÄģjs
alitÄģt i
Ġuzv Äģrd
Ġuzlab ot
n Äĵs
Ñ Ģ
Ġs ens
ek Ä¼i
Ġtr Å«kst
Ġizm eklÄĵ
ĠvÄĵst a
Ġsol is
Ġatv iegl
ĠstÄģvok li
2 4
O N
k ad
Ġpr im
Ġz ÄģÄ¼u
Ġtik Å¡anÄģs
uÅ¡ ajiem
ĠO S
Ġas ar
Ġrezult Äģtiem
ĠievÄĵr ojami
Ġrud enÄ«
S an
n od
Ġ aust
Ġs ekt
Ġl am
Ġl eg
ur e
Ġaiz ved
Ġkam era
ĠH el
ieÅ¾ ot
Ġrun Äģjot
Ġotr Äģs
ĠpasÄģk umÄģ
Ġiegu va
) :
Ġno ÅĨem
ek o
Ġtr ener
rÄ«z Äģk
Ġbeidz as
Ġkval if
ikl Äģv
b l
at r
Ġiet eic
Ġvajadz Ä«ga
ĠizvÄĵl as
ĠsociÄģl Äģ
ĠmÄģksl iniec
ĠpastÄģst Ä«t
Fil ma
Ġlai mes
Ġdz ej
Ġpl aÅ¡i
and in
ĠstÄģv Äĵja
Ġpavasar a
Ġpens ion
Ġtik u
Ġsp r
ĠvÄĵl u
ĠÅ¡Ä· Äĵr
ĠplÄģn oÅ¡anas
alitÄģt es
Ġizc il
ĠapstÄģk Ä¼i
ĠpÄģrbaud Ä«t
ĠatseviÅ¡Ä· u
Ġpens iju
Ġklub a
ĠaprÅ«p es
l or
Ġ Q
Ġk ub
in oÅ¡s
Ġka z
Ġf ak
ĠÄ· Ä«n
E irop
Ġiz sm
Ġjau ki
Ġf ol
Ġmilj oniem
Ġsul u
ĠmÅ«Å¾ Äģ
o ÅĨa
Ġd ec
og ur
pr ing
Ġmin Å«Å¡u
Ġtu al
ier iem
aim niek
Ġgul tÄģ
Ġgai Å¡
b ur
u Å¡u
ij i
Äĵl es
Ġsp Äģr
Ġnes as
Ġizmant ots
alitÄģt e
Ġkonkr Äĵtu
ĠsÄģp es
Ġmaiz es
ĠVÄĵst nesis
i x
Äĵj oÅ¡o
el Äĵ
Ġtik mÄĵr
ĠP adom
Ġkat ras
Ġsaist Ä«ti
pilsÄĵt as
ĠÅ¡okol Äģdes
Ġneveik sm
ĠcepeÅ¡ krÄģs
p or
Ġp ogu
Ġb Å«
Ġg aÄ¼a
ĠkÄģd ÄĵÄ¼
ĠM K
emb rim
ĠlÄ«g ums
ĠtÄĵm a
b an
Ä«g ajÄģm
Ġsp ilv
iz Äĵ
ĠS l
ĠS om
Ġvec Äģ
ĠÄģr valstu
Ġlatv iski
Ġmekl Äĵj
Ġsird i
Ġind ustr
Pag ÄģjuÅ¡
ĠnÄģkot nes
Ġkun gs
Ġamer ikÄģÅĨu
Ġpievil c
r r
am iem
ei rop
or Äģ
ĠÅ¡ ur
Ġman Ä«
Ġcit am
Ġmir k
ĠreÄ£istr Äģcijas
ĠIgaun ijas
ek Ä¼iem
iz rÄģd
Ġkr Ä«t
ĠvÄ« ri
Ġsarun u
vad u
9 0
P iek
S D
s nes
Ġs Å«d
es ti
Ġj anv
os s
Ġc ieÅ¡i
Å¾ ot
ek tiv
Ġliel ais
ĠK uld
Ġpus stund
Ġsak r
Ġsaj Å«t
Ġmat emÄģt
Ġag res
Ġstand art
ĠmÄĵrc i
Pav isam
Ġpat eik
uÅ¡ ais
ekt us
Ġnen os
Ġgais u
ĠjÄģp ie
ĠtreÅ¡ Äģ
ĠdÄĵl s
K Äģda
Äĵ p
Ġs om
Äģm Äģ
Ġpar am
od i
Ġatbild Ä«bu
ĠatÅ¡Ä·ir as
K Äģd
T V
is a
ĠK Äģ
ig ur
Ġpiek lÄģj
Ġsvar Ä«gs
Ġmet Äģla
Ġkonkur sa
Ġgabal iÅĨos
Ġnodarb inÄģt
Ġservis s
ĠLat telecom
Ġneatkar Ä«gi
Rezult ÄģtÄģ
Ġm ies
ed a
ĠR ad
Ġaug ust
Ġpiln Äģ
ĠÄį etri
ojam as
Ġsieviet i
ĠklÄģt bÅ«t
ord ea
ÄĵtÄģjs istÄĵm
Ġsilt um
vÄģrd i
I J
f in
Ġm Ä«t
Ġjau d
ĠpÄģr c
ĠP S
ĠjÄģ g
ĠjÄģ ÅĨem
Ġapm ai
Ġoblig Äģti
Ġbul j
Ġk inoteÄģt
at kar
es a
ĠÄ£im eni
ĠmÅ« Å¾u
ĠBr Ä«v
ĠizmÄĵÄ£ inÄģt
J Äģs
M L
h a
Ġt av
Ġap n
Ġnek av
Ġgar u
Ġbr Å«
ĠÅ¡Äģd us
At kal
Ġmod es
Ġtic is
Ġnodok Ä¼a
Ġol Ä«v
Ġsmu ki
andin Äģv
N ol
l aid
en Äĵ
Ġpie z
Ġz iÅĨa
ĠD om
Ġdaudz veid
Ġpad al
ĠÄ«paÅ¡ a
Ġvakar u
pas tu
Ġkaf iju
ĠdÄģv anu
Ġatra Å¡anÄģs
d al
Ġg Äģzes
Ġkr astÄģ
and rÄ«z
Ġatp Å«tas
Ġaudz Äĵk
Ġdistanc i
Ġpavasar Ä«
A D
Ġne lab
us e
Ġap av
iv ud
ĠÄ«paÅ¡ nieks
Ġlauk umÄģ
Ġkust Ä«bas
Ġbail es
Ġmeh Äģnis
I eg
S tr
T Äģds
m ju
Ġp Äĵrk
Ġd ipl
Ġg ov
Ġvai nas
Ġvis liel
inÄģ Å¡anÄģ
Ġab u
Pirm o
Ġdzim umu
Ġni ans
2 1
Ä« Å¡anÄģ
Ġies Äģk
Ġfil ozof
Ġnoteik ts
Ġdokum entus
Ġg raud
Ġuz k
ĠL E
Äĵk s
Ġpam Äģc
Ġbez gal
Ġsm ilt
Ġsas lim
Ġnegrib u
Ġup es
Ġfoto apar
Ġtaisn Ä«ba
9 9
Ġsp ie
Å«st ies
ĠpalÄ«dz Äĵs
Ġaps aimniek
ĠsalÄ«dz inÄģt
Ġobj ektu
Ġpos ms
O T
V iÅĨam
Ġt ava
Ġs aut
Ġr iet
ĠpÄģr sp
ĠstrÄģd Äģj
liek u
Ġ201 4
ĠtÄĵm as
ĠpastÄģst Ä«ja
Ġm ult
Ġman tas
Ġizm is
Ġrakst Äģ
Ġstandar ta
Äģr is
Ġc ept
ĠnozÄ«m i
Ġizst Äģst
Ġotr ais
Ġdol Äģru
u dz
Ġ ÅĨ
Ġk ais
ak ot
ĠpasÄģk umus
Ġnez ina
Ġtek sta
Ġlietot Äģja
ĠÅ¡au b
ĠattÄģl umÄģ
ĠkrÄ«z es
E N
E k
Ġm ur
Å«k a
Ġdev os
Ġmeit enÄĵm
Vien Ä«gais
Ġrind Äģ
Ġaktiv itÄģt
Ġneizdev Äģs
F i
Ġiz brauc
ir kst
ed er
ant iem
Ġties Äģ
Ġval od
Ġuzz inÄģju
Ġb u
Ġpr ov
it s
Ġsk arb
ĠjÄģ ap
Ġvalst is
ĠpriekÅ¡ m
Ġpies p
Ġpiec as
Ġmilj onu
ĠkÄ¼Å«d as
Ġs lud
Ġpie Ä¼auj
ĠpÄĵc pus
ĠbÄĵrn Ä«bÄģ
auc a
Ġpaman Ä«ju
ĠstÄģvok lÄ«
O p
T iem
Ġiz gudr
ĠC entr
Ġsek ret
Ġpiec i
ĠpiemÄĵr s
ĠpÄģrd ot
Ġvirtu vÄĵ
Ä« Å¡iem
Å¾ am
Å¾ en
oj amies
ĠK as
Ġdien vid
ĠN u
atÄ«v as
Pr incip
Ġvies nÄ«cas
Ġkor pus
Ġteik tu
ĠekrÄģn s
ĠdziÄ¼ i
v ec
Ġ *
Ġre fer
Ġkon d
Ġit in
Ġnopiet n
Ġpolic ija
Kop Äģ
ĠtÄĵr p
Ġ %
ot ajÄģ
Å« Å¡anas
el a
Ġpl us
Ġveid os
Ġperson Ä«gi
ĠpÄģrst rÄģd
âĢ¦ .
ĠÅ¡odien as
Ġsviest a
VienkÄģr Å¡i
e y
Ġv Ä«z
ot nes
ĠÅ¡ amp
Ġie bild
od e
ĠpÄģr k
un dr
Ġmaz Äģs
Äĵju Å¡as
and as
Ġilg u
ĠnedÄĵÄ¼ Äģm
Ġdzird Äĵjis
Ġlat us
o ÅĨi
Ġt avs
Ġl Äĵk
Ġg odu
Ġie la
ul u
iz Äģcija
ub lic
ĠdÄģrz Äģ
Ġnark ot
L as
Ġv Äĵt
ai p
ĠpÄģr vad
rÄ« na
Ġh a
Ġpaz em
Ġmod ern
Ġskaist s
ĠdroÅ¡ Ä«bu
Å¡ ies
Ġne interes
Ġpie r
im a
Ġgal va
Ġak cijas
ĠJ Å«rmal
Pirm ajÄģ
ĠskrÄĵj iens
Ġdzird Äĵt
Ġkust Ä«bu
ĠrÄ«c Ä«bÄģ
b olu
Ġno kl
Ġsav Äģk
Ġ200 3
ĠVal mier
es mu
et Äĵm
Ä«t Äĵs
ĠtÄģd Äģm
Ġpav Äĵr
Ġuzskat Ä«t
ĠtuvÄģk ajÄģ
ĠDiev s
Ġbaz nÄ«cas
ĠDien vid
V Äģrd
Ġk ai
Ġl oma
iet a
em ts
rÄ« tu
Ġak mens
Ġpiln veid
Ġgatav o
ĠatÅ¡Ä·ir Ä«bas
ĠVents pils
c o
j aut
ab r
ĠV Äģcijas
Ġapm aks
Ġnop irk
inÄģs im
Ġaps Å«dz
Ġcuk urs
Ġlikum proj
B Å«s
N op
Ġk in
Ġg um
ĠÅ¡ t
auk u
Ġnoteik ta
Ġvakar s
ĠpiemÄĵr ot
ĠÄ«s z
Ġnost rÄģd
ĠattÄĵl u
Ġizkl aus
ÅłÄ· iet
Ġtransport lÄ«dz
ĠleÄ£ end
s Äĵ
ĠÅ¡ Å«p
ion Äģ
ĠnepiecieÅ¡ amas
Ä«gÄģk u
ĠlÄĵm uma
ĠsaÅĨÄĵm u
ĠnovÄĵrt Äĵt
Ġbi oloÄ£
Ġnoskaidr ot
ĠpÄĵd as
ĠgrÄ«d as
ĠmÄģrket inga
Ġs omu
Ġm Äĵb
ek Å¡
ru z
ĠpÄģrs niedz
Ġkred Ä«t
Ġstac ijas
Ġrom ant
Ġvizu Äģli
Ned audz
Ġgult as
D elfi
Ġk ÄģjÄģs
Äģv is
Ġlaik us
inÄģj umam
ĠG PS
Ġsag r
Ġsek as
ĠattÄ«st Ä«ba
Ġatbild Äĵja
Ġsum mu
) )
D iez
Ġne ier
Ġkl iedz
gad simta
Vis pirms
Ġnen o
Ġvirs rakst
Ġban ku
Ġpieaug ums
ĠpiedÄģvÄģj ums
Ð¾ Ð
Ġsub j
ĠNor vÄĵÄ£
Ġne Ä¼auj
ir a
ĠdaÅ¾ reiz
ĠN ik
Ġsl ink
ĠnepiecieÅ¡ ami
ĠattÄ«st Ä«t
Ġsast Äģd
Ġpu Ä·
ĠierÄ«c i
Kat ru
Ġservis a
Ġkonf lik
Ġaizmir s
Ġviel u
Ġviel as
uj or
al Äģ
or n
Ġgal v
niec es
ĠÅ¾ Äģv
Ġiev ie
Ġpan nas
Ġoper ÄĵtÄģjsistÄĵm
ĠpÄģrbaud es
ĠZiem eÄ¼
Ġdiz aina
odr oÅ¡
Av ots
Ġ #
Ġt h
an e
Ġm ald
Äĵj Äģmies
il les
Ġiz iet
or am
Ġz ud
ĠpÄģr ÄĵjÄģs
ok as
Ġh ost
Ġpiln var
Ġsapr otams
Ġpamat s
emb ris
Ġapstipr ina
Ġnesapr otu
Ġapgalv o
Ġattiek smi
op u
Ġatt ur
Lai ks
Ġiek r
Ġlas a
ber gs
Ġapj oms
Ġport ÄģlÄģ
Kat rÄģ
PaÅ¡ laik
Ġgad Äģs
ĠekrÄģn u
Ġprog res
ĠpriekÅ¡roc Ä«bas
K T
e ar
dz is
ĠÅ¡ ajÄģs
Ġned er
Ġbeig as
Ġskaist u
Gal u
Nek as
ĠiekÄģrt as
Ġr aug
Ġat ÅĨem
ĠÄ¼ au
Ġaut oru
Pr iekÅ¡
Ġal laÅ¾
Ġbiju Å¡
Ġmedic Ä«n
ĠacÄ«mredz ot
K Äģdu
c iet
Ä· us
Ġtr ans
ĠreÅ¾is ors
N ov
T rÄ«s
Å¡ oties
Ġpar lam
ĠB ar
Ġatt eik
Ġizd al
Ġpieej a
Ġapliec ina
ĠoficiÄģl i
ĠdrÄĵb es
J Äģp
T Äģda
ĠR iet
Ġpirm ajiem
Ġdom Äģts
ĠkÄģrt Ä«ba
Ġmat us
2 2
p al
Ġie brauc
Ġdaudz us
tur p
ĠspÄĵk iem
Ġizs lud
In dra
ĠÄģrzem ju
ĠtelevÄ«z ijas
K Äģrt
Ġn af
Ġm is
Ġap cep
el Äĵm
ĠlÄ«dz Ä«ga
Ġjo c
ĠpriekÅ¡ likums
Ġierakst a
ĠprofesionÄģl Äģs
Ġrecept es
ĠÄĴ r
Ġuzraudz Ä«bas
Ġtem at
p ak
om b
el p
Ġnes ag
Ġal g
Ä«z Äĵ
ĠuzÅĨÄĵm Äĵj
aliz Äģcijas
ĠY ou
Ġjum ta
Z v
ik Äģm
Ġf iks
Ġieg Å«tu
Ġvir k
ĠmaÅ¡Ä«n Äģ
inÄģtÄģj s
ĠatÄ¼aut ies
B A
K ÄĢ
g ars
Ġt aks
Ġm om
am os
Äģj ums
Ġap sk
Ġman ai
Ġatb rauc
ĠF il
Iz skatÄģs
Ġlauk os
Äĵv s
Ġkonkr Äĵti
Ġnok Ä¼u
ĠjÅ«t os
ĠmÄĵrÄ· iem
Tel ef
Ġn ama
Äĵj iet
ek u
Ġak ciju
Ġrakst ura
Ġrez er
Ġsvar Ä«ga
Ġsaist Ä«ta
ĠvÄĵstur Äĵ
ĠmÄ«lest Ä«ba
Ġieraudz Ä«ju
Ġk odu
Ġr ob
on edÄĵÄ¼
im i
Ġviet ÄĵjÄģ
Ġatbild Äĵt
C eru
S ag
er es
ĠÄ¼ aut
ist us
Å«k as
Ġkar al
Ġkal nÄģ
Ġpac iet
ĠapstÄģk Ä¼iem
Ġziv ju
om et
Pr oti
Ġlas Ä«tÄģju
Ġsmag i
Ġstil a
ĠdzÄ«vok lÄ«
Ä«sim ies
Ġlaic Ä«gi
S alÄ«dz
V eik
Ġp ogas
Ä«j umam
Ġpas lÄĵp
Ġjaun iem
Ġveik ta
Ġmilj ard
ĠAndr is
ĠvÄĵstur i
Ġkil ogram
ĠÄĢ r
Ġok e
g rup
ĠÅ¡ ajos
ev s
Ġjaun ie
Ġmaz Äģks
Ġned ar
ĠJ Äĵkab
pl Å«d
ier s
Ġlas Ä«tÄģjiem
ĠpasÄģk umiem
Ġkontek stÄģ
b ox
Ġ Âł
ak ter
Äģt Äģs
ĠkÄģd Äģm
Iz mant
Ġiev Äĵl
Ġdep artam
janv ÄģrÄ«
ĠiekÄģr tu
Princip Äģ
I lg
O R
t h
Ġvec s
Ġizmant oÅ¡anas
ĠstÄģst Ä«t
ÄĵtÄģj us
Ġmod eli
Ġierakst s
ĠiestÄģd Äĵm
Ġbir oja
ĠBl ack
Ġvit am
Ġd ieg
Ġl Äģd
Ġb ritu
ed Å¾
ĠiespÄĵj amo
Ġattiec Ä«gÄģs
ĠvÄ«r ieti
Ġsarakst s
Ġizb eig
Ġs f
am us
ur k
Ġuz r
ĠA iv
Ġkar av
Ġizmant ota
ĠÄ· Äĵr
Ġsek oja
ĠdaÅ¾Äģd a
Ġneat ceros
Ġsaj auc
ĠpienÄģk umu
ĠHol ivud
Ġno likt
Ġap dz
ĠlabÄģk u
Ġpap r
Ġpiec us
In tern
ĠÄ«s i
Ġiemes la
Ġsagatav ot
Ġsadarb Ä«bÄģ
V iÅĨu
d s
Ġg e
Ġap kur
el Ä«
em s
isk ajÄģs
ĠpÄģr veid
âĢĿ )
ĠM ed
ĠÅ¡o v
Ġturp inÄģja
Ġnet iks
Ġbrauc am
ĠskrÄĵj iena
I ev
S aei
Ġl im
Ġsv eic
Ġskol otÄģju
Ä«gÄģk Äģ
Ġuzman Ä«gi
Ġmilz Ä«gs
Ġikvien s
b Äĵrn
s Äģk
Ġn Äĵs
Ġc ir
Ġie priec
ter m
ĠE r
Ġpiem Ä«t
Ġskat os
Ġneat rad
iÄ¼ as
ĠnodroÅ¡ inÄģtu
Ġav Äģr
Ġieb Å«v
Ġasf al
f ot
Ġat nes
ag u
Äĵd u
ĠE UR
ĠW i
Ġspec i
Ġpavad Ä«t
DaÅ¾ i
Maz liet
raug iem
ĠjÄģv eic
B Å«t
Ġj Äģc
Ġmaz ais
Ġdien ai
Ġpav eikt
Ġfil mai
Pr oj
Ġmat i
ĠbÅ«v niecÄ«bas
Ġstil Äģ
Rakst ur
inÄģt Äģ
Ġpret im
Ġatp Å«sties
Ġinteresant as
Ġdistanc es
Ġroz Äģ
ĠskolÄĵn i
P us
Ġ '
ie Å¾u
Ġr iÅĨ
Ġpie liek
Ġkaut k
ĠvÄĵr ot
Ġsat rauk
ĠlabÄģk a
Ġnop Äĵrk
Ġbeig u
ĠierÄ« Äįu
ĠizglÄ«t Ä«bu
ĠtehnoloÄ£ ijÄģm
ĠmÄ«k lu
ĠpienÄģk ums
ĠiestÄģd e
ĠdzÄĵr ienu
Ġapgr oz
S var
i Ä·is
Äĵl s
ĠS ony
ĠÄįetr iem
Ġattiek sme
ĠinstitÅ« ciju
Ġuzg lab
Ġs ild
Ġne gad
Äģt ie
Ġtr akt
ef ox
Ġbr end
Ġh ot
ĠkrÄģs Äģ
Ġdator s
Ġatv Äĵl
Ġiespaid u
ĠrÄ«c Ä«bu
Ġsum ma
v alsts
at es
iek as
Ġap ÅĨÄĵm
Ġsp Äĵs
ĠÅ¡Ä· Ä«r
Ġpret end
Ġiek Ä¼auj
ĠrÄ«k oties
Ġslim Ä«bu
Ġciem os
Ġpip ari
ĠpamÄĵÄ£ inÄģt
N od
Ġp iens
in oÅ¡a
Äģd Äģm
zÄ«m Äĵ
Ġzem e
Ġvad Ä«t
ĠlabÄģk Äģ
Ġaugst skolas
Ġpubl iski
Ġizr aisa
ĠmÄ«k las
M eit
V I
d ams
ok hol
ĠvÄĵl ies
Ġies aka
ri Å¡
ĠO r
ver t
Ġlap Äģm
Ġdzim t
Ġef ektu
Ġresp ond
Ġ ejam
Ġt rÄ«
st Äģst
Ġuz p
oz i
ma ÅĨa
ĠÄĵd ien
anc e
ĠtÄ«k los
ĠizstrÄģd ÄģtÄģj
ĠnolÄĵm a
ĠsareÅ¾Ä£ Ä«t
Dr oÅ¡i
ĠpÄģrmai ÅĨas
5 5
Ġm eita
Ġr at
il ka
Ä· ert
Ġz ag
Ġman am
Ġmil tus
ĠÄ«paÅ¡ umÄģ
Ġag ri
Ġtelp Äģs
ĠeÄ¼ Ä¼u
P ievien
u tÄģtu
w s
Ġk aun
Å« rÄ«
Ġkl ik
Ġsapr astu
Ġsiev u
Ġuzman Ä«ba
Ġaud uma
An dr
Ġelektron isko
Ġtras es
Not eikti
Ġsun s
Ġburt iski
B ild
L A
P u
a ÅĨu
on st
isk ai
ĠpÄģr z
ĠM ur
Ġsap ul
ĠpriekÅ¡ lik
Iz vÄĵl
ĠpiedÄģv Äģja
Ġnodarb ojas
ĠnepiecieÅ¡am Ä«bu
Ġizbaud Ä«t
A b
N S
T uv
ol e
Ġst iep
ĠviÅĨ Äģm
Ġre Äģl
oc ijas
Ġveid ojot
Ġcen Å¡os
Ġtelef oniem
Ġstund Äģs
Ġakt os
ĠspeciÄģl istu
Ġnok Ä¼Å«t
ĠAr t
not eikumi
Ġdet aliz
Ġunivers itÄģtes
P iln
Ġ Äģdu
Ġm etrus
ot h
ot us
in n
ad u
Äĵk a
ĠP irm
ĠÅ¡o f
Ġizd omÄģju
Ġvid ÄĵjÄģ
ieÅ¡ us
Ġizmant oti
Ġal gas
ĠÄ«st ais
gl Äģb
Uz ÅĨÄĵm
Ġproduk ta
Ġpakalp ojumiem
Ġteik ts
ĠdzÄ«vok Ä¼a
Ġbir oj
t ie
Ġl Äģ
Äĵj ai
Ġdz ert
Ġre aÄ£
Ġpas ta
Ġnos l
Ġiel Äģm
Åª d
Ġiepl Äģn
Ġatkrit umu
V D
b is
ĠlÄ«dz s
ĠT e
ĠT h
Ġjaun ajÄģ
esel Ä«bas
Ġvari antu
Ġcer Ä«bas
Ġport Äģlu
Ġmeist ar
Ġl in
om Äģts
inÄģ Å¡anos
Ġpaz Å«d
ĠmÄĵÄ£ inÄģja
ĠgarÅ¡ vielas
Ġatcer as
ĠdzÄ«vok li
ĠtÄĵ va
Ġap k
Ġz inÄģÅ¡anu
ĠT el
Ġdiv reiz
Ġbrauc iens
ĠsÄĵd Äĵja
Ġzied u
Ġrakstur o
Ġbaud Ä«t
Ġstrukt Å«r
ĠĠĠĠĠĠĠĠĠĠĠĠĠĠĠĠĠĠĠĠĠĠĠĠĠĠĠĠĠĠĠĠ ĠĠĠĠĠĠĠĠĠĠĠĠĠĠĠĠĠĠĠĠĠĠĠĠĠĠĠĠĠĠĠĠ
Ġbaig i
Ġs int
us Ä«
Ġiz vÄĵr
Ġpat laban
Ġtr aÄ£
ĠT im
Ġiek Ä¼au
Ġprogram mÄģ
Ġtums Äģ
Sas ka
Beig Äģs
ĠnenozÄ«m Äĵ
b ez
Ġs ien
Ġm ist
Ä¼ Äģva
Ġr Å«g
Ġie pat
ĠvÄĵl mes
ĠR SS
ĠT Äģ
Ġliet Äģ
ĠjÄģ brauc
ĠJ Å«su
ĠbÅ«t Ä«bÄģ
ĠiepriekÅ¡ ÄĵjÄģs
Ġbrauc u
Ġaizg Äģja
Ġglez n
j Å«t
k or
Ġs oda
an dr
Ġd inam
Ä«c ijÄģm
ĠlielÄģk as
Ä«gÄģk o
ĠsvÄĵt kiem
Ġsaska ÅĨ
Nev iens
ĠÅħ ujor
a a
e ed
Ġb edr
Ġne mit
it i
ieÅ¾ i
Ġrun as
Ġiest rÄģd
ĠattÄ«st Ä«bai
Ġdi Å¾
ÄģjuÅ¡ ies
ĠbrÄ«n ums
Darb a
rast rukt
Ġ Äįu
Ġt ant
Ġf as
sk Äģb
ĠS v
ĠA m
Ġkl im
ĠvairÄģk kÄģrt
ĠÄ«paÅ¡ Ä«bas
Ġam ata
ĠzinÄģm u
Ġstud ijas
par aug
Ġdep utÄģtu
Ġinf rastrukt
ĠeÄ¼ Ä¼as
ĠlÅ«p u
Ġdzelz ceÄ¼a
A M
G oogle
T oreiz
c in
o Äį
am ent
or as
ol Å«
ĠlÄ«dz Äģs
Ġdar u
Ġgais mu
Pat Ä«k
Ġpiec u
N em
O r
Ġ ai
an Å¾
Äģd Äģs
Ġpas kr
Ġrakst i
liet as
ĠatÅ¡Ä·ir Ä«bÄģ
Ġsviest s
Ġmirkl Ä«
S tÄģ
Ġv Ä«na
Ġm l
Ġm oc
Ġjau ka
Ġvis tas
ic a
Ä«s iet
ĠG B
Ġattiec Ä«gÄģ
Ġnoz ieg
Kat ram
Ġtuk Å¡
Ġĉĉĉĉ ĉ
d ir
Ġs ejÄģ
Ġm aÄį
in ts
Ġg rau
ap i
Ġiz kÄģp
ir tu
ĠpÄģr iet
Ġaiz dev
Å«k u
Ġneb eidz
ÄĵtÄģj am
Ġnez in
Ġintern ets
ĠvÄ«rie Å¡a
Ġez era
Ġsagaid Ä«t
ĠmarÅ¡ru tu
Ġpuis is
sept embrÄ«
s ur
Ġv Äĵja
ien Äĵ
tu d
on g
Ġz Äģb
Ġkur ienes
Ġst eig
Ġiet eikt
Ġkat rai
ekt ors
Ä«d s
Äģz ijas
Ġid enti
ĠgrÅ«t Äģk
Ġnotik umi
ĠjÄģd omÄģ
Ġkreis i
ĠsastÄģvd aÄ¼as
ĠsajÅ«s mÄģ
V ienÄģ
Ġd ob
Ġne Å¾Äĵl
Äģr o
ĠM az
Ġdiv os
Ġnoteik tÄģ
eÄ£ istr
Ġok tob
ĠmÄ«lest Ä«bas
ÂłÂł ÂłÂł
Ġdis pl
Ġmetr o
ĠPS RS
A c
h o
ur b
Ġiz lik
Ġpar kÄģ
Ġie likt
Äģn ija
Ġdarb os
ĠV SK
ieg t
Ġaut ora
ĠjautÄģj umos
Ġdab Äģ
ĠraÅ¾ otÄģji
Ġform ÄģtÄģ
ĠskrÄĵj ienu
Ġpart iju
ceÄ¼ Äģ
Ġjebkur Å¡
Ġpaliel inÄģt
Ġneap mier
ĠkompÄģn iju
Ġikvien am
Ġmu ti
Ġneies pÄĵj
Ġfirm as
M W
Ġpat ur
ok us
Ġies k
ic ion
Ġsal ik
Ġ100 0
Ġpunk ti
ĠaÄ£ent Å«ra
Ġvilc ienu
A SV
F oto
k Äģm
o Ä·
p ol
p ul
Ġr Ä«s
Ġpat stÄģv
Ġiet ur
Ġ200 2
Ġiel Äģs
Ġrekl Äģm
ĠFr an
Ġpiekr it
Daudz i
Ġtras Äĵ
Ġizvair Ä«ties
Ġy ou
Äģ Å¾as
Ġs es
Ġd Ä«
Ġg Äģju
Ġat dzes
Ġpl aukt
Ġattiec Ä«bÄģm
Ġmobil Äģ
Ġkoment Äģru
ĠjÄģat zÄ«st
Ġtend ence
ĠAug st
n Äģv
Ġs omas
at ik
Ġne pr
ĠpÄģr var
Ġst im
Ġjaun ajiem
Ġpied ev
Ġ3 2
Ġproc entu
ĠbrÄ«v u
ĠjÄģp Äģr
Ġslim nÄ«cas
ĠizÅ¡Ä·ir ts
ĠSatvers mes
Ġi tÄģ
ap kÄģrt
Ġdaudz u
ĠsÄģk s
ĠC om
ig r
Ġorgan is
In form
mal c
ĠierÄ«c e
Ġmuz eja
Ġneaiz mir
Ġig nor
s aist
Ġv Äģra
Ġs odu
er tu
Ġtr ij
ĠT all
Ġkv ieÅ¡u
Ġintern et
Ġbild Äĵm
ĠplaÅ¡ Äģk
ĠjÄĵ ga
Ġmedic Ä«nas
ĠMÄģr is
Ġnab adz
A d
K a
S vÄĵt
a ÅĨem
u tu
Ġk g
ĠpÄģr vÄĵrt
ok Ä¼u
Ġliet otÄģjam
Ġvec Äģs
kat Äģs
Ġmaks u
Ġnen orm
run is
Pat eic
ĠSt arp
Ġautor e
Ġig au
aprÄ« lÄ«
S apr
s lÄĵg
t ik
Ġt ilt
Ġl au
Ġj Å«l
Ġj Å«n
Ġr Ä«ts
Ġveid iem
Ġatp Å«t
Ġpras mes
ĠmaÅ¡Ä«n a
Ġnepat ika
Ġaizd omas
ĠlÄ«n ijas
Ġaizb raukt
ÂłĠĠ Âł
Ġm ud
Ġko k
Ġko ks
ĠL e
Äģn e
op er
Ġizveid ota
ĠnorÄģd Ä«t
ĠnÄģkam ais
Ġnopir ku
Ġbas ket
Ġmaksim Äģli
Ġeksperim ent
Ġelektro enerÄ£ijas
Ġt ol
Ġs Äģ
Ġr Ä«v
ĠvienkÄģr Å¡u
Ġbal vu
Ġmal u
ber ga
Ġteritor iju
Ġska ÅĨu
Ġpunkt us
Ġuztais Ä«t
Ġangl iski
7 5
Ġd ram
iem Äĵr
or ies
Ġpr oduc
ĠB e
eks u
ĠrobeÅ¾ u
Ġkoncer tu
Ġatsk ait
Ġnedz ird
Ġtemperat Å«ra
Ġstatist ikas
Ġarhitekt Å«ras
Ġpalas Ä«t
ĠgrÄģmatved Ä«bas
B alt
t ml
is u
Äģr us
Ġpie v
od amies
ic k
ib r
Ġgar laic
Ġkar te
ĠpienÄģk umus
Pas Äģk
ĠenerÄ£ iju
Ġdus m
Ġbil Å¾u
Ġt omÄģtu
Ġs Äģcis
Ġl ent
Ġj Å«tu
Ġap sar
ol ej
ers Ä«
ĠN ordea
viet Äģ
ĠpÄģrd oÅ¡anas
ĠtrÅ«k umu
Ġalb ums
ĠvelosipÄĵd u
Ġnekav Äĵjoties
c ijai
s ird
Äĵj ams
on es
Ġf rÄģ
Ġizd omÄģt
Ġveik ts
Ġsag aida
ĠgadÄ«j ums
At ceros
Ġmat iem
ĠmÄĵneÅ¡ os
Ġnegrib as
Ġkonst ruk
Ġint el
Ġcitr ona
N er
Ġt Äĵt
in ter
Ġuz kar
Ġlab vÄĵl
Ġtur Äĵt
Ġrakst us
ĠbÅ«t isk
At t
Ap m
ĠpaÅ¡vald Ä«ba
ĠmateriÄģl i
Ġcent Äģs
Ġsekund es
M ed
M eÅ¾
V asar
y pe
Ġj Å«rÄģ
Äĵr ijas
Ġpie eju
Ġtr aki
ĠpaÅ¡ s
Ġattiec Ä«bÄģs
ĠÄ£ Äĵrb
ÄĢ tr
Ġvirs u
Ġstandar tu
punk tÄģ
T E
in oÅ¡u
Ġr ul
Ġpr Äģta
Ġkr ast
Ġaug Ä¼u
Ġvad a
Ġbrauc iena
Ġtram vaj
ot ajiem
Ġgr edz
ĠpalÄ«dz Äĵja
ĠbrÄ«v Ä«bas
Ġav ots
Ġkonkr ÄĵtÄģ
ĠpozitÄ«v i
____ ____
n ev
Ġs eja
id e
Ġizd osies
Ġvajadz Äĵs
Ġab on
ĠvÄĵst uli
Ġmir st
Ġizmai ÅĨÄģm
nov embrÄ«
ĠJur is
Ġpietr Å«kst
ot Äģm
Ġne pras
Ä«g ajai
ĠpÄģr m
Ġes oÅ¡Äģs
ĠÄ¼ aus
sm Äĵ
Ġpiln vÄĵrt
ties Ä«bas
Ġmaks a
Ġsaist Ä«tas
Ġveic ot
iÄ· iem
ĠnepÄģrtrauk ti
j ut
Ġno gÄģd
or es
iz Äģciju
ov ad
ig ht
ĠF in
ĠÄ«st Äģ
Ġpadom e
Ġprojek tÄģ
ĠÄ«s u
Ġdiskus ijas
m Äĵn
Äģt r
Äĵt ajÄģm
ĠÅ¡ al
Ġkr Å«z
of es
ĠC Äĵs
ĠdÄģrz a
Ġizteik ti
ĠnormatÄ«v ajos
Ġlikum d
u dr
Ġ eju
ik Äģcija
oj umos
aut a
Ġcit Äģd
Ġiet aup
est ies
Ä«gÄģk i
Ġsabiedr Ä«bai
ĠAn gl
pus es
Ġ7 5
Ġsan Äģcis
ĠrobeÅ¾ Äģs
Ġieguld Ä«jumu
Ġkartup eÄ¼u
Ġmor Äģles
ĠaplÅ«k ot
Ġledusskap Ä«
ik i
ĠÄ¼ Äģva
Ġjaun Äģko
Ġmaz i
Ġnod ot
Ä«z ijas
Ġuzs vÄĵra
Ġnom ier
ĠSt okhol
Otr kÄģrt
ĠdÅ¾ emp
Ġbas e
ĠmÄģjaslap Äģ
b it
Ġb iedru
Å« Å¡
Ġat grieÅ¾
Ġsp og
inÄģt os
ĠI I
Ġinter eÅ¡u
Ġel ast
ĠbrÄ«v prÄģt
Otr Äģ
Ġsul as
ĠreÅ¾Ä«m u
ĠjÄĵ gas
K omentÄģri
j Äĵdz
Ġl auz
Ġno Å¡
ies mas
Ġuz liek
Ä«g ajam
ĠL ind
Ġlaik m
Ġnep al
ĠvairÄģk Äģm
ĠJ ap
Ġh or
Ġrad Ä«ja
Ġnotiek oÅ¡o
Ġnoteikt o
Ġfiz iski
Ġsadarb Ä«bu
Ġrind as
Ġapgr Å«t
E M
L at
V ienu
Ġr iep
op a
ĠT as
Ġpus dienas
ov skis
Ġpad ev
Ġveic ina
Ġmilz Ä«gu
ad s
Äģr Äģs
er Ä£
Ä«v o
ĠdzÄ«v oj
aks u
Ġpret Äĵji
Ġsab oj
Ġgrup Äģs
Ġmarat onÄģ
Ġizlas Ä«ju
Ġpagatav ot
Ġd ru
Ġne ied
Ġie ÅĨem
Äį as
Ġturp m
ĠÅ«d en
Ġ25 0
Ġalb umu
Ġnepam an
ĠtÄĵj k
ĠKom is
Ġazarts pÄĵÄ¼u
m Äĵm
w eet
Ġp od
Ġn iek
Ġpr emj
ĠA k
ĠV er
Ġsap ÅĨ
Ġvad Ä«tÄģju
ĠO zol
ĠkÄģp ost
ĠVal m
Ġsimp Äģt
ĠValmier as
2 8
Ġ ant
Ġm Äĵt
Ä«v Äģ
Ġf ona
Ġpirm izrÄģd
Ġkom it
Ġties Ä«bÄģm
ĠgadÄ«j umi
Ġdienas grÄģm
Ġlatv ieÅ¡i
Ġmir dz
Ġsmar Å¾a
Ġsmaid u
ĠautomaÅ¡Ä«n as
ĠFir efox
3 9
b ul
Ġ om
ĠK asp
Ġnep azÄ«st
ĠÄģr sta
Ġskol otÄģja
Ġkult Å«r
Ġep iz
Ġpacien tu
Ġkaln iem
Ġpaaudz es
L S
l atv
Å¡ in
Ġr isk
ap a
Ġap aÄ¼
Ġnav ig
uk a
aul e
Ġiek ar
ĠpÄĵt ersÄ«
Ġmeit eni
Ġpakalp ojuma
Vien Ä«gi
Ġdistanc Äĵ
Ġĉĉ ĉ
R ad
Ġs ienu
Ä«t im
Ġat alg
it Äģcijas
Ġkl ajÄģ
Ġviet Äĵjie
ĠdalÄ«b valst
Ġiesnieg t
ĠatgÄģd inÄģja
qu ot
ĠolÄ«v eÄ¼
M Äĵr
Ä«t Ä«
Ġz inÄģju
Ġvien tu
Vis b
Ġliek u
Ġad v
Ġmeit as
Ġnosauk uma
Ġrecep ti
c ipl
o ÅĨiem
at ch
ĠÅ¡ uj
Ġz ar
ĠT ies
las h
Ġtuv ojas
ĠjÄģm eklÄĵ
ĠÄģrst niecÄ«bas
Ġliterat Å«ras
Ġuzm undr
Rakstur vÄģrdi
A bi
Äģ Å¡anos
Ġt un
dz i
Ä«t Ä«gi
At cer
Ġnen ol
ĠnorÄģd ot
Ġgais ma
Ġmal t
ĠnedÄĵÄ¼ a
ĠpiemÄĵr ots
Ġklas Äĵ
Ġsvaig i
for mu
Ġpabalst u
ĠatÄ¼auj as
nozÄ«m Ä«gi
K S
k riev
Ä« rup
Ġk Å«
Ġd edz
ik sÄĵt
Ġat rÄģd
Ġat Ä¼auju
Ġpa iet
ĠS erg
ez id
Ġliel isku
ĠV iÄ¼
ĠLatv ia
At tiec
ond a
Ġinstit Å«c
Ġsmar Å¾u
Ġasoci Äģcijas
Ġpiespied u
Eirop as
k omentÄģri
iÅĨ desmit
Ġvai c
Ġz Äģli
Å«t Ä«ja
Ġmaz g
ĠjÄģ z
ĠN E
ĠÅ¡Ä· Ä«v
Ġsat ikt
ĠmÄ« lu
Ġkart Äĵ
ĠautomaÅ¡Ä«n u
Ġpunkt iem
iklÄģv s
N O
il la
Ġpr Äģtu
Ġz iep
Ġf e
pr Äģ
Ġmin i
Ġpiln as
Ġal gu
Ġattiec Ä«go
Ġier ind
Ġizb rauk
Ġdi al
Ġinv al
Ġrup j
Ġeksk urs
t Äĵt
at Å«ra
Ġne ie
dz Äĵs
om Äģm
Ġkl eit
and a
Ġgrup Äģm
Ġbeidz ies
Ġzv anu
ĠjÄģs Äģk
Ġvel o
Ġneliel as
Ġrealiz Äĵt
Ġizklaid es
ĠinstitÅ« cijas
ĠLV L
Ġapak Å¡Äģ
Ġv ag
Ġv eter
og Äģ
Ġatt aisn
Ġgal er
ĠplÄģn i
Ġapskat Ä«ties
Ġvasar a
ĠdÄ«v aini
ih a
jÅ«l ijÄģ
ĠÄĵdam kar
D R
p ektÄ«v
Ġn iec
Ġl Äģp
Ġno klaus
Ġiz kÄģrt
Ġnep il
ĠceÄ¼ ojumu
Ġsieviet ei
iÄį s
f l
Ġp auz
Ġk up
Ġd u
am at
ĠK ol
Ġmaz ie
and i
Ġilg term
ĠgrÅ«t Ä«bas
Ġtais Ä«t
Ġpien Äģcis
Ġpusmarat onu
ĠreÄ£ion a
Ġbiks es
Ġsug as
D iena
b alt
c elt
o und
ai ÅĨa
Ġl omÄģ
Ġne Å¡Ä·
Ġin ov
ieÅ¡ a
ĠvÄĵrt Äĵ
ĠmÄģc Äģs
Ġpolit iku
Ġministr a
Ġsu dr
ĠnormatÄ«v o
ĠmÄģs a
ĠKal n
ĠkriminÄģl proc
Vaj adz
Ġpiez van
r ed
Ġvien lÄ«dz
Ġtr Äģp
Ġnod ib
Ġvec umu
las Ä«t
rakst a
Ġaugst as
ĠstrÄģd Äģja
ojam u
Ġkilom etri
Ġparal Äĵli
2 3
G andrÄ«z
Ġt us
ol iem
Ġz Ä«d
Ġin Å¾en
ĠvÄĵl Äĵtos
ĠB auskas
Åł Äģda
Ġredz es
ĠceÄ¼ i
Ġpak Ä¼aut
ĠÄ«st o
Ġel pu
Ġrekl Äģmu
Ġfr ak
Ġskrie Å¡anu
Ġapz inÄģti
ĠpÄģrsteig umu
Ġuzd Äģv
Ġrek om
ĠIgaun ijÄģ
P erson
es p
er o
dz Ä«bas
ut o
ĠH ar
At Å¡Ä·ir
entu zi
Ġveic a
Ġnag u
Ġr Äģm
Äģj i
Ġuz likt
aid Ä«ja
Ġnev ain
Ġliet der
Ġkop Ä«gi
Ġvald a
Ġmas a
Ġsaim niecÄ«bas
ĠmateriÄģl us
Ġsmadz eÅĨu
m ail
Ġ Äģda
Ġm en
Ġj Å«ru
Ġiz Å¡
Ġiz Å¡Ä·
Äģl ie
od iet
ĠV ÄģcijÄģ
Ġjaun umiem
Ġsas p
ĠpatÄ«k ams
Ġsvar u
Ġsim tiem
Ġjebkur a
Kat rs
Ġietekm Äĵt
ĠÄģb olu
august Äģ
C er
a ÅĨas
Ġ er
Ġn az
Ä«j uÅ¡as
Ġjau k
ul as
ok am
eic ies
Å«z ikas
Ġatp az
ĠstÄģv Äģ
Ġkomp on
Ġnotik ums
Ġietek me
Ġbrokast is
ĠPas aules
ul a
ok Å¡
Ġdz in
Äĵd ams
Ġpak laus
Ġlas ot
etr s
ĠvÄĵrt Äĵjums
ĠW ord
Ġinf l
Ġrekom end
m Äĵs
z a
ĠÅ¡ Ä¼
Å«d a
Ġmam mu
Nev ar
ĠmeklÄĵ Å¡anas
ĠÄ·erm eni
ĠpÄģrsteidz a
Ġsaskat Ä«t
jÅ«n ijÄģ
at Å«ru
Ġm ierÄģ
it ÄģÅ¡u
Äģn os
ĠT evi
Ġmaz ajiem
Ġnes kaita
Ġsas malc
Ġpaz aud
la y
Ġgalven Äģs
Ġdok t
Ġskrie Å¡ana
Ġmaiz i
Ġpalik usi
2 9
Ð »
es tr
Ġg Å«st
Ġr Ä«tu
or k
Ġsk Äģr
Ġnor ÄĵÄ·
ĠpilsÄĵt Äģs
Sk aist
Ġnoder Äĵs
ĠKriev ijÄģ
ĠJelg avÄģ
strÄģd Äģ
Ġietilp st
K al
j os
at nes
ĠpÄģr lieku
Ġgr Äģdiem
ĠlÄ«dz Ä«gas
Ġliel iem
Ġmaz os
Ġreiz e
ĠbrÄ« Å¾os
ĠreÄ£istr Äģ
ĠsaÅĨem s
ĠnÄģkot ni
Ġteor Äĵt
Ġau str
Ġiz lÄ«dz
umu l
Ġko kt
ent e
Ġmaz iem
kr Ä«t
aig Å¾
Ġas inis
ĠmateriÄģl s
Nek o
Ġadres es
ĠguÄ¼ am
Ġzvaigz nes
ĠbÄģr iÅĨ
ĠvÄĵstul es
2 6
p ag
Ġno gul
ĠS al
Ġvec mÄģm
Ġizmant otas
ĠÄģr valst
Äĵst ur
Ġeksp ert
Ġkred Ä«tu
Ġprojekt iem
Ġlaip ni
D iev
v ers
Ġk au
iet s
ĠV ar
ĠD ei
ib er
ĠÅ¡Äģd Äģm
Ġiem Ä«Ä¼
Ġdator Äģ
ĠtÄ«k ls
PÄģr is
ĠdÄģv an
ĠtÅ«r istu
Ġanal Ä«zes
3 3
n ed
ik Äģs
ĠL inux
Ġjaun Äģm
Ġsiev as
Ġpieaug umu
Ġstat usu
Ġnekust amÄģ
B rÄ«v
m Äģju
Ġb au
Ġuz klaus
Ä«v as
Ġsav i
ag s
Ġatt eikties
Ġrakst Ä«ja
ĠstÄģst i
iniek a
Ġsaj ust
Ġmod ific
ĠvÄ« ra
Ġstud entu
ĠpaziÅĨ ojumu
Ġpirkst iem
ĠÅ¡Ä·Ä«r Äĵj
2 7
j us
Ġ entuzi
Ġpie lik
Ġap els
inÄģt Äģju
ĠJ an
Ġmin Äĵju
lu Å¾i
Ġsap nis
Ġskat Ä«tÄģju
Ġatm iÅĨu
Ġnum urs
fil m
Ġsait es
Ġizcel smes
ĠjÄģg aida
T ML
V iÅĨiem
Ġp Å«d
Ġn ik
Ġr as
Äģj usies
Ġiz ej
Ġvair ums
ĠĠ ĉĉ
Ġ3 6
ĠÄ«st s
ost as
Ġrun Äģja
Ġgais mÄģ
Ġvel k
Ġtemp u
lim p
ĠlÄ«n iju
Ġsai ti
ĠaugÅ¡u p
Ġkonkurs Äģ
ĠRad io
* *
C rossFit
Ġ o
or ator
Ġap ÅĨem
Ġaiz skr
Ġkl Ä«n
Å¡Ä· er
ĠspÄĵk us
ĠpÄĵt Ä«jumÄģ
ĠizstrÄģd es
ĠpÄģrd od
Ġag r
Ġgabal s
Ġvers ijÄģ
Ġizlas es
Ġfond a
B ieÅ¾i
M ÄĵÄ£
Ġp Å«l
Ġt ot
is h
tu be
Ġsp rÄģ
Ġre form
ĠB Äĵrz
oz Ä«cijas
Ġveid ots
Ġcen Äģm
var a
Ġskol Äģs
Ġas in
Ġsad aÄ¼Äģ
Ġmed ikam
Ġizskat a
Ġpras Ä«bu
Ġveikal s
Ġatv ain
ĠnÄģkam gad
Ġkoord in
ĠStarp taut
T U
Ġ aks
Ġv Ä«l
Ġuz kÄģp
ab as
ĠarÄ« dz
Ġlai st
un s
Ġpas arg
akt iski
man e
Ġneat liek
Ġnov irz
Ġtev is
Ġav i
ĠÄģtr uma
ĠapstÄģk Ä¼u
ĠjÄģn os
ĠkÄ¼Å«d u
Ġnozar Äĵ
Ġsmiekl Ä«gi
ul e
ul Äĵt
ĠlÄ«dz eklis
Ġnor mas
Ġgaid u
ĠatÅ¡Ä·ir Ä«ba
Ġistab u
ĠDiev a
Ġizn Äģca
ĠarÄ«dz an
D rÄ«z
p p
Ġt omÄģt
Ġs el
an o
an kas
on Ä«m
Ġvien i
ĠM at
atÄ«v s
iest u
Ġlauk saimniecÄ«bas
ĠU S
ĠvÄĵstur e
Sk aidr
ĠÅ¡os ejas
Nek ad
Ġdebes Ä«s
Ġsest dien
Ġamatperson as
Ġpraks Äĵ
astr of
Ġkais l
Saska ÅĨÄģ
S ac
V iÅĨai
Ġm agn
st er
Ġno pr
Äģr as
Ä£ is
ĠvÄĵl ams
ĠlÄ«dz dal
ez n
oz e
Ġvid Äĵjo
Ġfil iÄģl
Ġpret ÄĵjÄģ
Ġh ron
Ġiek Äģp
Ġsat r
Ġiest at
ĠzÄ«m e
ĠdÄģrz eÅĨu
Ġbiedr i
Ġpip arus
Ġfilm Äģs
ĠoriÄ£ inÄģl
A P
S est
g Äģr
isk ajos
isk ajam
ok Äģ
Ġpal ai
ĠiespÄĵj ama
ĠbÅ«s im
Ġskr op
ĠskrÄĵj Äĵju
Ġinst al
Ġekonom isko
Ġtaut a
Ġnodok li
ĠskolÄĵn iem
Ä« Å¡us
Ġt a
et o
Ġap dzÄ«v
ol id
Ġz onÄģ
Ġman tu
Ġgr eiz
ant us
ĠjÄģ aiz
Ġskr ienu
Ġmil tu
vis maz
ĠtÄĵm Äģm
Ġanal Ä«ze
ĠkopÄĵj o
Ġsum mas
ĠJÄģ ÅĨa
Ġpazud a
% )
4 8
L E
Ġb Äĵrz
Äģj umi
ĠpÄģr met
Äį s
Ġdarb Ä«bÄģ
Ġliet ojot
Ġ200 1
Ġsvar a
ĠpÄĵt Ä«jumi
inc es
Ġvies nÄ«cu
ĠmateriÄģl a
ĠIz glÄ«tÄ«bas
Ġpedag oÄ£
n av
Ġv Ä«n
Ġv Ä«nu
Ġl Äĵc
ot nÄĵ
ur v
Äģl e
ti z
eik tu
Äģv u
ĠM or
ĠK an
Ġgar Å¡a
Ġpiet iks
oloÄ£ isko
Ġatkl Äģja
ĠmÄĵÄ£ inÄģju
Ġslik ts
ĠÄįetr us
Ġbiedr Ä«bas
Ġsil ts
ĠSaei mÄģ
ĠkuÄ£ a
Ġtrauk Äģ
Ġze Ä·
ĠcepeÅ¡krÄģs nÄ«
3 6
I l
Ġp ik
ar ta
Ġmin Äĵts
Ġizmant oÅ¡ana
ĠpÄģrstÄģv jiem
Ġsim t
mar tÄģ
Ġapg abal
Ġpens ijas
V ald
l and
Äģ Å¡anai
Ġne rad
or ld
Ġz inÄģja
em pl
ec h
ĠdzÄ«v Ä«bas
ĠN o
Ġvad Ä«ba
Ġmar in
Ġtuv Äģko
Ġizt Äĵr
Ġtirg u
Ġmekl Äĵjot
Otr s
eÄ£ et
Ġresurs i
Ġnakts m
Ġpalik uÅ¡i
Ġpui Å¡i
Ġm iera
Ġiz skr
ol ogs
Ġto starp
Ġdz ijas
Ġpas aka
Åł Äģdi
Ġnep as
ĠE k
Ġak tris
Ġaut ovad
Ġpag astÄģ
Ġveik ti
ĠsaÅĨÄĵm is
Ġtrad Ä«cijas
Ġnon Äģca
ĠMÄģrt iÅĨÅ¡
T eik
s v
Ġi s
il u
or tÄģ
Ġvis Äģdas
Äĵk u
Ġpirm os
ĠV ol
Ġkl usi
oloÄ£ iju
Ġuzs Äģkt
ĠpaziÅĨ o
Ġkaim iÅĨ
ĠÅ¡it o
ĠstÅ«r es
m iem
p antÄģ
st ories
Ġno kÄģrt
âĢĿ ),
Ġvad Ä«bÄģ
Ġierad Äģs
ĠlÅ«p Äģm
ĠÄ£imen ei
S ec
V O
ak Äģm
Ġies lÄĵdz
ob rauc
ĠA ir
Ġvakar os
Ġvil kt
ĠsaÅĨem Å¡anas
ĠÅ¾urn Äģla
Ġbrauk Å¡anas
ĠpievÄĵr s
ĠkolÄĵÄ£ iem
Ġizsk an
ĠLat gales
Ġieteic ams
T ai
b Å«v
c r
Ġb enz
Ġie raug
ĠpÄģr gÄģj
inÄģt Äģs
ic stories
ĠP hone
ĠV ikt
Ġapm eklÄĵ
ĠkÄģrt Ä«bas
Ġdar Ä«ts
ĠÄ«st am
Ġsabiedr iskÄģ
Ġsird Ä«
Ġizmaks u
A U
Ġu l
Ä· im
Ġgad simta
akst a
Ġrok darb
ans amb
ĠpalÄ«dz Ä«ba
Ġgatav ot
Ġprogram mÄģm
Ġizt Äĵl
Ġakt ieri
Ġatbalst Ä«t
Ġsan Äģks
Ġpadom Äģt
ĠU l
Ġup ur
Ġugun sk
Ġnob als
Ġdurv ju
Ġnenot iek
Ġtreil eris
Ġaizr aut
JÄģat zÄ«st
ĠaktivitÄģt Äĵm
A gr
d om
Ġr ieb
Ġredz ama
Ġskat Ä«jÄģs
Ġproc enti
Ä«gÄģk ie
ĠattÄ«st Ä«bÄģ
Ġizdev umus
griez t
Ġpos mu
ĠiestÄģd Äĵs
Jaun ais
Ġien Äģca
p t
Ġs Ä«rup
Ġsk ar
Ġaug s
LÄ«dz Ä«gi
Ġdokum enti
Ġautobus s
Ġstarptaut isko
Kur Å¡
Ġatd al
Ġdizain paraug
Ġpaj aut
Ġaizm ig
Ġpers pektÄ«v
Ð º
Ġl ej
em t
eb r
inÄģ Å¡anÄģm
Ġbr Äģlis
Ġdar Ä«ja
ĠraÅ¾ otÄģju
Ġmain Ä«jies
ĠsÄĵd Äĵt
ĠatkÄģrt oti
Ġl oter
Ġr audz
Ġsk and
ok Ä¼a
pr oduk
Ġlab Äģs
op s
eg a
Ġsapr ata
Ġier Äĵd
Ġskaist as
ĠziÅĨ ots
Nes en
ĠÄģrzem Äĵs
Pateic oties
I el
Ġt aup
al o
Ġno maz
Ġj ogur
Ġgr ieÅ¾
Ġatp azÄ«st
Ġter ap
Ġdal Ä«ties
Ġiespaid s
Ġdet aÄ¼as
ĠDaug avas
ĠFran cijas
f u
p h
Ġ ogu
Ġ ienes
am Ä«bu
Ġf av
Ġf ebru
Ġsav dab
ĠM on
ep ar
ĠI v
Ġnevar am
sÄĵt Äģ
Ġiep irkt
Ġpavad a
Ġlietu v
Ġiec irk
ĠpakÄģp eniski
Ġrecept e
ĠkrÄĵm s
SÄģkot n
al is
ies mu
Ġz elt
Ġpas tu
ist am
Ġvec a
Ġiel iek
Ġform a
Var Äĵtu
Ġred akt
Ġapb rÄ«n
Ġmon itor
ĠIntern et
Ġpud eles
Kon kur
ĠpÄ« rÄģ
K riev
g abal
Â °
Ġsp ied
Ġkr Äģp
ac iet
ĠdzÄ«v Ä«bu
ĠpaÅ¡ nÄģv
gad s
Ġvec u
ov i
Ġsl id
Ġbal vas
Ġrok a
Ġproc entiem
Ġsaim nieks
ĠsalÄ«dz inÄģjumÄģ
Ġuzman Ä«bas
ĠplaÅ¡ s
ĠvarÄĵs im
ĠdrÄ«z umÄģ
eÅĨ os
ĠsÄĵ ÅĨu
Ġmot oc
arm on
Ġvienal dz
Ġnopeln Ä«t
p ap
r od
» ¿
ï »¿
Ġp Ä«p
um eirop
ĠvÄĵl amies
ĠP R
Ġjaun ieÅ¡iem
Ġpam et
Ġatbild Ä«bas
ĠÄĵd iena
Ġatrad Äģm
Ġfunk cija
Ġfiz isko
ĠmÅ« Å¾a
ĠsastÄģvd aÄ¼a
ĠnosÅ«t Ä«t
Ġlidost as
inst al
Ġrezer ves
am er
or us
Ġz onas
op t
Ġliel Äģm
Ġnot ikt
ĠB erl
Ġnep av
oz a
Ġpav Äĵst
Ġkat astrof
ov as
ĠÄ«paÅ¡ as
Ġliek i
Ġlauk saim
ĠnorÄģd Ä«ts
Ġmal Äģm
darb Ä«bu
Ġpolit isko
Ġ18 0
ĠstÄģvok lis
ĠcÄ« ÅĨa
Ġkapit Äģla
P ad
S am
h abil
Ġv eln
Ġt itu
Ġr itu
Ġsk aÅĨ
Ġpl aÅ¡u
Ġkom ers
Ġh al
Ġiem Ä«l
Ġid i
Ġnen Äģk
ond s
ĠpiemÄĵr u
ogrÄģf ijas
ĠreÄ£istr a
te in
Ġaktu Äģl
Sk ol
Ġatsauk smes
Ġslap j
Ġkvalif ikÄģcijas
Ġfak ult
ĠLE TA
Ġizklaus Äģs
7 2
t rauc
Å« gl
Ġuz sp
ek Ä¼us
Ġnep az
ĠD arb
Ġdab u
Ġslim nÄ«cÄģ
Ġizr iet
pilsÄĵt Äģ
Ġnesan Äģk
S aj
Ġb it
Ġmaz gÄģ
Ġskr Äĵju
Ġrun Äģjam
ĠattÄ«st Äģs
ĠzinÄģm a
ceÄ¼ u
Ġzaud Äĵ
ĠsÄĵd Äĵ
ĠdÄģv anas
ĠmÄĵrÄ· tiec
Fil mas
Ġvidussk olas
CeÄ¼ Å¡
R Ä«ga
k ulis
Ġb ied
Ġg uv
en g
rau ga
Ġnev ien
ĠsÄģk sies
Ġnos pied
Ġvid ei
Ġsas od
Ġveik Å¡anai
ĠplÄģn Äģ
inÄģm s
Ġizt ikt
Ġpriek a
ĠtreÅ¡ ais
Ġkonkr Äĵt
Ġziem eÄ¼
ĠzÄģl e
Ġsvaig u
Ġterm iÅĨÅ¡
ĠnÄģv i
Nes katoties
dec embrÄ«
I K
ar h
Ġst end
Ġman d
Ġre gl
Äģv Äģs
Äį iem
Ġies kr
niec Ä«bai
Ġskol a
ĠizvÄĵl Äĵjos
Ġvesel s
ĠmazÄģk a
Ġit kÄģ
Ġkult Å«ru
Ġrekl am
Ġekonom iskÄģs
Ġklien ti
Ġdraudz ene
Ġaizsardz Ä«bu
Aug ust
Nel iel
P iet
T witter
m ul
Ġ ansamb
Ġn amu
Ġb un
Äģk Äģm
Ġmin ÄĵtÄģs
ĠdaÄ¼ Äģs
ĠH D
ĠÄ«paÅ¡ nieki
Ġdal Ä«bu
Ġdod os
Ġteik sim
Ġuzdev umus
Ġfr ag
Ġbiedr iem
Ġdiz ains
Ġdis cipl
ĠÄ·erm enis
Ġieslodz Ä«juma
Ġprogrammat Å«ras
JÄģs aka
K ol
b un
Ġn amÄģ
im s
Ġies kaitot
ĠA v
Ġbal tu
Ġpiek Ä¼u
Ġport Äģls
sl and
Ġpacien tiem
ĠBal tic
ĠZviedr ijas
m Äģc
n edÄĵÄ¼
Ġ Äģd
Ġt autu
Å« Å¡anu
ek a
Å«t os
