{"<s>":0,"<pad>":1,"</s>":2,"<unk>":3,"<mask>":4,"!":5,"\"":6,"#":7,"$":8,"%":9,"&":10,"'":11,"(":12,")":13,"*":14,"+":15,",":16,"-":17,".":18,"/":19,"0":20,"1":21,"2":22,"3":23,"4":24,"5":25,"6":26,"7":27,"8":28,"9":29,":":30,";":31,"<":32,"=":33,">":34,"?":35,"@":36,"A":37,"B":38,"C":39,"D":40,"E":41,"F":42,"G":43,"H":44,"I":45,"J":46,"K":47,"L":48,"M":49,"N":50,"O":51,"P":52,"Q":53,"R":54,"S":55,"T":56,"U":57,"V":58,"W":59,"X":60,"Y":61,"Z":62,"[":63,"\\":64,"]":65,"^":66,"_":67,"`":68,"a":69,"b":70,"c":71,"d":72,"e":73,"f":74,"g":75,"h":76,"i":77,"j":78,"k":79,"l":80,"m":81,"n":82,"o":83,"p":84,"q":85,"r":86,"s":87,"t":88,"u":89,"v":90,"w":91,"x":92,"y":93,"z":94,"{":95,"|":96,"}":97,"~":98,"¡":99,"¢":100,"£":101,"¤":102,"¥":103,"¦":104,"§":105,"¨":106,"©":107,"ª":108,"«":109,"¬":110,"®":111,"¯":112,"°":113,"±":114,"²":115,"³":116,"´":117,"µ":118,"¶":119,"·":120,"¸":121,"¹":122,"º":123,"»":124,"¼":125,"½":126,"¾":127,"¿":128,"À":129,"Á":130,"Â":131,"Ã":132,"Ä":133,"Å":134,"Æ":135,"Ç":136,"È":137,"É":138,"Ê":139,"Ë":140,"Ì":141,"Í":142,"Î":143,"Ï":144,"Ð":145,"Ñ":146,"Ò":147,"Ó":148,"Ô":149,"Õ":150,"Ö":151,"×":152,"Ø":153,"Ù":154,"Ú":155,"Û":156,"Ü":157,"Ý":158,"Þ":159,"ß":160,"à":161,"á":162,"â":163,"ã":164,"ä":165,"å":166,"æ":167,"ç":168,"è":169,"é":170,"ê":171,"ë":172,"ì":173,"í":174,"î":175,"ï":176,"ð":177,"ñ":178,"ò":179,"ó":180,"ô":181,"õ":182,"ö":183,"÷":184,"ø":185,"ù":186,"ú":187,"û":188,"ü":189,"ý":190,"þ":191,"ÿ":192,"Ā":193,"ā":194,"Ă":195,"ă":196,"Ą":197,"ą":198,"Ć":199,"ć":200,"Ĉ":201,"ĉ":202,"Ċ":203,"ċ":204,"Č":205,"č":206,"Ď":207,"ď":208,"Đ":209,"đ":210,"Ē":211,"ē":212,"Ĕ":213,"ĕ":214,"Ė":215,"ė":216,"Ę":217,"ę":218,"Ě":219,"ě":220,"Ĝ":221,"ĝ":222,"Ğ":223,"ğ":224,"Ġ":225,"ġ":226,"Ģ":227,"ģ":228,"Ĥ":229,"ĥ":230,"Ħ":231,"ħ":232,"Ĩ":233,"ĩ":234,"Ī":235,"ī":236,"Ĭ":237,"ĭ":238,"Į":239,"į":240,"İ":241,"ı":242,"Ĳ":243,"ĳ":244,"Ĵ":245,"ĵ":246,"Ķ":247,"ķ":248,"ĸ":249,"Ĺ":250,"ĺ":251,"Ļ":252,"ļ":253,"Ľ":254,"ľ":255,"Ŀ":256,"ŀ":257,"Ł":258,"ł":259,"Ń":260,"Äģ":261,"ie":262,"Ä«":263,"Äĵ":264,"Ġp":265,"as":266,"čĊ":267,"ĠčĊ":268,"Ġk":269,"ar":270,"Ġv":271,"Ġt":272,"Å¡":273,"Ġs":274,"Ġn":275,"ai":276,"Ġu":277,"at":278,"Ġi":279,"an":280,"au":281,"is":282,"Ġm":283,"Ġd":284,"es":285,"Ġl":286,"Ġb":287,"am":288,"Ġun":289,"ot":290,"st":291,"um":292,"ij":293,"Å«":294,"ÅĨ":295,"al":296,"in":297,"ik":298,"iem":299,"Ġne":300,"ad":301,"Ġg":302,"Äģs":303,"Ġno":304,"Äģk":305,"Ġar":306,"Ġj":307,"ien":308,"us":309,"ies":310,"Äģr":311,"Ä¼":312,"er":313,"dz":314,"Ġir":315,"Äĵj":316,"ur":317,"Äģd":318,"Ġr":319,"Äģm":320,"Äģj":321,"en":322,"il":323,"âĢ":324,"tu":325,"ak":326,"av":327,"Ä«b":328,"ap":329,"iÅĨ":330,"Äģt":331,"Ġiz":332,"et":333,"Ä«t":334,"os":335,"Ġuz":336,"Ġat":337,"ei":338,"Äĵr":339,"Ä«g":340,"on":341,"Äĵt":342,"Ġc":343,"iet":344,"iek":345,"Ġpar":346,"or":347,"ir":348,"ĠÅ¡":349,"aj":350,"om":351,"Å¡an":352,"Ġka":353,"Å¾":354,"Ġpr":355,"ek":356,"ĠâĢ":357,"it":358,"oj":359,"Ġpie":360,"ab":361,"Äģl":362,"Ġap":363,"Ġie":364,"el":365,"ija":366,"Äĵl":367,"Ġvai":368,"ĠarÄ«":369,"ol":370,"ĠkÄģ":371,"Ġlai":372,"Ġpa":373,"Ä«j":374,"Ä·":375,"Ġjau":376,"Ġvis":377,"Ġz":378,"em":379,"isk":380,"ijas":381,"Ä«v":382,"Ġkur":383,"Ġvien":384,"ais":385,"Äģc":386,"Ġtik":387,"Ġkas":388,"od":389,"Äĵm":390,"ĠpÄģr":391,"Ġst":392,"Ġvar":393,"ums":394,"im":395,"Ġ(":396,"Å«t":397,"Ġsk":398,"Å¡i":399,"Ġf":400,"Ġes":401,"ĠviÅĨ":402,"Ġman":403,"Ä«bas":404,"Äĵc":405,"ĠâĢĵ":406,"Ġto":407,"Ä£":408,"umu":409,"Ä«dz":410,"rÄ«":411,"ul":412,"az":413,"ru":414,"Ġbet":415,"ti":416,"Ġko":417,"ev":418,"ĠtÄģ":419,"Ġsav":420,"ag":421,"ĠL":422,"aut":423,"eik":424,"arb":425,"Ġpat":426,"ts":427,"ok":428,"iel":429,"rau":430,"Å«s":431,"Ġdz":432,"Ġsp":433,"iju":434,"Ġin":435,"Å¡u":436,"sk":437,"iz":438,"Ġbija":439,"Ġre":440,"og":441,"iec":442,"un":443,"ta":444,"ĠvÄĵl":445,"Äĵk":446,"dr":447,"Ġnav":448,"ej":449,"Ġ1":450,"pr":451,"Äģv":452,"ajÄģ":453,"Äĵs":454,"aiz":455,"Ä«bu":456,"oÅ¡":457,"tr":458,"Ġlaik":459,"Ä«gi":460,"Äį":461,"Ġgr":462,"aÄ¼":463,"ĠS":464,"audz":465,"Ġies":466,"Ġgan":467,"ec":468,"Å¡anas":469,"ĠkÄģd":470,"Âł":471,"inÄģt":472,"id":473,"Ġtas":474,"Ä«m":475,"ob":476,"ĠlÄ«dz":477,"Ġgad":478,"irm":479,"Ġpas":480,"uma":481,"akst":482,"pÄĵj":483,"atv":484,"Äģn":485,"eiz":486,"ĠA":487,"Ġlab":488,"Ġaiz":489,"âĢĿ":490,"Äģrt":491,"Ġdarb":492,"ams":493,"Ġ2":494,"Äģju":495,"Ġjo":496,"ĠM":497,"ter":498,"mu":499,"oti":500,"op":501,"Ġkr":502,"Äĵd":503,"ic":504,"Ġnek":505,"ac":506,"ez":507,"eÄ¼":508,"umÄģ":509,"Ġliel":510,"ild":511,"Ġnot":512,"Ġvair":513,"aÅ¾":514,"ĠpÄĵc":515,"aid":516,"Ġtad":517,"rÄģd":518,"ĠĠ":519,"ed":520,"alst":521,"Ġtikai":522,"Ä«s":523,"iv":524,"Ġpl":525,"ep":526,"eid":527,"Ġ-":528,"ĠK":529,"aug":530,"ant":531,"ast":532,"Ġnev":533,"Ġtr":534,"ĠR":535,"Ä«k":536,"ĠP":537,"Äĵja":538,"ilv":539,"ĠÄ¼":540,"ain":541,"Ġkon":542,"Ġpirm":543,"ist":544,"ÅĨem":545,"ĠB":546,"Åł":547,"ĠV":548,"ĠT":549,"Äĵtu":550,"inÄģj":551,"Ġkl":552,"Ä«n":553,"iekÅ¡":554,"00":555,"Ġnep":556,"ĠtÄģd":557,"ent":558,"ijÄģ":559,"ilvÄĵk":560,"usi":561,"ĠD":562,"Ġtur":563,"Ä«st":564,"oc":565,"Ġjaun":566,"Ġmaz":567,"Ġdaudz":568,"ald":569,"ĠâĢľ":570,"Äģp":571,"Ġcit":572,"aud":573,"ieg":574,"ers":575,"oties":576,"lÄĵ":577,"Ġizm":578,"Un":579,"ib":580,"Ġliet":581,"Ä«ba":582,"ĠcilvÄĵk":583,"Å«r":584,"Ġatt":585,"ĠLatv":586,"niek":587,"Å¡anu":588,"auk":589,"lik":590,"Ġpal":591,"skat":592,"rie":593,"ĠdzÄ«v":594,"aÅ¡":595,"ina":596,"vÄĵr":597,"uk":598,"Ġdien":599,"Ġja":600,"ĠiespÄĵj":601,"Äĵju":602,"Ġtie":603,"ĠvairÄģk":604,"Ġkom":605,"Ġpil":606,"Ġkad":607,"ĠI":608,"Äįu":609,"Äĵn":610,"aks":611,"Ġ\"":612,"Ġsv":613,"ĠsÄģk":614,"Å«tu":615,"Ġnes":616,"Å¡Ä·":617,"dien":618,"ĠÄ¼oti":619,"Ġgal":620,"Ġinter":621,"Ä«bÄģ":622,"kl":623,"iÄģl":624,"orm":625,"Ä¼u":626,"ĠE":627,"Ġgar":628,"ĠÅ¡o":629,"umi":630,"Å¡ana":631,"eic":632,"ĠpaÅ¡":633,"ip":634,"gad":635,"oz":636,"ied":637,"Ġizv":638,"Äĵrn":639,"Ġskai":640,"ekl":641,"eb":642,"tÄģ":643,"Å«k":644,"Ġkaut":645,"ĠdaÅ¾":646,"Ġviet":647,"Ġneb":648,"Äģcijas":649,"Ġatb":650,"ÅĨÄĵm":651,"ĠjÄģ":652,"iÅĨu":653,"Ġned":654,"ens":655,"ĠbÅ«s":656,"Ä«p":657,"ri":658,"ajiem":659,"ion":660,"Ġak":661,"ĠN":662,"ĠG":663,"uÅ¡":664,"Ġveid":665,"umiem":666,"ĠJ":667,"Ġnos":668,"iski":669,"edz":670,"Äģja":671,"Ġsavu":672,"Ġdom":673,"inÄģ":674,"Ġaug":675,"Ġpam":676,"ra":677,"Ġtiek":678,"sm":679,").":680,"Ġkop":681,"Å«d":682,"Ġrakst":683,"Ġmin":684,"iev":685,"Ġtu":686,"atu":687,"Ġizd":688,"aÄįu":689,"umus":690,"and":691,"omÄĵr":692,"Ġte":693,"lu":694,"),":695,"ÅĨu":696,"Ġatr":697,"Ä«c":698,"Ä«gs":699,"Ġaut":700,"ĠbÄĵrn":701,"Äģks":702,"sp":703,"ut":704,"Ġpied":705,"ÄĵÄ¼":706,"Ä«ja":707,"Es":708,"rÄ«d":709,"Ġpav":710,"rauc":711,"Ġnod":712,"kr":713,"Ġvalst":714,"eg":715,"ĠâĢĶ":716,"mas":717,"Ġbez":718,"ef":719,"li":720,"Ġek":721,"iÅĨa":722,"Ġdiv":723,"ub":724,"Ġlik":725,"nes":726,"ĠmÅ«s":727,"ĠvÄĵr":728,"eikt":729,"ult":730,"adz":731,"ĠtÄģs":732,"akar":733,"Ġ3":734,"Ġnu":735,"Ġiet":736,"Ġvid":737,"Ġsm":738,"ĠÄ«p":739,"Ġvec":740,"eÅ¾":741,"Å¡anÄģs":742,"Ġpus":743,"ĠlaikÄģ":744,"Ä«ga":745,"Ġkat":746,"ieÅ¡":747,"ĠviÅĨa":748,"of":749,"Äģjas":750,"ma":751,"Ġsap":752,"gan":753,"form":754,"Ġfil":755,"Ġkar":756,"Bet":757,"itu":758,"Ġieg":759,"las":760,"est":761,"Ġizmant":762,"Ġtam":763,"ĠÅ¡Ä·":764,"atav":765,"Ġot":766,"Äģrd":767,"Ġbr":768,"itÄģt":769,"ĠviÅĨÅ¡":770,"vien":771,"ni":772,"ĠbÅ«t":773,"Ġsas":774,"ud":775,"Ġtel":776,"ov":777,"rakst":778,"ika":779,"Ä«ties":780,"niec":781,"Ġsar":782,"eit":783,"ĠbÅ«tu":784,"Ja":785,"kt":786,"Ġvisu":787,"iÅĨÅ¡":788,"eÅ¡":789,"Ġpiem":790,"kÄģr":791,"ram":792,"uÅ¡i":793,"ekt":794,"Ġredz":795,"Ġpret":796,"aist":797,"ĠLatvijas":798,"zÄ«m":799,"ami":800,"pÄĵc":801,"Ġreiz":802,"pl":803,"Ġpag":804,"ĠC":805,"iÅĨas":806,"ĠceÄ¼":807,"Ä«ti":808,"rÄģ":809,"ig":810,"ĠÄģr":811,"evi":812,"eig":813,"iedr":814,"aul":815,"Å¡anai":816,"ven":817,"Ġvir":818,"Ġsl":819,"Ä«gas":820,"Ġzem":821,"arp":822,"Äģdi":823,"agad":824,"ĠdaÄ¼":825,"ĠmÄĵs":826,"ĠpriekÅ¡":827,"erson":828,"Ġh":829,"Ġrad":830,"Ġcen":831,"ĠnÄģk":832,"Äģciju":833,"Ġbl":834,"otÄģj":835,"maz":836,"ÄĵÄ£":837,"Ġapm":838,"akt":839,"nieg":840,"Ä«gu":841,"ĠF":842,"ier":843,"ust":844,"Ä«ts":845,"Ġveik":846,"ĠtaÄįu":847,"Äģst":848,"Ġvaj":849,"kÄģrt":850,"Ġkam":851,"ator":852,"ing":853,"Ġpiln":854,"istr":855,"var":856,"ikas":857,"aus":858,"Ġgrib":859,"ĠgrÄģm":860,"Äĵst":861,"ĠĠĠĠ":862,"reiz":863,"ku":864,"Ġsag":865,"ajÄģm":866,"lab":867,"ka":868,"Lai":869,"TÄģ":870,"iens":871,"ĠtomÄĵr":872,"kur":873,"iedz":874,"ĠvarÄĵtu":875,"Ġdr":876,"Ġskr":877,"Ġsak":878,"Ġinteres":879,"Ġnoteik":880,"Ä«d":881,"atÄ«v":882,"ju":883,"oÄ£":884,"ĠÅ¡Äģd":885,"ĠvienkÄģr":886,"Man":887,"ietu":888,"Ġor":889,"Pr":890,"ama":891,"Ġstu":892,"Ġviss":893,"Ġbal":894,"ĠZ":895,"Ġesmu":896,"aim":897,"Äĵts":898,"Ġinform":899,"isko":900,"Äģli":901,"ots":902,"lÄĵm":903,"ĠkÄģrt":904,"Ġal":905,"Äĵram":906,"aun":907,"Ġdar":908,"ĠH":909,"Ġmums":910,"Ä«r":911,"Ġskat":912,"Ġsa":913,"dzÄ«v":914,"Ġpak":915,"eidz":916,"Ġ5":917,"ĠÅ¡Ä«":918,"iez":919,"ĠkÄģdu":920,"Ġsal":921,"Ġnevar":922,"Äģcija":923,"oÅ¡anas":924,"aig":925,"Vis":926,"Tas":927,"rÄ«z":928,"Ġtika":929,"Â«":930,"Ġties":931,"Ġpad":932,"lv":933,"Ġlabi":934,"ĠÄģt":935,"Ġ4":936,"ĠÄ·":937,"odas":938,"ties":939,"Ġperson":940,"oÅ¡i":941,"otams":942,"sÄĵt":943,"ona":944,"Ä«gÄģ":945,"kar":946,"Ġvad":947,"ĠviÅĨu":948,"ĠmÄĵr":949,"Ġmani":950,"ienu":951,"ĠÄį":952,"Ġpirms":953,"lg":954,"oja":955,"ird":956,"Par":957,"Ä«tÄģj":958,"ĠÄ«st":959,"Ġsapr":960,"ÅĨa":961,"auj":962,"ÄĵdÄĵj":963,"kal":964,"Â»":965,"Ġiek":966,"inu":967,"ĠmÅ«su":968,"Ġrok":969,"eta":970,"Ä«ta":971,"lai":972,"Ġsek":973,"Ġstarp":974,"iks":975,"ĠO":976,"cer":977,"Ġdrau":978,"Ġkuru":979,"Ġsam":980,"ĠdaÅ¾Äģd":981,"eju":982,"Ġpiet":983,"Ġsat":984,"pat":985,"ver":986,"ieÅ¡u":987,"Ä«z":988,"tur":989,"Ġtagad":990,"ĠlabÄģk":991,"Ġsab":992,"Ġlas":993,"Ġmil":994,"otu":995,"ost":996,"Å«ras":997,"gr":998,"Ġviens":999,"Ġpaz":1000,"gl":1001,"ĠvÄģrd":1002,"Ġvalsts":1003,"ĠtÄģl":1004,"ĠgadÄ«j":1005,"Å¾u":1006,"nd":1007,"ĠnekÄģ":1008,"uz":1009,"Ġiem":1010,"Ġskol":1011,"Ġpap":1012,"ĠtÄģpÄĵc":1013,"ogram":1014,"Ġel":1015,"Ġvajadz":1016,"Ġcik":1017,"Äģz":1018,"ait":1019,"Ġats":1020,"man":1021,"Ġlap":1022,"Ġnor":1023,"ons":1024,"Äģts":1025,"Iz":1026,"oloÄ£":1027,"Ġvienu":1028,"ĠÄ":1029,"kst":1030,"Ġilg":1031,"bÅ«t":1032,"liet":1033,"enc":1034,"Ġdarba":1035,"Ġattiec":1036,"Ä«jÄģs":1037,"ĠmÄģj":1038,"Å¡Ä·ir":1039,"Ġlaiku":1040,"ĠkÄģds":1041,"ĠstÄģst":1042,"ĠtieÅ¡i":1043,"ijÄģm":1044,"ĠÄ£":1045,"Ġpies":1046,"ojas":1047,"KÄģ":1048,"Ä«l":1049,"Ġsiev":1050,"Ġjaut":1051,"Ġrez":1052,"ieÅ¾":1053,"Å«z":1054,"ĠpÄģrst":1055,"ĠplÄģn":1056,"Ġnop":1057,"Ġ20":1058,"ĠkurÅ¡":1059,"ojot":1060,"Ä¼a":1061,"priekÅ¡":1062,"Ġjeb":1063,"Ġier":1064,"Ġpamat":1065,"mÄĵr":1066,"Ġneat":1067,"ionÄģl":1068,"ĠÄ«paÅ¡":1069,"nÄ«c":1070,"iecieÅ¡":1071,"ÄĵjÄģs":1072,"iskÄģs":1073,"hn":1074,"kat":1075,"Ġ200":1076,"ĠlielÄģk":1077,"Ġaugst":1078,"iena":1079,"âĢĵ":1080,"Ġapst":1081,"ĠâĢŀ":1082,"ojumu":1083,"Ġmaks":1084,"ans":1085,"iÅĨÄģ":1086,"end":1087,"ĠÅ¾":1088,"Ġturp":1089,"Ġval":1090,"ĠÅ«d":1091,"Ġik":1092,"ort":1093,"Ġnebija":1094,"At":1095,"ĠizvÄĵl":1096,"la":1097,"ĠnepiecieÅ¡":1098,"Ġas":1099,"onu":1100,"pÄģr":1101,"Ä«ju":1102,"ĠuzÅĨÄĵm":1103,"Äĵta":1104,"ĠpiedÄģv":1105,"irg":1106,"inÄģm":1107,"auc":1108,"iniek":1109,"oju":1110,"up":1111,"rup":1112,"iest":1113,"ĠÂ«":1114,"Ä«tu":1115,"Ä«bÄģm":1116,"Ġac":1117,"vÄĵrt":1118,"ĠjautÄģj":1119,"ĠgrÄģmat":1120,"vis":1121,"gada":1122,"redz":1123,"Ġpol":1124,"Ġvairs":1125,"ne":1126,"Ġbiju":1127,"rÄģk":1128,"Uz":1129,"ĠnozÄ«m":1130,"iskÄģ":1131,"vald":1132,"Vai":1133,"unk":1134,"ĠLatvijÄģ":1135,"Ġnet":1136,"Å«st":1137,"PÄĵc":1138,"ĠpalÄ«dz":1139,"droÅ¡":1140,"ĠspÄĵl":1141,"Ġpats":1142,"ĠparÄģd":1143,"ĠkopÄģ":1144,"niedz":1145,"Ġproc":1146,"Ġgatav":1147,"ĠÅ¡is":1148,"inÄģja":1149,"Ġsaj":1150,"Äĵties":1151,"ÅĨi":1152,"Ġan":1153,"ĠiespÄĵjams":1154,"Ä«gÄģk":1155,"iÄ¼":1156,"inÄģs":1157,"ĠÅ¡ajÄģ":1158,"rauk":1159,"aur":1160,"Ar":1161,"Ġvakar":1162,"lÄĵg":1163,"Ġkv":1164,"ĠvienkÄģrÅ¡i":1165,"ĠkurÄģ":1166,"ĠviÅĨi":1167,"Ġrun":1168,"eni":1169,"etr":1170,"Ġliek":1171,"ejas":1172,"iku":1173,"ĠpÄĵdÄĵj":1174,"Ġid":1175,"Äĵji":1176,"ÄĵtÄģj":1177,"Ġab":1178,"Ġizst":1179,"Ġiest":1180,"istÄĵm":1181,"ÄĵÅ¡anas":1182,"Ġatp":1183,"Ġtelef":1184,"nu":1185,"Ġsad":1186,"dev":1187,"Ġcitu":1188,"Ġotr":1189,"Ġmar":1190,"Å«p":1191,"ĠiepriekÅ¡":1192,"ĠspÄĵk":1193,"Ġprogram":1194,"Ġgadu":1195,"Ġblog":1196,"ĠbrÄ«d":1197,"Ġiev":1198,"Ġkuras":1199,"ind":1200,"âĢ¦":1201,"Ġizp":1202,"Ġkal":1203,"ĠattÄ«st":1204,"usies":1205,"asar":1206,"Ġatbild":1207,"ept":1208,"Ġtuv":1209,"Ġnel":1210,"Ġsabiedr":1211,"Ġkura":1212,"gu":1213,"Äģtu":1214,"Ġdab":1215,"ĠpatÄ«k":1216,"mit":1217,"Ġvisi":1218,"elt":1219,"esel":1220,"ÅĨemt":1221,"enes":1222,"Ġviena":1223,"Ġmed":1224,"ĠmÄĵn":1225,"le":1226,"gal":1227,"Pirm":1228,"Ġter":1229,"Ġad":1230,"ĠkÄ¼":1231,"ko":1232,"grie":1233,"ota":1234,"Ġorgan":1235,"Ġproj":1236,"Ġlaika":1237,"aÅ¡i":1238,"ĠstÄģv":1239,"Ġneiz":1240,"Ġtehn":1241,"Ġizskat":1242,"ilst":1243,"lÄģ":1244,"odien":1245,"amo":1246,"oblÄĵm":1247,"umos":1248,"Ġnaud":1249,"me":1250,"aliz":1251,"Ġbeig":1252,"Ġnov":1253,"Ġskaidr":1254,"Ġtiem":1255,"Äĵti":1256,"ĠpilsÄĵt":1257,"eri":1258,"Ġsevi":1259,"Ġuzskat":1260,"ajos":1261,"oduk":1262,"Ġdev":1263,"aka":1264,"Å¡anos":1265,"Ġdal":1266,"ors":1267,"Ġgalven":1268,"Ġsev":1269,"oreiz":1270,"Ġstund":1271,"ijai":1272,"Ġpiek":1273,"ĠvÄĵrt":1274,"iÅĨi":1275,"Ġnedaudz":1276,"ĠstrÄģd":1277,"ÄģtÄģ":1278,"umam":1279,"eln":1280,"Ġ10":1281,"rÄ«s":1282,"Äģti":1283,"Äĵjo":1284,"âĢĶ":1285,"ĠproblÄĵm":1286,"Ġpir":1287,"Ġpras":1288,"Ġser":1289,"amies":1290,"ĠpasÄģk":1291,"ĠvÄĵst":1292,"cijas":1293,"Ġmat":1294,"Ġ:":1295,"ÄĵjÄģ":1296,"ants":1297,"urs":1298,"Ġdienas":1299,"Ġnen":1300,"Ġatkal":1301,"ĠmÄģc":1302,"ĠÄĵd":1303,"Ġlauk":1304,"liec":1305,"ajam":1306,"Ġ19":1307,"Ġbij":1308,"ĠÅ¡Ä«s":1309,"obeÅ¾":1310,"Å«v":1311,"aÅ¡Ä«n":1312,"Ġied":1313,"ĠcilvÄĵki":1314,"nieku":1315,"ĠkrÄģs":1316,"Äģku":1317,"No":1318,"Ä«go":1319,"Ġsvar":1320,"Ġgada":1321,"Ġvieg":1322,"Ġfin":1323,"entu":1324,"ĠsistÄĵm":1325,"run":1326,"ĠreÄ£":1327,"Ġmod":1328,"Ġizs":1329,"ĠW":1330,"ww":1331,"Ġizveid":1332,"eru":1333,"min":1334,"ĠAn":1335,"Ġnez":1336,"Ġnosk":1337,"Å¡as":1338,"aules":1339,"Ġpieej":1340,"ks":1341,"Ġ6":1342,"Ġsaist":1343,"ĠjÅ«s":1344,"alitÄģt":1345,"ipr":1346,"Ġproduk":1347,"oto":1348,"ĠkÄģda":1349,"ug":1350,"Ġsac":1351,"inot":1352,"Ġsavas":1353,"Ġvismaz":1354,"ĠtieÅ¡":1355,"Ġizt":1356,"Ä¼i":1357,"Ġkuri":1358,"âĢĿ,":1359,"oÅ¡anu":1360,"otÄģju":1361,"he":1362,"Ġsast":1363,"Ġvesel":1364,"ĠnorÄģd":1365,"tas":1366,"Ġgaid":1367,"Ġdiez":1368,"Ġintern":1369,"kas":1370,"ĉĉ":1371,"ĠiekÅ¡":1372,"ĠbrÄ«v":1373,"Äĵjis":1374,"Äģla":1375,"Äģls":1376,"Äģda":1377,"ĠsavÄģ":1378,"Ġiep":1379,"Ġnees":1380,"ĠpÄģris":1381,"niecÄ«bas":1382,"TÄģp":1383,"ener":1384,"Äģta":1385,"isam":1386,"Ġspec":1387,"Ġvisiem":1388,"Äĵjot":1389,"Äģca":1390,"esmit":1391,"Ġgais":1392,"sar":1393,"ĠcilvÄĵku":1394,"Ġlatv":1395,"mÄģ":1396,"Ġatz":1397,"Å¡anÄģ":1398,"Pat":1399,"ĠvietÄģ":1400,"Ġrezult":1401,"Ä«jumu":1402,"irop":1403,"Ġgrup":1404,"Ġkomp":1405,"ĠvispÄģr":1406,"pus":1407,"va":1408,"Ġmet":1409,"Ġbrauc":1410,"ĠtrÄ«s":1411,"ĠdÄģr":1412,"Ä«bai":1413,"Å¡a":1414,"emp":1415,"Ġtirg":1416,"Ä·i":1417,"ojÄģm":1418,"ĠvienmÄĵr":1419,"ĠmazÄģk":1420,"gadÄģ":1421,"na":1422,"Ġreizi":1423,"if":1424,"ĠmÄģjas":1425,"Ġpan":1426,"Ġakt":1427,"Ġizdev":1428,"ĠtajÄģ":1429,"Ġnevis":1430,"era":1431,"Ġatkl":1432,"Ġparedz":1433,"Ġ7":1434,"ents":1435,"Ġnotiek":1436,"lÄĵp":1437,"Ġskaist":1438,"ga":1439,"ĠgrÅ«t":1440,"Ġatbalst":1441,"Ġop":1442,"Äģko":1443,"ociÄģl":1444,"kÄģ":1445,"ĠdÄĵÄ¼":1446,"uÄ¼":1447,"ÅĨas":1448,"ĠpÄĵt":1449,"tic":1450,"Ġpriek":1451,"Ġproces":1452,"ajÄģs":1453,"ojam":1454,"Ġveikal":1455,"emb":1456,"ukÄģrt":1457,"VÄĵl":1458,"Ġorganiz":1459,"Äģlu":1460,"ojums":1461,"ilt":1462,"ĠviÅĨam":1463,"Ġaps":1464,"Ġizdar":1465,"ĠraÅ¾":1466,"ita":1467,"Ġmal":1468,"dienas":1469,"Ġmeit":1470,"ĠpiemÄĵram":1471,"âĢľ":1472,"Ġsieviet":1473,"Ġ8":1474,"Ġam":1475,"Ġpub":1476,"Ġneko":1477,"glÄ«t":1478,"ĠbrÄ«":1479,"Ap":1480,"ves":1481,"alp":1482,"Ä·is":1483,"obrÄ«d":1484,"Ġprotams":1485,"prÄģt":1486,"ĠnedÄĵÄ¼":1487,"Ġpu":1488,"Tur":1489,"ĠÅ¡eit":1490,"Äĵtas":1491,"ienÄģk":1492,"pil":1493,"Ġtev":1494,"ĠmÅ«z":1495,"Ġuzs":1496,"Ġbild":1497,"Tad":1498,"Ä«jis":1499,"ĠĠĠĠĠĠĠĠ":1500,"Ġgand":1501,"Latv":1502,"Ġlaiks":1503,"vu":1504,"oÅ¡ana":1505,"ĠEirop":1506,"anc":1507,"TomÄĵr":1508,"Nu":1509,"Ġveic":1510,"ÄĢ":1511,"Ġcentr":1512,"nÄģk":1513,"Ġvisas":1514,"itor":1515,"ĠÄ«paÅ¡i":1516,"Ġnom":1517,"Ġkol":1518,"eja":1519,"Äģties":1520,"Ġdienu":1521,"Ir":1522,"nÄĵ":1523,"ĠÄ£im":1524,"aidr":1525,"Äģmies":1526,"Ġesam":1527,"Ġpievien":1528,"Ġsan":1529,"Ġpadom":1530,"ĠnodroÅ¡":1531,"Ġcep":1532,"oÅ¡o":1533,"ĠdzÄ«ves":1534,"iska":1535,"Ġnoteikti":1536,"isku":1537,"ajai":1538,"nieks":1539,"ĠtÄģds":1540,"ĠjÄģp":1541,"Å«dz":1542,"ja":1543,"ail":1544,"Ġprojek":1545,"Ġsitu":1546,"ond":1547,"tt":1548,"Ġpavisam":1549,"iep":1550,"ĠIn":1551,"Äĵto":1552,"Ġbeidz":1553,"ĠzinÄģt":1554,"asti":1555,"veid":1556,"Ġdiezgan":1557,"Äģb":1558,"odu":1559,"Ġpaties":1560,"ĠgadÄ«jumÄģ":1561,"Ä«tes":1562,"ĠbieÅ¾":1563,"Ġmain":1564,"ieÅ¡i":1565,"Ġvirs":1566,"ĠtÄģdu":1567,"Äĵjiem":1568,"lÄ«dz":1569,"vai":1570,"avas":1571,"Ġtos":1572,"ĠizrÄģd":1573,"Ġprof":1574,"ĠmÄĵÄ£":1575,"ikt":1576,"nas":1577,"Ġiel":1578,"ÄĵÄ·":1579,"Kad":1580,"darb":1581,"Ġvald":1582,"eks":1583,"Ġsol":1584,"ÄģkÄģ":1585,"oÅ¡u":1586,"amÄģ":1587,"Ġdator":1588,"ĠmeÅ¾":1589,"ĠvarbÅ«t":1590,"to":1591,"Ġpac":1592,"aÄ¼as":1593,"ĠtÄģda":1594,"Ġsnieg":1595,"ektÄ«v":1596,"otas":1597,"Ġteic":1598,"Äģjot":1599,"nieki":1600,"ĠsociÄģl":1601,"ÄģlÄģ":1602,"res":1603,"Äĵjas":1604,"ĠlÄ«m":1605,"Ġmekl":1606,"ĠviÅĨiem":1607,"Äģdas":1608,"Ġbur":1609,"art":1610,"ĠzÄ«m":1611,"Ġpast":1612,"ienÄģ":1613,"abal":1614,"inÄģju":1615,"Äģka":1616,"baud":1617,"Äģkais":1618,"ArÄ«":1619,"ÄĵÅ¡anu":1620,"gÄģd":1621,"ĠmÄģks":1622,"ĠSt":1623,"Ġpakalp":1624,"Ġpiec":1625,"Ġvied":1626,"eti":1627,"aic":1628,"lis":1629,"Ġapskat":1630,"Ġpasau":1631,"ĠvÄ«":1632,"Äģra":1633,"onom":1634,"âĢĿ.":1635,"ĠtÄ«k":1636,"Ġvil":1637,"ĠÅ¡Ä·iet":1638,"Ġzv":1639,"ĠgandrÄ«z":1640,"Ġdarbu":1641,"ĠRÄ«gas":1642,"ÅĨiem":1643,"Ġpapild":1644,"olu":1645,"onÄģ":1646,"ĠminÅ«t":1647,"ĠviÅĨas":1648,"tiv":1649,"Ġ15":1650,"JÄģ":1651,"Ġdzim":1652,"gs":1653,"ĠtÄģlÄģk":1654,"Ġcaur":1655,"ektr":1656,"orta":1657,"str":1658,"Ġpiedal":1659,"Ġlaikam":1660,"viet":1661,"TaÄįu":1662,"Ġform":1663,"amas":1664,"ars":1665,"ĠiedzÄ«v":1666,"Äģdu":1667,"Ġnosauk":1668,"uru":1669,"ĠjÄģs":1670,"Ġtiks":1671,"Ġkonkur":1672,"ĠizstrÄģd":1673,"ĠdaÄ¼a":1674,"liek":1675,"ĠsvÄĵt":1676,"Ġgl":1677,"Ġgadiem":1678,"aÄ£":1679,"omÄģ":1680,"lo":1681,"Ġlietas":1682,"akaÄ¼":1683,"Ġnotik":1684,"Ä¼iem":1685,"ĠklÄģt":1686,"In":1687,"und":1688,"ĠmÄģjÄģs":1689,"inÄģtu":1690,"Ä«Å¡u":1691,"iÅĨiem":1692,"ĠpaÅ¡u":1693,"Å¡Äģ":1694,"isks":1695,"Ġit":1696,"ĠskrÄĵj":1697,"lÅ«k":1698,"eli":1699,"ĠÅ«dens":1700,"ĠtieÅ¡Äģm":1701,"Å«ta":1702,"Ġatm":1703,"uÅ¡ies":1704,"ĠÅ¡odien":1705,"Ġeksp":1706,"Ġvari":1707,"Ġpirmo":1708,"Ġpubl":1709,"griez":1710,"inÄģÅ¡anas":1711,"ojuma":1712,"ĠÅł":1713,"Sav":1714,"St":1715,"Ġ9":1716,"ord":1717,"Äģri":1718,"tiem":1719,"Ġob":1720,"ĠzinÄģm":1721,"ciju":1722,"re":1723,"Å«ra":1724,"ĠU":1725,"ĠdalÄ«b":1726,"anti":1727,"ĠspeciÄģl":1728,"stu":1729,"Ä«gais":1730,"ĠiespÄĵjas":1731,"Äĵv":1732,"ĠpÄģrstÄģv":1733,"uÅ¡as":1734,"Ġatv":1735,"inÄģts":1736,"ĠtÄģpat":1737,"Ä«gÄģs":1738,"Ġ201":1739,"Tik":1740,"Ġlid":1741,"ViÅĨÅ¡":1742,"ĠÅ¡im":1743,"Å¾Äĵl":1744,"Ġatrad":1745,"Ġierakst":1746,"Ġizc":1747,"alsts":1748,"mai":1749,"Ġpab":1750,"ĠrÄ«k":1751,"eriÄģl":1752,"ĠcilvÄĵkiem":1753,"Ġvel":1754,"Ġkatru":1755,"Ġmanu":1756,"ĠpiemÄĵr":1757,"af":1758,"Ġsim":1759,"bild":1760,"inc":1761,"Ġpieredz":1762,"ki":1763,"Ġmazliet":1764,"Ä«te":1765,"ĠatÅ¡Ä·ir":1766,"Ġpolit":1767,"Å«kst":1768,"ĠpÄģrs":1769,"brauc":1770,"Äª":1771,"ĠierÄ«":1772,"Ä«Å¡anas":1773,"apr":1774,"Ġe":1775,"Ġmir":1776,"Ġgadus":1777,"Ġnorm":1778,"Ġatbilst":1779,"ĠiespÄĵju":1780,"Å¾as":1781,"Ġsen":1782,"Ġatst":1783,"Ġkomand":1784,"Ġuzt":1785,"Ġpul":1786,"Ġnemaz":1787,"ĠizglÄ«t":1788,"Å«l":1789,"inÄģjums":1790,"ĠatpakaÄ¼":1791,"Ġ0":1792,"ĠpÄģrd":1793,"ĠiespÄĵja":1794,"ĠÄ«s":1795,"rÄģf":1796,"si":1797,"ow":1798,"Ġnem":1799,"klÄģt":1800,"Ġesot":1801,"Å¾i":1802,"Ġministr":1803,"Äĵjam":1804,"Ġatrast":1805,"Ġnekas":1806,"Ġjums":1807,"ĠgarÅ¡":1808,"ĠvÄ«r":1809,"Ġcitiem":1810,"Äĵjos":1811,"ora":1812,"Ġnost":1813,"ÄģjÄģm":1814,"Ġris":1815,"gul":1816,"Ġneliel":1817,"Ġizmantot":1818,"Ġapr":1819,"ĠkÄģdÄģ":1820,"Ġag":1821,"Äĵjs":1822,"Pie":1823,"eo":1824,"odÄģ":1825,"rs":1826,"Ġnoz":1827,"ĠpaÅ¡vald":1828,"ĠEiropas":1829,"pas":1830,"Ġvietu":1831,"obil":1832,"otÄģji":1833,"ogrÄģf":1834,"ĠtehnoloÄ£":1835,"kÄģp":1836,"Ġslim":1837,"Å¾a":1838,"Ġelektr":1839,"Ġ:)":1840,"Ä«tas":1841,"Ġvietas":1842,"Äĵjumu":1843,"projÄģm":1844,"Ġav":1845,"ĠreÄ£istr":1846,"Ġteikt":1847,"ros":1848,"ĠdroÅ¡":1849,"ĠpÄģrÄģk":1850,"ĠmÄ«":1851,"ĠkÄģpÄĵc":1852,"Ġprec":1853,"LÄ«dz":1854,"Ġgabal":1855,"Ä¼aut":1856,"sim":1857,"Ġtais":1858,"Vien":1859,"ogu":1860,"enti":1861,"raudz":1862,"Ġmilj":1863,"ĠtreÅ¡":1864,"ĠsaÅĨem":1865,"mes":1866,"ls":1867,"Ä¼us":1868,"ĠbÄĵrnu":1869,"Ġauto":1870,"Ġstud":1871,"ĠvienÄģ":1872,"Ġnoteikt":1873,"ĠÅ¡obrÄ«d":1874,"aku":1875,"mi":1876,"tuven":1877,"ijs":1878,"Ġslik":1879,"Ġdok":1880,"Ä«jums":1881,"Ġdod":1882,"alt":1883,"ikÄģ":1884,"ÄĵjÄģm":1885,"Ġkonkr":1886,"ura":1887,"vas":1888,"Äģdes":1889,"Ġof":1890,"ara":1891,"akts":1892,"Ġmas":1893,"Å«ru":1894,"Ä«tÄģjs":1895,"Ġapmekl":1896,"Ġvies":1897,"ĠdienÄģ":1898,"ĠkÄ¼u":1899,"Protams":1900,"Ġfilmas":1901,"ĠÄģtri":1902,"Ġdivas":1903,"Ġsamaz":1904,"ÄĵÅ¡ana":1905,"Ġban":1906,"Ä«juma":1907,"Ġmarat":1908,"ĠlÄĵm":1909,"kop":1910,"Ġsaim":1911,"Ġkult":1912,"raukt":1913,"ĠapkÄģrt":1914,"ĠnÄģkam":1915,"ĠcilvÄĵks":1916,"Äģru":1917,"Ġietek":1918,"ĠÄ«sti":1919,"Ġfor":1920,"Ġsald":1921,"Å«n":1922,"Ġdzies":1923,"kan":1924,"Ä«sies":1925,"Ġbijis":1926,"rÄģn":1927,"Ġpop":1928,"ĠpieÅĨem":1929,"Ġfot":1930,"enÄ«":1931,"zem":1932,"Ġprez":1933,"ro":1934,"\",":1935,"vid":1936,"Äģtad":1937,"Ġkab":1938,"Ġklas":1939,"ĠdarÄ«t":1940,"Ġnekad":1941,"ĠÄĵr":1942,"Ġpoz":1943,"ĠsalÄ«dz":1944,"urn":1945,"eklÄĵ":1946,"uld":1947,"Ġpareiz":1948,"ola":1949,"ĠbieÅ¾i":1950,"Ġsird":1951,"olas":1952,"aidÄģm":1953,"\".":1954,"Ġvasar":1955,"ĠlÄ«dzek":1956,"ĠmÄ«l":1957,"ets":1958,"Ġkor":1959,"sta":1960,"Ġnodarb":1961,"tuveni":1962,"Ġvirz":1963,"ĠKr":1964,"Ġuzman":1965,"Ġpasaules":1966,"pa":1967,"Ġplat":1968,"ijÄģs":1969,"ĠpÄģrliec":1970,"pras":1971,"Ġkuriem":1972,"Ġdat":1973,"laik":1974,"otÄģjiem":1975,"ene":1976,"Ġesi":1977,"Ġprofes":1978,"Ġpieaug":1979,"Ġdzird":1980,"Ġpart":1981,"Ġvaru":1982,"ogad":1983,"ini":1984,"ĠvÄĵlÄģk":1985,"Å¡os":1986,"Ġdraug":1987,"Ġvers":1988,"Ġtren":1989,"Ä¼auj":1990,"te":1991,"uv":1992,"ojÄģs":1993,"com":1994,"Ġaplik":1995,"Ġkontr":1996,"ÄĵtÄģ":1997,"oru":1998,"eviÅ¡Ä·":1999,"Ġind":2000,",\"":2001,"Ne":2002,"Ġres":2003,"Äģlo":2004,"ard":2005,"ĠkÄģdas":2006,"ber":2007,"ins":2008,"ĠtÄģm":2009,"Ġput":2010,"inÄģjumu":2011,"Ġinst":2012,"Ġpietiek":2013,"ĠpasaulÄĵ":2014,"cija":2015,"Ġjaunu":2016,"ÄģjÄģs":2017,"Ġreizes":2018,"ĠjoprojÄģm":2019,"Ġ100":2020,"omÄģt":2021,"Ġpati":2022,"aldies":2023,"ĠlÄ«dzi":2024,"viel":2025,"iÅĨÄģm":2026,"anta":2027,"Äĵdz":2028,"enta":2029,"ĠkamÄĵr":2030,"pu":2031,"amu":2032,"Ġgul":2033,"iÅĨus":2034,"Ġziem":2035,"ceÄ¼":2036,"Ġiesp":2037,"Äĵjums":2038,"Ġaizsar":2039,"Kas":2040,"Ġoper":2041,"Ġsaka":2042,"Ġatcer":2043,"Ġsava":2044,"smes":2045,"tern":2046,"ĠgrÄģmatu":2047,"Ġneesmu":2048,"Ġsarakst":2049,"ia":2050,"io":2051,"ĠmateriÄģl":2052,"Ġizlas":2053,"ĠpÄģrt":2054,"niekiem":2055,"ÄĵÄ¼u":2056,"rauj":2057,"aÄ¼u":2058,"dienu":2059,"Äģrs":2060,"Ġizr":2061,"Ġcer":2062,"Å«tas":2063,"Ġzaud":2064,"Ġ12":2065,"Ġpavad":2066,"itÄģtes":2067,"ĠmÄĵneÅ¡":2068,"mir":2069,"ĠÅĨem":2070,"ĠAndr":2071,"pants":2072,"Ġdokum":2073,"ĠsastÄģv":2074,"ĠdÄģrz":2075,"Ġsacens":2076,"Tagad":2077,"omu":2078,"ĠgrÄģmatas":2079,"Ä«to":2080,"Ġsarun":2081,"TÄģpÄĵc":2082,"ĠpilnÄ«gi":2083,"rad":2084,"Ġsakar":2085,"aÄ¼a":2086,"par":2087,"ĠjÄģbÅ«t":2088,"Ġteritor":2089,"Ġtai":2090,"mar":2091,"ata":2092,"aÄ¼Äģ":2093,"Ġjebkur":2094,"su":2095,"Ġvisai":2096,"Ġmana":2097,"riev":2098,"Äģds":2099,"Ġrekl":2100,"ÄģkÄģs":2101,"Ġekonom":2102,"ĠÄģtr":2103,"Ġteik":2104,"Ġapj":2105,"ĠiegÄģd":2106,"mal":2107,"Äģmas":2108,"ĠDÅ¾":2109,"Ġmilz":2110,"lÄĵdz":2111,"ViÅĨa":2112,"Ġ30":2113,"Ġinterneta":2114,"Ġtaut":2115,"Ġpopul":2116,"ĠvÄĵstur":2117,"Ġaptuveni":2118,"ĠreÅ¾":2119,"Ġizl":2120,"Ies":2121,"Ġdarbiniek":2122,"Ġiemes":2123,"ĠmaÅ¡Ä«n":2124,"Ġparasti":2125,"ĠnovÄĵr":2126,"oÅ¡anai":2127,"eris":2128,"Ġgai":2129,"ĠlatvieÅ¡u":2130,"Gr":2131,"ĠpaziÅĨ":2132,"ĠpaÅ¡i":2133,"Ġuzdev":2134,"ĠaktÄ«v":2135,"inÄģti":2136,"ĠspÄĵkÄģ":2137,"ms":2138,"Ġpel":2139,"ĠievÄĵr":2140,"br":2141,"Ġsaviem":2142,"ĠlÄ«g":2143,"ĠbÅ«v":2144,"Ġneg":2145,"vÄĵt":2146,"Ġklien":2147,"etÄģ":2148,"ĠkvalitÄģt":2149,"aust":2150,"Ġizpild":2151,"oni":2152,"Ġsavus":2153,"grib":2154,"ĠierÄ«c":2155,"Ġmobil":2156,"ĠizskatÄģs":2157,"Ġfunk":2158,"auz":2159,"Ġvajag":2160,"www":2161,"eÅĨu":2162,"ĠnozÄ«mÄĵ":2163,"MÄĵs":2164,"enerÄ£":2165,"ÄģcijÄģ":2166,"oÅ¡Äģ":2167,"ĠsÄĵd":2168,"incip":2169,"Ġkil":2170,"enis":2171,"Ġuzv":2172,"ÅĨÄģ":2173,"Äĵtos":2174,"ĠpilsÄĵtas":2175,"Ġkap":2176,"km":2177,"Äģjis":2178,"oda":2179,"aksas":2180,"SV":2181,"ĠekrÄģn":2182,"ĠtÄĵm":2183,"ĠbeigÄģs":2184,"one":2185,"Ġlabu":2186,"Ġfilmu":2187,"Jo":2188,"tÄģl":2189,"ĠredzÄĵt":2190,"iemÄĵram":2191,"ĠrobeÅ¾":2192,"ĠinformÄģcijas":2193,"Ġviegli":2194,"Ġtek":2195,"arbÅ«t":2196,"ĠÅ¡Äģdu":2197,"oÅ¡a":2198,"ĠnebÅ«s":2199,"ojis":2200,"Ä«na":2201,"ĠgrÅ«ti":2202,"Ġciet":2203,"ĠplaÅ¡":2204,"avu":2205,"oÅ¡anÄģs":2206,"ana":2207,"ĠmÄ«k":2208,"Ä«tÄģ":2209,"irk":2210,"Ġuzz":2211,"ĠapstÄģk":2212,"ĠpÄģrbaud":2213,"teres":2214,"Ġaud":2215,"ĠpÄģri":2216,"Ġmans":2217,"isti":2218,"ĠvarÄĵja":2219,"ss":2220,"ert":2221,"Ġbar":2222,"ĠatseviÅ¡Ä·":2223,"eÄ¼u":2224,"Ä·u":2225,"iskas":2226,"ĠgalÄģ":2227,"Ġneviens":2228,"Ġdesmit":2229,"itÄ«v":2230,"Ġpaliel":2231,"Ġkoment":2232,"ĠvÄĵrÄģ":2233,"Ġsagatav":2234,"ĠviÅĨai":2235,"Ġnepat":2236,"Ġliela":2237,"ĠnespÄĵj":2238,"Ġuzreiz":2239,"ĠvarÄĵs":2240,"ĠinformÄģciju":2241,"ĠbÄĵrniem":2242,"Ġcent":2243,"ĠkÄģp":2244,"inÄģta":2245,"ĠziÅĨÄģ":2246,"rukt":2247,"acionÄģl":2248,"Ġvisus":2249,"ĠÄģrÄģ":2250,"etes":2251,"ĠspÄĵj":2252,"istu":2253,"Ġsauc":2254,"Ġilgi":2255,"Ġnopiet":2256,"Ġizb":2257,"ÄģdÄģ":2258,"Äĵz":2259,"ĠnebÅ«tu":2260,"Ġnegrib":2261,"Ġfr":2262,"Äģki":2263,"Ġdraudz":2264,"Lab":2265,"oÅ¡s":2266,"PÄģr":2267,"Ġlielu":2268,"Ġatrodas":2269,"Ġgroz":2270,"ĠdrÄ«z":2271,"Ġpuses":2272,"gun":2273,"ĠveidÄģ":2274,"Ġkontrol":2275,"omas":2276,"ĠAp":2277,"ĠsÄģkumÄģ":2278,"Ġizpl":2279,"oog":2280,"Ġneap":2281,"irdz":2282,"Ġsasnieg":2283,"Ġveiksm":2284,"Ġpaliek":2285,"Liel":2286,"ÅĨus":2287,"Ġapg":2288,"Ġaprakst":2289,"Ġport":2290,"Ġner":2291,"Ġtic":2292,"Ġciti":2293,"Ġsec":2294,"Latvijas":2295,"lÄ«":2296,"nis":2297,"Ġnevaj":2298,"Ġglu":2299,"ĠÅ¡oreiz":2300,"20":2301,"Ġcitas":2302,"ÄĵtÄģjs":2303,"ruk":2304,"ĠMar":2305,"Ġkons":2306,"Ġtap":2307,"Ġregul":2308,"ĠattÄĵl":2309,"ĠpienÄģk":2310,"ĠbrÄ«dÄ«":2311,"taut":2312,"Ġuztur":2313,"Äĵjusi":2314,"Ġnok":2315,"ĠÅ¡Äģ":2316,"Ġpils":2317,"otÄģjs":2318,"000":2319,"sts":2320,"Ġnol":2321,"Ġaktu":2322,"Ġpolic":2323,"Ä«bÄģs":2324,"ÄĵjuÅ¡i":2325,"erat":2326,"Ġtemp":2327,"Ä«tÄģju":2328,"Ġkonst":2329,"ĠnepiecieÅ¡ams":2330,"Ġzemes":2331,"ÄĵÅ¡anÄģs":2332,"ĠÄįetr":2333,"Ġem":2334,"ĠÄ·er":2335,"Ä«Å¡anu":2336,"ess":2337,"Ġgald":2338,"Ġaic":2339,"Ġmeln":2340,"Å«g":2341,"Ġfiz":2342,"ĠdaÄ¼u":2343,"Ġliec":2344,"Kat":2345,"Äģcis":2346,"Ġvideo":2347,"ĠrÄģd":2348,"iskais":2349,"udÅ¾":2350,"Te":2351,"SavukÄģrt":2352,"Ġautor":2353,"Ä«jumiem":2354,"ĠdarbÄ«bas":2355,"Ġiepaz":2356,"Ġpunk":2357,"ĠsaÅĨÄĵm":2358,"ĠlÄĵn":2359,"Ġbeidzot":2360,"iemÅ¾Äĵl":2361,"rÄ«kst":2362,"tus":2363,"To":2364,"Ġdi":2365,"Ä«tos":2366,"Ġviedok":2367,"Ġdep":2368,"Ġpriec":2369,"Ġapt":2370,"ĠpÄģrvald":2371,"Ġobj":2372,"ĠzÄģl":2373,"Ġraj":2374,"Ġuzlab":2375,"ĠpirmÄģ":2376,"ns":2377,"Ġkrit":2378,"stab":2379,"mÄģm":2380,"ĠnedÄĵÄ¼as":2381,"aru":2382,"Ġw":2383,"gas":2384,"Ġlabs":2385,"Ä«jusi":2386,"ĠAr":2387,"eÅ¡u":2388,"no":2389,"ĠslÄĵp":2390,"Ġdur":2391,"ava":2392,"10":2393,"jaun":2394,"Ġmier":2395,"Ġstr":2396,"akus":2397,"Ġaudz":2398,"ĠziÅĨ":2399,"Ġku":2400,"eles":2401,"ĠminÅ«tes":2402,"obus":2403,"ĠAl":2404,"Ġsmag":2405,"Ġservis":2406,"Ġstat":2407,"aisa":2408,"ĠmÅ«":2409,"Ġuzst":2410,"Ġzied":2411,"ÄģjuÅ¡":2412,"Ġsaglab":2413,"Ġskrie":2414,"Ġint":2415,"nÄ«cas":2416,"ĠvÄ«rie":2417,"Äĵjais":2418,"ÅłÄ«":2419,"Ġdisk":2420,"Ġuzvar":2421,"ĠsÄģka":2422,"Ġizkl":2423,"Ġ25":2424,"Ġvaram":2425,"ĠÅ¾urn":2426,"Ġlat":2427,"les":2428,"aina":2429,"Ġapz":2430,"Jau":2431,"//":2432,"cen":2433,"Ġup":2434,"TÄģpat":2435,"ĠkÄ¼Å«st":2436,"oogle":2437,"ieru":2438,"Ġvisa":2439,"cep":2440,"VarbÅ«t":2441,"Ġ18":2442,"Ġveikt":2443,"antu":2444,"Ġuzrakst":2445,"Ġlog":2446,"Ä«jos":2447,"ĠBr":2448,"ass":2449,"Ġmam":2450,"Äģkt":2451,"Ġklaus":2452,"Ġcuk":2453,"Dz":2454,"Ġpos":2455,"ĠrÄ«ta":2456,"vad":2457,"Äģjam":2458,"Ġsu":2459,"Ġdivi":2460,"Ġkust":2461,"ejÄģ":2462,"Ġliels":2463,"ĠdomÄģju":2464,"Ko":2465,"Ġsilt":2466,"Ġlietot":2467,"ĠpriekÅ¡Äģ":2468,"kam":2469,"ch":2470,"ĠÄ¼auj":2471,"Kop":2472,"Ġkont":2473,"ĠsavukÄģrt":2474,"Ġstundas":2475,"oks":2476,"Äģnis":2477,"Ä«Å¡ana":2478,"entiem":2479,"Ġsadarb":2480,"Sk":2481,"ĠsÄ«k":2482,"istru":2483,"ieÅ¡Äģm":2484,"Ġvieta":2485,"ttp":2486,"Ġrakstur":2487,"Ġlatu":2488,"ĠdzÄ«vi":2489,"desmit":2490,"ĠPr":2491,"etur":2492,"Ġtikt":2493,"Ġfilma":2494,"Ġlietu":2495,"ansp":2496,"Äģnu":2497,"://":2498,"ĠpaÅ¡Äģ":2499,"Ġnaudas":2500,"Ġpaman":2501,"ino":2502,"ĠtÄģdÄĵÄ¼":2503,"ieni":2504,"likt":2505,"Ġpusi":2506,"Ġistab":2507,"Ġvirtu":2508,"Äģkas":2509,"raud":2510,"ĠnolÄĵm":2511,"aida":2512,"inÄģÅ¡anu":2513,"Ġ50":2514,"ari":2515,"ĠceÄ¼u":2516,"Ġatrod":2517,"Äĵrs":2518,"ektu":2519,"Ġnaudu":2520,"ĠmÄ«Ä¼":2521,"Ġef":2522,"ĠtÄģdas":2523,"ÄĵtÄģju":2524,"Åłis":2525,"pild":2526,"ĠtiesÄ«bas":2527,"Ġme":2528,"omÄģju":2529,"Ġteica":2530,"Ġlapas":2531,"ĠpiedzÄ«v":2532,"Pag":2533,"Ä«juÅ¡i":2534,"aÅĨ":2535,"Äĵjuma":2536,"ietis":2537,"Otr":2538,"sti":2539,"ena":2540,"Ġpirmais":2541,"Ġstil":2542,"Ġstipr":2543,"Ġkonf":2544,"Ġlikuma":2545,"ĠstÄģsta":2546,"ĠrÅ«p":2547,"nieka":2548,"ĠproblÄĵmas":2549,"umb":2550,"Ġiespaid":2551,"Ġklus":2552,"ĠASV":2553,"Ġdarbs":2554,"Ġkart":2555,"Ġugun":2556,"ĠnÄģkot":2557,"ras":2558,"Ġbag":2559,"Ġtip":2560,"ĠpastÄģv":2561,"Ġnog":2562,"dienÄģ":2563,"Ġkilom":2564,"stÄģv":2565,"bilst":2566,"ĠÄĵk":2567,"emon":2568,"Pirms":2569,"ĠjÅ«t":2570,"otÄģ":2571,"Ä«jumi":2572,"Ġgod":2573,"amp":2574,"ĠiegÅ«t":2575,"ienam":2576,"Ġsporta":2577,"Ġ.":2578,"ĠkompÄģn":2579,"riez":2580,"ĠValsts":2581,"Ġnoder":2582,"Kaut":2583,"vÄĵl":2584,"Ġkru":2585,"ĠKriev":2586,"ĠÅ¡os":2587,"Ġkomis":2588,"Ä«tÄģja":2589,"Ġeks":2590,"Ġtrad":2591,"iÅ¡":2592,"Äĵjie":2593,"Ġkriev":2594,"ĠÄģtrÄģk":2595,"ĠdroÅ¡i":2596,":)":2597,"Ġfakt":2598,"ĠÅ¡au":2599,"ĠRÄ«gÄģ":2600,"Ä«nu":2601,"Ġdatu":2602,"Ġgalvenais":2603,"ĠbÄĵrni":2604,"Ġnob":2605,"Äģna":2606,"ada":2607,"Ä«tis":2608,"ĠpÄĵdÄĵjÄģ":2609,"isma":2610,"ĠvidÅ«":2611,"eÄ£":2612,"kait":2613,"âĢĻ":2614,"ojumus":2615,"Pas":2616,"Ä«Å¡anÄģs":2617,"Ġdiena":2618,"int":2619,"ĠÅ¡ogad":2620,"Ġnum":2621,"ĠsÄģp":2622,"laic":2623,"sa":2624,"Ġkm":2625,"ĠjÄģiz":2626,"ĠizglÄ«tÄ«bas":2627,"ÄĵtÄģs":2628,"Ġuzb":2629,"Ġprincip":2630,"Ġsvaig":2631,"Å«c":2632,"Ġnoskr":2633,"ĠĠĠĠĠĠĠĠĠĠĠĠĠĠĠĠ":2634,"gÄģ":2635,"ĠmÄģksl":2636,"ÄĵjÄģdi":2637,"Ġ11":2638,"lim":2639,"oÅ¡Äģs":2640,"Ġblakus":2641,"Ġbiez":2642,"Ġkval":2643,"Ġauk":2644,"Ġuzskata":2645,"ĠbudÅ¾":2646,"ĠkÄģdam":2647,"Ġnodok":2648,"Ġietekm":2649,"not":2650,"dienÄģs":2651,"Ġskaits":2652,"vil":2653,"ÄģlÄģs":2654,"Ġpakalpojumu":2655,"Ġrokas":2656,"aei":2657,"Ġdeg":2658,"Ġdir":2659,"ĠdzÄ«vok":2660,"Åħ":2661,"ĠpirmajÄģ":2662,"valst":2663,"Ä«jies":2664,"Ġamat":2665,"onas":2666,"noz":2667,"Ġcits":2668,"ĠsabiedrÄ«bas":2669,"ĠiekÅ¡Äģ":2670,"els":2671,"ung":2672,"Ġbiedr":2673,"ministr":2674,"Ġdeb":2675,"ĠkopÅ¡":2676,"Ġmuz":2677,"ĠVal":2678,"Ġsniedz":2679,"Ġkaf":2680,"Äĵrb":2681,"Ġmais":2682,"ĠmÄĵnes":2683,"ĠÅ¡Äģda":2684,"Ġskaidrs":2685,"Gal":2686,"ĠÄ«sten":2687,"Ġatgriez":2688,"ieties":2689,"Nav":2690,"ĠtÅ«kst":2691,"ĠattÄ«stÄ«bas":2692,"Nek":2693,"Ġsaul":2694,"PiemÄĵram":2695,"ÄĵÅ¡anai":2696,"eras":2697,"Ġrind":2698,"inÄģties":2699,"ĠcilvÄĵka":2700,"Pa":2701,"ÄĴ":2702,"Ġapstipr":2703,"Ġaizsardz":2704,"ĠdÄģv":2705,"ĠpatÄĵr":2706,"Äģns":2707,"Ġautom":2708,"nÄ«":2709,"Ġskriet":2710,"ĠÅ¡ie":2711,"Äĵra":2712,"ĠmÄģcÄ«bu":2713,"Ġatkar":2714,"Ġpriv":2715,"ĠvalodÄģ":2716,"Tr":2717,"ĠgarÄģm":2718,"ĠaÄ£":2719,"Aiz":2720,"ĠvÄģrdu":2721,"ĠPar":2722,"Ġjauno":2723,"ĠpozitÄ«v":2724,"ĠacÄ«m":2725,"ĠierobeÅ¾":2726,"ook":2727,"ĠÄĮ":2728,"Ġmetod":2729,"astu":2730,"ĠgluÅ¾i":2731,"air":2732,"Ġaizmir":2733,"ĠpÄģrsteig":2734,"Ġsept":2735,"Ġ16":2736,"Ġtransp":2737,"Ġliekas":2738,"Å«su":2739,"ĠpalÄ«dzÄ«bu":2740,"Ġeksper":2741,"ĠenerÄ£":2742,"Ġskait":2743,"ĠUn":2744,"TÄģtad":2745,"Ġstar":2746,"ĠdomÄģ":2747,"Var":2748,"avÄģ":2749,"ĠSp":2750,"ĠnepiecieÅ¡am":2751,"met":2752,"amb":2753,"Ġfinans":2754,"ÄĵrÄģ":2755,"Ġielas":2756,"Å½":2757,"Ġprom":2758,"ienas":2759,"ĠdzÄ«vÄĵ":2760,"Ġcau":2761,"ĠiestÄģd":2762,"Ġstand":2763,"embrÄ«":2764,"AR":2765,"ĠpieÅ¡Ä·ir":2766,"ĠSk":2767,"ĠMin":2768,"ĠZiem":2769,"Ġdiz":2770,"Ġinf":2771,"Ġsarkan":2772,"ĠkultÅ«ras":2773,"__":2774,"Tu":2775,"ĠnÄĵ":2776,"Ġsirds":2777,"ĠnovÄĵrt":2778,"Ġinteresant":2779,"Ġbir":2780,"Ġsviest":2781,"ĠpiedÄģvÄģ":2782,"lap":2783,"iÅĨos":2784,"ĠjÄģat":2785,"Ġarvien":2786,"ĠjÄģm":2787,"ji":2788,"oma":2789,"ĠlasÄ«t":2790,"Ġneuz":2791,"ojumi":2792,"istanc":2793,"Åłodien":2794,"Äģma":2795,"Ä«giem":2796,"30":2797,"Jaun":2798,"Ġpiepras":2799,"ĠgadÄģ":2800,"ows":2801,"iznes":2802,"Ġizmanto":2803,"oid":2804,"Ġtevi":2805,"ĠmÅ«zikas":2806,"ĠsÄģkot":2807,"Ä»":2808,"ĠienÄģk":2809,"Ġizg":2810,"Ġotru":2811,"ĠvienkÄģrÅ¡":2812,"uÅ¡Äģs":2813,"onis":2814,"ĠapmÄĵram":2815,"Ġgados":2816,"ĠsÄĵr":2817,"ojumiem":2818,"wit":2819,"sih":2820,"ĠvakarÄģ":2821,"Ġinstit":2822,"mat":2823,"Ġperi":2824,"ĠmanÄģ":2825,"Ä¼os":2826,"Ġnotika":2827,"Ġtelefonu":2828,"The":2829,"Ġmug":2830,"Ġpateic":2831,"ĠdaÅ¾Äģdu":2832,"Ġkan":2833,"omÄģj":2834,"Ġnesapr":2835,"Ġraksta":2836,"Ġlaba":2837,"ÄģpÄĵc":2838,"itÄģti":2839,"irz":2840,"Ġkoncer":2841,"TA":2842,"Ġgu":2843,"Ġkurus":2844,"ĠkÄģrtÄ«bÄģ":2845,"iÅĨam":2846,"mÄģk":2847,"ĠtÄ«":2848,"akÅ¡":2849,"pils":2850,"Ġiesaist":2851,"Ġviegl":2852,"Ġtirdz":2853,"Ġaktiv":2854,"Ġrit":2855,"Ġsaska":2856,"eis":2857,"Ġatjaun":2858,"otos":2859,"ĠspÄĵc":2860,"ils":2861,"skr":2862,"ĠpaÅ¡am":2863,"tel":2864,"Ġaizd":2865,"ĠpagaidÄģm":2866,"Ġnopir":2867,"Ġled":2868,"Ġkabin":2869,"Ġprakt":2870,"Ġdzied":2871,"ĠjÄģn":2872,"Äĵnu":2873,"Ä«tÄģjiem":2874,"ĠstrÄģdÄģ":2875,"Ġautobus":2876,"Ġiesnieg":2877,"Sp":2878,"Ä«tÄģji":2879,"Ġlit":2880,"Ġnej":2881,"ĠBalt":2882,"anu":2883,"Ġapvien":2884,"Ġroku":2885,"Ġprezid":2886,"ĠvÄģr":2887,"Ġnosaka":2888,"ĠtÅ«r":2889,"ĠjautÄģjumu":2890,"ĠLs":2891,"ĠpatieÅ¡Äģm":2892,"SÄģk":2893,"Ġkatrs":2894,"ĠdzÄĵr":2895,"ĠsistÄĵmas":2896,"asta":2897,"Ġvienas":2898,"Ġpublic":2899,"esta":2900,"ĠkÄ¼Å«d":2901,"saim":2902,"ĠvisÄģm":2903,"ĠÄ£imenes":2904,"bol":2905,"Ġtirgus":2906,"iÄ£":2907,"Ġstarptaut":2908,"Ġpersonas":2909,"50":2910,"Ġ14":2911,"ĠiedzÄ«votÄģju":2912,"ĠstÄģjas":2913,"Ä¼au":2914,"ĠpastÄģ":2915,"ĠsanÄģk":2916,"IS":2917,"Ġsil":2918,"Äģto":2919,"iskajÄģ":2920,"ĠFr":2921,"ĠsajÅ«ta":2922,"Ġbaud":2923,"Nev":2924,"Ġpadar":2925,"Ġpiemin":2926,"ĠpiedÄģvÄģj":2927,"ĠmÄĵrÄ·":2928,"Ġ[":2929,"pirm":2930,"elis":2931,"witter":2932,"Ġizteik":2933,"Ġemoc":2934,"aini":2935,"elg":2936,"ĠvajadzÄĵtu":2937,"ĠvairÄģkas":2938,"Ġsmar":2939,"tup":2940,"indows":2941,"Ġizplat":2942,"ĠdziÄ¼":2943,"erv":2944,"Äģmi":2945,"oku":2946,"cis":2947,"Ġtum":2948,"Ġcita":2949,"ĠvÄĵlas":2950,"oÅ¡anÄģ":2951,"Ġdistanc":2952,"enu":2953,"Äģtiem":2954,"Ġpapildus":2955,"iciÄģl":2956,"ĠinformÄģcija":2957,"ĠatgÄģd":2958,"Ġutt":2959,"Esmu":2960,"Ġnepar":2961,"Ġĉĉ":2962,"Ġapd":2963,"ĠstÄģvok":2964,"nÄģ":2965,"aukt":2966,"ĠpatiesÄ«bÄģ":2967,"ĠnorÄģda":2968,"Äģzes":2969,"osies":2970,"ĠbrÄ«di":2971,"Ġresurs":2972,"ĠiP":2973,"ĠkurÄģm":2974,"Ġsaprot":2975,"Ġol":2976,"ĠdÅ¾":2977,"Ġciem":2978,"Ġkriet":2979,"Ġrud":2980,"Ġprot":2981,"Ä«jumÄģ":2982,"DaÅ¾":2983,"ĠzaÄ¼":2984,"cept":2985,"iera":2986,"ĠÅ¡iem":2987,"Ġterm":2988,"abil":2989,"Ġatl":2990,"ĠpazÄ«st":2991,"Kur":2992,"Ġmanas":2993,"ĠtÄģdi":2994,"Å«Å¡u":2995,"Ġpieder":2996,"Ġred":2997,"Ġdarbojas":2998,"ĠGoogle":2999,"ket":3000,"Ġskatu":3001,"Ġsez":3002,"eÅ¾Ä£":3003,"log":3004,"Ġnakt":3005,"Äĵb":3006,"lud":3007,"Ġmanis":3008,"Ġbildes":3009,"ĠcitÄģm":3010,"all":3011,"ivers":3012,"entus":3013,"Ġlieta":3014,"Ġtelev":3015,"Å¡iem":3016,"ala":3017,"ussk":3018,"tÄģtu":3019,"ĠrezultÄģtÄģ":3020,"Ġpirkst":3021,"Ġnoskat":3022,"Ġkompl":3023,"ĠfotogrÄģf":3024,"eÅĨ":3025,"ĠLiel":3026,"ejs":3027,"Ġbijusi":3028,"ark":3029,"Ġsievietes":3030,"Ġcauri":3031,"Kam":3032,"Ġcetur":3033,"ence":3034,"ences":3035,"ĠjautÄģjums":3036,"akti":3037,"ĠmÄģt":3038,"ĠpirmÄģs":3039,"likumu":3040,"ustr":3041,"ĠjÅ«su":3042,"inÄģl":3043,"ele":3044,"Ġseg":3045,"Ġpavasar":3046,"ĠdzÄ«vo":3047,"ĠtÄĵl":3048,"Ġnakts":3049,"Ġviz":3050,"Ġarh":3051,"Ġsatik":3052,"Ġ17":3053,"ĠTV":3054,"oÅ¡as":3055,"Äĵrk":3056,"ÅłajÄģ":3057,"ipl":3058,"IE":3059,"jÄģ":3060,"ĠvisÄģ":3061,"Ġdraugiem":3062,"Ġanal":3063,"Ġim":3064,",âĢĿ":3065,"ĠvadÄ«tÄģjs":3066,"Ġcenu":3067,"ĠjÄģd":3068,"ĠpusÄĵ":3069,"ĠÄĢ":3070,"sies":3071,"uÅ¡o":3072,"Viss":3073,"erc":3074,"ĠotrÄģ":3075,"Ġprogrammas":3076,"Ġdaudzi":3077,"etu":3078,"ÄĵkÅ¡":3079,"ĠlielÄģ":3080,"ÄģcÄģs":3081,"Ġ13":3082,"ĠmÄĵrÄ·is":3083,"Äģms":3084,"ĠpaÅ¡a":3085,"Tikai":3086,"ÄĵÅ¡u":3087,"rÄ«v":3088,"inoÅ¡i":3089,"ĠbrÄ«n":3090,"Ġdara":3091,"ĠtuvÄģk":3092,"oci":3093,"Ġ199":3094,"Äĵg":3095,"Ġgalvas":3096,"ay":3097,"inÄģÅ¡ana":3098,"Ġinteresanti":3099,"Ġpsih":3100,"Ġapliec":3101,"Ġdabas":3102,"ojoties":3103,"ĠtrÅ«k":3104,"TÄģd":3105,"anÅ¡u":3106,"ists":3107,"Ä«sim":3108,"Ġdoties":3109,"ekts":3110,"ĠkopÄĵj":3111,"Ġpild":3112,"ienes":3113,"ojusi":3114,"Ġadres":3115,"TurklÄģt":3116,"ĠdaÄ¼Äģ":3117,"person":3118,"Ġbals":3119,"galv":3120,"Kr":3121,"Ġei":3122,"IespÄĵj":3123,"ĠdÄ«v":3124,"ĠaÄ£ent":3125,"asto":3126,"Ġnetiek":3127,"ou":3128,"mant":3129,"Ġpaskat":3130,"Ġapb":3131,"âĢŀ":3132,"Ġsaz":3133,"Ġjauna":3134,"Ġacis":3135,"Vakar":3136,"Ġinv":3137,"ĠpaÅ¡as":3138,"Ġsprie":3139,"Ġsul":3140,"Ä«jÄģm":3141,"Ä«cijas":3142,"ojuÅ¡i":3143,"Ä«ra":3144,"ats":3145,"ĠgrÄģmata":3146,"ĠtÄĵr":3147,"ĠtÄģdÄģ":3148,"Ġpietiekami":3149,"Ġtuk":3150,"Ġloc":3151,"Ġrealiz":3152,"Ġsaprast":3153,"ĠsÄĵ":3154,"ĠSaei":3155,"Ġrakstu":3156,"ĠatvÄĵr":3157,"Ġaizl":3158,"ĠmÄģju":3159,"Ġbi":3160,"Äįa":3161,"ĠMinistru":3162,"ĠÅ¡Äģdi":3163,"icis":3164,"ĠdaÅ¾as":3165,"Ġskolas":3166,"odz":3167,"ĠÅ¡ai":3168,"ĠdomÄģt":3169,"vÄģ":3170,"Ġmaiz":3171,"itatÄ«v":3172,"Ġok":3173,"Ġ,":3174,"sÄĵd":3175,"Ä«gie":3176,"ĠziÅĨu":3177,"Ġkuram":3178,"uper":3179,"Ġpatika":3180,"Ġvalodas":3181,"Ġneredz":3182,"Ġliecina":3183,"Ġpip":3184,"Ġkomun":3185,"Ġnezinu":3186,"als":3187,"osm":3188,"ĠnonÄģk":3189,"ĠAndroid":3190,"Ġadministr":3191,"ĠÅ«deni":3192,"anv":3193,"oniem":3194,"ĠsaÅĨemt":3195,"Äģtus":3196,"astÄģ":3197,"ĠrÄ«c":3198,"ĠlikÄģs":3199,"Ġpiekr":3200,"iÄ·":3201,"Ġaizs":3202,"onus":3203,"Ġizpr":3204,"marat":3205,"Ġlaim":3206,"ĠuzmanÄ«bu":3207,"Ġsavien":3208,"Ġizmai":3209,"ĠlietÄģm":3210,"Ġpens":3211,"ĠÄģrpus":3212,"ĠpilnÄ«bÄģ":3213,"ejot":3214,"aik":3215,"atÄģ":3216,"IA":3217,"Äģcijai":3218,"Ġgrupas":3219,"diena":3220,"Ġskrien":3221,"Ġkred":3222,"ĠsvarÄ«gi":3223,"Ġtrauc":3224,"Ġmot":3225,"Å«rÄģ":3226,"Ġizmantojot":3227,"ĠdÄĵl":3228,"Ġpalik":3229,"Ġbalt":3230,"ĠdaÅ¾Äģdas":3231,"ĠsavÄģm":3232,"Äģva":3233,"ĠsareÅ¾Ä£":3234,"ĠkÄģr":3235,"ĠvÄģc":3236,"ViÅĨi":3237,"Ġbiznes":3238,"krien":3239,"ĠmÄ«lest":3240,"Ġbrauk":3241,"Ġfant":3242,"hone":3243,"Ġide":3244,"Ġtikpat":3245,"jas":3246,"Ġmon":3247,"KÄģpÄĵc":3248,"eil":3249,"ĠpievÄĵr":3250,"Ġizj":3251,"ĠkÄģdi":3252,"ĠÄ¶":3253,"Ġder":3254,"amÄģs":3255,"ĠturklÄģt":3256,"ĠcitÄģdi":3257,"ÄĵtÄģji":3258,"aup":3259,"raf":3260,"vi":3261,"ojumÄģ":3262,"veik":3263,"ore":3264,"ĠreÅ¾Ä«m":3265,"ĠprecÄ«z":3266,"Ġmai":3267,"inÄģjuma":3268,"Ġindiv":3269,"Ġproduktu":3270,"PÄĵdÄĵj":3271,"ĠTu":3272,"Pl":3273,"Ġtop":3274,"oÅ¡ais":3275,"ĠdaÅ¾i":3276,"ĠÄģrst":3277,"iÅ¾":3278,"ains":3279,"ĠX":3280,"Ġprog":3281,"ĠIz":3282,"laus":3283,"Ä«jumus":3284,"Ġnoskaidr":3285,"ĠkolÄĵÄ£":3286,"Ġveida":3287,"ĠprofesionÄģl":3288,"ĠvÄĵrts":3289,"Ġjaunas":3290,"Ġlikt":3291,"rÄģt":3292,"Ġvilc":3293,"Ġveidot":3294,"sol":3295,"Ġprojektu":3296,"Ġizsk":3297,"Ġpateikt":3298,"Äĵjies":3299,"Ġteor":3300,"ĠpastÄģst":3301,"ah":3302,"Ġgana":3303,"kaidr":3304,"ieniem":3305,"ĠÅ¡Ä·ir":3306,"Ġstundu":3307,"aÅ¡u":3308,"ĠnedrÄ«kst":3309,"Ġkonstat":3310,"aceb":3311,"Ġzinu":3312,"Ġnogal":3313,"Å«ti":3314,"Ä£Äĵrb":3315,"ĠpierÄģd":3316,"Ġsum":3317,"Ġdiviem":3318,"Ġvelt":3319,"ink":3320,"ĠbiÄ¼":3321,"stÄģ":3322,"ĠWindows":3323,"ÅĨemot":3324,"Ġjauns":3325,"ĠsÄģku":3326,"ĠdaÄ¼as":3327,"asts":3328,"Ġlapu":3329,"Paldies":3330,"amais":3331,"etru":3332,"ĠkopumÄģ":3333,"Ġgribu":3334,"Ġsmu":3335,"ĠdarbÄģ":3336,"ĠnepatÄ«k":3337,"ĠtehnoloÄ£iju":3338,"Ġatd":3339,"Ġieb":3340,"Ġalb":3341,"Ġveido":3342,"Ġatsk":3343,"ikÄģcijas":3344,"maÅ¡Ä«n":3345,"AS":3346,"oÅ¡iem":3347,"Ġkatra":3348,"ĠceÄ¼a":3349,"ĠdroÅ¡Ä«bas":3350,"ĠkÄģjÄģm":3351,"ĠjÅ«ras":3352,"Ġiec":3353,"Ġkatram":3354,"ĠIntern":3355,"An":3356,"NÄģk":3357,"ojos":3358,"ĠvietÄģs":3359,"Ä«ne":3360,"ĠEl":3361,"ĠizdarÄ«t":3362,"Äĵtais":3363,"ĠpÄĵdÄĵjo":3364,"ĠmÅ«Å¾":3365,"Äģkiem":3366,"smi":3367,"ple":3368,"enÄĵm":3369,"lig":3370,"Ġtelp":3371,"Ġstac":3372,"Ġklub":3373,"oft":3374,"acebook":3375,"ÄĵjuÅ¡":3376,"ĠagrÄģk":3377,"ĠvirzienÄģ":3378,"Ġdomas":3379,"Ġzil":3380,"ĠES":3381,"ÅĨÄĵma":3382,"ĠdÄģrg":3383,"Ġnotiks":3384,"Ġprieks":3385,"Starp":3386,"ved":3387,"Ġieraudz":3388,"inÄģÅ¡anai":3389,"Ġiztur":3390,"ĠzinÄģms":3391,"ĠÄĵst":3392,"Ġkait":3393,"Ġstrukt":3394,"ĠlapÄģ":3395,"Ġpievieno":3396,"ÄĵkÅ¡ÅĨi":3397,"ovs":3398,"oli":3399,"ĠdarbÄ«bu":3400,"ainu":3401,"ĠrunÄģt":3402,"aksÄģ":3403,"Ġcien":3404,"Ġez":3405,"Ä«Å¡anai":3406,"ĠapdroÅ¡":3407,"ĠziÅĨas":3408,"ĠveselÄ«bas":3409,"ĠmeklÄĵ":3410,"ĠlÄĵmumu":3411,"Ġnedz":3412,"ĠpriekÅ¡sÄĵd":3413,"ÄģjuÅ¡i":3414,"Ġ40":3415,"Tie":3416,"oment":3417,"vielas":3418,"ĠkuÄ£":3419,"ĠeÄ¼":3420,"ient":3421,"Ġfoto":3422,"ĠSav":3423,"Ä«gÄģm":3424,"ĠbÄĵrna":3425,"Ġuzd":3426,"ĠpasÄģkumu":3427,"ojies":3428,"Ġietvar":3429,"Ġkrietni":3430,"inÄģjÄģs":3431,"ĠiekÄģrt":3432,"Ġneaiz":3433,"Ä«gus":3434,"ĠrakstÄ«t":3435,"ĠstrÄģdÄģt":3436,"Ġaizg":3437,"vairÄģk":3438,"ĠcÄ«":3439,"cijÄģ":3440,"ĠnÄģv":3441,"''":3442,"ÄģcijÄģm":3443,"rÄ«n":3444,"idr":3445,"ĠmaksÄģ":3446,"ĠsistÄĵmu":3447,"Å¡ot":3448,"ĠtiesÄ«bu":3449,"sl":3450,"ĠvienÄ«gi":3451,"ĠstÄģsts":3452,"koh":3453,"ĠmÄģkslas":3454,"Ġleju":3455,"ĠpaÅ¡valdÄ«bas":3456,"ilp":3457,"Ġtelefona":3458,"ori":3459,"Ġskan":3460,"Ġrot":3461,"Ġuztic":3462,"Ġsmaid":3463,"ĠLat":3464,"Ġelektron":3465,"Ġ21":3466,"itÄģte":3467,"Ties":3468,"akas":3469,"ĠattÄģl":3470,"ĠreklÄģmas":3471,"Ġdet":3472,"istiem":3473,"ĠlielÄģkÄģ":3474,"Ġsadal":3475,"Ġpieteik":3476,"lÄģb":3477,"ĠrÄ«t":3478,"Ġziv":3479,"ĠspÄĵles":3480,"Ġnozar":3481,"pirms":3482,"uc":3483,"ĠpÄģrkÄģp":3484,"oka":3485,"ĠuzstÄģd":3486,"PaÅ¡":3487,"ĠoficiÄģl":3488,"NÄĵ":3489,"ols":3490,"ulis":3491,"ĠnedÄĵÄ¼u":3492,"assvÄĵt":3493,"inga":3494,"ĠpriekÅ¡u":3495,"ĠatkÄģrt":3496,"Ġmel":3497,"Daudz":3498,"elta":3499,"rim":3500,"ĠDiev":3501,"Ġprojekt":3502,"vÄģrd":3503,"ekÄ¼a":3504,"Ġnevaru":3505,"ĠlÅ«k":3506,"ĠatzÄ«st":3507,"Å«dzu":3508,"nÄ«cÄģ":3509,"pad":3510,"ĠIg":3511,"Ġstandar":3512,"eÅĨa":3513,"ĠgÄģj":3514,"Ġtras":3515,"ĠjaunÄģ":3516,"Ġ000":3517,"ĠkÄ¼uva":3518,"Maz":3519,"uli":3520,"ĠkÄģdreiz":3521,"ĠkÄģjas":3522,"iskie":3523,"ods":3524,"Ġcenas":3525,"TÄģs":3526,"Ġthe":3527,"alÄ«dz":3528,"Ġrek":3529,"ilg":3530,"Ġbaz":3531,"unkt":3532,"ox":3533,"usku":3534,"ĠÄ¼aun":3535,"aigz":3536,"Ġep":3537,"Ä«tÄĵm":3538,"oga":3539,"ĠnormatÄ«v":3540,"ĠrunÄģ":3541,"ikl":3542,"ĠjÄģr":3543,"ĠnoslÄĵg":3544,"ĠmeklÄĵt":3545,"ĠbÄĵrns":3546,"Ġelem":3547,"Ġmugur":3548,"Ġatlik":3549,"Ġsakot":3550,"krÄģs":3551,"ĠizrÄģdÄģs":3552,"kiem":3553,"TieÅ¡i":3554,"Ġkino":3555,"Ġplan":3556,"Ġpien":3557,"Ġa":3558,"Ġdef":3559,"Å¡Ä·i":3560,"Ġpusmarat":3561,"Ġkrievu":3562,"IespÄĵjams":3563,"ĠÅ¡Äģdas":3564,"Ġierad":3565,"Ġcitus":3566,"eh":3567,"ĠbijÄģm":3568,"ĠseÅ¡":3569,"inÄģjumi":3570,"Ä«ns":3571,"ĠskatÄ«ties":3572,"Ġizveidot":3573,"Ä»oti":3574,"tos":3575,"Ġper":3576,"ĠuzÅĨem":3577,"Ġprogrammu":3578,"ĠcilvÄĵkus":3579,"inis":3580,"Ġdzelt":3581,"ĠdzÄ«ve":3582,"Ġpot":3583,"Ġviel":3584,"sme":3585,"Ġuguns":3586,"Ġsapratu":3587,"ere":3588,"empion":3589,"Ġbraukt":3590,"smit":3591,"atas":3592,"ill":3593,"Ġnesen":3594,"Äģkie":3595,"ĠatzÄ«m":3596,"Ġdivus":3597,"Ä«nas":3598,"ĠproblÄĵmu":3599,"Ġnevajadz":3600,"Ġgalvu":3601,"ĠsanÄģca":3602,"ĠmÄģs":3603,"Å«m":3604,"Ġieguld":3605,"ĠpopulÄģr":3606,"ĠLiep":3607,"ĠmÄĵrc":3608,"ieÅ¡iem":3609,"ĠvadÄ«tÄģja":3610,"ÄģÅ¾u":3611,"Ġsaus":3612,"Å¾iem":3613,"ĠÅ¡Ä·ita":3614,"Ġgribas":3615,"Ġmaksas":3616,"ĠviedtÄģl":3617,"ĠÄģb":3618,"irs":3619,"Ġstrauj":3620,"oÅ¡os":3621,"Ġfilm":3622,"Ġjur":3623,"Ġneatkar":3624,"ĠteÄģt":3625,"Ġpeld":3626,"Ġpud":3627,"ĠvÄĵlreiz":3628,"ĠpakÄģp":3629,"Ġnon":3630,"Äģni":3631,"ĠizvÄĵlÄĵties":3632,"ĠinternetÄģ":3633,"ĠjomÄģ":3634,"ĠprÄģtÄģ":3635,"Ġatbalsta":3636,"maksas":3637,"ont":3638,"interes":3639,"Äĵsim":3640,"Ġapl":3641,"ĠaizsardzÄ«bas":3642,"ĠuzÅĨÄĵmuma":3643,"Ġpiesaist":3644,"Ġrodas":3645,"Ġuztver":3646,"Ġprezent":3647,"Ġietvaros":3648,"Ġ24":3649,"Ġkartup":3650,"CilvÄĵk":3651,"pied":3652,"ack":3653,"ĠpanÄģk":3654,"Ġsport":3655,"ators":3656,"mer":3657,"uss":3658,"Ġlikum":3659,"grÄģm":3660,"ĠsaskaÅĨÄģ":3661,"ĠlietotÄģju":3662,"ibli":3663,"ES":3664,"ross":3665,"ris":3666,"ienus":3667,"Ġparakst":3668,"niece":3669,"ĠpasÅ«t":3670,"ĠÐ":3671,"Ġrest":3672,"tif":3673,"Ġpulkst":3674,"van":3675,"iekl":3676,"Äģkajiem":3677,"Ġuzl":3678,"Äĵru":3679,"Äģrz":3680,"Ġkun":3681,"ÄĵtÄģjiem":3682,"Ġnebiju":3683,"Ġsmal":3684,"ĠturpmÄģk":3685,"Ġvasaras":3686,"ĠAt":3687,"Ġang":3688,"ĠaprÄ«":3689,"Viens":3690,"Ä·er":3691,"Ġnosac":3692,",Â»":3693,"katoties":3694,"bi":3695,"Ġdib":3696,"itr":3697,"Ġfond":3698,"ĠtÄģdÄĵjÄģdi":3699,"ublik":3700,"otÄĵk":3701,"Äĵna":3702,"Ġalkoh":3703,"ĠreÄ£ion":3704,"Ġsagaid":3705,"ĠkurÄģs":3706,"ĠielÄģ":3707,"Cik":3708,"ine":3709,"Ġikvien":3710,"ÄģrÄ«":3711,"niecÄ«bu":3712,"Ġsieviete":3713,"Nes":3714,"Ġbalst":3715,"Ġapgalv":3716,"Ġdirekt":3717,"uj":3718,"eriem":3719,"dra":3720,"Ġboj":3721,"nÄ«cu":3722,"Bez":3723,"Ġsevis":3724,"Ġrada":3725,"cion":3726,"ĠpÄĵkÅ¡ÅĨi":3727,"Ġdzel":3728,"Ġtul":3729,"ĠpiedÄģvÄģt":3730,"iln":3731,"veic":3732,"Ġalus":3733,"etrus":3734,"ĠSavien":3735,"Åło":3736,"ĠJÄģ":3737,"ĠvalstÄ«":3738,"Ġieguv":3739,"Ġdurv":3740,"gÄģj":3741,"Ġapmier":3742,"ĠZv":3743,"eidzot":3744,"panta":3745,"Ä«tÄģs":3746,"DiemÅ¾Äĵl":3747,"stas":3748,"Ġso":3749,"otÄģja":3750,"enciÄģl":3751,"ĠtirgÅ«":3752,"ĠpiedalÄ«ties":3753,"ĠJelg":3754,"ĠiekÄ¼aut":3755,"Ġkrust":3756,"ĠkvalitatÄ«v":3757,"emd":3758,"ĠtÄģlu":3759,"oms":3760,"ultÄģtu":3761,"ĠDz":3762,"ĠvajadzÄĵja":3763,"19":3764,"Ġtrau":3765,"ĠpÄģrlÅ«k":3766,"ĠvairÄģki":3767,"ĠsavÄģd":3768,"ipÄĵd":3769,"Ġpacien":3770,"ogas":3771,"enci":3772,"Ġrom":3773,"ĠmÄĵdz":3774,"oÅ¡ie":3775,"ÄģnÄģ":3776,"icros":3777,"ĠcilvÄĵkam":3778,"ĠÄįempion":3779,"amsung":3780,"ÂłÂł":3781,"Ġslav":3782,"Ġdeput":3783,"nÄĵm":3784,"Paties":3785,"kus":3786,"ĠÄģrzem":3787,"12":3788,"Ġpaldies":3789,"egor":3790,"Â»,":3791,"ĠbeigÄģm":3792,"Ġmu":3793,"iedru":3794,"Ġzina":3795,"Ġattiek":3796,"ĠsistÄĵma":3797,"Ġpareizi":3798,"ĠizvÄĵrt":3799,"Ġinterv":3800,"Fit":3801,"Å¡ru":3802,"Äģjos":3803,"eva":3804,"Ġotro":3805,"ĠsituÄģciju":3806,"Ġpartn":3807,"ĠskaÄ¼":3808,"ĠpieslÄĵg":3809,"otÄģs":3810,"ĠnepÄģr":3811,"ĠpaÅ¡iem":3812,"iÅĨai":3813,"Ġizviet":3814,"okol":3815,"Ġkaim":3816,"ern":3817,"kos":3818,"atoru":3819,"Kon":3820,"ĠsveÅ¡":3821,"Ġdoma":3822,"Äĵli":3823,"icrosoft":3824,"Ġpasaul":3825,"idu":3826,"ĠattiecÄ«bas":3827,"Ä«ciju":3828,"onam":3829,"Ä·a":3830,"ojami":3831,"ĠotrajÄģ":3832,"ÄĵtÄģja":3833,"ĠEs":3834,"ĠproblÄĵma":3835,"pret":3836,"ĠatbrÄ«v":3837,"ĠKrievijas":3838,"lam":3839,"ĠvienÄ«gais":3840,"eÄ¼a":3841,"ÄĮ":3842,"ĠlÄ«n":3843,"Ġ+":3844,"Ġpirk":3845,"ĠnodroÅ¡ina":3846,"ÄģrÄģ":3847,"Ä«zes":3848,"ĠtÄĵv":3849,"ĠdienÄģm":3850,"ĠparÄģdÄģs":3851,"ĠatbilstoÅ¡i":3852,"ieri":3853,"ĠgadÄ«jumos":3854,"Ġprojekta":3855,"emes":3856,"ĠpÄģrskat":3857,"Ġcena":3858,"Ġvienam":3859,"fil":3860,"Ġsejas":3861,"ang":3862,"Ġkurai":3863,"tim":3864,"Ġvain":3865,"ograf":3866,"Ġkreis":3867,"Ġska":3868,"ĠceÄ¼Å¡":3869,"ĠdzÄ«vot":3870,"Ġdiskus":3871,"ĠnacionÄģl":3872,"ĠdaÅ¾Äģdi":3873,"eliÄ£":3874,"laicÄ«gi":3875,"Fil":3876,"Ġmirkl":3877,"Ġkomandas":3878,"ĠbudÅ¾eta":3879,"Ġrecept":3880,"Interes":3881,"raug":3882,"ĠvÄģrds":3883,"etri":3884,"ĠrokÄģs":3885,"ÄģtÄģj":3886,"rossFit":3887,"ĠcentrÄģ":3888,"ĠpÄģrvaldes":3889,"dab":3890,"ĠpilsÄĵtÄģ":3891,"Ġnevajag":3892,"Ġtal":3893,"aki":3894,"Ġsai":3895,"egr":3896,"Ġgalda":3897,"Å¡s":3898,"Ġnoris":3899,"inÄģtas":3900,"TC":3901,"Ġpres":3902,"Ġoblig":3903,"Ġcentra":3904,"Ġbru":3905,"Ġpersonu":3906,"http":3907,"Ġvislab":3908,"ekcijas":3909,"ĠfinanÅ¡u":3910,"Ġsasniedz":3911,"ĠÅ¡Ä«m":3912,"dzim":3913,"Ġgadi":3914,"Ġtend":3915,"iminÄģl":3916,"Åłoreiz":3917,"ĠrezultÄģtu":3918,"ĠzinÄģtn":3919,"qu":3920,"Ġcel":3921,"ĠizmÄĵÄ£":3922,"ĠautomaÅ¡Ä«n":3923,"ĠnekÄģdu":3924,"Ġplauk":3925,"Ġiedves":3926,"fr":3927,"Ġvides":3928,"ĠikdienÄģ":3929,"Ġlauku":3930,"Cit":3931,"ĠsÄ«p":3932,"Äģmu":3933,"ĠkomentÄģr":3934,"ĠÅ¾urnÄģl":3935,"Al":3936,"Ġbas":3937,"Ġnosaukumu":3938,"Ġtauk":3939,"ĠapakÅ¡":3940,"Ġdivu":3941,"emj":3942,"grieÅ¾":3943,"ĠiegÄģdÄģties":3944,"tÄģs":3945,"Ġaus":3946,"ĠceÄ¼Äģ":3947,"ĠLatvija":3948,"ĠTev":3949,"ĠZiemassvÄĵt":3950,"Ġdebes":3951,"Ġret":3952,"ĠnoslÄĵp":3953,"Ġdomu":3954,"Ġkaln":3955,"ĠveikalÄģ":3956,"Ġveids":3957,"15":3958,"Ġeiro":3959,"Ġtikko":3960,"Ġien":3961,"augst":3962,"ĠRep":3963,"ĠtÄĵmu":3964,"inÄģjis":3965,"ĠTwitter":3966,"ĠreÅ¾is":3967,"Ġdv":3968,"ete":3969,"laikus":3970,"Ġlielas":3971,"pilsÄĵt":3972,"TÄģl":3973,"aktu":3974,"ĠprivÄģt":3975,"Ġbibli":3976,"Ġtaisn":3977,"ĠiestÄģdes":3978,"lietu":3979,"Ġvalstu":3980,"Ġpieejams":3981,"Mums":3982,"Ġlietus":3983,"ĠsastÄģvd":3984,"Ġtil":3985,"Ġblogu":3986,"ĠveiksmÄ«gi":3987,"ĠJa":3988,"Ġtelefons":3989,"Ġnopirkt":3990,"ĠcÄ«n":3991,"ĠvaÄ¼Äģ":3992,"ĠY":3993,"Ġmik":3994,"ĠguÄ¼":3995,"Ġ22":3996,"ĠmÄģjÄģm":3997,"ĠlÄ«menÄ«":3998,"avs":3999,"Å¡us":4000,"Ġnekur":4001,"Ġsamaks":4002,"oÅ¡anos":4003,"ĠsÄģkÄģs":4004,"ĠTr":4005,"eica":4006,"Ġizmaks":4007,"skolas":4008,"Ġaizvien":4009,"Ġmazu":4010,"liel":4011,"ila":4012,"ekti":4013,"gar":4014,"ĠpasÄģkums":4015,"ĠsÄģkt":4016,"Ġminim":4017,"ĠceÄ¼am":4018,"Ġizklaid":4019,"MÅ«su":4020,"Ä«da":4021,"ih":4022,"ĠlÅ«p":4023,"abiedr":4024,"ĠblogÄģ":4025,"arm":4026,"dzes":4027,"Ġvienal":4028,"ainÄģ":4029,"Ġgudr":4030,"Ġaiziet":4031,"ĠGr":4032,"Ġkategor":4033,"ĠsituÄģcija":4034,"ĠEd":4035,"ĠkÄģrtÄ«bu":4036,"ĠBaltijas":4037,"mier":4038,"Ġbumb":4039,"ĠradÄ«t":4040,"ĠbagÄģt":4041,"ĠnekÄģdas":4042,"ĠmanuprÄģt":4043,"Ġtautas":4044,"ace":4045,"ĠvietÄģm":4046,"ĠlikumÄģ":4047,"Ġsatur":4048,"tais":4049,"Ä«ru":4050,"epat":4051,"inam":4052,"ĠmÅ«sdienu":4053,"Ġieteik":4054,"ĠreizÄĵm":4055,"ĠviÅĨus":4056,"ĠApple":4057,"tiec":4058,"rieÅ¾":4059,"ĠNr":4060,"ova":4061,"ĠmarÅ¡ru":4062,"ĠnedÄĵÄ¼Äģ":4063,"Ak":4064,"Ġkod":4065,"ĠmeÅ¾a":4066,"Ġpor":4067,"Ä·es":4068,"Â».":4069,"iskajÄģm":4070,"ĠDaug":4071,"iÄį":4072,"ejam":4073,"Ġraid":4074,"ĠsÄģkas":4075,"Ġmeitenes":4076,"Tiesa":4077,"Ġnoskriet":4078,"Ġsaules":4079,"Ä«gos":4080,"ĠnevÄĵl":4081,"ĠjautÄģjumiem":4082,"Äģlais":4083,"Ġpagatav":4084,"Ġved":4085,"bu":4086,"Ġnoti":4087,"Ġidejas":4088,"bet":4089,"ĠrÄĵÄ·":4090,"iskos":4091,"ĠkrÄģsu":4092,"ĠnaktÄ«":4093,"rop":4094,"Ġpiena":4095,"old":4096,"Å¡o":4097,"Ġzob":4098,"Ġatsp":4099,"Ġatbalstu":4100,"Ġroz":4101,"oÅ¡ajiem":4102,"II":4103,"Rez":4104,"ikai":4105,"Ġabi":4106,"ĠjÄĵ":4107,"Ġwww":4108,"Ġpunkt":4109,"Ġotra":4110,"Ġpieredze":4111,"KamÄĵr":4112,"ĠIgaun":4113,"ĠspÄĵku":4114,"ĠmÅ«ziku":4115,"ĠpÄĵd":4116,"amÄģk":4117,"ekta":4118,"ĠskrieÅ¡anas":4119,"Ġapar":4120,"inieku":4121,"Ġpieredzi":4122,"ĠvÄ«rietis":4123,"Ġtemperat":4124,"ĠLietu":4125,"ĠjÄģv":4126,"Visi":4127,"ĠsievieÅ¡u":4128,"Ġikdienas":4129,"Ġvizu":4130,"ER":4131,"ĠkÄ¼uv":4132,"Bija":4133,"ĠcÄĵl":4134,"Ġbrok":4135,"pÄĵju":4136,"ĠKrist":4137,"ĠtirdzniecÄ«bas":4138,"Ġbail":4139,"VairÄģk":4140,"ĠÄģdas":4141,"strÄģd":4142,"ĠpieÅĨemt":4143,"ĠangÄ¼u":4144,"Äĵrt":4145,"ĠdiemÅ¾Äĵl":4146,"ĠrÅ«":4147,"ĠiznÄģk":4148,"ÅłobrÄ«d":4149,"Ġkak":4150,"ĠÅ¡it":4151,"Ġstatist":4152,"ĠskolÄĵn":4153,"ĠvairÄģkus":4154,"ĠaktÄ«vi":4155,"Ġhttp":4156,"ÂłĠ":4157,"ĠuzÅĨÄĵmumu":4158,"Galven":4159,"Ġasto":4160,"ĠrokÄģm":4161,"ĠvajadzÄ«gs":4162,"Ġtoreiz":4163,"Ġsadz":4164,"Ġsest":4165,"tra":4166,"Ġzvan":4167,"Ġdziesmas":4168,"ĠlaukÄģ":4169,"Ġdiev":4170,"ht":4171,"Ġlok":4172,"Darb":4173,"eld":4174,"ĠiespÄĵjÄģm":4175,"Ġkarst":4176,"Ġbloga":4177,"ĠÄ£imen":4178,"Ġrajona":4179,"ausk":4180,"ilk":4181,"Äģlas":4182,"ĠsÄģkuma":4183,"ĠaplikÄģciju":4184,"Nez":4185,"Äģjumu":4186,"eklis":4187,"ĠlÅ«g":4188,"usu":4189,"ojams":4190,"Ġpalika":4191,"Ä«Å¡os":4192,"ĠsÅ«t":4193,"apild":4194,"ĠpotenciÄģl":4195,"Ġapkop":4196,"ĠÄ·ir":4197,"Ġmaksim":4198,"ĠpilsÄĵtu":4199,"val":4200,"Ä«jusies":4201,"ĠkrÄģsas":4202,"ĠviedtÄģlru":4203,"Pam":4204,"eÄįu":4205,"Äģjusi":4206,"Ġcelt":4207,"Ġkoka":4208,"Ġolas":4209,"ebru":4210,"ĠtÄģtad":4211,"Ä«gajÄģ":4212,"ĠkrÄĵm":4213,"ĠkvalitÄģtes":4214,"Ġgatavs":4215,"Ie":4216,"pÄĵjas":4217,"ĠmÄĵrÄ·i":4218,"ĠsajÅ«s":4219,"osipÄĵd":4220,"Ġdzer":4221,"ĠizrÄģdÄ«jÄģs":4222,"BÄĵrn":4223,"punk":4224,"ĠJÄģnis":4225,"ĠnepiecieÅ¡ama":4226,"ainas":4227,"ĠgrozÄ«jumiem":4228,"Nos":4229,"lus":4230,"Ġabsol":4231,"iniec":4232,"elk":4233,"Ġtiktu":4234,"Ġsvin":4235,"ĠjÄģuz":4236,"ĠvecumÄģ":4237,"Ġpasauli":4238,"bilde":4239,"ĠizdevÄģs":4240,"Ġprieku":4241,"ĠdivÄģm":4242,"ific":4243,"Ġdatora":4244,"star":4245,"Ġmant":4246,"ĠcitÄģ":4247,"ĠgarumÄģ":4248,"Ġvalodu":4249,"Ġprogramm":4250,"Ġpastaig":4251,"11":4252,"otiv":4253,"ici":4254,"Ġtiesas":4255,"Ġsting":4256,"izÄģcijas":4257,"krit":4258,"iÅĨÄģs":4259,"ĠkatrÄģ":4260,"ĠapskatÄ«t":4261,"ell":4262,"Ġlaic":4263,"eÄ¼i":4264,"Ġsaprat":4265,"Aut":4266,"ĠstÅ«r":4267,"Ġnest":4268,"ĠautomÄģt":4269,"Ġbezmaksas":4270,"Ġiegu":4271,"Ġamatperson":4272,"Ġpraktiski":4273,"fer":4274,"Ġkosm":4275,"ĠnÄģcÄģs":4276,"Ġdub":4277,"elf":4278,"Ġlikums":4279,"Ġfantast":4280,"Ġunivers":4281,"ÄģjuÅ¡Äģ":4282,"ĠpagÄģjuÅ¡":4283,"ĠÅ¡Äģds":4284,"ĠtÅ«l":4285,"Ġredzams":4286,"Ġmor":4287,"Ġdis":4288,"ĠpaÅĨÄĵm":4289,"Ġskaitu":4290,"igit":4291,"padsmit":4292,"Äģtas":4293,"pÄĵja":4294,"ĠminÄĵt":4295,"Ġprocess":4296,"klaus":4297,"Ġsertif":4298,"ĠgaÄ¼as":4299,"Ä¼Å«t":4300,"azÄ«st":4301,"inÄģjumus":4302,"Ġotras":4303,"Ġmig":4304,"Ġtrim":4305,"Ġideja":4306,"Not":4307,"Ġvan":4308,"Ġmedic":4309,"Dr":4310,"ĠrÄģda":4311,"Ġaizb":4312,"ĠMicrosoft":4313,"icionÄģl":4314,"ĠpaÅ¡valdÄ«bu":4315,"Ġaptauj":4316,"Ġsuper":4317,"ĠJaun":4318,"Ġkomisijas":4319,"aism":4320,"Ġmobilo":4321,"TajÄģ":4322,"ĠkÅ«k":4323,"Ġglab":4324,"Ġkast":4325,"likums":4326,"Ġvecuma":4327,"gur":4328,"ĠlÄ«k":4329,"Äģjies":4330,"ĠnosÅ«t":4331,"ĠizpÄĵt":4332,"ÄģÄ¼u":4333,"ĠvÄĵd":4334,"ĠslÄĵg":4335,"ĠlÄ«dzÄ«gi":4336,"Ġgalam":4337,"Ġlieliski":4338,"Vec":4339,"ĠglÄģb":4340,"lodz":4341,"Ġizrais":4342,"ps":4343,"ĠtÄ«r":4344,"ank":4345,"Ġprognoz":4346,"ĠsÄģls":4347,"Ä«si":4348,"ĠbijuÅ¡i":4349,"Ġnogur":4350,"andid":4351,"Ġnoteikumi":4352,"ĠvisvairÄģk":4353,"ĠSIA":4354,"ritu":4355,"ĠpÄ¼":4356,"Ġpieejama":4357,"embra":4358,"tob":4359,"ĠaugÅ¡u":4360,"Ġlidost":4361,"Ġindividu":4362,"Ġdot":4363,"iesm":4364,"estiv":4365,"Ġ23":4366,"ĠnebÅ«t":4367,"strum":4368,"ĠlÄĵt":4369,"Äģde":4370,"Ġ2008":4371,"ĠlielÄģku":4372,"ĠdevÄģmies":4373,"tam":4374,"Ġjurid":4375,"aub":4376,"200":4377,"ilkt":4378,"40":4379,"Pav":4380,"nov":4381,"ĠskaitÄģ":4382,"Ġdzelten":4383,"ve":4384,"niekam":4385,"ĠÄĵrti":4386,"Ġliterat":4387,"AN":4388,"ĠkrÄ«z":4389,"ĠapÄ£Äĵrb":4390,"iskÄģm":4391,"okÄģrt":4392,"ogs":4393,"ĠAd":4394,"Ġdraud":4395,"Ġpraks":4396,"Ġsh":4397,"ĠlÄ«dzekÄ¼u":4398,"erg":4399,"Ġgaisa":4400,"ĠgulÄĵt":4401,"Ġped":4402,"Ġstaig":4403,"okia":4404,"Ġnekust":4405,"ĠNe":4406,"Ġsekund":4407,"Ġeksperim":4408,"azÄģm":4409,"Ġsmiekl":4410,"ĠskÄģb":4411,"Ġnag":4412,"Ä«gajiem":4413,"inÄģtÄģj":4414,"ivil":4415,"ĠdaÅ¾Äģdiem":4416,"Aug":4417,"Ġjum":4418,"Ġjebk":4419,"Ġprocesu":4420,"Ġprojekts":4421,"ĠkÄģdus":4422,"ĠBl":4423,"ĠuzsÄģk":4424,"cel":4425,"Ġveikalu":4426,"Ġmieg":4427,"Ġros":4428,"ĠpÄģrviet":4429,"Ġvaro":4430,"Ġdaudziem":4431,"Ġsaturu":4432,"ĠiemÄģc":4433,"ĠlÄ«d":4434,"ĠAustr":4435,"ĠaprÄĵÄ·":4436,"ĠnÄģkamajÄģ":4437,"PatiesÄ«bÄģ":4438,"ĠsÄĵn":4439,"ite":4440,"Ġpiel":4441,"ĠThe":4442,"IzrÄģd":4443,"Ġversija":4444,"asp":4445,"Ġveidu":4446,"Ġasoci":4447,"ĠparedzÄĵts":4448,"âĢ¢":4449,"ĠpalÄ«dzÄĵt":4450,"ĠpatÄ«kami":4451,"Ġuztais":4452,"Ġredak":4453,"ĠdienÄģs":4454,"ings":4455,"ĠvelosipÄĵd":4456,"ĠbÄ«st":4457,"ieti":4458,"ĠaplÅ«k":4459,"Rakst":4460,"ĠÅ¾Äĵl":4461,"ĠSaeimas":4462,"Ġzin":4463,"Ġnepie":4464,"saimniecÄ«bas":4465,"ojama":4466,"Ġsun":4467,"ĠpriekÅ¡r":4468,"ĠkÄģrtas":4469,"Ġpabeig":4470,"Ġrel":4471,"ĠaugÅ¡Äģ":4472,"Ġorient":4473,"omÄģs":4474,"Ð¾":4475,"Ġpazud":4476,"Ġnauda":4477,"ĠinstitÅ«":4478,"LÅ«k":4479,"Ġkuros":4480,"edÄĵÄ¼":4481,"ĠsiÅ¾":4482,"ĠlietotÄģjiem":4483,"Ġturpina":4484,"Ġnenot":4485,"ĠJur":4486,"Ġlep":4487,"Ġapgr":4488,"astÄģv":4489,"Ġpasniedz":4490,"ĠmalÄģ":4491,"ĠoriÄ£":4492,"ater":4493,"varÄģ":4494,");":4495,"ĠjÄģt":4496,"ĠvÄģrdiem":4497,"inieki":4498,"Ġacu":4499,"Ġaizlieg":4500,"da":4501,"ĠnÄģkotnÄĵ":4502,"sties":4503,"Ġradio":4504,"ĠnodroÅ¡inÄģt":4505,"ĠRepublik":4506,"Ġlielo":4507,"Ġautors":4508,"ceros":4509,"asm":4510,"ÅĨos":4511,"Ġzup":4512,"Ġarhit":4513,"Ġstabil":4514,"likuma":4515,"Labi":4516,"ĠsÄģkotn":4517,"Ġizprat":4518,"jo":4519,"Ġneies":4520,"ĠizmaiÅĨas":4521,"avi":4522,"skait":4523,"ĠkÄ¼Å«t":4524,"ĠgaitÄģ":4525,"ĠapstÄģkÄ¼os":4526,"ron":4527,"iskajiem":4528,"ĠSamsung":4529,"gadu":4530,"Ġkartes":4531,"ĠĠĠĠĠĠĠĠĠĠĠĠĠĠĠĠĠĠĠĠĠĠĠĠĠĠĠĠĠĠĠĠ":4532,"Ġpapl":4533,"dar":4534,"Ð°":4535,"Ġdem":4536,"Ġpuse":4537,"Ġpost":4538,"izÄĵt":4539,"ĠbibliotÄĵk":4540,"ĠnekÄģda":4541,"ĠzinÄģtnes":4542,"Ä«va":4543,"ĠvÄĵlme":4544,"niÅ¡Ä·":4545,"go":4546,"Ä«tÄĵ":4547,"ĠreizÄĵ":4548,"PÄĵt":4549,"ĠvalstÄ«s":4550,"Ġiedom":4551,"ĠteritorijÄģ":4552,"isms":4553,"ĠÄ·erm":4554,"ĠmierÄ«gi":4555,"ĠiPhone":4556,"Ġdurvis":4557,"pÄĵl":4558,"Ġvisam":4559,"ĠÅ¡Ä·Äĵrs":4560,"ĠbrÄ«Å¾a":4561,"ĠbÅ«tiski":4562,"ĠaugstÄģk":4563,"ĠierÄ«ces":4564,"Ġgau":4565,"Ġideju":4566,"Ġdodamies":4567,"ĠMan":4568,"bin":4569,"Ġpagal":4570,"ĠprocesÄģ":4571,"Ġslikti":4572,"Ġmut":4573,"ĠspÄ«d":4574,"Ġglez":4575,"RS":4576,"Ġkandid":4577,"ĠpaÅ¡laik":4578,"ĠzinÄģÅ¡anas":4579,"Ġlikumu":4580,"ĠstundÄģm":4581,"ĠvieglÄģk":4582,"atÄĵÄ£":4583,"Ġmotiv":4584,"atÄ«vo":4585,"Ġpersona":4586,"ĠekrÄģna":4587,"mm":4588,"enz":4589,"Ġceru":4590,"Äĵsies":4591,"ĠpÄģrsteidz":4592,"ĠKal":4593,"Ġkonsult":4594,"for":4595,"ĠpÄģrdev":4596,"ĠaugÅ¡":4597,"ĠtÄ«ri":4598,"ĠatÄ¼aut":4599,"kalp":4600,"Ġdol":4601,"Ä«tais":4602,"Ġielu":4603,"ĠMÄģr":4604,"ĠizÅ¡Ä·ir":4605,"Ġnosaukums":4606,"Ġsaimniec":4607,"Ġpolicijas":4608,"ÄģÅ¾":4609,"Ġizdz":4610,"Ġsmadz":4611,"ĠÅĨemot":4612,"ĠmÄĵneÅ¡a":4613,"Ġdzelz":4614,"maiz":4615,"ump":4616,"apar":4617,"Ġatzin":4618,"kai":4619,"iskiem":4620,"ĠkrÄĵs":4621,"ĠiepriekÅ¡ÄĵjÄģ":4622,"Ġserver":4623,"oÅ¾":4624,"Ġtab":4625,"Ġizaug":4626,"Ġgalu":4627,"Äĵjumi":4628,"ĠsociÄģlo":4629,"Äĵjoties":4630,"ĠlabÄģ":4631,"ismu":4632,"Å¡anÄģm":4633,"ĠdrÄĵb":4634,"ĠvÄĵj":4635,"Ġizn":4636,"Äģles":4637,"ekli":4638,"ĠsajÅ«tu":4639,"Ġtipa":4640,"ĠmÄĵnesÄ«":4641,"ĠrezultÄģts":4642,"janv":4643,"ÄģÅ¡anas":4644,"Ġdai":4645,"ÅĨÄģm":4646,"ĠsakarÄģ":4647,"Re":4648,"Zem":4649,"ml":4650,"ĠlejÄģ":4651,"Ġievad":4652,"Ġnoviet":4653,"Grib":4654,"ĠÅ½":4655,"Ġpieliet":4656,"nÄ«ca":4657,"Ġnomain":4658,"ĠgÄģja":4659,"aÄį":4660,"skis":4661,"Ġtreil":4662,"Åª":4663,"Ġon":4664,"ĠÅ¡okol":4665,"Ä«vi":4666,"ĠVai":4667,"Ġgarant":4668,"Ġmeitene":4669,"Ġministrijas":4670,"ĠloÄ£":4671,"ĠFacebook":4672,"atÄ«vi":4673,"Ġdziesmu":4674,"Ġbul":4675,"Ġdarbi":4676,"Ġkalend":4677,"ĠregulÄģri":4678,"osim":4679,"Ġesat":4680,"Ġietver":4681,"oloÄ£ijas":4682,"Ġtuvu":4683,"Ġziemas":4684,"MT":4685,"Ġdek":4686,"olÄģ":4687,"ĠvalstÄ«m":4688,"ĠatslÄĵg":4689,"Ġpadomes":4690,"Ġrestor":4691,"Ġmasu":4692,"ĠtelevÄ«z":4693,"ĠsÄĵÅ¾":4694,"Div":4695,"Ġjautr":4696,"Ġlabas":4697,"ĠturpinÄģs":4698,"Åħem":4699,"ĠattiecÄ«bÄģ":4700,"It":4701,"Ġtums":4702,"Ġteju":4703,"ation":4704,"estu":4705,"Ġfirm":4706,"ĠsvarÄ«gÄģk":4707,"ektÄ«vi":4708,"ĠgribÄĵtu":4709,"Ġprasa":4710,"vÄĵ":4711,"Ġ&":4712,"Ġtrauk":4713,"aps":4714,"Ġ2007":4715,"Ġuzskatu":4716,"uÄ¼Ä·":4717,"ĠminÅ«tÄĵm":4718,"valstu":4719,"ĠbÄģz":4720,"Ġ60":4721,"veida":4722,"Ġdienesta":4723,"vars":4724,"ĠaprÅ«p":4725,"ice":4726,"Ġnevienu":4727,"ĠiegÅ«st":4728,"Ġizk":4729,"Ä«juÅ¡ies":4730,"klÄģj":4731,"Ġsub":4732,"Ġsavam":4733,"ĠnevarÄĵja":4734,"ĠvÄģrda":4735,"ĠatklÄģj":4736,"Äģtos":4737,"Ġstik":4738,"ĠvecÄģki":4739,"Ġ2009":4740,"autu":4741,"Ġvienlaikus":4742,"ign":4743,"pie":4744,"ĠĠĠ":4745,"LV":4746,"ikti":4747,"erl":4748,"Ġneveik":4749,"Ġlieto":4750,"ĠvidÄĵji":4751,"Ġpieejam":4752,"ĠvÄ«rs":4753,"centr":4754,"Kom":4755,"ĠtehnoloÄ£ijas":4756,"Ġatsauc":4757,"ĠmainÄ«t":4758,"PS":4759,"Valsts":4760,"ĠnÄģca":4761,"Ġfai":4762,"eÄ¼iem":4763,"IN":4764,"inÄģjumÄģ":4765,"ĠLatviju":4766,"zÄ«st":4767,"ĠrÄ«tÄģ":4768,"Ġsagriez":4769,"Ġmeist":4770,"piel":4771,"ĠdaÅ¾ÄģdÄģm":4772,"Ġvide":4773,"Ġpiepild":4774,"Ġpiekt":4775,"ĠÄĵrt":4776,"Ġjut":4777,"imp":4778,"Ġgaida":4779,"Ġnopietni":4780,"Ġnejau":4781,"ĠvÄĵlos":4782,"ĠlietoÅ¡anas":4783,"ĠacÄ«s":4784,"arts":4785,"Ä«gai":4786,"ĠlidmaÅ¡Ä«n":4787,"Ġinvest":4788,"13":4789,"Ġizbaud":4790,"ĠiezÄ«m":4791,"ĠvecÄģkiem":4792,"Ġnetic":4793,"Ġnotur":4794,"Ġieviet":4795,"Ġplec":4796,"Ġpietur":4797,"Ġkabineta":4798,"Äĵtiem":4799,"Ġatris":4800,"ĠbieÅ¾Äģk":4801,"inÄģjumiem":4802,"Ġiemeslu":4803,"ĠzÄģles":4804,"Ġuzm":4805,"Ġplast":4806,"ĠfilmÄģ":4807,"ĠmÄģjaslap":4808,"Ġamer":4809,"ilvÄĵc":4810,"Ġstarta":4811,"ĠHTC":4812,"runÄģ":4813,"ĠpÄģrstÄģvji":4814,"aties":4815,"ĠdaÅ¾iem":4816,"ĠturpinÄģt":4817,"ĠseriÄģl":4818,"ĠizdarÄ«ti":4819,"du":4820,"Ġmaig":4821,"ĠtÅ«lÄ«t":4822,"Ġvisb":4823,"okrÄģt":4824,"ĠattÄ«stÄ«bu":4825,"ome":4826,"agn":4827,"ĠstratÄĵÄ£":4828,"Lik":4829,"omÄģtu":4830,"ĠIl":4831,"Turp":4832,"lic":4833,"Ä«Å¡anos":4834,"Ġneviena":4835,"Ġpeln":4836,"ĠPol":4837,"ĠdabÅ«":4838,"Ġpirc":4839,"Ġnelielu":4840,"itÄģr":4841,"ĠÄĴ":4842,"ĠapstrÄģd":4843,"ĠmÄģr":4844,"ests":4845,"Ġnepam":4846,"ĠnÄģks":4847,"ĠCh":4848,"Ġskaisti":4849,"bas":4850,"iÅ¡Ä·":4851,"Ġmaza":4852,"ĠjÄĵdz":4853,"ĠStr":4854,"ĠpÅ«":4855,"ĠlabprÄģt":4856,"Åłeit":4857,"Ġkomerc":4858,"Ġsaprotu":4859,"ĠvirsÅ«":4860,"Ġsait":4861,"atn":4862,"ÄģkajÄģm":4863,"ĠsacÄ«ja":4864,"eikties":4865,"LatvijÄģ":4866,"ĠizvÄĵle":4867,"Ġpur":4868,"Äĵdes":4869,"ĠlielÄģks":4870,"ĠÄ·Ä«m":4871,"Papild":4872,"ietiek":4873,"ĠpretÄ«":4874,"ieris":4875,"meÅĨa":4876,"Ġizz":4877,"ĠskolÄģ":4878,"Ġsauk":4879,"Ġlogu":4880,"Ġ26":4881,"ĠVis":4882,"Ġpatiesi":4883,"are":4884,"proj":4885,"ĠÄģrkÄģrt":4886,"Ġslikt":4887,"Ġmaratona":4888,"rit":4889,"Ġkalp":4890,"ĠietekmÄĵ":4891,"Ġmalas":4892,"Ġburv":4893,"Ġtulk":4894,"Äĵrz":4895,"Ä«kst":4896,"ĠgaisÄģ":4897,"ĠsvÄĵtku":4898,"Ġsimbol":4899,"Ġmamma":4900,"Äĵjus":4901,"Ġasp":4902,"Ġpuis":4903,"ote":4904,"Ġizmantoju":4905,"ĠnÄģkamo":4906,"ticamÄģk":4907,"El":4908,"Visu":4909,"Ġpublik":4910,"Ġig":4911,"Ġpasnieg":4912,"ÄģÅĨu":4913,"ĠpiegÄģd":4914,"mens":4915,"Ġiecer":4916,"otÄģjam":4917,"ĠdvÄĵs":4918,"TÄģlÄģk":4919,"bor":4920,"ĠlielÄģka":4921,"ĠsabiedrÄ«bÄģ":4922,"Ġzvaigz":4923,"Ġgraf":4924,"Ġdarbus":4925,"ĠfiniÅ¡":4926,"Ġversiju":4927,"ĠkriminÄģl":4928,"Ġinteresants":4929,"ĠprasÄ«bas":4930,"Ġgrupa":4931,"Ġdes":4932,"Ġvisur":4933,"ĠpÄģrr":4934,"Ġlapa":4935,"ĠrezultÄģti":4936,"emonstr":4937,"ĠenerÄ£ijas":4938,"Ġceturt":4939,"ÄĵÅ¡anos":4940,"Ġnakti":4941,"Ġizmaksas":4942,"Ġizdevies":4943,"Ġizvair":4944,"ĠkvalitÄģti":4945,"adÄĵm":4946,"ĠmaksÄģt":4947,"ĠpeÄ¼":4948,"Ġuzraudz":4949,"Ġiedz":4950,"Ġpabalst":4951,"Ġcukuru":4952,"Äģdiem":4953,"Ġparast":4954,"ĠreliÄ£":4955,"emÄģt":4956,"ĠsavÄģs":4957,"Ġdaudzas":4958,"ĠvÄģrdus":4959,"ĠdzimÅ¡anas":4960,"Ġresp":4961,"Ġkonfer":4962,"Ġdodas":4963,"Äģnas":4964,"Laikam":4965,"ĠCrossFit":4966,"Ġbankas":4967,"mugur":4968,"Ġplkst":4969,"ĠattiecÄ«bu":4970,"Ġfini":4971,"ĠpÄģrtikas":4972,"ĠNacionÄģl":4973,"____":4974,"Ä¶":4975,"prot":4976,"ĠcenÅ¡as":4977,"Ġmedij":4978,"DS":4979,"oh":4980,"Ðµ":4981,"Ä«Å¡a":4982,"ĠpÄĵr":4983,"ĠtÄ«m":4984,"ĠjaunÄģs":4985,"Ġsaskar":4986,"ĠsociÄģlÄģs":4987,"Ġspilg":4988,"Ġiesaku":4989,"ĠkrÄģj":4990,"ĠBal":4991,"ĠpusÄĵm":4992,"Ä«ze":4993,"ĠreÄģli":4994,"Ġdomes":4995,"Pirmais":4996,"Ġnumur":4997,"di":4998,"anÄįu":4999,"ilj":5000,"Ä«gumu":5001,"niekus":5002,"Ġslep":5003,"Ġpaaugst":5004,"ĠsakÄģrt":5005,"Ġabas":5006,"Ġuzdevums":5007,"organ":5008,"ĠspÄĵlÄĵ":5009,"Ġdarbinieku":5010,"ĠsÄģli":5011,"ÄģdÄĵ":5012,"ĠrealitÄģt":5013,"Sas":5014,"ĠnolÅ«k":5015,"ĠatvÄĵrt":5016,"ĠRe":5017,"ĠÄĵdienu":5018,"Ġiepirk":5019,"Mar":5020,"tis":5021,"Ġmazs":5022,"Ġnopeln":5023,"Ġ2010":5024,"ĠdurvÄ«m":5025,"Ġand":5026,"ĠradÄģs":5027,"Nep":5028,"jam":5029,"Ä¼Äģv":5030,"osf":5031,"spÄĵl":5032,"KA":5033,"dec":5034,"Ġizvirz":5035,"ĠseviÅ¡Ä·i":5036,"Ġbiznesa":5037,"UR":5038,"Äģdus":5039,"oÅ¡us":5040,"mam":5041,"ĠdÄĵv":5042,"Ġsavstar":5043,"ĠatmiÅĨas":5044,"sept":5045,"ĠpalÄ«dzÄ«bas":5046,"ĠdabÅ«t":5047,"eita":5048,"oguÄ¼":5049,"Ġpunktu":5050,"ĠpaplaÅ¡":5051,"att":5052,"pres":5053,"ĠdaÅ¾Äģdus":5054,"Ġnovada":5055,"ĠtradicionÄģl":5056,"80":5057,"vakar":5058,"ortu":5059,"ĠpreÄįu":5060,"Ġparaug":5061,"ĠpÄģrmai":5062,"Ġstrauji":5063,"Ġpartijas":5064,"Ġpaaudz":5065,"Ġsastop":5066,"Ġklases":5067,"Ġnoj":5068,"eÄ¼as":5069,"ĠtÄģlru":5070,"ĠpamatÄģ":5071,"ĠplanÅ¡":5072,";)":5073,"oo":5074,"Ä«Å¡i":5075,"inas":5076,"ÄģkajÄģ":5077,"entr":5078,"Ġkrekl":5079,"Ġdraugu":5080,"Ġprogramma":5081,"ĠbrÄ«niÅ¡Ä·":5082,"artam":5083,"Ġ80":5084,"ĠuzzinÄģt":5085,"aba":5086,"atori":5087,"Ġcepur":5088,"ĠdalÄ«bnieku":5089,"ĠvasarÄģ":5090,"Ġnegaid":5091,"Ġuzved":5092,"Ġlic":5093,"ĠatÄ¼auj":5094,"ĠpamazÄģm":5095,"atora":5096,"Viena":5097,"priec":5098,"Ġtiesa":5099,"SS":5100,"eÅ¡i":5101,"Ġpaskaidr":5102,"Äģnijas":5103,"ĠsievietÄĵm":5104,"Ä«vu":5105,"Ġsavs":5106,"ĠpersonÄģm":5107,"ĠgalvenokÄģrt":5108,"Ġdraugi":5109,"KopumÄģ":5110,"Br":5111,"ĠproblÄĵmÄģm":5112,"Ġkompet":5113,"ieÅ¾Äģk":5114,"ĠsacensÄ«bas":5115,"otais":5116,"Ä·iem":5117,"Ġklientu":5118,"Ġteleviz":5119,"alas":5120,"erm":5121,"ĠMas":5122,"Ġimp":5123,"ĠvÄĵs":5124,"Ġni":5125,"itas":5126,"ÄģlajÄģ":5127,"Ġturpat":5128,"Ġmedus":5129,"simta":5130,"liem":5131,"Ġ=":5132,"Ġtem":5133,"Ġdzemd":5134,"Ġinstrum":5135,"ionÄģli":5136,"ĠbÄĵrnam":5137,"Äªp":5138,"ĠnolÄĵmu":5139,"Ġde":5140,"Ġdigit":5141,"ĠgalÄ«gi":5142,"Ġeg":5143,"ĠstrÄ«d":5144,"ĠdaÅ¾us":5145,"ĠilgÄģk":5146,"Ġteritorijas":5147,"DzÄ«v":5148,"ĠBet":5149,"niecÄ«ba":5150,"ÄģÅ¡anÄģs":5151,"ĠtÄĵj":5152,"ĠLV":5153,"Ġsaskat":5154,"atÄ«vÄģ":5155,"DomÄģju":5156,"Ġfakts":5157,"ĠnozÄ«me":5158,"ĠparÄģdÄ«jÄģs":5159,"Ġskaidro":5160,"ĠsevÄ«":5161,"ĠÄĵkas":5162,"ĠgrÄ«d":5163,"Ġiepak":5164,"ĠgodÄ«gi":5165,"Ġnec":5166,"iskus":5167,"Ġ27":5168,"nesis":5169,"Ġsatura":5170,"Ġskolu":5171,"ĠÅ¡ÄģdÄģ":5172,"Ġpievienot":5173,"ĠmaÅ¡Ä«nas":5174,"Rezult":5175,"Äĵtiski":5176,"inÄģjusi":5177,"ĠnÄģkas":5178,"ĠlÄ«meÅĨa":5179,"ĠaplikÄģcijas":5180,"Åłogad":5181,"Ġseksu":5182,"ĠizlasÄ«t":5183,"Ġkapit":5184,"ÄĵtajÄģ":5185,"ĠAmer":5186,"Ġredzam":5187,"ĠrokÄģ":5188,"Ġnepareiz":5189,"Ġpadz":5190,"Ġiesniedz":5191,"Ġdarbiem":5192,"klas":5193,"ĠvidÄĵ":5194,"ĠpapÄ«ra":5195,"ĠstÄģstu":5196,"ĠjebkurÄģ":5197,"idz":5198,"Ġskaidri":5199,"Gar":5200,"Ġremon":5201,"Ġseko":5202,"Ġizpau":5203,"Ġpadomju":5204,"Ġrudens":5205,"ĠmÅ«sdienÄģs":5206,"Ġdatoru":5207,"Ġmaratonu":5208,"usa":5209,"ĠpaÅĨem":5210,"Äĵns":5211,"ĠpamÄĵÄ£":5212,"ĠuzÅĨÄĵmums":5213,"Ġpopular":5214,"Ġnevienam":5215,"ĠsÅ«dz":5216,"Äĵjumiem":5217,"Ġ28":5218,"aidu":5219,"ips":5220,"ĠvÄģrdÄģ":5221,"ĠÅ«denÄ«":5222,"ĠgrÄģmatÄģ":5223,"Ġnovad":5224,"Ġdokumentu":5225,"GrÄģm":5226,"ĠaprÄ«k":5227,"rast":5228,"ĠLai":5229,"Ġdizain":5230,"ieb":5231,"Ä«Ä¼":5232,"Ġatliek":5233,"uks":5234,"ĠgribÄĵju":5235,"ĠgrupÄģ":5236,"Ġierakstu":5237,"irst":5238,"skatÄģs":5239,"Ġ90":5240,"Ġĉĉĉĉ":5241,"ÄĵjuÅ¡ies":5242,"Äģkos":5243,"Pats":5244,"Ġkomanda":5245,"Ġdati":5246,"Äģliem":5247,"ĠcitÄģs":5248,"Ġ70":5249,"jÅ«l":5250,"los":5251,"Äĵjumus":5252,"uls":5253,"aino":5254,"Ġpalikt":5255,"astr":5256,"erÄģ":5257,"ĠcÅ«k":5258,"ĠKar":5259,"ĠIT":5260,"Ġuzsver":5261,"Ġvienalga":5262,"ĠÅĨemt":5263,"ĠÄ¼aud":5264,"ĠpaÅ¡ai":5265,"ĠlielÄģko":5266,"ĠbrÄ«dim":5267,"Ġjust":5268,"erb":5269,"Ġrev":5270,"Ġparad":5271,"otÄģjus":5272,"ĠnoskaÅĨ":5273,"KÄģds":5274,"ĠspÄĵju":5275,"ĠvaldÄ«bas":5276,"Skat":5277,"Ġraksts":5278,"Ġnoteikumus":5279,"Mans":5280,"ĠdrÄ«zÄģk":5281,"Ġtak":5282,"ĠbÄ¼":5283,"Ä«gÄģks":5284,"Ġsekoj":5285,"ĠacÄ«mredz":5286,"der":5287,"smas":5288,"Ġasins":5289,"ĠmÄĵneÅ¡us":5290,"jiem":5291,"Ġiemesls":5292,"14":5293,"Ġieslodz":5294,"Ġinteresanta":5295,"ĠÅ¾an":5296,"ĠpÄĵdÄĵjos":5297,"Ġtor":5298,"Ġmetr":5299,"Ä¼as":5300,"eram":5301,"Ġkrist":5302,"Ġmazo":5303,"ĠNokia":5304,"anas":5305,"atÄ«vu":5306,"enim":5307,"Ġaizrauj":5308,"ĠpagÄģjuÅ¡Äģ":5309,"Ier":5310,"Ġsienas":5311,"Ġreti":5312,"Ġfestiv":5313,"ÅłÄ·":5314,"ĠNor":5315,"ĠgalvenÄģ":5316,"ĠpelÄĵk":5317,"Ġbrokast":5318,"Run":5319,"ĠpÄĵrn":5320,"ĠnoteiktajÄģ":5321,"Ġatceros":5322,"ĠsmarÅ¾":5323,"ex":5324,"iÄ·i":5325,"Ġkul":5326,"rÄģdi":5327,"ĠmÄģjÄģ":5328,"ĠsavÄģdÄģk":5329,"ĠpaÅ¡reiz":5330,"ĠkÄģrtÄģ":5331,"Ik":5332,"OS":5333,"ĠesoÅ¡o":5334,"ĠiekÄģr":5335,"ĠÄ«paÅ¡u":5336,"ĠSavienÄ«bas":5337,"put":5338,"Ġtest":5339,"ikÄģciju":5340,"ÅłÄ«s":5341,"Ġtambor":5342,"ĠmÄĵrÄģ":5343,"ĠlabÄģko":5344,"ĠatgÄģdina":5345,"Ä«tiem":5346,"Ġhip":5347,"Ġbalss":5348,"Ġgatavi":5349,"ĠnormÄģli":5350,"Ð¸":5351,"aprÄ«":5352,"ska":5353,"ĠkÄģrtÄ«gi":5354,"ĠsamÄĵrÄģ":5355,"ĠiedomÄģj":5356,"Ġizskaidr":5357,"Ġslaven":5358,"Ned":5359,"ce":5360,"ian":5361,"Ġze":5362,"Ġzirg":5363,"ĠKur":5364,"Ġcitur":5365,"Ġnodar":5366,"ĠinteresÄĵ":5367,"ĠkÄ¼uvis":5368,"fs":5369,"ĠsÄĵk":5370,"ĠbÄģr":5371,"Ġgult":5372,"Ġskum":5373,"Ġgala":5374,"ĠgalvÄģ":5375,"ĠÄĵdam":5376,"ĠtÄ«klu":5377,"Ġ2011":5378,"ĠmÄĵnesi":5379,"Ġattiecas":5380,"ĠformÄģ":5381,"ĠdalÄ«bnieki":5382,"Ġpulc":5383,"ĠrobeÅ¾as":5384,"Å¡Äģs":5385,"Ġpievil":5386,"ĠiespÄĵjam":5387,"Ġnesan":5388,"Ġcentru":5389,"omentÄģri":5390,"Ġkoncep":5391,"Ġzemi":5392,"Ġanaliz":5393,"ĠlÄ«dzekÄ¼us":5394,"ĠprecÄ«zi":5395,"ĠdaÅ¾ÄģdÄģs":5396,"Ġatbildes":5397,"Ġapspr":5398,"Ġsniegt":5399,"ĠnespÄĵju":5400,"Kl":5401,"ĠvÄģj":5402,"ate":5403,"ĠSig":5404,"Ġotrs":5405,"Ġdegun":5406,"Ġaizr":5407,"Äĵnas":5408,"ĠizskatÄ«jÄģs":5409,"ĠtÄ«kla":5410,"ĠtreÅ¡o":5411,"ĠZviedr":5412,"ĠRÄ«ga":5413,"Ġakme":5414,"ĠsacensÄ«bÄģs":5415,"arg":5416,"Mani":5417,"ĠpÄĵdÄĵjais":5418,"ĠvÄĵrtÄ«bu":5419,"ĠredakcijÄģ":5420,"jÅ«n":5421,"kon":5422,"Ġlaul":5423,"otiem":5424,"ĠzvÄĵr":5425,"ĠgaidÄ«t":5426,"Ġ2012":5427,"Tel":5428,"Ġarhitekt":5429,"ĠcilvÄĵc":5430,"Ġpateicoties":5431,"AT":5432,"tul":5433,"Ġpasaule":5434,"ull":5435,"ĠÅ¡Ä·idr":5436,"ry":5437,"Ġgriez":5438,"Ġintens":5439,"Gan":5440,"ĠtÄĵ":5441,"Ġuzkr":5442,"inieks":5443,"Ġnelaim":5444,"Ġspecif":5445,"Ġnab":5446,"Ġstipri":5447,"TreÅ¡":5448,"ĠlÄ«gumu":5449,"Ġkalnu":5450,"ĠdevÄģs":5451,"ĠsalÄ«dzinoÅ¡i":5452,"Ġsarunas":5453,"Min":5454,"Ġaz":5455,"Ġvit":5456,"Ġsin":5457,"Äĵtie":5458,"Ġneesot":5459,"Ġmeh":5460,"ze":5461,"Ġkurp":5462,"Ġkurs":5463,"inÄģÅ¡u":5464,"Ġpieejami":5465,"ĠmateriÄģlu":5466,"ĠsacensÄ«bu":5467,"ĠtÄĵvs":5468,"ĠvienÄ«gÄģ":5469,"Ġkarti":5470,"Ġtelpas":5471,"ĠsituÄģcijÄģ":5472,"vielu":5473,"mÄ«l":5474,"ĠdrÄ«kst":5475,"ĠkÄģrtÄĵjo":5476,"ĠprasÄ«bÄģm":5477,"ĠpriekÅ¡roc":5478,"Ġsau":5479,"Ġakc":5480,"ĠredzÄĵjis":5481,"Interesanti":5482,"ĠapmeklÄĵt":5483,"Ġjok":5484,"Ġvidu":5485,"ĠglÄģz":5486,"Ġaizmirst":5487,"Ġuzg":5488,"Ġpiebilst":5489,"ĠVents":5490,"oles":5491,"Ġstad":5492,"Å«ts":5493,"Ġfut":5494,"ĠMÄģrt":5495,"stund":5496,"Ġsmil":5497,"ĠOp":5498,"Ġledus":5499,"TÄģdÄĵjÄģdi":5500,"ekÄ¼u":5501,"atvers":5502,"Ġlikvid":5503,"ĠÄ«paÅ¡uma":5504,"ĠmÄĵneÅ¡u":5505,"rÄ«t":5506,"ĠmuÄ¼Ä·":5507,"Ġapv":5508,"ĠvisÄģs":5509,"ĠspÄĵÄ¼u":5510,"Ġdarboties":5511,"ikÄģÅĨu":5512,"ciem":5513,"ĠpÄģrl":5514,"Ġfl":5515,"Ġskaita":5516,"ĠEiropÄģ":5517,"inÄģr":5518,"oriem":5519,"Ġcukura":5520,"proc":5521,"ĠTur":5522,"Ġnetika":5523,"ĠlÄ«menis":5524,"Ġlaikos":5525,"Äįi":5526,"Ġlika":5527,"Ġvidus":5528,"Vid":5529,"ĠmaÄ£":5530,"ieks":5531,"Ġvispirms":5532,"ĠpasÄģkuma":5533,"ĠvÄĵstul":5534,"Ġizcel":5535,"Ġelektro":5536,"ĠistabÄģ":5537,"ili":5538,"ĠpÄģrÄĵjie":5539,"SÄģkumÄģ":5540,"mÄĵ":5541,"Ġdatus":5542,"Ġfunkcijas":5543,"Ġkontek":5544,"Ġjaunais":5545,"Ä«cija":5546,"Ġvidussk":5547,"Ġoptim":5548,"Äģcies":5549,"ters":5550,"Ġgalveno":5551,"ĠiedzÄ«votÄģji":5552,"Ġintegr":5553,"auÅ¾":5554,"Å«rai":5555,"Ä«rs":5556,"lÄģj":5557,"ĠlÄ«dzÄ«gu":5558,"Ġveikalos":5559,"Ġputnu":5560,"Ġieros":5561,"Ġvaldes":5562,"ĠpÄģrsvarÄģ":5563,"ĠatseviÅ¡Ä·i":5564,"ĠsavstarpÄĵj":5565,"eÅĨi":5566,"Ġneskait":5567,"Ġpieredzes":5568,"ld":5569,"ĠbÄĵd":5570,"Tiek":5571,"rai":5572,"vÄĵÄ£":5573,"ĠizÅĨemot":5574,"Ä«gam":5575,"Ġvarat":5576,"ingr":5577,"Ġmuguras":5578,"Äģrst":5579,"Ġilgst":5580,"Ġskatuves":5581,"Ġ~":5582,"Ġtepat":5583,"varu":5584,"Ġatsauk":5585,"Ġvaloda":5586,"ĠparÄģda":5587,"Ä¢":5588,"Ġslap":5589,"Ġpamata":5590,"Ġatradu":5591,"Ġnoticis":5592,"Ġkaus":5593,"ĠHol":5594,"Ġizsnieg":5595,"PagaidÄģm":5596,"Sm":5597,"kav":5598,"Ġsem":5599,"ĠvairÄģkiem":5600,"ĠÄģtrumu":5601,"Ġpedag":5602,"net":5603,"ĠrotaÄ¼":5604,"apt":5605,"ea":5606,"Ġfail":5607,"ĠaizÅĨem":5608,"Ġaiztur":5609,"Ġcitr":5610,"ĠbÄĵrnus":5611,"ĠlÄĵnÄģm":5612,"ba":5613,"ievÄĵr":5614,"Ġpalicis":5615,"ĠÄ·ermeÅĨa":5616,"Ġtar":5617,"Ġmak":5618,"ony":5619,"ĠprÄģt":5620,"Ġlaimi":5621,"ĠkÄģdiem":5622,"ĠrakstÄ«ts":5623,"ĠvislabÄģk":5624,"Ġatra":5625,"Ġiepl":5626,"ÄģcijÄģs":5627,"Ġgaismas":5628,"Gatav":5629,"Ġton":5630,"Ġseju":5631,"Ġapkalp":5632,"ejÄģm":5633,"ecom":5634,"Ġklientiem":5635,"ĠposmÄģ":5636,"iete":5637,"ĠpÄģrvÄĵr":5638,"Ġ500":5639,"Ls":5640,"Ġpietr":5641,"Ġuzdevumu":5642,"CeÄ¼":5643,"Mana":5644,"ĠÄ·ipl":5645,"ĠmÅ«zika":5646,"Ġstudiju":5647,"Ġweb":5648,"ĠplÄģns":5649,"ĠforÅ¡i":5650,"Ġpiep":5651,"ĠnekÄģdi":5652,"Ġtrak":5653,"ĠapmÄĵrÄģ":5654,"Ġaugstu":5655,"ĠsajÅ«tas":5656,"Ġkvad":5657,"Ġieviest":5658,"ĠnorÄģdÄ«ja":5659,"Ġdarbinieki":5660,"Ġvisos":5661,"Ġpalas":5662,"Ġinteresantu":5663,"ĠjautÄģjumi":5664,"Ġtransporta":5665,"ieÅ¡anas":5666,"ĠlÅ«dzu":5667,"iegl":5668,"ĠvecÄģku":5669,"Ġkara":5670,"Ġizteikt":5671,"Ġnemain":5672,"16":5673,"eicÄģs":5674,"Ġkarj":5675,"Ä«tÄģjam":5676,"zemes":5677,"ĠmaÅ¡Ä«nu":5678,"starp":5679,"Ġneman":5680,"Ġcivil":5681,"eÄ¼us":5682,"Ġkaudz":5683,"ĠuzÅĨemt":5684,"aisn":5685,"Ġsteidz":5686,"ĠKom":5687,"Ġgatava":5688,"IepriekÅ¡":5689,"Ġtv":5690,"tipr":5691,"Ġinsp":5692,"ozÄ«m":5693,"Ġmiljoni":5694,"Ġaltern":5695,"Ġjos":5696,"Äģlis":5697,"ĠlietotÄģji":5698,"Ġpirkt":5699,"Ġtransport":5700,"Ä¼auju":5701,"gum":5702,"ĠUz":5703,"arus":5704,"Ġjaunus":5705,"ĠnetÄģlu":5706,"Nezinu":5707,"etd":5708,"ĠmazÄģ":5709,"Ġprezidents":5710,"ĠmÄģte":5711,"xy":5712,"ojusies":5713,"ĠpriekÅ¡st":5714,"ĠshÄĵm":5715,"atved":5716,"ĠakadÄĵm":5717,"ĠdaÅ¾Äģdos":5718,"ĠlabÄģkais":5719,"ĠvÄĵrtÄ«bas":5720,"Ġvariants":5721,"Ġkn":5722,"Ġlomu":5723,"Ġpamatu":5724,"Ġizdodas":5725,"ĠnÄģkamÄģ":5726,"Ä«gÄģkais":5727,"ĠmÄĵÄ£ina":5728,"Bal":5729,"edr":5730,"Ġraud":5731,"ĠInd":5732,"Ġsaturs":5733,"adom":5734,"odr":5735,"ĠnepÄģrt":5736,"ĠplÄģnu":5737,"ĠkonkurÄĵts":5738,"usskap":5739,"MÅ«s":5740,"Äĵtikas":5741,"Kar":5742,"lika":5743,"ĠnodaÄ¼as":5744,"Ġdefin":5745,"ati":5746,"ites":5747,"Ġpieb":5748,"ĠdzÄ«vnieku":5749,"vÄĵra":5750,"ĠvajadzÄ«bÄģm":5751,"%,":5752,"ÄĵÅ¡anÄģ":5753,"ĠjÅ«tas":5754,"Ġgads":5755,"ĠDr":5756,"Ġsimp":5757,"Ġauditor":5758,"Ġeksist":5759,"Ġatlaid":5760,"ĠtelpÄģ":5761,"IzrÄģdÄģs":5762,"TS":5763,"Ġet":5764,"atl":5765,"ĠmÄģko":5766,"Ġatkrit":5767,"Ä«vs":5768,"Ġaizmugur":5769,"Ġball":5770,"Ġcentrs":5771,"ĠapdroÅ¡inÄģÅ¡anas":5772,"JÅ«s":5773,"ĠdÅ«":5774,"Ġbaig":5775,"inÄģto":5776,"ĠvÄģrdi":5777,"Ġprogrammat":5778,"ĠrezultÄģtus":5779,"ĠkompÄģnijas":5780,"ĠautomÄģtiski":5781,"ĠparedzÄĵta":5782,"Ġperf":5783,"25":5784,"Ġpierakst":5785,"Ġaugstsk":5786,"ĠmÄģtes":5787,"Ġunik":5788,"Ġstrau":5789,"Å«rmal":5790,"VispÄģr":5791,"aujas":5792,"ĠiedzÄ«votÄģjiem":5793,"Å¡aub":5794,"Ġdemonstr":5795,"eikumi":5796,"niecÄ«bÄģ":5797,"Ġkampa":5798,"kom":5799,"Ġtoties":5800,"iktu":5801,"ulaik":5802,"antÄģ":5803,"Ġkoncentr":5804,"Ġbezdarb":5805,"Ġident":5806,"Ġnereti":5807,"Ġtajos":5808,"iss":5809,"ĠpÄģrÄĵjiem":5810,"ĠdzÄ«vojam":5811,"Ġfotograf":5812,"Ġaukst":5813,"Ġsatiksmes":5814,"fa":5815,"Ä«du":5816,"Manu":5817,"Ġpakalpojumus":5818,"Ġautobusu":5819,"Ġolu":5820,"aliek":5821,"Ġarm":5822,"ĠÅ¡Å«":5823,"Ġpirmie":5824,"ĠzemÄĵ":5825,"ĠkolektÄ«v":5826,"ĠsarakstÄģ":5827,"apz":5828,"uÅ¡os":5829,"gales":5830,"lÄģg":5831,"Ġ2013":5832,"Ġviedokli":5833,"Ġnozares":5834,"Ġzib":5835,"trÄģd":5836,"telecom":5837,"%.":5838,"gudr":5839,"ceÄ¼a":5840,"Ġpierad":5841,"inÄģjÄģm":5842,"ĠtÄģdus":5843,"Ġprofil":5844,"Ġbaid":5845,"alu":5846,"Ġatver":5847,"Ä«ni":5848,"ĠpanÄģkt":5849,"ĠatklÄģt":5850,"ĠRepublikas":5851,"Ġsant":5852,"alv":5853,"Ġatn":5854,"Ġsavai":5855,"Ġvienreiz":5856,"ĠtÄģdiem":5857,"ĠapmÄģc":5858,"netu":5859,"ĠpÄĵtÄ«juma":5860,"ĠiedomÄģties":5861,"Av":5862,"cionÄģl":5863,"Ġau":5864,"Ġog":5865,"ĠcepeÅ¡":5866,"ĠvÄ«rieÅ¡u":5867,"Ġdus":5868,"ĠgaÄ¼u":5869,"oÅ¡ajÄģ":5870,"Ġpagriez":5871,"Ġdrusku":5872,"oÅĨu":5873,"ret":5874,"vietu":5875,"Ġneiet":5876,"Ġcm":5877,"ojiet":5878,"Vismaz":5879,"ĠAleks":5880,"ĠÄª":5881,"ĠpÄĵdÄĵjÄģs":5882,"ĠsalÄ«dzinot":5883,"ĠlÄ«dzekÄ¼iem":5884,"cenÄģr":5885,"VienkÄģr":5886,"18":5887,"ĠpÄ«":5888,"ĠkÄģju":5889,"emz":5890,"Ġinteresi":5891,"Redz":5892,"piemÄĵram":5893,"Ġpilns":5894,"ĠstarpÄģ":5895,"ĠÄ£en":5896,"Ġskaista":5897,"ĠvisticamÄģk":5898,"Ġzelta":5899,"ÂłčĊ":5900,"ĠaizstÄģv":5901,"Ġkombin":5902,"ĠpieÅĨemts":5903,"Ġkabinets":5904,"Ġsavos":5905,"ĠsituÄģcijas":5906,"Ġ150":5907,"Ġgabalu":5908,"Ġkilometru":5909,"TÄģdÄĵÄ¼":5910,"irsn":5911,"ĠĠčĊ":5912,"Ġbiks":5913,"Ġrei":5914,"Ġveco":5915,"Ġiecien":5916,"ĠJelgavas":5917,"Ġgribi":5918,"ĠatstÄģt":5919,"ĠperiodÄģ":5920,"atur":5921,"Ġbil":5922,"Ġnesp":5923,"ĠgarÅ¡as":5924,"Ġnosp":5925,"Ġplastmas":5926,"Liek":5927,"Siev":5928,"inos":5929,"ĠLond":5930,"inÄģÅ¡anÄģs":5931,"Ä«zi":5932,"Ġ2006":5933,"PirmÄģ":5934,"Ġgrupu":5935,"Ġneliela":5936,"Ġledusskap":5937,"Ats":5938,"Ġ;)":5939,"ĠjÄģl":5940,"igar":5941,"ĠgadÄ«jumu":5942,"ĠorganizÄģcijas":5943,"Ġsaule":5944,"gi":5945,"Ġsign":5946,"Äģte":5947,"Äĵtajiem":5948,"Ġkoku":5949,"ĠpiedalÄ«jÄģs":5950,"ĠiepazÄ«st":5951,"ĠnodokÄ¼u":5952,"Ġsaukt":5953,"Ġmaniem":5954,"Ġpagasta":5955,"eÅĨiem":5956,"Ä«ri":5957,"Ä«tie":5958,"Ġplak":5959,"august":5960,"ĠpilsÄĵta":5961,"ĠieÅĨÄĵm":5962,"Ġlaip":5963,"ĠdarbÄ«ba":5964,"ĠdaÄ¼ai":5965,"ID":5966,"Ġatgrie":5967,"iniekiem":5968,"Ġburk":5969,"ollo":5970,"ĠAug":5971,"Ġneskatoties":5972,"ĠlÄ«meni":5973,"Ġburt":5974,"Ġ01":5975,"Äĵzek":5976,"ĠbiÄ¼etes":5977,"Sar":5978,"enas":5979,"ĠlÄ«dzÄ«gs":5980,"ĠdomÄģm":5981,"ingu":5982,"ĠÅĨÄĵm":5983,"eklar":5984,"Ġsekot":5985,"ĠsÄĵrijas":5986,"bola":5987,"ĠjÄģk":5988,"ĠvÄĵlÄĵÅ¡anu":5989,"Ġ29":5990,"ĠvairÄģku":5991,"Ġatzina":5992,"ĠpriekÅ¡sÄĵdÄĵtÄģjs":5993,"nei":5994,"Ä«tÄģjus":5995,"manis":5996,"ĠÄ»":5997,"Ġprocesa":5998,"Ġaizv":5999,"atÄ«va":6000,"Ġplatform":6001,"XX":6002,"Äģriem":6003,"orts":6004,"ĠpieÅĨÄĵm":6005,"KopÅ¡":6006,"ĠjautÄģjumus":6007,"ĠtapÄĵc":6008,"ĠaÄ£entÅ«ras":6009,"ijam":6010,"Ġpiest":6011,"ĠgrÄģmatÄģm":6012,"Ġkonkurs":6013,"ĠvÄģcu":6014,"60":6015,"Ġy":6016,"ĠsadzÄ«v":6017,"Ġnark":6018,"ĠizdzÄ«v":6019,"ĠnekÄģds":6020,"ĠizmantoÅ¡anu":6021,"ĠvienkÄģrÅ¡a":6022,"Ġmoder":6023,"ior":6024,"ÂłĠĠ":6025,"Ġjauni":6026,"elfi":6027,"ĠmÄģja":6028,"ojuÅ¡ies":6029,"ĠPat":6030,"ĠnezinÄģm":6031,"Ġnotikumiem":6032,"Ġaizsarg":6033,"arÄ«":6034,"gadam":6035,"ĠjÄģiet":6036,"ĠnepiecieÅ¡amo":6037,"inÄģjuÅ¡i":6038,"Ġkontroles":6039,"Ġpreses":6040,"Biju":6041,"Äĵla":6042,"Ġnetrauc":6043,"ĠtelefonÄģ":6044,"Ġprodukts":6045,"Ġkomandu":6046,"ĠtÅ«risma":6047,"Reiz":6048,"SÄĵdes":6049,"oter":6050,"Ġaizbrauc":6051,"ĠspÄĵka":6052,"ĠiPad":6053,"Ġargum":6054,"ojamo":6055,"uÅ¡ie":6056,"ievien":6057,"Ġ31":6058,"ĠfilmÄģm":6059,"ĠgribÄĵja":6060,"Ġiedarb":6061,"Ġtekst":6062,"ĠnevajadzÄĵtu":6063,"Liet":6064,"ood":6065,"Ġ/":6066,"ista":6067,"Ġplud":6068,"ĠVald":6069,"Ġsviestu":6070,"Jasm":6071,"be":6072,"Ġmit":6073,"ĠâĢĺ":6074,"oÅ¡Äģm":6075,"Ġcitos":6076,"Ġ35":6077,"Ġproduktiem":6078,"Ġdokument":6079,"Ġstikla":6080,"amie":6081,"Ġparal":6082,"ĠpaÅĨemt":6083,"prec":6084,"ĠiepazÄ«ties":6085,"Ġpunkts":6086,"ĠbruÅĨ":6087,"RÄ«gas":6088,"ÄģÅ¡":6089,"program":6090,"ĠplÄģnots":6091,"Ġkompens":6092,"Ġglob":6093,"ĠatradÄģs":6094,"Ġministrs":6095,"alk":6096,"Ġcip":6097,"ietes":6098,"ĠsagrieÅ¾":6099,"Ġstul":6100,"ĠÄ£ener":6101,"glÄ«tÄ«bas":6102,"auskas":6103,"Ġrup":6104,"tuv":6105,"ĠvÄĵlÄĵÅ¡anÄģs":6106,"ĠsadarbÄ«bas":6107,"ĠrÅ«pÄ«gi":6108,"ĠLiepÄģjas":6109,"ĠVec":6110,"ried":6111,"Ġnesaprot":6112,"Ġbater":6113,"ienos":6114,"Ġspiest":6115,"Ġelp":6116,"ĠuzrakstÄ«t":6117,"ÑĤ":6118,"ÄģÅ¡u":6119,"ierÄģ":6120,"ĠlÅ«dz":6121,"Ġrag":6122,"Ġvisd":6123,"Ġnepiln":6124,"ĠJÅ«s":6125,"ĠdaÄ¼Äĵji":6126,"ĠsaglabÄģt":6127,"Ġkafej":6128,"jot":6129,"Äĵjusies":6130,"ĠspÄĵja":6131,"Ġlaikrakst":6132,"Ġpolitikas":6133,"Brauc":6134,"Neb":6135,"Ġlaikiem":6136,"ĠEx":6137,"ĠkritÄĵr":6138,"ojumam":6139,"Ġdraugs":6140,"ĠattiecÄ«gi":6141,"ĠsaistÄ«ts":6142,"ĠizstrÄģdÄģt":6143,"ĠdalÄ«bniekiem":6144,"ĠmÄĵneÅ¡iem":6145,"Ġsasniegt":6146,"Ġnoform":6147,"Äģniem":6148,"ĠvadÄ«bas":6149,"Ġsniega":6150,"SK":6151,"lauk":6152,"ity":6153,"atÄ«vÄģs":6154,"encÄĵ":6155,"Ġformas":6156,"ĠvÄ«rieÅ¡i":6157,"ĠjÄģdara":6158,"Ġiedvesm":6159,"Fr":6160,"Ġpic":6161,"Äģlos":6162,"ĠNos":6163,"ĠreÄ£ionÄģl":6164,"IT":6165,"Ġieskat":6166,"Ġredzu":6167,"ĠparÄģdÄ«t":6168,"Ġproduktus":6169,"ĠviedokÄ¼a":6170,"PÄĵdÄĵjÄģ":6171,"AB":6172,"Pied":6173,"zd":6174,"Ġvingr":6175,"Ġloga":6176,"ĠefektÄ«v":6177,"ĠbÅ«d":6178,"Ġtram":6179,"Ġizdom":6180,"Ġvalsti":6181,"darbÄ«bas":6182,"Ġkompleks":6183,"ĠPÄĵt":6184,"eÅ¡a":6185,"Ġtiesu":6186,"Ġruna":6187,"Ġ''":6188,"Ġapak":6189,"Ġvaras":6190,"ĠÄ«patn":6191,"ĠsastÄģvÄģ":6192,"ĠnoskatÄ«ties":6193,"ĠoriÄ£in":6194,"Jeb":6195,"erÄ«":6196,"olog":6197,"Ġlielisks":6198,"ĠjaunieÅ¡u":6199,"ĠpagÄģt":6200,"ĠÄģtrums":6201,"ĠzÄģlÄĵ":6202,"ĠLMT":6203,"Ġpapildu":6204,"ĠrisinÄģjums":6205,"Tev":6206,"Ġmatu":6207,"Ġvienai":6208,"ĠpÄģrÄĵjo":6209,"Ä«nes":6210,"ĠJums":6211,"Ġkaul":6212,"Äĵkab":6213,"Ġpasm":6214,"ĠDien":6215,"ock":6216,"Ġnotikumu":6217,"Toties":6218,"ĠÅħ":6219,"ĠscenÄģr":6220,"enÄģ":6221,"Ġstab":6222,"ĠRÄ«gu":6223,"ĠdaÅ¾Äģm":6224,"Ġeksk":6225,"ĠplanÅ¡etd":6226,"inoties":6227,"Ġapgu":6228,"ĠRob":6229,"ĠnozÄ«mes":6230,"ĠvÄĵjÅ¡":6231,"balst":6232,"Äģjoties":6233,"ĠpielÄģg":6234,"Ġpagr":6235,"ĠÄ«r":6236,"ĠtajÄģs":6237,"ĠbÄģzes":6238,"Ġfan":6239,"ĠAiz":6240,"ĠItÄģl":6241,"brit":6242,"ĠkvalitÄģte":6243,"ĠmÄģrket":6244,"aÄ·":6245,"alg":6246,"Ä«jumos":6247,"ĠpasaÅ¾":6248,"ĠKon":6249,"ĠPl":6250,"ĠatvaÄ¼":6251,"ĠVÄĵst":6252,"Ġalu":6253,"metu":6254,"Ġneesam":6255,"ĠvÄĵstures":6256,"Beidzot":6257,"pe":6258,"Ġdikti":6259,"Ġradi":6260,"Ġtekstu":6261,"ĠbojÄģ":6262,"ĠZiemassvÄĵtku":6263,"lÄ«d":6264,"ĠmÄģk":6265,"Ġiej":6266,"ĠGun":6267,"ĠÅ¡Ä·Äĵl":6268,"Ġmetodes":6269,"otes":6270,"ÄģjÄģ":6271,"ĠizmÄĵr":6272,"Ġatbalsts":6273,"Ġmikr":6274,"ĠKat":6275,"ĠotrÄģdi":6276,"ĠnejauÅ¡i":6277,"zi":6278,"eitu":6279,"Ġproti":6280,"Ġ300":6281,"ĠvaldÄ«ba":6282,"ĠatmiÅĨÄģ":6283,"ĠspeciÄģli":6284,"ĠatskaÅĨ":6285,"ĠteÄģtra":6286,"Ġsertifik":6287,"Ä«tus":6288,"auda":6289,"udÄģrz":6290,"Ġpilna":6291,"ĠpÄģrstÄģvis":6292,"cijÄģm":6293,"age":6294,"inÄģjies":6295,"Ġkameras":6296,"inÄģsies":6297,"Ġsakaru":6298,"Ġmilzu":6299,"ĠkomentÄģros":6300,"Ġbriesm":6301,"ĠspÄĵle":6302,"Ġbilde":6303,"Ġekonomikas":6304,"eet":6305,"Ġmiz":6306,"ĠpamatÄ«gi":6307,"Ġfunkciju":6308,"ĠnespÄĵja":6309,"aura":6310,"ĠSan":6311,"ĠMac":6312,"Ġpadara":6313,"Ġblogs":6314,"ĠlÄĵmums":6315,"ĠfinansiÄģl":6316,"Ġspried":6317,"ĠÄ¼audis":6318,"IM":6319,"Pol":6320,"Ġdaudzumu":6321,"laban":6322,"ĠmeÅ¾Äģ":6323,"Ġolimp":6324,"Ġtarif":6325,"cm":6326,"Ġkuk":6327,"Ä¼Å«st":6328,"irkt":6329,"ĠÅ¾el":6330,"ĠÄĵku":6331,"ĠuzbÅ«v":6332,"45":6333,"ment":6334,"Ġsiera":6335,"ĠÄ£e":6336,"ĠlielÄģkoties":6337,"ĠbrÄ«Å¾iem":6338,"Ġvelti":6339,"aprot":6340,"Ġizliet":6341,"ĠizmÄĵra":6342,"ĠzemÄģk":6343,"ĠvÄĵrtÄ«ba":6344,"Ġkav":6345,"Ġieinteres":6346,"Ä«jÄģmies":6347,"Ġfaktu":6348,"Ġgard":6349,"Ġapjom":6350,"Ġservisu":6351,"notaÄ¼":6352,"ĠjÄģmaksÄģ":6353,"ĠgÅ«t":6354,"ĠKl":6355,"ĠPas":6356,"zÄ«mes":6357,"ĠplÄģna":6358,"ĠmainÄģs":6359,"nos":6360,"Ġizaic":6361,"ĠKÄģr":6362,"ĠGala":6363,"Ġdivdesmit":6364,"ĠplÄģno":6365,"ĠspÄĵlÄĵt":6366,"Ġministrija":6367,"Ġmitr":6368,"Ġuzskait":6369,"ĠZem":6370,"ĠÄ£imene":6371,"Ġteicu":6372,"ĠklausÄ«ties":6373,"Beig":6374,"hol":6375,"Ġsug":6376,"ĠnodaÄ¼a":6377,"Ġsaku":6378,"Ġskatoties":6379,"ĠÄ«paÅ¡umu":6380,"Ġautori":6381,"ĠkolÄĵÄ£i":6382,"riek":6383,"Ġmieru":6384,"ĠplÅ«s":6385,"Ġpilnu":6386,"ĠskatÄģs":6387,"Ġizgatav":6388,"ĠpsiholoÄ£":6389,"Ġost":6390,"Ġnumuru":6391,"JasmÄ«ne":6392,"ces":6393,"Ġpienu":6394,"ĠmÄ«n":6395,"Ġmeg":6396,"Ġlabo":6397,"ĠfotogrÄģfijas":6398,"ĠGalaxy":6399,"ly":6400,"ĠuzrÄģd":6401,"ĠAg":6402,"ĠgribÄĵtos":6403,"PirmkÄģrt":6404,"Ġfaktiski":6405,"US":6406,"Ġnelik":6407,"iene":6408,"eter":6409,"Ġrep":6410,"Ġpamod":6411,"ĠsamazinÄģt":6412,"ĠaplikÄģcija":6413,"Galvenais":6414,"Ġcil":6415,"Ġpiedzim":6416,"Ġrecep":6417,"ĠlielÄģs":6418,"iste":6419,"ĠizslÄĵg":6420,"ĠatkarÄ«gs":6421,"Ġsezonas":6422,"Id":6423,"ÄĵtÄģm":6424,"ĠnevarÄĵtu":6425,"ĠpiedalÄģs":6426,"ĠsantÄ«m":6427,"laÅ¾":6428,"ĠviÄ¼":6429,"ĠleÄ£":6430,"iga":6431,"Ġformu":6432,"ĠtÄ«mekÄ¼a":6433,"MS":6434,"iniet":6435,"ĠgÄģz":6436,"Ġizsp":6437,"Ä·Äĵr":6438,"ĠvisÄģdi":6439,"ĠsagÄģd":6440,"Ġbildi":6441,"Ġfunkcion":6442,"oÄ¼":6443,"ĠvÄģrt":6444,"esu":6445,"Ġprop":6446,"Ġlieli":6447,"ĠziemÄģ":6448,"ĠaktivitÄģtes":6449,"Ġapdraud":6450,"Ġreak":6451,"ĠklÄģst":6452,"nese":6453,"Ġmaratons":6454,"enerÄ£ijas":6455,"ĠlÄĵni":6456,"ĠrajonÄģ":6457,"ĠdaiÄ¼":6458,"kap":6459,"Ġtaust":6460,"Å«Å¾":6461,"ĠkrÅ«t":6462,"ics":6463,"Ġlieliska":6464,"ĠnevarÄĵju":6465,"ĠmanÄģm":6466,"ive":6467,"ĠRaim":6468,"dienÄģm":6469,"Ġvakara":6470,"ĠpaziÅĨoja":6471,"odes":6472,"ĠsÄģkums":6473,"Ġierast":6474,"ViÅĨas":6475,"ÅĨÄ£":6476,"ĠatnÄģk":6477,"ĠskolÄĵnu":6478,"Ġpanta":6479,"Ġmammas":6480,"ĠspÄ«ti":6481,"ĠpÄģrraid":6482,"Ġpludmal":6483,"ÄģÅ¡anu":6484,"Ġmus":6485,"Ġdeklar":6486,"dze":6487,"ĠkÄģz":6488,"ĠVid":6489,"Ġietilp":6490,"Ġkameru":6491,"Ġnoteikumiem":6492,"Ġneizdev":6493,"Ġnostipr":6494,"Ġdarbiniekiem":6495,"ektÄģ":6496,"Ġaizst":6497,"Åłie":6498,"Ġmazas":6499,"ĠpakaÄ¼":6500,"ĠiestÄģÅ¾u":6501,"ĠjÄģsaka":6502,"ÅĹ":6503,"ĠizÅĨem":6504,"ĠvienlaicÄ«gi":6505,"oktob":6506,"Ġadresi":6507,"Ä±":6508,"ĠSm":6509,"Ġnepietiek":6510,"ĠIr":6511,"ĠgarÅ¡u":6512,"Ġdomin":6513,"reÄ£":6514,"Ġviedoklis":6515,"ĠtumÅ¡":6516,"PA":6517,"Tam":6518,"Ġx":6519,"Ġpaj":6520,"Ġsieru":6521,"ubil":6522,"ĠgrÄģmatved":6523,"ĠvajadzÄ«bas":6524,"Ġprodukti":6525,"Ġveikala":6526,"Ġneliels":6527,"Ġsarakstu":6528,"ĠÄįetras":6529,"Ġaizdom":6530,"Jaut":6531,"ĠizlÄĵm":6532,"ĠcieÅ¡":6533,"Ġaptur":6534,"ĠtuvumÄģ":6535,"ĠpÄĵtÄ«jumu":6536,"darbu":6537,"ĠdemokrÄģt":6538,"Åħemot":6539,"Skr":6540,"Ġsod":6541,"ipt":6542,"Ġneesi":6543,"Ġversijas":6544,"Bl":6545,"Ġdej":6546,"ikam":6547,"Ġatg":6548,"ĠinformÄĵja":6549,"ĠraÅ¾oÅ¡anas":6550,"ĠkopÄĵjÄģ":6551,"ci":6552,"oÄ¼u":6553,"vaj":6554,"Ġlak":6555,"umt":6556,"Ġcie":6557,"ozes":6558,"ĠbrÄ«vi":6559,"Ġapgaism":6560,"Ġpup":6561,"Ġriek":6562,"eikti":6563,"ĠÅ¡Äģdiem":6564,"Ġneizmant":6565,"ĠmeÅ¾u":6566,"Ġpulver":6567,"Sv":6568,"Ġsit":6569,"ĠiznÄ«c":6570,"Ġaizm":6571,"Ġnepied":6572,"Ġpagar":6573,"ĠiepriekÅ¡Äĵjo":6574,"Ġatbildi":6575,"ĠsistÄĵmÄģ":6576,"pusÄĵ":6577,"Ġresursu":6578,"Ġsirsn":6579,"Ġnerun":6580,"Ä«guma":6581,"Äĵsi":6582,"Ġdaudzums":6583,"Ä«gÄģka":6584,"ĠsaistÄ«bÄģ":6585,"ĠbeidzÄģs":6586,"ManuprÄģt":6587,"ijiem":6588,"Ġpusot":6589,"ĠOne":6590,"ĠkompÄģnija":6591,"ĠtÄĵjas":6592,"Ä·Ä«":6593,"Ġsalas":6594,"ĠspÄĵks":6595,"Ġjebkuru":6596,"ĠmÄ«kst":6597,"Ġaicina":6598,"Ġkafijas":6599,"ĠtÄĵju":6600,"Ġmusku":6601,"ĠpÄģrb":6602,"ĠgarÄģ":6603,"Ġveidojas":6604,"Ġabiem":6605,"ĠierÄ«cÄĵm":6606,"Ġdekor":6607,"amajÄģ":6608,"Ġvidi":6609,"Ġdatiem":6610,"ĠtreniÅĨu":6611,"ĠsaÅĨÄĵma":6612,"SÄģkot":6613,"Ġver":6614,"ĠmÄģm":6615,"Ġrast":6616,"orÄ«t":6617,"oÅ¡ajÄģm":6618,"ĠredzÄĵju":6619,"ĠÄ¢":6620,"Ġatgriezties":6621,"ĠtÅ«kstoÅ¡iem":6622,"ĠemocionÄģl":6623,"biedr":6624,"ee":6625,"eÄģt":6626,"ĠsaÅ¡":6627,"aga":6628,"ĠnoslÄĵdz":6629,"Ġotram":6630,"ĠuzÅĨÄĵmumi":6631,"ĠbijuÅ¡as":6632,"ĠmÄ«lestÄ«bu":6633,"ĠkÄ¼uvusi":6634,"kaut":6635,"etam":6636,"Äĵtus":6637,"Ġprior":6638,"ĠMad":6639,"Ġ2004":6640,"Ġproced":6641,"ĠatcerÄĵties":6642,"Ġalkohola":6643,"ĠvisbieÅ¾Äģk":6644,"Ġvilt":6645,"ĠvÄĵlmi":6646,"Ġpaliks":6647,"Äĵni":6648,"ĠvietÄĵjo":6649,"Ġhum":6650,"ĠpÄģrsteigums":6651,"Vaj":6652,"ĠzÄ«mes":6653,"ĠsÄģkotnÄĵji":6654,"kul":6655,"nor":6656,"ÄģdÄĵt":6657,"Ä«tajÄģ":6658,"Ġstart":6659,"Ġtelpu":6660,"Ġinterese":6661,"ĠsabiedrÄ«ba":6662,"ff":6663,"Ñģ":6664,"Äģtam":6665,"ĠapzÄ«m":6666,"ĠvarÄĵju":6667,"Ġlietoju":6668,"Ġasf":6669,"Ġmediju":6670,"ĠobjektÄ«v":6671,"ĠpiedÄģvÄģjumu":6672,"100":6673,"DÅ¾":6674,"Esam":6675,"Ġneatbilst":6676,"Ġ2000":6677,"ĠabÄģm":6678,"Ġmuzik":6679,"ĠveselÄ«bu":6680,"ĠtrÅ«kums":6681,"Ġmirkli":6682,"Ġneliet":6683,"Äģsies":6684,"onos":6685,"ĠLatvijai":6686,"ozof":6687,"aktÄ«v":6688,"ĠÅ¡ausm":6689,"ĠnÄģves":6690,"Ġ(âĢľ":6691,"Ġdarbam":6692,"Parasti":6693,"Ġkalna":6694,"ĠnenozÄ«m":6695,"ĠfranÄįu":6696,"Ġeti":6697,"Ġpers":6698,"ÄĵjumÄģ":6699,"Ġrai":6700,"âĢ³":6701,"Å¾os":6702,"tion":6703,"âĢĵâĢĵ":6704,"pasta":6705,"Ġistabas":6706,"17":6707,"ax":6708,"Ġgait":6709,"ĠpÄģrtrauk":6710,"ĠInterneta":6711,"ĠÄ£imenÄĵ":6712,"ĠdaÅ¾u":6713,"atoriem":6714,"Ġpiespied":6715,"Ġpirkstu":6716,"Ġfailu":6717,"ĠbÅ«Å¡u":6718,"Ġnetr":6719,"Ġsapl":6720,"ĠtamlÄ«dz":6721,"tiesas":6722,"Ġsieva":6723,"Ġpieejamas":6724,"ĠpagÄģjuÅ¡ajÄģ":6725,"Ġpastipr":6726,"Ä«nÄģ":6727,"ĠeksÄģm":6728,"mus":6729,"Äģnus":6730,"ĠkÄ¼Å«s":6731,"ĠatstÄģj":6732,"Äģkus":6733,"ĠpÄģrdzÄ«v":6734,"ĠskaÅĨas":6735,"Cep":6736,"Ġuzlik":6737,"ĠkÄģdai":6738,"ektiem":6739,"Ġaci":6740,"ÄĢr":6741,"oduc":6742,"Ġformul":6743,"ĠgarÅ¡o":6744,"Ġkontakt":6745,"EK":6746,"Ð½":6747,"inst":6748,"ĠvisnotaÄ¼":6749,"autas":6750,"Ġtermin":6751,"VÄĵlÄģk":6752,"ĠpaskatÄ«ties":6753,"ĠreÅ¾Ä«mÄģ":6754,"bo":6755,"Ġrip":6756,"ekciju":6757,"istab":6758,"Ġvalstij":6759,"JÄģat":6760,"ĠFranc":6761,"ĠatspoguÄ¼":6762,"Ġcigar":6763,"Äģlus":6764,"iskajai":6765,"ainÄģs":6766,"ĠsabiedrÄ«bu":6767,"ĠsacensÄ«bÄģm":6768,"Ġkomisija":6769,"35":6770,"ĠgrÄģv":6771,"ÄģnijÄģ":6772,"ĠKo":6773,"uÅ¡Äģ":6774,"ĠbÄĵrnudÄģrz":6775,"Ġnodev":6776,"ĠskaÄ¼i":6777,"blog":6778,"vel":6779,"ÄģÅ¡ana":6780,"atÅ«ras":6781,"erus":6782,"ĠâĢ¦":6783,"emi":6784,"Ġskap":6785,"ect":6786,"ĠFir":6787,"Ġkilometrus":6788,"ĠvienkÄģrÅ¡s":6789,"ĠpadarÄ«t":6790,"Ġlejupiel":6791,"ĠsvÄĵtki":6792,"Ġatmosf":6793,"ĠSiguld":6794,"Ġdeju":6795,"ekcija":6796,"Ġzini":6797,"Ġstres":6798,"Ġekstr":6799,"ĠmÄģcÄ«ties":6800,"ĠtÄ«klÄģ":6801,"ĠrisinÄģjumu":6802,"nozÄ«m":6803,"pÄĵÄ¼u":6804,"sav":6805,"Ġejot":6806,"Äģdos":6807,"Ġpiedz":6808,"prat":6809,"Ġsvec":6810,"ĠdomÄģj":6811,"Ġrezerv":6812,"ĠapgÅ«t":6813,"Ġskrienot":6814,"Ġrekord":6815,"Äģlam":6816,"oll":6817,"ĠLab":6818,"ĠEn":6819,"ĠizvÄĵles":6820,"Ġnosaukt":6821,"ĠizÅĨÄĵm":6822,"Ġinternetu":6823,"ĠceÄ¼iem":6824,"inux":6825,"Ġ2005":6826,"Ġcietu":6827,"ekom":6828,"Ġkoord":6829,"obi":6830,"ĠbrÅ«n":6831,"Ġietekmi":6832,"daÄ¼as":6833,"ariem":6834,"Ġdel":6835,"Ġatlas":6836,"ĠrakstÄ«ju":6837,"ĠsmÄĵÄ·":6838,"Ġslodz":6839,"ĠbrÄ«dis":6840,"Ġsola":6841,"ambor":6842,"ĠNoskrien":6843,"Atr":6844,"Ied":6845,"febru":6846,"Ġej":6847,"ĠGar":6848,"Pret":6849,"maijÄģ":6850,"ards":6851,"CilvÄĵki":6852,"Ġazarts":6853,"ÅĨot":6854,"ieku":6855,"irt":6856,"olus":6857,"ĠdivÄģs":6858,"Ġsekm":6859,"ĠlielÄģkais":6860,"Ġneizd":6861,"Ġsniegs":6862,"vieta":6863,"Ziem":6864,"our":6865,"Ġev":6866,"Äģcu":6867,"Ġsavulaik":6868,"Ġprezidenta":6869,"Net":6870,"iÄ·u":6871,"Ġnoteiktu":6872,"ĠlÄ«guma":6873,"ĠDaugav":6874,"uri":6875,"Ġinici":6876,"ĠAnd":6877,"Ġaizvad":6878,"ĠVil":6879,"ĠbrÄģ":6880,"kaitot":6881,"AL":6882,"Ġuzaic":6883,"ĠÅ¡ÅĨ":6884,"Ġangl":6885,"Ġmodelis":6886,"Ġdziesma":6887,"Ġvirtuves":6888,"ĠprincipÄģ":6889,"LÅ«dzu":6890,"uta":6891,"ietim":6892,"aÄ¼Äģm":6893,"Ġaizpild":6894,"ainis":6895,"ĠpasÄģkumi":6896,"Ġtapa":6897,"ĠnepÄģrtrauk":6898,"ii":6899,"Ġpalaist":6900,"ĠgribÄĵjÄģs":6901,"ĠÄ«paÅ¡s":6902,"ĠmÄĵÄ£inÄģt":6903,"ĠspeciÄģlisti":6904,"70":6905,"Ä«tei":6906,"ĠSatvers":6907,"ĠMeÅ¾":6908,"Ġinterpret":6909,"ĠbÄĵrnÄ«bas":6910,"Ġdeva":6911,"ĠslimÄ«bas":6912,"Ġlatiem":6913,"Ġuzbruk":6914,"eniski":6915,"org":6916,"aidÄ«t":6917,"ĠjaunieÅ¡i":6918,"ĠminÄĵto":6919,"egul":6920,"Ġnomet":6921,"Ġtilta":6922,"Papildus":6923,"ET":6924,"Ġparun":6925,"ĠÅ¡aur":6926,"okur":6927,"ĠspÄĵjas":6928,"Ġpasp":6929,"ĠMai":6930,"pilÄ«":6931,"ĠizcÄ«n":6932,"ĠatkÄģp":6933,"irn":6934,"Ġielik":6935,"ĠvÄ«ru":6936,"ĠlÄ«dzekÄ¼i":6937,"Ġemocijas":6938,"ĠÄģrkÄģrtÄ«gi":6939,"ĠMask":6940,"ĠkvadrÄģt":6941,"Val":6942,"brÄ«d":6943,"Ä«gums":6944,"Äĵlu":6945,"ĠlabÄģks":6946,"Ġputn":6947,"ĠsÄĵnes":6948,"Pil":6949,"Ġtavu":6950,"uÅ¡a":6951,"spÄ«d":6952,"ĠfiniÅ¡a":6953,"Ġplastmasas":6954,"otie":6955,"enei":6956,"Ä«tajiem":6957,"pried":6958,"eklÄĵt":6959,"ĠinformÄĵ":6960,"Ġskats":6961,"ĠuzÅĨÄĵmumiem":6962,"ĠÄĵdiens":6963,"Ġmetru":6964,"Ġsoli":6965,"Ġapjomu":6966,"ĠatkarÄ«bÄģ":6967,"ÄģÄ£":6968,"ĠatlÄ«dz":6969,"ĠpaspÄĵj":6970,"Ġintereses":6971,"Visas":6972,"etriem":6973,"Ġ198":6974,"ĠslÄĵdz":6975,"Ġgur":6976,"Ġpieciem":6977,"ĠpÄģrliecinÄģts":6978,"Ġkonserv":6979,"ĠziÅĨo":6980,"ĠnÄģksies":6981,"BC":6982,"Pal":6983,"Vil":6984,"Ġcim":6985,"ĠspÄĵli":6986,"Ġpreces":6987,"kaita":6988,"ĠbaÅ¾":6989,"Ġvecais":6990,"Ġpersonai":6991,"inoteÄģt":6992,"Ġmiljonus":6993,"ĠabsolÅ«ti":6994,"reÄ£istr":6995,"Ġener":6996,"ĠnoÅ¾Äĵl":6997,"ĠspÄĵtu":6998,"ĠSh":6999,"ĠkrÄĵjumu":7000,"Ġnoteikumu":7001,"ĠmaksÄģj":7002,"Ġ@":7003,"Äģsim":7004,"erim":7005,"ĠieslÄĵg":7006,"Ġdienn":7007,"Ġ400":7008,"tiesÄ«bu":7009,"ĠizvÄĵli":7010,"Ġsabiedrisko":7011,"ĠnogalÄĵ":7012,"Nel":7013,"Ġast":7014,"Ġjubil":7015,"ejai":7016,"Ġlielveik":7017,"rig":7018,"ĠceÄ¼ojuma":7019,"Ġ45":7020,"Ġveselu":7021,"Ġpui":7022,"ĠtÅ«kstoÅ¡i":7023,"ĠdziedÄģt":7024,"Ġpulksten":7025,"ĠLietuvas":7026,"Jebkur":7027,"eÅĨus":7028,"oÅ¾u":7029,"Äģmo":7030,"Äģtes":7031,"ĠpÄģrÅĨem":7032,"Ġaugu":7033,"Ġatbilde":7034,"ĠkrÄģsa":7035,"ĠLielbrit":7036,"Ġnolik":7037,"akÄģs":7038,"ach":7039,"Ġhok":7040,"ĠorganizÄģciju":7041,"Ġgandar":7042,"vietas":7043,"Ġnerv":7044,"ĠkomunikÄģcijas":7045,"Ġdirektors":7046,"ĠdeputÄģti":7047,"bal":7048,"zol":7049,"osa":7050,"audzis":7051,"ukst":7052,"kart":7053,"ĠvÄ«rieÅ¡iem":7054,"Ġlati":7055,"God":7056,"fic":7057,"Ġain":7058,"erts":7059,"Ġuzrun":7060,"ÄĵlÄģs":7061,"ĠRÅ«":7062,"ĠRÄĵzek":7063,"Ġgara":7064,"ĠdaÅ¾kÄģrt":7065,"ultÅ«ras":7066,"ĠstÄģstÄ«ja":7067,"Ġbraucot":7068,"Ġnoziedz":7069,"ĠtreÅ¡ajÄģ":7070,"ĠUnivers":7071,"ĠpriekÅ¡sÄĵdÄĵtÄģja":7072,"ÄªpaÅ¡i":7073,"Ġur":7074,"tris":7075,"ĠkrÄģÅ¡":7076,"entam":7077,"ĠlietotÄģjs":7078,"alitÄģti":7079,"ĠuzvÄģrd":7080,"Ġuzlabot":7081,"nÄĵs":7082,"ÑĢ":7083,"Ġsens":7084,"ekÄ¼i":7085,"ĠtrÅ«kst":7086,"ĠizmeklÄĵ":7087,"ĠvÄĵsta":7088,"Ġsolis":7089,"Ġatviegl":7090,"ĠstÄģvokli":7091,"24":7092,"ON":7093,"kad":7094,"Ġprim":7095,"ĠzÄģÄ¼u":7096,"ĠtikÅ¡anÄģs":7097,"uÅ¡ajiem":7098,"ĠOS":7099,"Ġasar":7100,"ĠrezultÄģtiem":7101,"ĠievÄĵrojami":7102,"ĠrudenÄ«":7103,"San":7104,"nod":7105,"Ġaust":7106,"Ġsekt":7107,"Ġlam":7108,"Ġleg":7109,"ure":7110,"Ġaizved":7111,"Ġkamera":7112,"ĠHel":7113,"ieÅ¾ot":7114,"ĠrunÄģjot":7115,"ĠotrÄģs":7116,"ĠpasÄģkumÄģ":7117,"Ġieguva":7118,"):":7119,"ĠnoÅĨem":7120,"eko":7121,"Ġtrener":7122,"rÄ«zÄģk":7123,"Ġbeidzas":7124,"Ġkvalif":7125,"iklÄģv":7126,"bl":7127,"atr":7128,"Ġieteic":7129,"ĠvajadzÄ«ga":7130,"ĠizvÄĵlas":7131,"ĠsociÄģlÄģ":7132,"ĠmÄģksliniec":7133,"ĠpastÄģstÄ«t":7134,"Filma":7135,"Ġlaimes":7136,"Ġdzej":7137,"ĠplaÅ¡i":7138,"andin":7139,"ĠstÄģvÄĵja":7140,"Ġpavasara":7141,"Ġpension":7142,"Ġtiku":7143,"Ġspr":7144,"ĠvÄĵlu":7145,"ĠÅ¡Ä·Äĵr":7146,"ĠplÄģnoÅ¡anas":7147,"alitÄģtes":7148,"Ġizcil":7149,"ĠapstÄģkÄ¼i":7150,"ĠpÄģrbaudÄ«t":7151,"ĠatseviÅ¡Ä·u":7152,"Ġpensiju":7153,"Ġkluba":7154,"ĠaprÅ«pes":7155,"lor":7156,"ĠQ":7157,"Ġkub":7158,"inoÅ¡s":7159,"Ġkaz":7160,"Ġfak":7161,"ĠÄ·Ä«n":7162,"Eirop":7163,"Ġizsm":7164,"Ġjauki":7165,"Ġfol":7166,"Ġmiljoniem":7167,"Ġsulu":7168,"ĠmÅ«Å¾Äģ":7169,"oÅĨa":7170,"Ġdec":7171,"ogur":7172,"pring":7173,"ĠminÅ«Å¡u":7174,"Ġtual":7175,"ieriem":7176,"aimniek":7177,"ĠgultÄģ":7178,"ĠgaiÅ¡":7179,"bur":7180,"uÅ¡u":7181,"iji":7182,"Äĵles":7183,"ĠspÄģr":7184,"Ġnesas":7185,"Ġizmantots":7186,"alitÄģte":7187,"ĠkonkrÄĵtu":7188,"ĠsÄģpes":7189,"Ġmaizes":7190,"ĠVÄĵstnesis":7191,"ix":7192,"ÄĵjoÅ¡o":7193,"elÄĵ":7194,"ĠtikmÄĵr":7195,"ĠPadom":7196,"Ġkatras":7197,"ĠsaistÄ«ti":7198,"pilsÄĵtas":7199,"ĠÅ¡okolÄģdes":7200,"Ġneveiksm":7201,"ĠcepeÅ¡krÄģs":7202,"por":7203,"Ġpogu":7204,"ĠbÅ«":7205,"ĠgaÄ¼a":7206,"ĠkÄģdÄĵÄ¼":7207,"ĠMK":7208,"embrim":7209,"ĠlÄ«gums":7210,"ĠtÄĵma":7211,"ban":7212,"Ä«gajÄģm":7213,"Ġspilv":7214,"izÄĵ":7215,"ĠSl":7216,"ĠSom":7217,"ĠvecÄģ":7218,"ĠÄģrvalstu":7219,"Ġlatviski":7220,"ĠmeklÄĵj":7221,"Ġsirdi":7222,"Ġindustr":7223,"PagÄģjuÅ¡":7224,"ĠnÄģkotnes":7225,"Ġkungs":7226,"ĠamerikÄģÅĨu":7227,"Ġpievilc":7228,"rr":7229,"amiem":7230,"eirop":7231,"orÄģ":7232,"ĠÅ¡ur":7233,"ĠmanÄ«":7234,"Ġcitam":7235,"Ġmirk":7236,"ĠreÄ£istrÄģcijas":7237,"ĠIgaunijas":7238,"ekÄ¼iem":7239,"izrÄģd":7240,"ĠkrÄ«t":7241,"ĠvÄ«ri":7242,"Ġsarunu":7243,"vadu":7244,"90":7245,"Piek":7246,"SD":7247,"snes":7248,"ĠsÅ«d":7249,"esti":7250,"Ġjanv":7251,"oss":7252,"ĠcieÅ¡i":7253,"Å¾ot":7254,"ektiv":7255,"Ġlielais":7256,"ĠKuld":7257,"Ġpusstund":7258,"Ġsakr":7259,"ĠsajÅ«t":7260,"ĠmatemÄģt":7261,"Ġagres":7262,"Ġstandart":7263,"ĠmÄĵrci":7264,"Pavisam":7265,"Ġpateik":7266,"uÅ¡ais":7267,"ektus":7268,"Ġnenos":7269,"Ġgaisu":7270,"ĠjÄģpie":7271,"ĠtreÅ¡Äģ":7272,"ĠdÄĵls":7273,"KÄģda":7274,"Äĵp":7275,"Ġsom":7276,"ÄģmÄģ":7277,"Ġparam":7278,"odi":7279,"ĠatbildÄ«bu":7280,"ĠatÅ¡Ä·iras":7281,"KÄģd":7282,"TV":7283,"isa":7284,"ĠKÄģ":7285,"igur":7286,"ĠpieklÄģj":7287,"ĠsvarÄ«gs":7288,"ĠmetÄģla":7289,"Ġkonkursa":7290,"ĠgabaliÅĨos":7291,"ĠnodarbinÄģt":7292,"Ġserviss":7293,"ĠLattelecom":7294,"ĠneatkarÄ«gi":7295,"RezultÄģtÄģ":7296,"Ġmies":7297,"eda":7298,"ĠRad":7299,"Ġaugust":7300,"ĠpilnÄģ":7301,"ĠÄįetri":7302,"ojamas":7303,"Ġsievieti":7304,"ĠklÄģtbÅ«t":7305,"ordea":7306,"ÄĵtÄģjsistÄĵm":7307,"Ġsiltum":7308,"vÄģrdi":7309,"IJ":7310,"fin":7311,"ĠmÄ«t":7312,"Ġjaud":7313,"ĠpÄģrc":7314,"ĠPS":7315,"ĠjÄģg":7316,"ĠjÄģÅĨem":7317,"Ġapmai":7318,"ĠobligÄģti":7319,"Ġbulj":7320,"ĠkinoteÄģt":7321,"atkar":7322,"esa":7323,"ĠÄ£imeni":7324,"ĠmÅ«Å¾u":7325,"ĠBrÄ«v":7326,"ĠizmÄĵÄ£inÄģt":7327,"JÄģs":7328,"ML":7329,"ha":7330,"Ġtav":7331,"Ġapn":7332,"Ġnekav":7333,"Ġgaru":7334,"ĠbrÅ«":7335,"ĠÅ¡Äģdus":7336,"Atkal":7337,"Ġmodes":7338,"Ġticis":7339,"ĠnodokÄ¼a":7340,"ĠolÄ«v":7341,"Ġsmuki":7342,"andinÄģv":7343,"Nol":7344,"laid":7345,"enÄĵ":7346,"Ġpiez":7347,"ĠziÅĨa":7348,"ĠDom":7349,"Ġdaudzveid":7350,"Ġpadal":7351,"ĠÄ«paÅ¡a":7352,"Ġvakaru":7353,"pastu":7354,"Ġkafiju":7355,"ĠdÄģvanu":7356,"ĠatraÅ¡anÄģs":7357,"dal":7358,"ĠgÄģzes":7359,"ĠkrastÄģ":7360,"andrÄ«z":7361,"ĠatpÅ«tas":7362,"ĠaudzÄĵk":7363,"Ġdistanci":7364,"ĠpavasarÄ«":7365,"AD":7366,"Ġnelab":7367,"use":7368,"Ġapav":7369,"ivud":7370,"ĠÄ«paÅ¡nieks":7371,"ĠlaukumÄģ":7372,"ĠkustÄ«bas":7373,"Ġbailes":7374,"ĠmehÄģnis":7375,"Ieg":7376,"Str":7377,"TÄģds":7378,"mju":7379,"ĠpÄĵrk":7380,"Ġdipl":7381,"Ġgov":7382,"Ġvainas":7383,"Ġvisliel":7384,"inÄģÅ¡anÄģ":7385,"Ġabu":7386,"Pirmo":7387,"Ġdzimumu":7388,"Ġnians":7389,"21":7390,"Ä«Å¡anÄģ":7391,"ĠiesÄģk":7392,"Ġfilozof":7393,"Ġnoteikts":7394,"Ġdokumentus":7395,"Ġgraud":7396,"Ġuzk":7397,"ĠLE":7398,"Äĵks":7399,"ĠpamÄģc":7400,"Ġbezgal":7401,"Ġsmilt":7402,"Ġsaslim":7403,"Ġnegribu":7404,"Ġupes":7405,"Ġfotoapar":7406,"ĠtaisnÄ«ba":7407,"99":7408,"Ġspie":7409,"Å«sties":7410,"ĠpalÄ«dzÄĵs":7411,"Ġapsaimniek":7412,"ĠsalÄ«dzinÄģt":7413,"Ġobjektu":7414,"Ġposms":7415,"OT":7416,"ViÅĨam":7417,"Ġtava":7418,"Ġsaut":7419,"Ġriet":7420,"ĠpÄģrsp":7421,"ĠstrÄģdÄģj":7422,"lieku":7423,"Ġ2014":7424,"ĠtÄĵmas":7425,"ĠpastÄģstÄ«ja":7426,"Ġmult":7427,"Ġmantas":7428,"Ġizmis":7429,"ĠrakstÄģ":7430,"Ġstandarta":7431,"Äģris":7432,"Ġcept":7433,"ĠnozÄ«mi":7434,"ĠizstÄģst":7435,"Ġotrais":7436,"ĠdolÄģru":7437,"udz":7438,"ĠÅĨ":7439,"Ġkais":7440,"akot":7441,"ĠpasÄģkumus":7442,"Ġnezina":7443,"Ġteksta":7444,"ĠlietotÄģja":7445,"ĠÅ¡aub":7446,"ĠattÄģlumÄģ":7447,"ĠkrÄ«zes":7448,"EN":7449,"Ek":7450,"Ġmur":7451,"Å«ka":7452,"Ġdevos":7453,"ĠmeitenÄĵm":7454,"VienÄ«gais":7455,"ĠrindÄģ":7456,"ĠaktivitÄģt":7457,"ĠneizdevÄģs":7458,"Fi":7459,"Ġizbrauc":7460,"irkst":7461,"eder":7462,"antiem":7463,"ĠtiesÄģ":7464,"Ġvalod":7465,"ĠuzzinÄģju":7466,"Ġbu":7467,"Ġprov":7468,"its":7469,"Ġskarb":7470,"ĠjÄģap":7471,"Ġvalstis":7472,"ĠpriekÅ¡m":7473,"Ġpiesp":7474,"Ġpiecas":7475,"Ġmiljonu":7476,"ĠkÄ¼Å«das":7477,"Ġslud":7478,"ĠpieÄ¼auj":7479,"ĠpÄĵcpus":7480,"ĠbÄĵrnÄ«bÄģ":7481,"auca":7482,"ĠpamanÄ«ju":7483,"ĠstÄģvoklÄ«":7484,"Op":7485,"Tiem":7486,"Ġizgudr":7487,"ĠCentr":7488,"Ġsekret":7489,"Ġpieci":7490,"ĠpiemÄĵrs":7491,"ĠpÄģrdot":7492,"ĠvirtuvÄĵ":7493,"Ä«Å¡iem":7494,"Å¾am":7495,"Å¾en":7496,"ojamies":7497,"ĠKas":7498,"Ġdienvid":7499,"ĠNu":7500,"atÄ«vas":7501,"Princip":7502,"ĠviesnÄ«cas":7503,"Ġkorpus":7504,"Ġteiktu":7505,"ĠekrÄģns":7506,"ĠdziÄ¼i":7507,"vec":7508,"Ġ*":7509,"Ġrefer":7510,"Ġkond":7511,"Ġitin":7512,"Ġnopietn":7513,"Ġpolicija":7514,"KopÄģ":7515,"ĠtÄĵrp":7516,"Ġ%":7517,"otajÄģ":7518,"Å«Å¡anas":7519,"ela":7520,"Ġplus":7521,"Ġveidos":7522,"ĠpersonÄ«gi":7523,"ĠpÄģrstrÄģd":7524,"âĢ¦.":7525,"ĠÅ¡odienas":7526,"Ġsviesta":7527,"VienkÄģrÅ¡i":7528,"ey":7529,"ĠvÄ«z":7530,"otnes":7531,"ĠÅ¡amp":7532,"Ġiebild":7533,"ode":7534,"ĠpÄģrk":7535,"undr":7536,"ĠmazÄģs":7537,"ÄĵjuÅ¡as":7538,"andas":7539,"Ġilgu":7540,"ĠnedÄĵÄ¼Äģm":7541,"ĠdzirdÄĵjis":7542,"Ġlatus":7543,"oÅĨi":7544,"Ġtavs":7545,"ĠlÄĵk":7546,"Ġgodu":7547,"Ġiela":7548,"ulu":7549,"izÄģcija":7550,"ublic":7551,"ĠdÄģrzÄģ":7552,"Ġnarkot":7553,"Las":7554,"ĠvÄĵt":7555,"aip":7556,"ĠpÄģrvad":7557,"rÄ«na":7558,"Ġha":7559,"Ġpazem":7560,"Ġmodern":7561,"Ġskaists":7562,"ĠdroÅ¡Ä«bu":7563,"Å¡ies":7564,"Ġneinteres":7565,"Ġpier":7566,"ima":7567,"Ġgalva":7568,"Ġakcijas":7569,"ĠJÅ«rmal":7570,"PirmajÄģ":7571,"ĠskrÄĵjiens":7572,"ĠdzirdÄĵt":7573,"ĠkustÄ«bu":7574,"ĠrÄ«cÄ«bÄģ":7575,"bolu":7576,"Ġnokl":7577,"ĠsavÄģk":7578,"Ġ2003":7579,"ĠValmier":7580,"esmu":7581,"etÄĵm":7582,"Ä«tÄĵs":7583,"ĠtÄģdÄģm":7584,"ĠpavÄĵr":7585,"ĠuzskatÄ«t":7586,"ĠtuvÄģkajÄģ":7587,"ĠDievs":7588,"ĠbaznÄ«cas":7589,"ĠDienvid":7590,"VÄģrd":7591,"Ġkai":7592,"Ġloma":7593,"ieta":7594,"emts":7595,"rÄ«tu":7596,"Ġakmens":7597,"Ġpilnveid":7598,"Ġgatavo":7599,"ĠatÅ¡Ä·irÄ«bas":7600,"ĠVentspils":7601,"co":7602,"jaut":7603,"abr":7604,"ĠVÄģcijas":7605,"Ġapmaks":7606,"Ġnopirk":7607,"inÄģsim":7608,"ĠapsÅ«dz":7609,"Ġcukurs":7610,"Ġlikumproj":7611,"BÅ«s":7612,"Nop":7613,"Ġkin":7614,"Ġgum":7615,"ĠÅ¡t":7616,"auku":7617,"Ġnoteikta":7618,"Ġvakars":7619,"ĠpiemÄĵrot":7620,"ĠÄ«sz":7621,"ĠnostrÄģd":7622,"ĠattÄĵlu":7623,"Ġizklaus":7624,"ÅłÄ·iet":7625,"ĠtransportlÄ«dz":7626,"ĠleÄ£end":7627,"sÄĵ":7628,"ĠÅ¡Å«p":7629,"ionÄģ":7630,"ĠnepiecieÅ¡amas":7631,"Ä«gÄģku":7632,"ĠlÄĵmuma":7633,"ĠsaÅĨÄĵmu":7634,"ĠnovÄĵrtÄĵt":7635,"ĠbioloÄ£":7636,"Ġnoskaidrot":7637,"ĠpÄĵdas":7638,"ĠgrÄ«das":7639,"ĠmÄģrketinga":7640,"Ġsomu":7641,"ĠmÄĵb":7642,"ekÅ¡":7643,"ruz":7644,"ĠpÄģrsniedz":7645,"ĠkredÄ«t":7646,"Ġstacijas":7647,"Ġromant":7648,"ĠvizuÄģli":7649,"Nedaudz":7650,"Ġgultas":7651,"Delfi":7652,"ĠkÄģjÄģs":7653,"Äģvis":7654,"Ġlaikus":7655,"inÄģjumam":7656,"ĠGPS":7657,"Ġsagr":7658,"Ġsekas":7659,"ĠattÄ«stÄ«ba":7660,"ĠatbildÄĵja":7661,"Ġsummu":7662,"))":7663,"Diez":7664,"Ġneier":7665,"Ġkliedz":7666,"gadsimta":7667,"Vispirms":7668,"Ġneno":7669,"Ġvirsrakst":7670,"Ġbanku":7671,"Ġpieaugums":7672,"ĠpiedÄģvÄģjums":7673,"Ð¾Ð":7674,"Ġsubj":7675,"ĠNorvÄĵÄ£":7676,"ĠneÄ¼auj":7677,"ira":7678,"ĠdaÅ¾reiz":7679,"ĠNik":7680,"Ġslink":7681,"ĠnepiecieÅ¡ami":7682,"ĠattÄ«stÄ«t":7683,"ĠsastÄģd":7684,"ĠpuÄ·":7685,"ĠierÄ«ci":7686,"Katru":7687,"Ġservisa":7688,"Ġkonflik":7689,"Ġaizmirs":7690,"Ġvielu":7691,"Ġvielas":7692,"ujor":7693,"alÄģ":7694,"orn":7695,"Ġgalv":7696,"nieces":7697,"ĠÅ¾Äģv":7698,"Ġievie":7699,"Ġpannas":7700,"ĠoperÄĵtÄģjsistÄĵm":7701,"ĠpÄģrbaudes":7702,"ĠZiemeÄ¼":7703,"Ġdizaina":7704,"odroÅ¡":7705,"Avots":7706,"Ġ#":7707,"Ġth":7708,"ane":7709,"Ġmald":7710,"ÄĵjÄģmies":7711,"illes":7712,"Ġiziet":7713,"oram":7714,"Ġzud":7715,"ĠpÄģrÄĵjÄģs":7716,"okas":7717,"Ġhost":7718,"Ġpilnvar":7719,"Ġsaprotams":7720,"Ġpamats":7721,"embris":7722,"Ġapstiprina":7723,"Ġnesaprotu":7724,"Ġapgalvo":7725,"Ġattieksmi":7726,"opu":7727,"Ġattur":7728,"Laiks":7729,"Ġiekr":7730,"Ġlasa":7731,"bergs":7732,"Ġapjoms":7733,"ĠportÄģlÄģ":7734,"KatrÄģ":7735,"PaÅ¡laik":7736,"ĠgadÄģs":7737,"ĠekrÄģnu":7738,"Ġprogres":7739,"ĠpriekÅ¡rocÄ«bas":7740,"KT":7741,"ear":7742,"dzis":7743,"ĠÅ¡ajÄģs":7744,"Ġneder":7745,"Ġbeigas":7746,"Ġskaistu":7747,"Galu":7748,"Nekas":7749,"ĠiekÄģrtas":7750,"Ġraug":7751,"ĠatÅĨem":7752,"ĠÄ¼au":7753,"Ġautoru":7754,"PriekÅ¡":7755,"ĠallaÅ¾":7756,"ĠbijuÅ¡":7757,"ĠmedicÄ«n":7758,"ĠacÄ«mredzot":7759,"KÄģdu":7760,"ciet":7761,"Ä·us":7762,"Ġtrans":7763,"ĠreÅ¾isors":7764,"Nov":7765,"TrÄ«s":7766,"Å¡oties":7767,"Ġparlam":7768,"ĠBar":7769,"Ġatteik":7770,"Ġizdal":7771,"Ġpieeja":7772,"Ġapliecina":7773,"ĠoficiÄģli":7774,"ĠdrÄĵbes":7775,"JÄģp":7776,"TÄģda":7777,"ĠRiet":7778,"Ġpirmajiem":7779,"ĠdomÄģts":7780,"ĠkÄģrtÄ«ba":7781,"Ġmatus":7782,"22":7783,"pal":7784,"Ġiebrauc":7785,"Ġdaudzus":7786,"turp":7787,"ĠspÄĵkiem":7788,"Ġizslud":7789,"Indra":7790,"ĠÄģrzemju":7791,"ĠtelevÄ«zijas":7792,"KÄģrt":7793,"Ġnaf":7794,"Ġmis":7795,"Ġapcep":7796,"elÄĵm":7797,"ĠlÄ«dzÄ«ga":7798,"Ġjoc":7799,"ĠpriekÅ¡likums":7800,"Ġieraksta":7801,"ĠprofesionÄģlÄģs":7802,"Ġreceptes":7803,"ĠÄĴr":7804,"ĠuzraudzÄ«bas":7805,"Ġtemat":7806,"pak":7807,"omb":7808,"elp":7809,"Ġnesag":7810,"Ġalg":7811,"Ä«zÄĵ":7812,"ĠuzÅĨÄĵmÄĵj":7813,"alizÄģcijas":7814,"ĠYou":7815,"Ġjumta":7816,"Zv":7817,"ikÄģm":7818,"Ġfiks":7819,"ĠiegÅ«tu":7820,"Ġvirk":7821,"ĠmaÅ¡Ä«nÄģ":7822,"inÄģtÄģjs":7823,"ĠatÄ¼auties":7824,"BA":7825,"KÄĢ":7826,"gars":7827,"Ġtaks":7828,"Ġmom":7829,"amos":7830,"Äģjums":7831,"Ġapsk":7832,"Ġmanai":7833,"Ġatbrauc":7834,"ĠFil":7835,"IzskatÄģs":7836,"Ġlaukos":7837,"Äĵvs":7838,"ĠkonkrÄĵti":7839,"ĠnokÄ¼u":7840,"ĠjÅ«tos":7841,"ĠmÄĵrÄ·iem":7842,"Telef":7843,"Ġnama":7844,"Äĵjiet":7845,"eku":7846,"Ġakciju":7847,"Ġrakstura":7848,"Ġrezer":7849,"ĠsvarÄ«ga":7850,"ĠsaistÄ«ta":7851,"ĠvÄĵsturÄĵ":7852,"ĠmÄ«lestÄ«ba":7853,"ĠieraudzÄ«ju":7854,"Ġkodu":7855,"Ġrob":7856,"onedÄĵÄ¼":7857,"imi":7858,"ĠvietÄĵjÄģ":7859,"ĠatbildÄĵt":7860,"Ceru":7861,"Sag":7862,"eres":7863,"ĠÄ¼aut":7864,"istus":7865,"Å«kas":7866,"Ġkaral":7867,"ĠkalnÄģ":7868,"Ġpaciet":7869,"ĠapstÄģkÄ¼iem":7870,"Ġzivju":7871,"omet":7872,"Proti":7873,"ĠlasÄ«tÄģju":7874,"Ġsmagi":7875,"Ġstila":7876,"ĠdzÄ«voklÄ«":7877,"Ä«simies":7878,"ĠlaicÄ«gi":7879,"SalÄ«dz":7880,"Veik":7881,"Ġpogas":7882,"Ä«jumam":7883,"ĠpaslÄĵp":7884,"Ġjauniem":7885,"Ġveikta":7886,"Ġmiljard":7887,"ĠAndris":7888,"ĠvÄĵsturi":7889,"Ġkilogram":7890,"ĠÄĢr":7891,"Ġoke":7892,"grup":7893,"ĠÅ¡ajos":7894,"evs":7895,"Ġjaunie":7896,"ĠmazÄģks":7897,"Ġnedar":7898,"ĠJÄĵkab":7899,"plÅ«d":7900,"iers":7901,"ĠlasÄ«tÄģjiem":7902,"ĠpasÄģkumiem":7903,"ĠkontekstÄģ":7904,"box":7905,"ĠÂł":7906,"akter":7907,"ÄģtÄģs":7908,"ĠkÄģdÄģm":7909,"Izmant":7910,"ĠievÄĵl":7911,"Ġdepartam":7912,"janvÄģrÄ«":7913,"ĠiekÄģrtu":7914,"PrincipÄģ":7915,"Ilg":7916,"OR":7917,"th":7918,"Ġvecs":7919,"ĠizmantoÅ¡anas":7920,"ĠstÄģstÄ«t":7921,"ÄĵtÄģjus":7922,"Ġmodeli":7923,"Ġieraksts":7924,"ĠiestÄģdÄĵm":7925,"Ġbiroja":7926,"ĠBlack":7927,"Ġvitam":7928,"Ġdieg":7929,"ĠlÄģd":7930,"Ġbritu":7931,"edÅ¾":7932,"ĠiespÄĵjamo":7933,"ĠattiecÄ«gÄģs":7934,"ĠvÄ«rieti":7935,"Ġsaraksts":7936,"Ġizbeig":7937,"Ġsf":7938,"amus":7939,"urk":7940,"Ġuzr":7941,"ĠAiv":7942,"Ġkarav":7943,"Ġizmantota":7944,"ĠÄ·Äĵr":7945,"Ġsekoja":7946,"ĠdaÅ¾Äģda":7947,"Ġneatceros":7948,"Ġsajauc":7949,"ĠpienÄģkumu":7950,"ĠHolivud":7951,"Ġnolikt":7952,"Ġapdz":7953,"ĠlabÄģku":7954,"Ġpapr":7955,"Ġpiecus":7956,"Intern":7957,"ĠÄ«si":7958,"Ġiemesla":7959,"Ġsagatavot":7960,"ĠsadarbÄ«bÄģ":7961,"ViÅĨu":7962,"ds":7963,"Ġge":7964,"Ġapkur":7965,"elÄ«":7966,"ems":7967,"iskajÄģs":7968,"ĠpÄģrveid":7969,"âĢĿ)":7970,"ĠMed":7971,"ĠÅ¡ov":7972,"ĠturpinÄģja":7973,"Ġnetiks":7974,"Ġbraucam":7975,"ĠskrÄĵjiena":7976,"Iev":7977,"Saei":7978,"Ġlim":7979,"Ġsveic":7980,"ĠskolotÄģju":7981,"Ä«gÄģkÄģ":7982,"ĠuzmanÄ«gi":7983,"ĠmilzÄ«gs":7984,"Ġikviens":7985,"bÄĵrn":7986,"sÄģk":7987,"ĠnÄĵs":7988,"Ġcir":7989,"Ġiepriec":7990,"term":7991,"ĠEr":7992,"ĠpiemÄ«t":7993,"Ġskatos":7994,"Ġneatrad":7995,"iÄ¼as":7996,"ĠnodroÅ¡inÄģtu":7997,"ĠavÄģr":7998,"ĠiebÅ«v":7999,"Ġasfal":8000,"fot":8001,"Ġatnes":8002,"agu":8003,"Äĵdu":8004,"ĠEUR":8005,"ĠWi":8006,"Ġspeci":8007,"ĠpavadÄ«t":8008,"DaÅ¾i":8009,"Mazliet":8010,"raugiem":8011,"ĠjÄģveic":8012,"BÅ«t":8013,"ĠjÄģc":8014,"Ġmazais":8015,"Ġdienai":8016,"Ġpaveikt":8017,"Ġfilmai":8018,"Proj":8019,"Ġmati":8020,"ĠbÅ«vniecÄ«bas":8021,"ĠstilÄģ":8022,"Rakstur":8023,"inÄģtÄģ":8024,"Ġpretim":8025,"ĠatpÅ«sties":8026,"Ġinteresantas":8027,"Ġdistances":8028,"ĠrozÄģ":8029,"ĠskolÄĵni":8030,"Pus":8031,"Ġ'":8032,"ieÅ¾u":8033,"ĠriÅĨ":8034,"Ġpieliek":8035,"Ġkautk":8036,"ĠvÄĵrot":8037,"Ġsatrauk":8038,"ĠlabÄģka":8039,"ĠnopÄĵrk":8040,"Ġbeigu":8041,"ĠierÄ«Äįu":8042,"ĠizglÄ«tÄ«bu":8043,"ĠtehnoloÄ£ijÄģm":8044,"ĠmÄ«klu":8045,"ĠpienÄģkums":8046,"ĠiestÄģde":8047,"ĠdzÄĵrienu":8048,"Ġapgroz":8049,"Svar":8050,"iÄ·is":8051,"Äĵls":8052,"ĠSony":8053,"ĠÄįetriem":8054,"Ġattieksme":8055,"ĠinstitÅ«ciju":8056,"Ġuzglab":8057,"Ġsild":8058,"Ġnegad":8059,"Äģtie":8060,"Ġtrakt":8061,"efox":8062,"Ġbrend":8063,"Ġhot":8064,"ĠkrÄģsÄģ":8065,"Ġdators":8066,"ĠatvÄĵl":8067,"Ġiespaidu":8068,"ĠrÄ«cÄ«bu":8069,"Ġsumma":8070,"valsts":8071,"ates":8072,"iekas":8073,"ĠapÅĨÄĵm":8074,"ĠspÄĵs":8075,"ĠÅ¡Ä·Ä«r":8076,"Ġpretend":8077,"ĠiekÄ¼auj":8078,"ĠrÄ«koties":8079,"ĠslimÄ«bu":8080,"Ġciemos":8081,"Ġpipari":8082,"ĠpamÄĵÄ£inÄģt":8083,"Nod":8084,"Ġpiens":8085,"inoÅ¡a":8086,"ÄģdÄģm":8087,"zÄ«mÄĵ":8088,"Ġzeme":8089,"ĠvadÄ«t":8090,"ĠlabÄģkÄģ":8091,"Ġaugstskolas":8092,"Ġpubliski":8093,"Ġizraisa":8094,"ĠmÄ«klas":8095,"Meit":8096,"VI":8097,"dams":8098,"okhol":8099,"ĠvÄĵlies":8100,"Ġiesaka":8101,"riÅ¡":8102,"ĠOr":8103,"vert":8104,"ĠlapÄģm":8105,"Ġdzimt":8106,"Ġefektu":8107,"Ġrespond":8108,"Ġejam":8109,"ĠtrÄ«":8110,"stÄģst":8111,"Ġuzp":8112,"ozi":8113,"maÅĨa":8114,"ĠÄĵdien":8115,"ance":8116,"ĠtÄ«klos":8117,"ĠizstrÄģdÄģtÄģj":8118,"ĠnolÄĵma":8119,"ĠsareÅ¾Ä£Ä«t":8120,"DroÅ¡i":8121,"ĠpÄģrmaiÅĨas":8122,"55":8123,"Ġmeita":8124,"Ġrat":8125,"ilka":8126,"Ä·ert":8127,"Ġzag":8128,"Ġmanam":8129,"Ġmiltus":8130,"ĠÄ«paÅ¡umÄģ":8131,"Ġagri":8132,"ĠtelpÄģs":8133,"ĠeÄ¼Ä¼u":8134,"Pievien":8135,"utÄģtu":8136,"ws":8137,"Ġkaun":8138,"Å«rÄ«":8139,"Ġklik":8140,"Ġsaprastu":8141,"Ġsievu":8142,"ĠuzmanÄ«ba":8143,"Ġauduma":8144,"Andr":8145,"Ġelektronisko":8146,"Ġtrases":8147,"Noteikti":8148,"Ġsuns":8149,"Ġburtiski":8150,"Bild":8151,"LA":8152,"Pu":8153,"aÅĨu":8154,"onst":8155,"iskai":8156,"ĠpÄģrz":8157,"ĠMur":8158,"Ġsapul":8159,"ĠpriekÅ¡lik":8160,"IzvÄĵl":8161,"ĠpiedÄģvÄģja":8162,"Ġnodarbojas":8163,"ĠnepiecieÅ¡amÄ«bu":8164,"ĠizbaudÄ«t":8165,"Ab":8166,"NS":8167,"Tuv":8168,"ole":8169,"Ġstiep":8170,"ĠviÅĨÄģm":8171,"ĠreÄģl":8172,"ocijas":8173,"Ġveidojot":8174,"ĠcenÅ¡os":8175,"Ġtelefoniem":8176,"ĠstundÄģs":8177,"Ġaktos":8178,"ĠspeciÄģlistu":8179,"ĠnokÄ¼Å«t":8180,"ĠArt":8181,"noteikumi":8182,"Ġdetaliz":8183,"ĠuniversitÄģtes":8184,"Piln":8185,"ĠÄģdu":8186,"Ġmetrus":8187,"oth":8188,"otus":8189,"inn":8190,"adu":8191,"Äĵka":8192,"ĠPirm":8193,"ĠÅ¡of":8194,"ĠizdomÄģju":8195,"ĠvidÄĵjÄģ":8196,"ieÅ¡us":8197,"Ġizmantoti":8198,"Ġalgas":8199,"ĠÄ«stais":8200,"glÄģb":8201,"UzÅĨÄĵm":8202,"Ġprodukta":8203,"Ġpakalpojumiem":8204,"Ġteikts":8205,"ĠdzÄ«vokÄ¼a":8206,"Ġbiroj":8207,"tie":8208,"ĠlÄģ":8209,"Äĵjai":8210,"Ġdzert":8211,"ĠreaÄ£":8212,"Ġpasta":8213,"Ġnosl":8214,"ĠielÄģm":8215,"Åªd":8216,"ĠieplÄģn":8217,"Ġatkritumu":8218,"VD":8219,"bis":8220,"ĠlÄ«dzs":8221,"ĠTe":8222,"ĠTh":8223,"ĠjaunajÄģ":8224,"eselÄ«bas":8225,"Ġvariantu":8226,"ĠcerÄ«bas":8227,"ĠportÄģlu":8228,"Ġmeistar":8229,"Ġlin":8230,"omÄģts":8231,"inÄģÅ¡anos":8232,"ĠpazÅ«d":8233,"ĠmÄĵÄ£inÄģja":8234,"ĠgarÅ¡vielas":8235,"Ġatceras":8236,"ĠdzÄ«vokli":8237,"ĠtÄĵva":8238,"Ġapk":8239,"ĠzinÄģÅ¡anu":8240,"ĠTel":8241,"Ġdivreiz":8242,"Ġbrauciens":8243,"ĠsÄĵdÄĵja":8244,"Ġziedu":8245,"Ġraksturo":8246,"ĠbaudÄ«t":8247,"ĠstruktÅ«r":8248,"ĠĠĠĠĠĠĠĠĠĠĠĠĠĠĠĠĠĠĠĠĠĠĠĠĠĠĠĠĠĠĠĠĠĠĠĠĠĠĠĠĠĠĠĠĠĠĠĠĠĠĠĠĠĠĠĠĠĠĠĠĠĠĠĠ":8249,"Ġbaigi":8250,"Ġsint":8251,"usÄ«":8252,"ĠizvÄĵr":8253,"Ġpatlaban":8254,"ĠtraÄ£":8255,"ĠTim":8256,"ĠiekÄ¼au":8257,"ĠprogrammÄģ":8258,"ĠtumsÄģ":8259,"Saska":8260,"BeigÄģs":8261,"ĠnenozÄ«mÄĵ":8262,"bez":8263,"Ġsien":8264,"Ġmist":8265,"Ä¼Äģva":8266,"ĠrÅ«g":8267,"Ġiepat":8268,"ĠvÄĵlmes":8269,"ĠRSS":8270,"ĠTÄģ":8271,"ĠlietÄģ":8272,"ĠjÄģbrauc":8273,"ĠJÅ«su":8274,"ĠbÅ«tÄ«bÄģ":8275,"ĠiepriekÅ¡ÄĵjÄģs":8276,"Ġbraucu":8277,"ĠaizgÄģja":8278,"Ġglezn":8279,"jÅ«t":8280,"kor":8281,"Ġsoda":8282,"andr":8283,"Ġdinam":8284,"Ä«cijÄģm":8285,"ĠlielÄģkas":8286,"Ä«gÄģko":8287,"ĠsvÄĵtkiem":8288,"ĠsaskaÅĨ":8289,"Neviens":8290,"ĠÅħujor":8291,"aa":8292,"eed":8293,"Ġbedr":8294,"Ġnemit":8295,"iti":8296,"ieÅ¾i":8297,"Ġrunas":8298,"ĠiestrÄģd":8299,"ĠattÄ«stÄ«bai":8300,"ĠdiÅ¾":8301,"ÄģjuÅ¡ies":8302,"ĠbrÄ«nums":8303,"Darba":8304,"rastrukt":8305,"ĠÄįu":8306,"Ġtant":8307,"Ġfas":8308,"skÄģb":8309,"ĠSv":8310,"ĠAm":8311,"Ġklim":8312,"ĠvairÄģkkÄģrt":8313,"ĠÄ«paÅ¡Ä«bas":8314,"Ġamata":8315,"ĠzinÄģmu":8316,"Ġstudijas":8317,"paraug":8318,"ĠdeputÄģtu":8319,"Ġinfrastrukt":8320,"ĠeÄ¼Ä¼as":8321,"ĠlÅ«pu":8322,"ĠdzelzceÄ¼a":8323,"AM":8324,"Google":8325,"Toreiz":8326,"cin":8327,"oÄį":8328,"ament":8329,"oras":8330,"olÅ«":8331,"ĠlÄ«dzÄģs":8332,"Ġdaru":8333,"Ġgaismu":8334,"PatÄ«k":8335,"Ġpiecu":8336,"Nem":8337,"Or":8338,"Ġai":8339,"anÅ¾":8340,"ÄģdÄģs":8341,"Ġpaskr":8342,"Ġraksti":8343,"lietas":8344,"ĠatÅ¡Ä·irÄ«bÄģ":8345,"Ġsviests":8346,"ĠmirklÄ«":8347,"StÄģ":8348,"ĠvÄ«na":8349,"Ġml":8350,"Ġmoc":8351,"Ġjauka":8352,"Ġvistas":8353,"ica":8354,"Ä«siet":8355,"ĠGB":8356,"ĠattiecÄ«gÄģ":8357,"Ġnozieg":8358,"Katram":8359,"ĠtukÅ¡":8360,"Ġĉĉĉĉĉ":8361,"dir":8362,"ĠsejÄģ":8363,"ĠmaÄį":8364,"ints":8365,"Ġgrau":8366,"api":8367,"ĠizkÄģp":8368,"irtu":8369,"ĠpÄģriet":8370,"Ġaizdev":8371,"Å«ku":8372,"Ġnebeidz":8373,"ÄĵtÄģjam":8374,"Ġnezin":8375,"Ġinternets":8376,"ĠvÄ«rieÅ¡a":8377,"Ġezera":8378,"ĠsagaidÄ«t":8379,"ĠmarÅ¡rutu":8380,"Ġpuisis":8381,"septembrÄ«":8382,"sur":8383,"ĠvÄĵja":8384,"ienÄĵ":8385,"tud":8386,"ong":8387,"ĠzÄģb":8388,"Ġkurienes":8389,"Ġsteig":8390,"Ġieteikt":8391,"Ġkatrai":8392,"ektors":8393,"Ä«ds":8394,"Äģzijas":8395,"Ġidenti":8396,"ĠgrÅ«tÄģk":8397,"Ġnotikumi":8398,"ĠjÄģdomÄģ":8399,"Ġkreisi":8400,"ĠsastÄģvdaÄ¼as":8401,"ĠsajÅ«smÄģ":8402,"VienÄģ":8403,"Ġdob":8404,"ĠneÅ¾Äĵl":8405,"Äģro":8406,"ĠMaz":8407,"Ġdivos":8408,"ĠnoteiktÄģ":8409,"eÄ£istr":8410,"Ġoktob":8411,"ĠmÄ«lestÄ«bas":8412,"ÂłÂłÂłÂł":8413,"Ġdispl":8414,"Ġmetro":8415,"ĠPSRS":8416,"Ac":8417,"ho":8418,"urb":8419,"Ġizlik":8420,"ĠparkÄģ":8421,"Ġielikt":8422,"Äģnija":8423,"Ġdarbos":8424,"ĠVSK":8425,"iegt":8426,"Ġautora":8427,"ĠjautÄģjumos":8428,"ĠdabÄģ":8429,"ĠraÅ¾otÄģji":8430,"ĠformÄģtÄģ":8431,"ĠskrÄĵjienu":8432,"Ġpartiju":8433,"ceÄ¼Äģ":8434,"ĠjebkurÅ¡":8435,"ĠpalielinÄģt":8436,"Ġneapmier":8437,"ĠkompÄģniju":8438,"Ġikvienam":8439,"Ġmuti":8440,"ĠneiespÄĵj":8441,"Ġfirmas":8442,"MW":8443,"Ġpatur":8444,"okus":8445,"Ġiesk":8446,"icion":8447,"Ġsalik":8448,"Ġ1000":8449,"Ġpunkti":8450,"ĠaÄ£entÅ«ra":8451,"Ġvilcienu":8452,"ASV":8453,"Foto":8454,"kÄģm":8455,"oÄ·":8456,"pol":8457,"pul":8458,"ĠrÄ«s":8459,"ĠpatstÄģv":8460,"Ġietur":8461,"Ġ2002":8462,"ĠielÄģs":8463,"ĠreklÄģm":8464,"ĠFran":8465,"Ġpiekrit":8466,"Daudzi":8467,"ĠtrasÄĵ":8468,"ĠizvairÄ«ties":8469,"Ġyou":8470,"ÄģÅ¾as":8471,"Ġses":8472,"ĠdÄ«":8473,"ĠgÄģju":8474,"Ġatdzes":8475,"Ġplaukt":8476,"ĠattiecÄ«bÄģm":8477,"ĠmobilÄģ":8478,"ĠkomentÄģru":8479,"ĠjÄģatzÄ«st":8480,"Ġtendence":8481,"ĠAugst":8482,"nÄģv":8483,"Ġsomas":8484,"atik":8485,"Ġnepr":8486,"ĠpÄģrvar":8487,"Ġstim":8488,"Ġjaunajiem":8489,"Ġpiedev":8490,"Ġ32":8491,"Ġprocentu":8492,"ĠbrÄ«vu":8493,"ĠjÄģpÄģr":8494,"ĠslimnÄ«cas":8495,"ĠizÅ¡Ä·irts":8496,"ĠSatversmes":8497,"ĠitÄģ":8498,"apkÄģrt":8499,"Ġdaudzu":8500,"ĠsÄģks":8501,"ĠCom":8502,"igr":8503,"Ġorganis":8504,"Inform":8505,"malc":8506,"ĠierÄ«ce":8507,"Ġmuzeja":8508,"Ġneaizmir":8509,"Ġignor":8510,"saist":8511,"ĠvÄģra":8512,"Ġsodu":8513,"ertu":8514,"Ġtrij":8515,"ĠTall":8516,"ĠkvieÅ¡u":8517,"Ġinternet":8518,"ĠbildÄĵm":8519,"ĠplaÅ¡Äģk":8520,"ĠjÄĵga":8521,"ĠmedicÄ«nas":8522,"ĠMÄģris":8523,"Ġnabadz":8524,"Ad":8525,"Ka":8526,"SvÄĵt":8527,"aÅĨem":8528,"utu":8529,"Ġkg":8530,"ĠpÄģrvÄĵrt":8531,"okÄ¼u":8532,"ĠlietotÄģjam":8533,"ĠvecÄģs":8534,"katÄģs":8535,"Ġmaksu":8536,"Ġnenorm":8537,"runis":8538,"Pateic":8539,"ĠStarp":8540,"Ġautore":8541,"Ġigau":8542,"aprÄ«lÄ«":8543,"Sapr":8544,"slÄĵg":8545,"tik":8546,"Ġtilt":8547,"Ġlau":8548,"ĠjÅ«l":8549,"ĠjÅ«n":8550,"ĠrÄ«ts":8551,"Ġveidiem":8552,"ĠatpÅ«t":8553,"Ġprasmes":8554,"ĠmaÅ¡Ä«na":8555,"Ġnepatika":8556,"Ġaizdomas":8557,"ĠlÄ«nijas":8558,"Ġaizbraukt":8559,"ÂłĠĠÂł":8560,"Ġmud":8561,"Ġkok":8562,"Ġkoks":8563,"ĠLe":8564,"Äģne":8565,"oper":8566,"Ġizveidota":8567,"ĠnorÄģdÄ«t":8568,"ĠnÄģkamais":8569,"Ġnopirku":8570,"Ġbasket":8571,"ĠmaksimÄģli":8572,"Ġeksperiment":8573,"ĠelektroenerÄ£ijas":8574,"Ġtol":8575,"ĠsÄģ":8576,"ĠrÄ«v":8577,"ĠvienkÄģrÅ¡u":8578,"Ġbalvu":8579,"Ġmalu":8580,"berga":8581,"Ġteritoriju":8582,"ĠskaÅĨu":8583,"Ġpunktus":8584,"ĠuztaisÄ«t":8585,"Ġangliski":8586,"75":8587,"Ġdram":8588,"iemÄĵr":8589,"ories":8590,"Ġproduc":8591,"ĠBe":8592,"eksu":8593,"ĠrobeÅ¾u":8594,"Ġkoncertu":8595,"Ġatskait":8596,"Ġnedzird":8597,"ĠtemperatÅ«ra":8598,"Ġstatistikas":8599,"ĠarhitektÅ«ras":8600,"ĠpalasÄ«t":8601,"ĠgrÄģmatvedÄ«bas":8602,"Balt":8603,"tml":8604,"isu":8605,"Äģrus":8606,"Ġpiev":8607,"odamies":8608,"ick":8609,"ibr":8610,"Ġgarlaic":8611,"Ġkarte":8612,"ĠpienÄģkumus":8613,"PasÄģk":8614,"ĠenerÄ£iju":8615,"Ġdusm":8616,"ĠbilÅ¾u":8617,"ĠtomÄģtu":8618,"ĠsÄģcis":8619,"Ġlent":8620,"ĠjÅ«tu":8621,"Ġapsar":8622,"olej":8623,"ersÄ«":8624,"ĠNordea":8625,"vietÄģ":8626,"ĠpÄģrdoÅ¡anas":8627,"ĠtrÅ«kumu":8628,"Ġalbums":8629,"ĠvelosipÄĵdu":8630,"ĠnekavÄĵjoties":8631,"cijai":8632,"sird":8633,"Äĵjams":8634,"ones":8635,"ĠfrÄģ":8636,"ĠizdomÄģt":8637,"Ġveikts":8638,"Ġsagaida":8639,"ĠgadÄ«jums":8640,"Atceros":8641,"Ġmatiem":8642,"ĠmÄĵneÅ¡os":8643,"Ġnegribas":8644,"Ġkonstruk":8645,"Ġintel":8646,"Ġcitrona":8647,"Ner":8648,"ĠtÄĵt":8649,"inter":8650,"Ġuzkar":8651,"ĠlabvÄĵl":8652,"ĠturÄĵt":8653,"Ġrakstus":8654,"ĠbÅ«tisk":8655,"Att":8656,"Apm":8657,"ĠpaÅ¡valdÄ«ba":8658,"ĠmateriÄģli":8659,"ĠcentÄģs":8660,"Ġsekundes":8661,"Med":8662,"MeÅ¾":8663,"Vasar":8664,"ype":8665,"ĠjÅ«rÄģ":8666,"Äĵrijas":8667,"Ġpieeju":8668,"Ġtraki":8669,"ĠpaÅ¡s":8670,"ĠattiecÄ«bÄģs":8671,"ĠÄ£Äĵrb":8672,"ÄĢtr":8673,"Ġvirsu":8674,"Ġstandartu":8675,"punktÄģ":8676,"TE":8677,"inoÅ¡u":8678,"Ġrul":8679,"ĠprÄģta":8680,"Ġkrast":8681,"ĠaugÄ¼u":8682,"Ġvada":8683,"Ġbrauciena":8684,"Ġtramvaj":8685,"otajiem":8686,"Ġgredz":8687,"ĠpalÄ«dzÄĵja":8688,"ĠbrÄ«vÄ«bas":8689,"Ġavots":8690,"ĠkonkrÄĵtÄģ":8691,"ĠpozitÄ«vi":8692,"________":8693,"nev":8694,"Ġseja":8695,"ide":8696,"Ġizdosies":8697,"ĠvajadzÄĵs":8698,"Ġabon":8699,"ĠvÄĵstuli":8700,"Ġmirst":8701,"ĠizmaiÅĨÄģm":8702,"novembrÄ«":8703,"ĠJuris":8704,"ĠpietrÅ«kst":8705,"otÄģm":8706,"Ġnepras":8707,"Ä«gajai":8708,"ĠpÄģrm":8709,"ĠesoÅ¡Äģs":8710,"ĠÄ¼aus":8711,"smÄĵ":8712,"ĠpilnvÄĵrt":8713,"tiesÄ«bas":8714,"Ġmaksa":8715,"ĠsaistÄ«tas":8716,"Ġveicot":8717,"iÄ·iem":8718,"ĠnepÄģrtraukti":8719,"jut":8720,"ĠnogÄģd":8721,"ores":8722,"izÄģciju":8723,"ovad":8724,"ight":8725,"ĠFin":8726,"ĠÄ«stÄģ":8727,"Ġpadome":8728,"ĠprojektÄģ":8729,"ĠÄ«su":8730,"Ġdiskusijas":8731,"mÄĵn":8732,"Äģtr":8733,"ÄĵtajÄģm":8734,"ĠÅ¡al":8735,"ĠkrÅ«z":8736,"ofes":8737,"ĠCÄĵs":8738,"ĠdÄģrza":8739,"Ġizteikti":8740,"ĠnormatÄ«vajos":8741,"Ġlikumd":8742,"udr":8743,"Ġeju":8744,"ikÄģcija":8745,"ojumos":8746,"auta":8747,"ĠcitÄģd":8748,"Ġietaup":8749,"esties":8750,"Ä«gÄģki":8751,"ĠsabiedrÄ«bai":8752,"ĠAngl":8753,"puses":8754,"Ġ75":8755,"ĠsanÄģcis":8756,"ĠrobeÅ¾Äģs":8757,"ĠieguldÄ«jumu":8758,"ĠkartupeÄ¼u":8759,"ĠmorÄģles":8760,"ĠaplÅ«kot":8761,"ĠledusskapÄ«":8762,"iki":8763,"ĠÄ¼Äģva":8764,"ĠjaunÄģko":8765,"Ġmazi":8766,"Ġnodot":8767,"Ä«zijas":8768,"ĠuzsvÄĵra":8769,"Ġnomier":8770,"ĠStokhol":8771,"OtrkÄģrt":8772,"ĠdÅ¾emp":8773,"Ġbase":8774,"ĠmÄģjaslapÄģ":8775,"bit":8776,"Ġbiedru":8777,"Å«Å¡":8778,"ĠatgrieÅ¾":8779,"Ġspog":8780,"inÄģtos":8781,"ĠII":8782,"ĠintereÅ¡u":8783,"Ġelast":8784,"ĠbrÄ«vprÄģt":8785,"OtrÄģ":8786,"Ġsulas":8787,"ĠreÅ¾Ä«mu":8788,"ĠjÄĵgas":8789,"KomentÄģri":8790,"jÄĵdz":8791,"Ġlauz":8792,"ĠnoÅ¡":8793,"iesmas":8794,"Ġuzliek":8795,"Ä«gajam":8796,"ĠLind":8797,"Ġlaikm":8798,"Ġnepal":8799,"ĠvairÄģkÄģm":8800,"ĠJap":8801,"Ġhor":8802,"ĠradÄ«ja":8803,"ĠnotiekoÅ¡o":8804,"Ġnoteikto":8805,"Ġfiziski":8806,"ĠsadarbÄ«bu":8807,"Ġrindas":8808,"ĠapgrÅ«t":8809,"EM":8810,"Lat":8811,"Vienu":8812,"Ġriep":8813,"opa":8814,"ĠTas":8815,"Ġpusdienas":8816,"ovskis":8817,"Ġpadev":8818,"Ġveicina":8819,"ĠmilzÄ«gu":8820,"ads":8821,"ÄģrÄģs":8822,"erÄ£":8823,"Ä«vo":8824,"ĠdzÄ«voj":8825,"aksu":8826,"ĠpretÄĵji":8827,"Ġsaboj":8828,"ĠgrupÄģs":8829,"ĠmaratonÄģ":8830,"ĠizlasÄ«ju":8831,"Ġpagatavot":8832,"Ġdru":8833,"Ġneied":8834,"ĠieÅĨem":8835,"Äįas":8836,"Ġturpm":8837,"ĠÅ«den":8838,"Ġ250":8839,"Ġalbumu":8840,"Ġnepaman":8841,"ĠtÄĵjk":8842,"ĠKomis":8843,"ĠazartspÄĵÄ¼u":8844,"mÄĵm":8845,"weet":8846,"Ġpod":8847,"Ġniek":8848,"Ġpremj":8849,"ĠAk":8850,"ĠVer":8851,"ĠsapÅĨ":8852,"ĠvadÄ«tÄģju":8853,"ĠOzol":8854,"ĠkÄģpost":8855,"ĠValm":8856,"ĠsimpÄģt":8857,"ĠValmieras":8858,"28":8859,"Ġant":8860,"ĠmÄĵt":8861,"Ä«vÄģ":8862,"Ġfona":8863,"ĠpirmizrÄģd":8864,"Ġkomit":8865,"ĠtiesÄ«bÄģm":8866,"ĠgadÄ«jumi":8867,"ĠdienasgrÄģm":8868,"ĠlatvieÅ¡i":8869,"Ġmirdz":8870,"ĠsmarÅ¾a":8871,"Ġsmaidu":8872,"ĠautomaÅ¡Ä«nas":8873,"ĠFirefox":8874,"39":8875,"bul":8876,"Ġom":8877,"ĠKasp":8878,"ĠnepazÄ«st":8879,"ĠÄģrsta":8880,"ĠskolotÄģja":8881,"ĠkultÅ«r":8882,"Ġepiz":8883,"Ġpacientu":8884,"Ġkalniem":8885,"Ġpaaudzes":8886,"LS":8887,"latv":8888,"Å¡in":8889,"Ġrisk":8890,"apa":8891,"ĠapaÄ¼":8892,"Ġnavig":8893,"uka":8894,"aule":8895,"Ġiekar":8896,"ĠpÄĵtersÄ«":8897,"Ġmeiteni":8898,"Ġpakalpojuma":8899,"VienÄ«gi":8900,"ĠdistancÄĵ":8901,"Ġĉĉĉ":8902,"Rad":8903,"Ġsienu":8904,"Ä«tim":8905,"Ġatalg":8906,"itÄģcijas":8907,"ĠklajÄģ":8908,"ĠvietÄĵjie":8909,"ĠdalÄ«bvalst":8910,"Ġiesniegt":8911,"ĠatgÄģdinÄģja":8912,"quot":8913,"ĠolÄ«veÄ¼":8914,"MÄĵr":8915,"Ä«tÄ«":8916,"ĠzinÄģju":8917,"Ġvientu":8918,"Visb":8919,"Ġlieku":8920,"Ġadv":8921,"Ġmeitas":8922,"Ġnosaukuma":8923,"Ġrecepti":8924,"cipl":8925,"oÅĨiem":8926,"atch":8927,"ĠÅ¡uj":8928,"Ġzar":8929,"ĠTies":8930,"lash":8931,"Ġtuvojas":8932,"ĠjÄģmeklÄĵ":8933,"ĠÄģrstniecÄ«bas":8934,"ĠliteratÅ«ras":8935,"Ġuzmundr":8936,"RaksturvÄģrdi":8937,"Abi":8938,"ÄģÅ¡anos":8939,"Ġtun":8940,"dzi":8941,"Ä«tÄ«gi":8942,"Atcer":8943,"Ġnenol":8944,"ĠnorÄģdot":8945,"Ġgaisma":8946,"Ġmalt":8947,"ĠnedÄĵÄ¼a":8948,"ĠpiemÄĵrots":8949,"ĠklasÄĵ":8950,"Ġsvaigi":8951,"formu":8952,"Ġpabalstu":8953,"ĠatÄ¼aujas":8954,"nozÄ«mÄ«gi":8955,"KS":8956,"kriev":8957,"Ä«rup":8958,"ĠkÅ«":8959,"Ġdedz":8960,"iksÄĵt":8961,"ĠatrÄģd":8962,"ĠatÄ¼auju":8963,"Ġpaiet":8964,"ĠSerg":8965,"ezid":8966,"Ġlielisku":8967,"ĠViÄ¼":8968,"ĠLatvia":8969,"Attiec":8970,"onda":8971,"ĠinstitÅ«c":8972,"ĠsmarÅ¾u":8973,"ĠasociÄģcijas":8974,"Ġpiespiedu":8975,"Eiropas":8976,"komentÄģri":8977,"iÅĨdesmit":8978,"Ġvaic":8979,"ĠzÄģli":8980,"Å«tÄ«ja":8981,"Ġmazg":8982,"ĠjÄģz":8983,"ĠNE":8984,"ĠÅ¡Ä·Ä«v":8985,"Ġsatikt":8986,"ĠmÄ«lu":8987,"ĠkartÄĵ":8988,"ĠautomaÅ¡Ä«nu":8989,"Ġpunktiem":8990,"iklÄģvs":8991,"NO":8992,"illa":8993,"ĠprÄģtu":8994,"Ġziep":8995,"Ġfe":8996,"prÄģ":8997,"Ġmini":8998,"Ġpilnas":8999,"Ġalgu":9000,"ĠattiecÄ«go":9001,"Ġierind":9002,"Ġizbrauk":9003,"Ġdial":9004,"Ġinval":9005,"Ġrupj":9006,"Ġekskurs":9007,"tÄĵt":9008,"atÅ«ra":9009,"Ġneie":9010,"dzÄĵs":9011,"omÄģm":9012,"Ġkleit":9013,"anda":9014,"ĠgrupÄģm":9015,"Ġbeidzies":9016,"Ġzvanu":9017,"ĠjÄģsÄģk":9018,"Ġvelo":9019,"Ġnelielas":9020,"ĠrealizÄĵt":9021,"Ġizklaides":9022,"ĠinstitÅ«cijas":9023,"ĠLVL":9024,"ĠapakÅ¡Äģ":9025,"Ġvag":9026,"Ġveter":9027,"ogÄģ":9028,"Ġattaisn":9029,"Ġgaler":9030,"ĠplÄģni":9031,"ĠapskatÄ«ties":9032,"Ġvasara":9033,"ĠdÄ«vaini":9034,"iha":9035,"jÅ«lijÄģ":9036,"ĠÄĵdamkar":9037,"DR":9038,"pektÄ«v":9039,"Ġniec":9040,"ĠlÄģp":9041,"Ġnoklaus":9042,"ĠizkÄģrt":9043,"Ġnepil":9044,"ĠceÄ¼ojumu":9045,"Ġsievietei":9046,"iÄįs":9047,"fl":9048,"Ġpauz":9049,"Ġkup":9050,"Ġdu":9051,"amat":9052,"ĠKol":9053,"Ġmazie":9054,"andi":9055,"Ġilgterm":9056,"ĠgrÅ«tÄ«bas":9057,"ĠtaisÄ«t":9058,"ĠpienÄģcis":9059,"Ġpusmaratonu":9060,"ĠreÄ£iona":9061,"Ġbikses":9062,"Ġsugas":9063,"Diena":9064,"balt":9065,"celt":9066,"ound":9067,"aiÅĨa":9068,"ĠlomÄģ":9069,"ĠneÅ¡Ä·":9070,"Ġinov":9071,"ieÅ¡a":9072,"ĠvÄĵrtÄĵ":9073,"ĠmÄģcÄģs":9074,"Ġpolitiku":9075,"Ġministra":9076,"Ġsudr":9077,"ĠnormatÄ«vo":9078,"ĠmÄģsa":9079,"ĠKaln":9080,"ĠkriminÄģlproc":9081,"Vajadz":9082,"Ġpiezvan":9083,"red":9084,"ĠvienlÄ«dz":9085,"ĠtrÄģp":9086,"Ġnodib":9087,"Ġvecumu":9088,"lasÄ«t":9089,"raksta":9090,"Ġaugstas":9091,"ĠstrÄģdÄģja":9092,"ojamu":9093,"Ġkilometri":9094,"ĠparalÄĵli":9095,"23":9096,"GandrÄ«z":9097,"Ġtus":9098,"oliem":9099,"ĠzÄ«d":9100,"ĠinÅ¾en":9101,"ĠvÄĵlÄĵtos":9102,"ĠBauskas":9103,"ÅłÄģda":9104,"Ġredzes":9105,"ĠceÄ¼i":9106,"ĠpakÄ¼aut":9107,"ĠÄ«sto":9108,"Ġelpu":9109,"ĠreklÄģmu":9110,"Ġfrak":9111,"ĠskrieÅ¡anu":9112,"ĠapzinÄģti":9113,"ĠpÄģrsteigumu":9114,"ĠuzdÄģv":9115,"Ġrekom":9116,"ĠIgaunijÄģ":9117,"Person":9118,"esp":9119,"ero":9120,"dzÄ«bas":9121,"uto":9122,"ĠHar":9123,"AtÅ¡Ä·ir":9124,"entuzi":9125,"Ġveica":9126,"Ġnagu":9127,"ĠrÄģm":9128,"Äģji":9129,"Ġuzlikt":9130,"aidÄ«ja":9131,"Ġnevain":9132,"Ġlietder":9133,"ĠkopÄ«gi":9134,"Ġvalda":9135,"Ġmasa":9136,"ĠsaimniecÄ«bas":9137,"ĠmateriÄģlus":9138,"ĠsmadzeÅĨu":9139,"mail":9140,"ĠÄģda":9141,"Ġmen":9142,"ĠjÅ«ru":9143,"ĠizÅ¡":9144,"ĠizÅ¡Ä·":9145,"Äģlie":9146,"odiet":9147,"ĠVÄģcijÄģ":9148,"Ġjaunumiem":9149,"Ġsasp":9150,"ĠpatÄ«kams":9151,"Ġsvaru":9152,"Ġsimtiem":9153,"Ġjebkura":9154,"Katrs":9155,"ĠietekmÄĵt":9156,"ĠÄģbolu":9157,"augustÄģ":9158,"Cer":9159,"aÅĨas":9160,"Ġer":9161,"Ġnaz":9162,"Ä«juÅ¡as":9163,"Ġjauk":9164,"ulas":9165,"okam":9166,"eicies":9167,"Å«zikas":9168,"Ġatpaz":9169,"ĠstÄģvÄģ":9170,"Ġkompon":9171,"Ġnotikums":9172,"Ġietekme":9173,"Ġbrokastis":9174,"ĠPasaules":9175,"ula":9176,"okÅ¡":9177,"Ġdzin":9178,"Äĵdams":9179,"Ġpaklaus":9180,"Ġlasot":9181,"etrs":9182,"ĠvÄĵrtÄĵjums":9183,"ĠWord":9184,"Ġinfl":9185,"Ġrekomend":9186,"mÄĵs":9187,"za":9188,"ĠÅ¡Ä¼":9189,"Å«da":9190,"Ġmammu":9191,"Nevar":9192,"ĠmeklÄĵÅ¡anas":9193,"ĠÄ·ermeni":9194,"ĠpÄģrsteidza":9195,"ĠsaskatÄ«t":9196,"jÅ«nijÄģ":9197,"atÅ«ru":9198,"ĠmierÄģ":9199,"itÄģÅ¡u":9200,"Äģnos":9201,"ĠTevi":9202,"Ġmazajiem":9203,"Ġneskaita":9204,"Ġsasmalc":9205,"Ġpazaud":9206,"lay":9207,"ĠgalvenÄģs":9208,"Ġdokt":9209,"ĠskrieÅ¡ana":9210,"Ġmaizi":9211,"Ġpalikusi":9212,"29":9213,"Ð»":9214,"estr":9215,"ĠgÅ«st":9216,"ĠrÄ«tu":9217,"ork":9218,"ĠskÄģr":9219,"ĠnorÄĵÄ·":9220,"ĠpilsÄĵtÄģs":9221,"Skaist":9222,"ĠnoderÄĵs":9223,"ĠKrievijÄģ":9224,"ĠJelgavÄģ":9225,"strÄģdÄģ":9226,"Ġietilpst":9227,"Kal":9228,"jos":9229,"atnes":9230,"ĠpÄģrlieku":9231,"ĠgrÄģdiem":9232,"ĠlÄ«dzÄ«gas":9233,"Ġlieliem":9234,"Ġmazos":9235,"Ġreize":9236,"ĠbrÄ«Å¾os":9237,"ĠreÄ£istrÄģ":9238,"ĠsaÅĨems":9239,"ĠnÄģkotni":9240,"ĠteorÄĵt":9241,"Ġaustr":9242,"ĠizlÄ«dz":9243,"umul":9244,"Ġkokt":9245,"ente":9246,"Ġmaziem":9247,"krÄ«t":9248,"aigÅ¾":9249,"Ġasinis":9250,"ĠmateriÄģls":9251,"Neko":9252,"Ġadreses":9253,"ĠguÄ¼am":9254,"Ġzvaigznes":9255,"ĠbÄģriÅĨ":9256,"ĠvÄĵstules":9257,"26":9258,"pag":9259,"Ġnogul":9260,"ĠSal":9261,"ĠvecmÄģm":9262,"Ġizmantotas":9263,"ĠÄģrvalst":9264,"Äĵstur":9265,"Ġekspert":9266,"ĠkredÄ«tu":9267,"Ġprojektiem":9268,"Ġlaipni":9269,"Diev":9270,"vers":9271,"Ġkau":9272,"iets":9273,"ĠVar":9274,"ĠDei":9275,"iber":9276,"ĠÅ¡ÄģdÄģm":9277,"ĠiemÄ«Ä¼":9278,"ĠdatorÄģ":9279,"ĠtÄ«kls":9280,"PÄģris":9281,"ĠdÄģvan":9282,"ĠtÅ«ristu":9283,"ĠanalÄ«zes":9284,"33":9285,"ned":9286,"ikÄģs":9287,"ĠLinux":9288,"ĠjaunÄģm":9289,"Ġsievas":9290,"Ġpieaugumu":9291,"Ġstatusu":9292,"ĠnekustamÄģ":9293,"BrÄ«v":9294,"mÄģju":9295,"Ġbau":9296,"Ġuzklaus":9297,"Ä«vas":9298,"Ġsavi":9299,"ags":9300,"Ġatteikties":9301,"ĠrakstÄ«ja":9302,"ĠstÄģsti":9303,"inieka":9304,"Ġsajust":9305,"Ġmodific":9306,"ĠvÄ«ra":9307,"Ġstudentu":9308,"ĠpaziÅĨojumu":9309,"Ġpirkstiem":9310,"ĠÅ¡Ä·Ä«rÄĵj":9311,"27":9312,"jus":9313,"Ġentuzi":9314,"Ġpielik":9315,"Ġapels":9316,"inÄģtÄģju":9317,"ĠJan":9318,"ĠminÄĵju":9319,"luÅ¾i":9320,"Ġsapnis":9321,"ĠskatÄ«tÄģju":9322,"ĠatmiÅĨu":9323,"Ġnumurs":9324,"film":9325,"Ġsaites":9326,"Ġizcelsmes":9327,"ĠjÄģgaida":9328,"TML":9329,"ViÅĨiem":9330,"ĠpÅ«d":9331,"Ġnik":9332,"Ġras":9333,"Äģjusies":9334,"Ġizej":9335,"Ġvairums":9336,"ĠĠĉĉ":9337,"Ġ36":9338,"ĠÄ«sts":9339,"ostas":9340,"ĠrunÄģja":9341,"ĠgaismÄģ":9342,"Ġvelk":9343,"Ġtempu":9344,"limp":9345,"ĠlÄ«niju":9346,"Ġsaiti":9347,"ĠaugÅ¡up":9348,"ĠkonkursÄģ":9349,"ĠRadio":9350,"**":9351,"CrossFit":9352,"Ġo":9353,"orator":9354,"ĠapÅĨem":9355,"Ġaizskr":9356,"ĠklÄ«n":9357,"Å¡Ä·er":9358,"ĠspÄĵkus":9359,"ĠpÄĵtÄ«jumÄģ":9360,"ĠizstrÄģdes":9361,"ĠpÄģrdod":9362,"Ġagr":9363,"Ġgabals":9364,"ĠversijÄģ":9365,"Ġizlases":9366,"Ġfonda":9367,"BieÅ¾i":9368,"MÄĵÄ£":9369,"ĠpÅ«l":9370,"Ġtot":9371,"ish":9372,"tube":9373,"ĠsprÄģ":9374,"Ġreform":9375,"ĠBÄĵrz":9376,"ozÄ«cijas":9377,"Ġveidots":9378,"ĠcenÄģm":9379,"vara":9380,"ĠskolÄģs":9381,"Ġasin":9382,"ĠsadaÄ¼Äģ":9383,"Ġmedikam":9384,"Ġizskata":9385,"ĠprasÄ«bu":9386,"Ġveikals":9387,"Ġatvain":9388,"ĠnÄģkamgad":9389,"Ġkoordin":9390,"ĠStarptaut":9391,"TU":9392,"Ġaks":9393,"ĠvÄ«l":9394,"ĠuzkÄģp":9395,"abas":9396,"ĠarÄ«dz":9397,"Ġlaist":9398,"uns":9399,"Ġpasarg":9400,"aktiski":9401,"mane":9402,"Ġneatliek":9403,"Ġnovirz":9404,"Ġtevis":9405,"Ġavi":9406,"ĠÄģtruma":9407,"ĠapstÄģkÄ¼u":9408,"ĠjÄģnos":9409,"ĠkÄ¼Å«du":9410,"ĠnozarÄĵ":9411,"ĠsmieklÄ«gi":9412,"ule":9413,"ulÄĵt":9414,"ĠlÄ«dzeklis":9415,"Ġnormas":9416,"Ġgaidu":9417,"ĠatÅ¡Ä·irÄ«ba":9418,"Ġistabu":9419,"ĠDieva":9420,"ĠiznÄģca":9421,"ĠarÄ«dzan":9422,"DrÄ«z":9423,"pp":9424,"ĠtomÄģt":9425,"Ġsel":9426,"ano":9427,"ankas":9428,"onÄ«m":9429,"Ġvieni":9430,"ĠMat":9431,"atÄ«vs":9432,"iestu":9433,"ĠlauksaimniecÄ«bas":9434,"ĠUS":9435,"ĠvÄĵsture":9436,"Skaidr":9437,"ĠÅ¡osejas":9438,"Nekad":9439,"ĠdebesÄ«s":9440,"Ġsestdien":9441,"Ġamatpersonas":9442,"ĠpraksÄĵ":9443,"astrof":9444,"Ġkaisl":9445,"SaskaÅĨÄģ":9446,"Sac":9447,"ViÅĨai":9448,"Ġmagn":9449,"ster":9450,"Ġnopr":9451,"Äģras":9452,"Ä£is":9453,"ĠvÄĵlams":9454,"ĠlÄ«dzdal":9455,"ezn":9456,"oze":9457,"ĠvidÄĵjo":9458,"ĠfiliÄģl":9459,"ĠpretÄĵjÄģ":9460,"Ġhron":9461,"ĠiekÄģp":9462,"Ġsatr":9463,"Ġiestat":9464,"ĠzÄ«me":9465,"ĠdÄģrzeÅĨu":9466,"Ġbiedri":9467,"Ġpiparus":9468,"ĠfilmÄģs":9469,"ĠoriÄ£inÄģl":9470,"AP":9471,"Sest":9472,"gÄģr":9473,"iskajos":9474,"iskajam":9475,"okÄģ":9476,"Ġpalai":9477,"ĠiespÄĵjama":9478,"ĠbÅ«sim":9479,"Ġskrop":9480,"ĠskrÄĵjÄĵju":9481,"Ġinstal":9482,"Ġekonomisko":9483,"Ġtauta":9484,"Ġnodokli":9485,"ĠskolÄĵniem":9486,"Ä«Å¡us":9487,"Ġta":9488,"eto":9489,"ĠapdzÄ«v":9490,"olid":9491,"ĠzonÄģ":9492,"Ġmantu":9493,"Ġgreiz":9494,"antus":9495,"ĠjÄģaiz":9496,"Ġskrienu":9497,"Ġmiltu":9498,"vismaz":9499,"ĠtÄĵmÄģm":9500,"ĠanalÄ«ze":9501,"ĠkopÄĵjo":9502,"Ġsummas":9503,"ĠJÄģÅĨa":9504,"Ġpazuda":9505,"%)":9506,"48":9507,"LE":9508,"ĠbÄĵrz":9509,"Äģjumi":9510,"ĠpÄģrmet":9511,"Äįs":9512,"ĠdarbÄ«bÄģ":9513,"Ġlietojot":9514,"Ġ2001":9515,"Ġsvara":9516,"ĠpÄĵtÄ«jumi":9517,"inces":9518,"ĠviesnÄ«cu":9519,"ĠmateriÄģla":9520,"ĠIzglÄ«tÄ«bas":9521,"ĠpedagoÄ£":9522,"nav":9523,"ĠvÄ«n":9524,"ĠvÄ«nu":9525,"ĠlÄĵc":9526,"otnÄĵ":9527,"urv":9528,"Äģle":9529,"tiz":9530,"eiktu":9531,"Äģvu":9532,"ĠMor":9533,"ĠKan":9534,"ĠgarÅ¡a":9535,"Ġpietiks":9536,"oloÄ£isko":9537,"ĠatklÄģja":9538,"ĠmÄĵÄ£inÄģju":9539,"Ġslikts":9540,"ĠÄįetrus":9541,"ĠbiedrÄ«bas":9542,"Ġsilts":9543,"ĠSaeimÄģ":9544,"ĠkuÄ£a":9545,"ĠtraukÄģ":9546,"ĠzeÄ·":9547,"ĠcepeÅ¡krÄģsnÄ«":9548,"36":9549,"Il":9550,"Ġpik":9551,"arta":9552,"ĠminÄĵts":9553,"ĠizmantoÅ¡ana":9554,"ĠpÄģrstÄģvjiem":9555,"Ġsimt":9556,"martÄģ":9557,"Ġapgabal":9558,"Ġpensijas":9559,"Vald":9560,"land":9561,"ÄģÅ¡anai":9562,"Ġnerad":9563,"orld":9564,"ĠzinÄģja":9565,"empl":9566,"ech":9567,"ĠdzÄ«vÄ«bas":9568,"ĠNo":9569,"ĠvadÄ«ba":9570,"Ġmarin":9571,"ĠtuvÄģko":9572,"ĠiztÄĵr":9573,"Ġtirgu":9574,"ĠmeklÄĵjot":9575,"Otrs":9576,"eÄ£et":9577,"Ġresursi":9578,"Ġnaktsm":9579,"ĠpalikuÅ¡i":9580,"ĠpuiÅ¡i":9581,"Ġmiera":9582,"Ġizskr":9583,"ologs":9584,"Ġtostarp":9585,"Ġdzijas":9586,"Ġpasaka":9587,"ÅłÄģdi":9588,"Ġnepas":9589,"ĠEk":9590,"Ġaktris":9591,"Ġautovad":9592,"ĠpagastÄģ":9593,"Ġveikti":9594,"ĠsaÅĨÄĵmis":9595,"ĠtradÄ«cijas":9596,"ĠnonÄģca":9597,"ĠMÄģrtiÅĨÅ¡":9598,"Teik":9599,"sv":9600,"Ġis":9601,"ilu":9602,"ortÄģ":9603,"ĠvisÄģdas":9604,"Äĵku":9605,"Ġpirmos":9606,"ĠVol":9607,"Ġklusi":9608,"oloÄ£iju":9609,"ĠuzsÄģkt":9610,"ĠpaziÅĨo":9611,"ĠkaimiÅĨ":9612,"ĠÅ¡ito":9613,"ĠstÅ«res":9614,"miem":9615,"pantÄģ":9616,"stories":9617,"ĠnokÄģrt":9618,"âĢĿ),":9619,"ĠvadÄ«bÄģ":9620,"ĠieradÄģs":9621,"ĠlÅ«pÄģm":9622,"ĠÄ£imenei":9623,"Sec":9624,"VO":9625,"akÄģm":9626,"ĠieslÄĵdz":9627,"obrauc":9628,"ĠAir":9629,"Ġvakaros":9630,"Ġvilkt":9631,"ĠsaÅĨemÅ¡anas":9632,"ĠÅ¾urnÄģla":9633,"ĠbraukÅ¡anas":9634,"ĠpievÄĵrs":9635,"ĠkolÄĵÄ£iem":9636,"Ġizskan":9637,"ĠLatgales":9638,"Ġieteicams":9639,"Tai":9640,"bÅ«v":9641,"cr":9642,"Ġbenz":9643,"Ġieraug":9644,"ĠpÄģrgÄģj":9645,"inÄģtÄģs":9646,"icstories":9647,"ĠPhone":9648,"ĠVikt":9649,"ĠapmeklÄĵ":9650,"ĠkÄģrtÄ«bas":9651,"ĠdarÄ«ts":9652,"ĠÄ«stam":9653,"ĠsabiedriskÄģ":9654,"ĠsirdÄ«":9655,"Ġizmaksu":9656,"AU":9657,"Ġul":9658,"Ä·im":9659,"Ġgadsimta":9660,"aksta":9661,"Ġrokdarb":9662,"ansamb":9663,"ĠpalÄ«dzÄ«ba":9664,"Ġgatavot":9665,"ĠprogrammÄģm":9666,"ĠiztÄĵl":9667,"Ġaktieri":9668,"ĠatbalstÄ«t":9669,"ĠsanÄģks":9670,"ĠpadomÄģt":9671,"ĠUl":9672,"Ġupur":9673,"Ġugunsk":9674,"Ġnobals":9675,"Ġdurvju":9676,"Ġnenotiek":9677,"Ġtreileris":9678,"Ġaizraut":9679,"JÄģatzÄ«st":9680,"ĠaktivitÄģtÄĵm":9681,"Agr":9682,"dom":9683,"Ġrieb":9684,"Ġredzama":9685,"ĠskatÄ«jÄģs":9686,"Ġprocenti":9687,"Ä«gÄģkie":9688,"ĠattÄ«stÄ«bÄģ":9689,"Ġizdevumus":9690,"griezt":9691,"Ġposmu":9692,"ĠiestÄģdÄĵs":9693,"Jaunais":9694,"ĠienÄģca":9695,"pt":9696,"ĠsÄ«rup":9697,"Ġskar":9698,"Ġaugs":9699,"LÄ«dzÄ«gi":9700,"Ġdokumenti":9701,"Ġautobuss":9702,"Ġstarptautisko":9703,"KurÅ¡":9704,"Ġatdal":9705,"Ġdizainparaug":9706,"Ġpajaut":9707,"Ġaizmig":9708,"ĠperspektÄ«v":9709,"Ðº":9710,"Ġlej":9711,"emt":9712,"ebr":9713,"inÄģÅ¡anÄģm":9714,"ĠbrÄģlis":9715,"ĠdarÄ«ja":9716,"ĠraÅ¾otÄģju":9717,"ĠmainÄ«jies":9718,"ĠsÄĵdÄĵt":9719,"ĠatkÄģrtoti":9720,"Ġloter":9721,"Ġraudz":9722,"Ġskand":9723,"okÄ¼a":9724,"produk":9725,"ĠlabÄģs":9726,"ops":9727,"ega":9728,"Ġsaprata":9729,"ĠierÄĵd":9730,"Ġskaistas":9731,"ĠziÅĨots":9732,"Nesen":9733,"ĠÄģrzemÄĵs":9734,"Pateicoties":9735,"Iel":9736,"Ġtaup":9737,"alo":9738,"Ġnomaz":9739,"Ġjogur":9740,"ĠgrieÅ¾":9741,"ĠatpazÄ«st":9742,"Ġterap":9743,"ĠdalÄ«ties":9744,"Ġiespaids":9745,"ĠdetaÄ¼as":9746,"ĠDaugavas":9747,"ĠFrancijas":9748,"fu":9749,"ph":9750,"Ġogu":9751,"Ġienes":9752,"amÄ«bu":9753,"Ġfav":9754,"Ġfebru":9755,"Ġsavdab":9756,"ĠMon":9757,"epar":9758,"ĠIv":9759,"Ġnevaram":9760,"sÄĵtÄģ":9761,"Ġiepirkt":9762,"Ġpavada":9763,"Ġlietuv":9764,"Ġiecirk":9765,"ĠpakÄģpeniski":9766,"Ġrecepte":9767,"ĠkrÄĵms":9768,"SÄģkotn":9769,"alis":9770,"iesmu":9771,"Ġzelt":9772,"Ġpastu":9773,"istam":9774,"Ġveca":9775,"Ġieliek":9776,"Ġforma":9777,"VarÄĵtu":9778,"Ġredakt":9779,"ĠapbrÄ«n":9780,"Ġmonitor":9781,"ĠInternet":9782,"Ġpudeles":9783,"Konkur":9784,"ĠpÄ«rÄģ":9785,"Kriev":9786,"gabal":9787,"Â°":9788,"Ġspied":9789,"ĠkrÄģp":9790,"aciet":9791,"ĠdzÄ«vÄ«bu":9792,"ĠpaÅ¡nÄģv":9793,"gads":9794,"Ġvecu":9795,"ovi":9796,"Ġslid":9797,"Ġbalvas":9798,"Ġroka":9799,"Ġprocentiem":9800,"Ġsaimnieks":9801,"ĠsalÄ«dzinÄģjumÄģ":9802,"ĠuzmanÄ«bas":9803,"ĠplaÅ¡s":9804,"ĠvarÄĵsim":9805,"ĠdrÄ«zumÄģ":9806,"eÅĨos":9807,"ĠsÄĵÅĨu":9808,"Ġmotoc":9809,"armon":9810,"Ġvienaldz":9811,"ĠnopelnÄ«t":9812,"pap":9813,"rod":9814,"»¿":9815,"ï»¿":9816,"ĠpÄ«p":9817,"umeirop":9818,"ĠvÄĵlamies":9819,"ĠPR":9820,"ĠjaunieÅ¡iem":9821,"Ġpamet":9822,"ĠatbildÄ«bas":9823,"ĠÄĵdiena":9824,"ĠatradÄģm":9825,"Ġfunkcija":9826,"Ġfizisko":9827,"ĠmÅ«Å¾a":9828,"ĠsastÄģvdaÄ¼a":9829,"ĠnosÅ«tÄ«t":9830,"Ġlidostas":9831,"instal":9832,"Ġrezerves":9833,"amer":9834,"orus":9835,"Ġzonas":9836,"opt":9837,"ĠlielÄģm":9838,"Ġnotikt":9839,"ĠBerl":9840,"Ġnepav":9841,"oza":9842,"ĠpavÄĵst":9843,"Ġkatastrof":9844,"ovas":9845,"ĠÄ«paÅ¡as":9846,"Ġlieki":9847,"Ġlauksaim":9848,"ĠnorÄģdÄ«ts":9849,"ĠmalÄģm":9850,"darbÄ«bu":9851,"Ġpolitisko":9852,"Ġ180":9853,"ĠstÄģvoklis":9854,"ĠcÄ«ÅĨa":9855,"ĠkapitÄģla":9856,"Pad":9857,"Sam":9858,"habil":9859,"Ġveln":9860,"Ġtitu":9861,"Ġritu":9862,"ĠskaÅĨ":9863,"ĠplaÅ¡u":9864,"Ġkomers":9865,"Ġhal":9866,"ĠiemÄ«l":9867,"Ġidi":9868,"ĠnenÄģk":9869,"onds":9870,"ĠpiemÄĵru":9871,"ogrÄģfijas":9872,"ĠreÄ£istra":9873,"tein":9874,"ĠaktuÄģl":9875,"Skol":9876,"Ġatsauksmes":9877,"Ġslapj":9878,"ĠkvalifikÄģcijas":9879,"Ġfakult":9880,"ĠLETA":9881,"ĠizklausÄģs":9882,"72":9883,"trauc":9884,"Å«gl":9885,"Ġuzsp":9886,"ekÄ¼us":9887,"Ġnepaz":9888,"ĠDarb":9889,"Ġdabu":9890,"ĠslimnÄ«cÄģ":9891,"Ġizriet":9892,"pilsÄĵtÄģ":9893,"ĠnesanÄģk":9894,"Saj":9895,"Ġbit":9896,"ĠmazgÄģ":9897,"ĠskrÄĵju":9898,"ĠrunÄģjam":9899,"ĠattÄ«stÄģs":9900,"ĠzinÄģma":9901,"ceÄ¼u":9902,"ĠzaudÄĵ":9903,"ĠsÄĵdÄĵ":9904,"ĠdÄģvanas":9905,"ĠmÄĵrÄ·tiec":9906,"Filmas":9907,"Ġvidusskolas":9908,"CeÄ¼Å¡":9909,"RÄ«ga":9910,"kulis":9911,"Ġbied":9912,"Ġguv":9913,"eng":9914,"rauga":9915,"Ġnevien":9916,"ĠsÄģksies":9917,"Ġnospied":9918,"Ġvidei":9919,"Ġsasod":9920,"ĠveikÅ¡anai":9921,"ĠplÄģnÄģ":9922,"inÄģms":9923,"Ġiztikt":9924,"Ġprieka":9925,"ĠtreÅ¡ais":9926,"ĠkonkrÄĵt":9927,"ĠziemeÄ¼":9928,"ĠzÄģle":9929,"Ġsvaigu":9930,"ĠtermiÅĨÅ¡":9931,"ĠnÄģvi":9932,"Neskatoties":9933,"decembrÄ«":9934,"IK":9935,"arh":9936,"Ġstend":9937,"Ġmand":9938,"Ġregl":9939,"ÄģvÄģs":9940,"Äįiem":9941,"Ġieskr":9942,"niecÄ«bai":9943,"Ġskola":9944,"ĠizvÄĵlÄĵjos":9945,"Ġvesels":9946,"ĠmazÄģka":9947,"ĠitkÄģ":9948,"ĠkultÅ«ru":9949,"Ġreklam":9950,"ĠekonomiskÄģs":9951,"Ġklienti":9952,"Ġdraudzene":9953,"ĠaizsardzÄ«bu":9954,"August":9955,"Neliel":9956,"Piet":9957,"Twitter":9958,"mul":9959,"Ġansamb":9960,"Ġnamu":9961,"Ġbun":9962,"ÄģkÄģm":9963,"ĠminÄĵtÄģs":9964,"ĠdaÄ¼Äģs":9965,"ĠHD":9966,"ĠÄ«paÅ¡nieki":9967,"ĠdalÄ«bu":9968,"Ġdodos":9969,"Ġteiksim":9970,"Ġuzdevumus":9971,"Ġfrag":9972,"Ġbiedriem":9973,"Ġdizains":9974,"Ġdiscipl":9975,"ĠÄ·ermenis":9976,"ĠieslodzÄ«juma":9977,"ĠprogrammatÅ«ras":9978,"JÄģsaka":9979,"Kol":9980,"bun":9981,"ĠnamÄģ":9982,"ims":9983,"Ġieskaitot":9984,"ĠAv":9985,"Ġbaltu":9986,"ĠpiekÄ¼u":9987,"ĠportÄģls":9988,"sland":9989,"Ġpacientiem":9990,"ĠBaltic":9991,"ĠZviedrijas":9992,"mÄģc":9993,"nedÄĵÄ¼":9994,"ĠÄģd":9995,"Ġtautu":9996,"Å«Å¡anu":9997,"eka":9998,"Å«tos":9999}